fffffdec
ffffff94
fffffef2
fffffe63
fffffcc1
fffff830
ffffffd1
fffffc9a
fffffe30
fffffec2
fffffe29
fffff9f1
fffffddc
fffffa57
fffffbf6
000001ad
fffffcac
ffffff2c
fffffd18
ffffffde
fffffeef
000000a4
fffffbe3
fffffb07
fffffdc6
fffffc63
fffffb82
fffffc24
fffffeea
fffffd98
fffffbe8
fffffe17
fffff726
fffff8d3
fffffce6
fffff41b
fffff9fd
fffffbc6
fffffb06
fffff83e
fffffa94
fffffd4c
00000037
fffff99f
fffffe03
fffffa4f
fffffb77
fffffabf
fffffd7d
fffffd9e
fffffed7
fffff9b8
fffffba8
fffffeb1
fffffa88
fffff92a
fffffe3e
fffffaa6
000000cc
fffff9e4
fffffb94
fffffaac
fffffec3
fffffdf4
fffff5d3
fffffdbb
fffffc9b
fffffc44
fffffcce
fffffd3e
fffffe31
fffff7e8
fffffdc6
0000017e
fffffc9d
fffffc3b
00000040
fffffaff
fffffc6d
fffffbfa
0000008b
fffffaea
fffffa81
fffffd36
ffffffed
fffffb13
fffff938
ffffff51
fffffd98
fffffb14
fffffc79
fffffceb
0000001d
fffffdc6
fffff8d4
fffffa26
fffffcca
fffffc1b
fffffab2
0000002a
fffff9aa
fffff90e
fffffbca
fffffdf1
fffffbf3
00000031
fffffe80
fffffc7c
fffffe05
fffffc37
00000387
fffffa01
fffffff7
fffffeb5
000000cf
fffffd3e
00000146
fffffcaa
00000068
fffffbed
ffffff70
fffffbdc
fffffa70
fffffe82
ffffff64
fffff9dd
fffffe5d
fffffc83
fffffde0
fffffc4c
fffffd89
fffffd71
fffffc0e
fffffd2d
fffffe1f
fffffd0c
fffffc89
ffffff50
fffffe24
fffffc37
fffffa00
fffffe4d
fffffbfa
fffffc16
fffffe6a
00000026
fffffb79
fffff4e5
fffffe25
fffffcbe
fffffe18
fffffb2c
fffffa20
fffffc2a
fffffc76
fffffd30
fffffc33
fffff952
fffffd14
ffffff3b
fffffb84
fffffd3b
0000001e
fffffbd5
fffffbf7
fffffb30
fffffe27
00000084
fffff86c
0000008c
fffffc5a
0000009b
fffffe24
fffffc1e
fffff6c1
fffffbb2
ffffffa5
fffffddb
000002bf
fffffb18
fffff816
fffffb17
fffffef5
fffff8fe
fffffa40
fffffd44
fffffafa
fffffa1c
fffffeda
fffffe32
fffff761
fffffb0f
fffffea3
fffff89c
fffffe76
fffff8be
fffffed5
0000006a
fffff82d
fffffa9f
fffff7dd
fffffb3a
fffffaf6
fffffd69
fffff647
fffffba6
fffffd57
fffffaff
fffffae0
fffffd78
fffffce5
fffffdab
fffffec7
fffffb14
fffffed4
fffffbc4
fffffd29
fffffa46
fffffd12
fffffca2
fffffb57
fffffc8d
fffffe3a
fffffbc0
000001e4
fffffdd8
fffff6f1
fffffb35
fffffbba
fffffb7c
fffffde8
fffff945
ffffff78
fffffd17
fffff9ee
fffff43a
fffffe83
fffffe97
fffffdb2
fffffc3e
fffff754
fffffd5c
fffffac1
fffffda5
0000015f
fffff8ad
0000023f
fffffbbf
ffffff84
0000002f
fffffe30
fffffe0d
fffffca3
fffff88b
fffffd56
fffff705
fffffb6e
fffffc3e
fffffc24
fffffce2
fffffc76
fffffd0b
fffffd09
fffff955
fffffc71
fffffe86
fffffcce
fffff9da
fffffdd2
fffffc54
fffffa69
fffffbab
fffffbd1
fffffdb4
fffffdf4
fffffc62
fffffde8
fffffe6b
fffffd40
fffffbee
0000000d
fffffb51
ffffff02
fffffa01
ffffff92
fffffb3a
fffffe23
fffffe4b
fffffd0b
fffffc09
fffffa9b
fffffa45
fffff97b
fffff9de
fffffeaa
fffff88f
fffff9fd
000000f5
fffff890
fffffb70
fffffde9
fffffe46
ffffff99
fffffb19
ffffffd2
fffffb43
fffff9a6
fffffae1
fffffc0a
fffffbfc
fffffab8
fffffb6c
fffffd10
fffffe18
fffffd05
fffffb7d
fffffeb5
fffffd7c
fffffec4
fffffae3
fffffaa5
fffffdd3
fffffd4a
0000003f
fffffe68
0000004d
fffffdaa
fffff9f6
fffffd2f
00000098
fffff658
fffffa61
fffffc9c
fffffd87
fffffc50
fffffe89
fffffd46
fffff789
fffffaa9
fffffaea
000000e9
00000080
fffffbbe
fffffec0
fffffbf9
fffffc93
fffffe7f
fffff814
ffffff37
fffffea9
fffffce4
fffff87d
fffffa9f
000001a7
fffffe3a
fffffc5b
fffffee2
fffffd22
fffffff5
fffffbcb
fffff9ca
fffff6b1
fffffd76
fffffc92
fffffe36
fffffbe0
fffff9b9
fffffdb1
fffffe6e
fffffa52
fffff99f
fffffe39
fffffca3
fffff6df
fffffca9
fffffd35
fffffddf
fffffedb
fffffeff
fffffb82
fffffd15
fffffa6e
fffff991
fffffeb5
fffffb2e
fffffb8a
fffffe9f
00000319
fffffe0f
fffffe70
fffffc03
fffffc12
fffffe42
fffffd87
ffffff16
fffffee2
000000a9
fffffe2c
fffffc02
fffffe13
ffffff75
ffffff23
fffffd5e
00000009
fffffd75
fffffc11
fffff9f3
fffffcf2
fffffd5c
fffffae4
fffff835
fffffae7
fffffd22
fffff99a
fffffc23
fffffe78
fffffca9
fffffd58
fffff944
fffffe59
ffffef8e
fffffd70
fffffecc
0000008e
fffffe10
fffff885
fffffb24
fffffcb3
fffff8bd
fffff6d3
fffffa9c
fffffe8c
fffffbe6
00000236
fffffc4f
000000a1
fffffd37
fffff557
fffff5f3
fffffd2e
fffffe1b
00000060
fffffac9
fffff929
ffffff24
fffff8ba
fffffc48
fffffb08
fffffd89
fffffefe
0000041a
fffffaed
fffff6b1
fffffa13
fffffef0
fffffb4a
fffffabd
fffffe43
fffff4f8
fffffefc
fffffa90
fffffc9e
fffffbb6
fffffee0
fffffa40
fffffc12
fffffd94
fffffc25
fffffe0b
fffff428
fffff9f2
fffffceb
fffffba4
fffffdc8
fffffebc
fffff5fe
ffffface
fffffc6d
fffffcba
fffffc77
fffffc87
fffffdc7
fffffdf5
fffffb09
ffffff6b
fffffb12
fffff91d
000001d0
fffffd9c
fffffd01
fffffa6b
ffffffc2
fffffc05
00000175
fffffe80
fffffbb2
fffffd39
fffffdc3
fffffcf3
fffffe54
fffffe07
fffffd8b
fffffb02
fffffbaa
fffff78e
fffffbed
fffffd76
ffffff6a
fffffa53
fffff9b5
fffffc37
fffffc51
