fffffec8
00000270
000000e5
fffffefb
ffffff24
00000124
ffffffba
ffffff93
fffffff2
fffffffd
ffffffdc
ffffffbb
000003bc
ffffff77
000001ad
ffffffd0
ffffffba
ffffff9e
fffffff5
000002c9
ffffffa3
0000018b
000003a2
000004dc
ffffffd4
000000ad
00000297
ffffff08
000000ae
ffffff45
ffffffd6
ffffff3d
ffffffc0
ffffffe7
ffffff11
00000050
00000173
fffffff8
ffffff92
ffffff33
000000f1
ffffff65
ffffffbc
ffffff0e
0000016c
fffffffa
fffffefd
ffffffeb
ffffff81
00000000
ffffff15
ffffff92
fffffff2
ffffff4e
ffffff73
00000001
fffffff5
fffffffa
fffffe80
fffffff2
ffffff59
ffffff3c
ffffffd3
ffffff28
ffffff4c
ffffff30
ffffffa7
ffffffc1
ffffffbc
fffffea4
ffffff1a
ffffffc2
ffffff76
ffffff24
ffffff96
ffffffc7
ffffffa3
ffffffc3
ffffffbe
00000068
fffffefb
fffffef1
ffffff39
ffffff63
ffffffc3
ffffff5d
ffffffc6
ffffffef
ffffff6b
ffffff9a
ffffffa3
ffffff58
ffffff50
ffffffab
00000070
ffffff73
ffffff63
ffffff92
fffffff8
ffffff9a
ffffff7c
ffffff7f
000000ca
ffffff93
ffffffa0
ffffffdd
ffffff3a
ffffffb6
ffffffd3
fffffef4
ffffff51
ffffff63
0000004b
0000002d
ffffffd1
00000021
00000007
ffffff12
00000055
ffffffd9
ffffffe1
ffffffc4
ffffff86
ffffff73
000000e4
ffffff2a
ffffff79
ffffffab
