00000001
00000000
00000000
00000002
00000001
00000000
00000000
00000000
00000000
00000000
00000000
00000000
00000000
00000001
00000000
00000000
00000000
00000000
00000000
00000000
00000000
00000000
00000000
00000000
00000001
00000001
00000000
00000001
00000000
00000001
00000000
00000001
00000000
00000001
00000001
00000001
00000000
00000000
00000000
00000001
00000000
00000001
00000000
00000002
00000000
00000000
00000000
00000001
00000000
00000000
00000002
00000001
00000000
00000001
ffffffff
00000001
00000000
00000000
00000001
00000000
00000000
00000000
00000000
00000001
00000001
00000001
00000000
00000001
00000001
00000000
00000001
00000000
00000001
00000000
00000001
00000000
00000000
00000000
00000002
00000000
00000000
00000001
00000001
00000001
00000000
00000000
00000001
00000001
00000000
00000000
00000000
00000000
00000001
00000000
00000001
00000001
00000000
00000001
00000000
00000000
00000001
00000001
00000000
00000001
00000000
00000000
00000001
00000000
00000002
00000000
00000001
ffffffff
00000000
ffffffff
00000000
00000000
00000000
00000000
00000000
00000001
00000000
00000001
00000001
00000000
00000000
00000001
00000000
00000000
00000000
00000001
00000001
00000001
00000001
00000000
00000000
00000001
00000000
00000000
00000000
00000001
00000001
00000000
00000001
00000001
00000001
00000001
00000000
00000001
00000000
00000000
00000000
00000000
00000000
00000000
00000000
00000000
00000000
00000000
00000000
00000000
00000000
00000000
00000001
00000000
00000000
00000001
00000001
00000000
00000000
00000000
00000001
00000000
00000000
00000000
00000001
00000000
00000001
00000000
00000000
00000001
00000000
00000001
00000000
00000000
00000000
00000000
00000001
00000000
00000001
00000000
00000000
00000000
00000002
00000001
00000000
00000000
00000000
00000001
00000000
00000000
00000000
00000002
00000000
00000001
00000000
00000000
00000000
00000001
00000000
00000001
00000001
00000000
00000000
00000001
00000000
00000000
00000000
00000000
00000000
00000000
00000000
00000000
00000000
00000001
00000001
00000001
00000000
00000000
00000000
00000000
00000000
00000000
00000000
00000000
00000000
00000001
00000000
00000001
00000000
00000001
00000000
00000000
00000000
00000001
00000000
00000001
00000000
ffffffff
00000000
00000001
00000000
00000001
00000000
00000001
00000000
00000001
fffffff9
fffffff9
fffffff5
00000003
fffffffe
fffffffe
00000000
00000008
00000003
fffffffc
fffffff7
00000003
fffffffb
fffffffb
00000000
fffffff5
fffffff4
00000000
fffffff4
00000001
fffffff8
00000003
ffffffff
fffffffd
00000005
00000007
fffffffe
fffffffd
00000003
fffffffe
00000005
ffffffff
00000008
00000004
fffffffb
00000000
00000002
fffffffc
00000002
fffffffd
00000002
00000004
fffffffb
0000000b
ffffffff
fffffffd
fffffff3
fffffff8
00000002
fffffffb
ffffffee
ffffffff
ffffffe9
ffffffff
ffffffff
00000003
fffffffd
00000001
00000004
00000000
fffffffe
00000001
00000008
fffffffd
00000001
fffffff7
00000006
fffffffe
00000007
fffffff9
00000004
00000006
fffffff6
fffffffd
00000003
fffffff9
fffffffa
00000004
00000005
00000001
ffffffff
fffffff7
fffffffc
00000005
fffffffd
00000003
00000000
fffffff7
ffffffff
ffffffff
fffffffe
fffffffe
00000000
00000009
fffffffc
fffffffd
00000001
00000000
00000000
00000007
00000004
fffffffe
00000006
00000007
ffffffed
0000000a
00000001
00000003
ffffffff
00000000
00000000
ffffffff
fffffff7
00000003
fffffffe
00000001
00000000
ffffffff
ffffffff
fffffff7
00000003
fffffffa
00000005
ffffffff
ffffffef
fffffff2
ffffffff
fffffff0
00000004
fffffffe
00000004
00000004
fffffff1
00000002
fffffffa
fffffff6
00000002
00000004
fffffff2
00000006
fffffff3
fffffffe
fffffffb
fffffff4
ffffffff
fffffff0
fffffff9
00000000
00000006
ffffffff
fffffff3
00000000
00000000
00000001
00000002
fffffffd
ffffffff
00000000
00000000
00000011
fffffffa
fffffff8
00000001
ffffffff
00000002
00000001
fffffffd
00000000
ffffffff
00000008
fffffffe
0000000a
00000006
00000002
00000003
00000007
00000007
fffffff9
fffffffd
00000001
ffffffff
fffffff8
00000001
fffffffa
fffffffd
00000004
00000000
fffffff9
fffffff6
fffffffd
fffffffe
fffffffa
00000008
00000000
fffffff7
00000001
00000000
fffffffc
00000006
fffffff9
00000006
00000000
fffffff3
ffffffff
ffffffff
fffffffb
00000006
00000006
00000002
fffffffc
00000000
fffffffc
fffffffb
00000007
00000001
00000000
00000002
ffffffff
fffffff6
ffffffef
00000001
fffffffb
fffffffe
00000002
00000004
fffffff6
fffffffc
00000000
fffffffc
fffffffe
fffffffd
fffffffd
00000001
ffffffff
00000009
00000011
fffffffd
00000009
ffffffff
00000000
00000005
00000002
fffffff2
fffffffa
00000003
ffffffef
00000002
fffffffa
fffffffc
fffffff2
00000005
00000002
fffffffb
00000006
fffffff6
fffffffb
00000009
fffffff6
00000007
00000012
fffffffb
00000008
00000005
0000000b
00000011
00000001
fffffffe
ffffffed
00000000
00000008
00000003
00000011
fffffff4
00000007
00000009
0000001d
fffffff3
00000000
ffffffe4
0000000c
fffffffe
00000003
fffffff5
00000010
00000000
fffffff0
fffffffa
0000001b
00000006
00000003
fffffffd
fffffffd
ffffffe0
00000009
00000010
fffffff6
fffffff9
fffffff4
00000013
0000002a
fffffffe
fffffffa
fffffff0
00000015
00000009
fffffffa
0000000f
00000013
fffffff7
fffffffa
0000000c
00000024
ffffffec
00000014
fffffffc
fffffff7
00000014
00000006
00000001
fffffffc
fffffffe
0000001f
00000006
00000006
fffffff5
fffffff8
00000007
00000009
fffffff3
ffffffee
fffffff0
00000009
ffffffed
ffffffed
00000008
0000000f
fffffffb
fffffff4
0000000d
0000001f
ffffffff
fffffff5
00000004
00000015
0000000e
00000002
fffffffd
ffffffe2
0000000f
ffffffd9
0000000d
0000000e
00000011
00000002
fffffffe
00000005
00000014
00000011
00000016
ffffffed
00000004
0000000c
00000023
00000006
fffffffd
00000000
fffffff9
00000027
fffffffa
00000016
00000009
00000000
00000005
00000002
00000000
fffffff9
fffffff7
fffffff3
0000001f
ffffffe7
00000004
0000000e
00000005
00000009
fffffff9
00000006
0000000c
00000017
00000002
ffffffe3
00000005
00000000
00000008
fffffffa
fffffffb
00000012
00000008
00000028
00000014
00000004
fffffff5
00000007
00000001
00000005
fffffff6
ffffffe6
fffffff4
ffffffef
00000012
fffffff8
0000000e
00000025
00000019
ffffffff
00000007
00000009
ffffffe5
fffffff4
fffffff8
fffffff2
fffffffe
00000007
00000008
fffffff3
fffffffd
00000009
fffffff5
00000002
0000001a
fffffffc
ffffffed
0000001c
00000004
0000003b
fffffff7
00000002
0000000a
fffffff8
0000000c
00000000
00000012
fffffff9
00000012
fffffff9
fffffffd
00000003
ffffffef
0000000e
0000001b
00000004
00000007
0000000c
fffffff2
0000001d
fffffffe
ffffffff
00000015
00000001
fffffffd
0000000b
fffffff0
fffffff3
00000008
00000008
00000003
ffffffee
0000000d
fffffff5
fffffff3
00000013
00000001
00000012
fffffffb
00000012
fffffff6
ffffffff
ffffffeb
00000006
ffffffe0
00000019
fffffff4
0000000d
00000001
0000000e
00000009
fffffff7
00000004
fffffff7
fffffff5
ffffffcf
fffffffd
00000002
ffffffff
00000007
00000009
00000008
fffffff8
00000003
fffffff8
fffffffd
fffffff8
fffffff6
0000000e
00000008
00000011
fffffff4
0000000a
fffffff4
fffffff4
0000000d
ffffffff
fffffff7
00000000
00000001
00000000
00000000
00000001
ffffffff
00000002
00000000
00000000
00000000
00000001
00000000
00000001
00000001
00000000
00000000
00000001
00000000
00000001
ffffffff
00000001
00000000
00000000
00000000
00000000
00000001
00000000
00000000
00000000
00000000
00000000
00000000
fffffffe
00000000
00000001
00000001
00000000
00000000
00000000
00000001
00000000
00000000
00000001
00000000
00000000
00000000
00000001
00000001
00000000
00000000
00000000
00000000
00000002
00000000
00000000
00000000
00000000
00000001
00000001
00000000
00000000
00000000
00000000
00000001
00000000
00000001
00000000
00000000
00000000
00000000
00000000
00000000
00000001
00000000
00000000
00000002
00000001
00000000
00000000
00000000
00000000
00000000
00000000
00000000
00000000
00000000
00000001
00000000
00000001
00000000
00000001
00000000
00000000
ffffffff
00000000
00000000
00000000
00000000
00000000
00000000
00000000
00000000
00000000
00000001
00000001
00000001
00000000
00000000
00000000
00000002
00000000
00000000
00000002
00000000
00000000
00000000
00000000
00000001
00000000
00000000
00000000
00000000
00000000
00000000
00000000
00000001
00000001
00000001
00000000
00000000
00000000
00000000
00000001
00000000
00000001
00000000
00000000
00000000
00000001
00000000
00000001
00000000
00000000
00000000
00000001
00000002
00000002
00000000
00000000
00000000
00000001
00000000
00000001
00000001
ffffffff
ffffffff
00000000
00000000
00000000
00000001
00000001
00000001
00000001
00000000
00000000
00000000
00000000
00000000
00000000
00000000
00000001
ffffffff
00000000
00000001
00000000
00000001
00000000
00000000
00000000
00000000
00000000
ffffffff
00000000
00000000
00000000
00000000
00000000
00000000
00000001
00000000
00000000
00000001
00000000
ffffffff
00000001
00000000
00000000
00000001
00000001
ffffffff
fffffffe
00000000
00000001
00000000
00000000
00000000
00000000
00000000
00000000
00000000
00000000
00000000
00000000
ffffffff
00000000
00000000
00000001
00000000
00000001
00000000
00000000
00000001
00000000
00000000
00000000
00000001
00000000
00000000
00000000
00000001
00000000
00000000
ffffffff
00000000
fffffffe
00000001
00000001
00000001
00000000
00000000
00000000
ffffffff
00000000
00000000
00000000
00000001
00000000
00000000
00000001
00000001
00000000
00000000
00000001
00000000
00000001
00000000
00000002
ffffffff
00000000
00000002
00000001
00000000
00000000
00000000
00000001
00000000
00000000
00000000
00000000
00000001
00000000
00000000
ffffffff
00000000
00000000
00000000
fffffffe
00000001
00000000
00000000
00000000
00000000
00000000
00000000
00000000
00000001
00000000
00000001
ffffffff
00000001
00000002
00000000
00000000
00000000
00000000
00000002
00000000
00000000
00000001
00000003
00000000
00000000
00000000
00000000
00000000
00000000
00000002
00000000
00000000
00000001
ffffffff
00000001
00000000
00000001
ffffffff
ffffffff
00000000
00000000
ffffffff
00000001
00000000
00000001
00000000
00000001
00000001
00000000
00000000
00000000
00000000
00000000
00000000
00000001
00000001
00000000
00000002
00000000
00000000
00000001
00000001
ffffffff
00000000
00000000
00000001
00000001
00000000
00000001
00000000
00000000
00000001
00000000
00000000
00000000
00000000
00000001
00000000
00000000
00000002
00000001
00000000
00000001
00000000
00000000
00000000
00000000
00000000
00000000
00000000
00000000
00000000
00000000
00000000
00000000
00000000
00000000
00000000
00000001
00000000
00000001
00000001
00000000
00000000
00000001
00000000
00000000
00000000
00000000
00000001
00000001
00000001
00000000
00000000
00000001
00000000
00000000
00000000
00000001
00000000
00000000
00000001
00000001
ffffffff
00000000
00000000
00000000
00000000
00000000
00000000
00000000
00000000
00000000
00000000
00000000
00000001
00000000
00000000
00000000
00000001
00000000
00000001
00000000
00000000
00000001
00000001
00000001
00000000
00000000
00000001
00000000
00000000
00000001
00000002
00000000
00000000
00000000
ffffffff
00000001
00000000
00000000
00000000
00000000
00000001
00000000
ffffffff
00000000
00000002
00000000
00000000
00000001
00000002
00000000
00000000
00000000
00000000
00000000
00000001
00000000
00000000
00000002
00000000
00000002
00000000
00000000
ffffffff
ffffffff
ffffffff
00000000
00000001
00000000
00000000
00000001
00000000
00000000
00000000
00000000
ffffffff
00000000
00000000
00000000
ffffffff
00000001
00000000
00000000
00000000
00000000
00000000
00000000
00000000
00000000
00000000
00000000
00000001
00000000
00000000
00000001
00000000
ffffffff
00000001
00000000
00000000
00000002
00000000
00000001
00000000
ffffffff
00000000
00000000
00000000
00000002
00000001
00000001
00000000
00000001
fffffffe
00000004
fffffff4
00000004
00000006
00000002
fffffff4
fffffff2
fffffffc
00000002
fffffff2
0000000e
fffffff3
ffffffff
fffffffa
fffffff1
00000008
fffffffa
00000006
fffffffa
0000001e
00000008
0000000b
fffffff7
00000003
0000000f
00000007
fffffff6
00000004
fffffffc
00000005
fffffff9
0000000b
fffffffc
fffffff9
ffffffea
00000001
fffffffb
fffffffa
fffffffe
00000008
ffffffff
fffffffd
fffffffb
fffffffa
fffffffa
fffffffb
ffffffee
fffffffe
00000002
fffffff8
00000000
fffffff8
00000003
fffffffc
fffffff6
00000002
00000008
ffffffef
00000003
fffffff8
0000000c
00000006
fffffff1
00000003
fffffff7
0000000d
00000004
ffffffff
fffffff8
fffffffc
fffffffc
fffffffc
00000002
fffffff8
ffffffe8
00000000
fffffffa
fffffff5
fffffff4
00000005
fffffffd
00000002
fffffffa
fffffffa
00000001
fffffff7
ffffffff
fffffff6
0000000b
00000003
fffffffe
00000003
fffffffe
00000000
fffffffe
00000003
fffffffa
00000009
fffffff9
00000000
fffffff9
ffffffff
fffffff8
fffffff7
fffffffb
ffffffff
00000013
fffffffe
00000000
00000006
0000000a
ffffffef
00000002
fffffff6
00000002
00000001
00000002
00000005
00000004
0000000c
fffffff5
fffffff4
0000000e
ffffffee
fffffff7
fffffffb
fffffff6
fffffffc
fffffffa
00000009
ffffffff
fffffff8
00000006
fffffffa
fffffffc
fffffffc
00000014
fffffffd
0000000e
ffffffff
00000006
00000000
ffffffe6
00000015
00000003
ffffffed
fffffffb
0000000f
fffffffb
00000009
00000003
fffffff6
fffffffa
ffffffff
fffffff0
ffffffef
fffffffa
fffffff7
00000003
fffffffc
fffffff2
00000007
fffffffd
fffffffb
00000000
fffffffd
00000000
fffffffd
fffffff6
00000010
0000000b
00000001
0000000d
0000000e
00000001
0000000f
fffffffe
00000009
00000005
fffffffd
fffffff3
fffffffd
fffffff9
fffffff7
00000003
0000000a
fffffff8
00000001
00000004
fffffffe
fffffff9
00000009
00000004
ffffffe2
fffffffd
00000005
fffffffd
fffffff7
ffffffff
00000005
00000007
fffffff7
00000002
fffffff8
fffffffe
fffffffe
fffffff0
00000000
0000000f
00000008
fffffff8
fffffffa
fffffff0
ffffffe9
00000003
ffffffed
fffffff4
00000002
fffffff9
0000000f
ffffffff
00000009
00000005
00000013
ffffffef
00000005
ffffffff
00000000
00000008
fffffff6
00000003
0000000e
fffffffe
00000005
00000004
00000007
00000016
0000000e
fffffff7
00000001
fffffffb
00000006
fffffffd
ffffffff
fffffffc
00000006
ffffffff
00000002
fffffff1
00000006
00000007
00000002
fffffffc
fffffffa
ffffffff
00000002
00000000
00000000
00000000
00000002
00000000
00000000
00000000
00000000
00000000
00000000
00000000
00000000
00000000
00000000
00000000
00000000
00000000
00000000
00000000
00000000
00000000
00000000
00000000
00000000
00000001
00000000
00000000
00000000
00000000
00000000
00000001
00000000
00000000
00000001
00000000
00000000
00000000
00000000
00000000
00000000
00000001
00000000
00000001
00000000
00000000
00000000
00000001
00000000
00000000
00000001
00000001
00000000
00000000
ffffffff
00000000
00000000
00000001
00000000
00000000
00000000
00000000
00000000
00000001
00000000
00000001
00000000
00000000
00000001
00000000
00000000
00000000
00000000
00000000
00000000
00000000
00000000
00000000
00000000
00000000
00000000
00000001
00000000
00000000
00000000
00000000
00000000
00000001
00000000
00000000
00000000
00000000
00000001
00000000
00000000
00000000
00000000
00000001
00000001
00000000
00000000
00000001
00000000
00000001
00000000
ffffffff
00000000
00000001
ffffffff
ffffffff
00000000
00000001
00000001
00000000
00000000
00000000
00000000
00000000
00000000
00000001
00000000
00000001
00000000
00000001
00000000
00000001
00000001
00000000
ffffffff
00000001
00000001
ffffffff
00000000
00000000
00000000
00000000
00000000
00000001
00000000
00000000
00000001
00000000
00000000
00000000
00000001
00000000
00000000
00000001
00000000
00000000
00000000
00000000
00000000
ffffffff
00000000
00000000
00000000
00000000
00000000
00000000
00000000
00000000
ffffffff
00000000
00000000
00000000
ffffffff
00000000
00000000
00000000
00000000
00000000
00000000
00000000
00000000
00000000
00000000
00000000
00000000
00000000
00000000
00000000
00000000
00000000
00000000
00000000
00000000
00000000
00000001
00000001
00000000
00000000
00000001
00000000
00000001
00000000
00000001
00000001
00000000
ffffffff
00000000
00000000
00000000
ffffffff
00000000
00000000
00000000
00000000
00000000
00000000
00000001
00000001
00000000
00000001
00000000
00000001
00000000
00000000
00000001
00000000
00000000
00000000
00000000
00000000
00000000
00000000
00000000
00000000
00000000
00000000
00000000
00000000
00000000
00000000
00000000
00000000
00000000
00000000
00000000
00000000
ffffffff
00000000
00000000
00000001
00000000
00000001
00000000
00000001
00000000
00000001
00000000
00000001
00000000
ffffffff
00000000
00000001
00000000
00000001
00000000
00000001
ffffffff
fffffff9
ffffffff
00000002
00000001
00000000
00000004
00000000
00000002
00000002
00000000
00000002
00000003
00000000
00000003
00000000
00000000
00000000
ffffffff
00000002
ffffffff
00000002
00000000
fffffffe
00000000
ffffffff
ffffffff
00000001
00000001
00000000
00000002
00000001
00000000
00000000
00000000
00000001
00000000
00000000
00000000
00000001
00000001
00000000
00000001
00000003
00000000
00000000
00000002
00000001
00000004
00000000
00000001
00000002
00000000
00000001
00000003
00000000
00000003
00000000
00000000
fffffffc
00000000
00000000
ffffffff
00000000
00000000
00000000
00000000
00000000
00000004
00000001
00000001
00000003
00000001
00000000
00000000
00000000
ffffffff
00000001
00000003
00000000
00000004
00000001
00000001
ffffffff
00000003
ffffffff
00000001
00000001
00000001
00000003
00000000
00000001
00000000
00000002
00000000
00000000
00000001
00000000
00000001
00000002
00000003
00000002
00000000
00000000
ffffffff
00000000
ffffffff
ffffffff
00000004
00000001
00000000
00000000
ffffffff
00000001
00000000
00000000
00000000
00000001
ffffffff
00000000
00000003
00000002
00000004
00000002
ffffffff
00000001
00000000
00000000
00000003
00000000
00000000
00000000
00000000
ffffffff
00000001
00000000
00000002
00000000
00000000
00000003
ffffffff
ffffffff
00000002
00000000
00000000
00000001
ffffffff
00000001
00000002
00000002
00000000
00000000
00000001
00000000
00000000
00000001
00000001
00000002
00000002
00000001
00000000
00000002
ffffffff
ffffffff
00000000
00000001
00000002
fffffffe
ffffffff
00000000
00000000
00000001
ffffffff
00000001
00000001
00000000
00000000
ffffffff
00000000
00000001
00000001
00000000
00000000
fffffffe
00000001
00000000
00000000
00000003
ffffffff
00000001
00000000
00000000
00000000
00000000
00000001
00000002
00000001
00000001
00000003
00000000
00000000
00000001
00000000
00000003
00000000
00000000
00000000
00000000
00000000
00000000
fffffffe
00000000
00000002
00000000
ffffffff
00000000
ffffffff
00000001
00000000
ffffffff
00000000
00000001
00000000
00000000
00000001
00000000
00000000
00000002
00000000
00000000
ffffffff
00000002
ffffffff
ffffffff
00000001
00000001
00000000
00000000
00000000
00000000
00000002
00000003
00000000
00000001
00000001
00000002
00000000
00000000
00000001
00000000
00000000
00000002
00000000
00000000
00000000
ffffffff
00000000
00000000
00000000
00000000
00000000
00000000
00000000
00000000
00000000
00000000
00000000
00000000
00000000
00000000
00000000
00000000
00000000
00000001
00000000
00000000
00000000
ffffffff
00000000
ffffffff
00000000
ffffffff
00000000
ffffffff
00000000
00000000
ffffffff
ffffffff
00000000
00000000
00000000
00000000
00000000
ffffffff
00000000
ffffffff
00000000
00000001
00000000
ffffffff
00000000
00000000
ffffffff
ffffffff
00000000
00000000
00000000
ffffffff
00000000
00000001
00000001
00000000
ffffffff
00000000
00000000
ffffffff
00000000
00000000
00000000
ffffffff
ffffffff
00000000
ffffffff
00000000
00000000
00000000
00000000
00000000
ffffffff
00000000
00000000
00000000
00000000
ffffffff
00000000
ffffffff
00000000
00000000
00000000
ffffffff
00000000
00000000
00000000
00000000
ffffffff
00000000
00000000
00000000
00000000
00000000
00000000
00000000
ffffffff
00000000
00000000
00000000
00000000
00000000
ffffffff
00000000
00000000
00000000
ffffffff
00000000
00000000
00000001
00000000
00000000
00000000
00000000
00000000
ffffffff
00000000
00000000
ffffffff
ffffffff
00000000
ffffffff
ffffffff
00000000
ffffffff
ffffffff
ffffffff
00000000
ffffffff
00000000
00000000
00000000
00000000
00000000
00000000
00000000
ffffffff
00000000
ffffffff
00000000
ffffffff
00000000
00000000
ffffffff
00000000
00000000
00000000
00000000
00000000
00000000
00000000
00000000
00000000
00000000
00000000
00000000
00000000
00000000
00000000
00000000
00000000
ffffffff
ffffffff
ffffffff
00000000
00000000
00000000
00000000
00000000
00000001
00000001
ffffffff
ffffffff
00000000
00000000
ffffffff
00000000
ffffffff
00000000
00000000
00000000
00000000
00000000
00000000
ffffffff
ffffffff
00000000
ffffffff
00000000
00000000
00000000
00000000
00000000
ffffffff
00000000
00000001
00000000
00000000
00000000
00000000
00000000
00000000
00000000
00000000
00000000
00000000
00000000
ffffffff
00000000
00000000
00000000
00000000
00000000
00000000
00000000
00000000
00000000
00000000
00000000
00000000
00000000
00000000
00000000
00000000
00000000
00000000
00000000
00000000
00000000
00000000
00000000
00000000
00000000
ffffffff
00000000
00000000
00000001
00000000
00000000
fffffffe
00000000
00000000
00000000
00000000
00000000
00000000
00000000
ffffffff
00000000
00000000
00000000
ffffffff
00000000
00000000
00000000
00000000
00000000
00000000
00000000
00000000
00000000
00000000
00000000
00000000
00000000
00000000
00000000
00000000
00000000
00000000
00000000
00000000
00000000
00000000
00000000
00000000
00000000
00000000
00000000
00000000
00000000
00000000
00000000
00000000
00000000
00000000
00000000
00000000
00000000
00000000
00000000
00000000
00000000
00000000
00000000
00000000
00000000
00000000
00000000
00000000
00000000
00000000
00000000
00000000
00000000
00000000
00000000
00000000
00000000
00000000
00000000
00000000
00000000
00000000
00000000
00000000
00000000
00000000
00000000
00000000
00000000
00000000
00000000
00000000
00000000
00000000
00000000
00000000
00000000
00000000
00000000
00000000
00000000
00000000
00000000
00000000
00000000
00000000
00000000
00000000
00000000
00000000
00000000
00000000
00000000
00000000
00000000
00000000
00000000
00000000
00000000
00000000
00000000
00000000
00000000
00000000
00000000
00000000
00000000
00000000
00000000
00000000
00000000
00000000
00000000
00000000
00000000
00000000
00000000
00000000
00000000
00000000
00000000
00000000
00000000
00000000
00000000
00000000
00000000
00000000
00000000
00000000
00000000
00000000
00000000
00000000
00000000
00000000
00000000
00000000
00000000
00000000
00000000
00000000
00000000
00000000
00000000
00000000
00000000
00000000
00000000
00000000
00000000
00000000
00000000
00000000
00000000
00000000
00000000
00000000
00000000
00000000
00000000
00000000
00000000
00000000
00000000
00000000
00000000
00000000
00000000
00000000
00000000
00000000
00000000
00000000
00000000
00000000
00000000
00000000
00000000
00000000
00000000
00000000
00000000
00000000
00000000
00000000
00000000
00000000
00000000
00000000
00000000
00000000
00000000
00000000
00000000
00000000
00000000
00000000
00000000
00000000
00000000
00000000
00000000
00000000
00000000
00000000
00000000
00000000
00000000
00000000
00000000
00000000
00000000
00000000
00000000
00000000
00000000
00000000
00000000
00000000
00000000
00000000
00000000
00000000
00000000
00000000
00000000
00000000
00000000
00000000
00000000
00000000
00000000
00000000
00000000
00000000
00000000
00000000
00000000
00000000
00000000
00000000
00000000
00000000
00000000
00000000
00000000
00000000
00000000
00000000
00000000
00000000
00000000
00000000
00000000
00000000
00000000
00000000
00000000
00000000
00000000
00000000
00000000
00000000
00000000
00000000
00000000
00000000
00000000
00000000
00000000
00000000
00000000
00000000
00000000
00000000
00000000
00000000
00000000
00000000
00000000
00000000
00000000
00000000
00000000
00000000
00000000
00000000
00000000
00000000
00000000
00000000
00000000
00000000
00000000
00000000
00000000
00000000
00000000
00000000
00000000
00000000
00000000
00000000
00000000
00000000
00000000
00000000
00000000
00000000
00000000
00000000
00000000
00000000
00000000
00000000
00000000
00000000
00000000
00000000
00000000
00000000
00000000
00000000
00000000
00000000
00000000
00000000
00000000
00000000
00000000
00000000
00000000
00000000
00000000
00000000
00000000
00000000
00000000
00000000
00000000
00000000
00000000
00000000
00000000
00000000
00000000
00000000
00000000
00000000
00000000
00000000
00000000
00000000
00000000
00000000
00000000
00000000
00000000
00000000
00000000
00000000
00000000
00000000
00000000
00000000
00000000
00000000
00000000
00000000
00000000
00000000
00000000
00000000
00000000
00000000
00000000
00000000
00000000
00000000
00000000
00000000
00000000
00000000
00000000
00000000
00000000
00000000
00000000
00000000
00000000
00000000
00000000
00000000
00000000
00000000
00000000
00000000
00000000
00000000
00000000
00000000
00000000
00000000
00000000
00000000
00000000
00000000
00000000
00000000
00000000
00000000
00000000
00000000
00000000
00000000
00000000
00000000
00000000
00000000
00000000
00000000
00000000
00000000
00000000
00000000
00000000
00000000
00000000
00000000
00000000
00000000
00000000
00000000
00000000
00000000
00000000
00000000
00000000
00000000
00000000
00000000
00000000
00000000
00000000
00000000
00000000
00000000
00000000
00000000
00000000
00000000
00000000
00000000
00000000
00000000
00000000
00000000
00000000
00000000
00000000
00000000
00000000
00000000
00000000
00000000
00000000
00000000
00000000
00000000
00000000
00000000
00000000
00000000
00000000
00000000
00000000
00000000
00000000
00000000
00000000
00000000
00000000
00000000
00000000
00000000
00000000
00000000
00000000
00000000
00000000
00000000
00000000
00000000
00000000
00000000
00000000
00000000
00000000
00000000
00000000
00000000
00000000
00000000
00000000
00000000
00000000
00000000
00000000
00000000
00000000
00000000
fffffffd
00000000
00000001
ffffffff
00000002
ffffffff
fffffffe
00000000
00000000
ffffffff
00000002
00000000
00000001
00000002
00000000
00000002
00000003
00000000
00000002
00000001
00000000
00000000
00000000
00000001
ffffffff
00000000
00000001
00000000
00000000
00000000
00000000
00000000
00000000
00000000
00000002
00000004
00000000
00000000
00000000
00000001
00000000
00000000
00000000
00000001
00000001
00000001
ffffffff
00000000
00000000
00000000
00000003
00000000
00000000
ffffffff
00000000
00000001
00000000
00000001
00000003
ffffffff
00000003
ffffffff
00000000
00000003
00000000
00000001
ffffffff
00000001
00000000
00000001
00000001
00000000
00000002
00000000
00000002
00000000
ffffffff
00000000
00000000
00000000
00000000
00000000
fffffffe
00000001
00000001
00000000
00000000
ffffffff
00000003
00000000
00000000
00000000
00000001
00000003
00000001
00000000
00000000
00000002
00000001
ffffffff
00000001
00000000
00000000
00000001
00000003
00000001
00000000
00000000
00000000
00000001
00000000
00000000
00000001
00000000
00000000
00000000
00000000
00000000
00000000
00000001
ffffffff
00000002
00000000
00000000
00000001
ffffffff
00000003
00000001
00000000
00000001
00000000
00000000
00000001
00000001
00000002
00000002
00000000
ffffffff
00000003
00000000
00000003
00000000
00000000
00000002
00000001
00000003
00000002
00000000
00000000
00000001
00000000
fffffffd
00000000
00000002
00000000
00000000
00000000
00000000
00000000
00000001
00000002
00000003
00000002
00000001
00000000
00000002
00000000
00000000
00000000
fffffffe
00000002
00000000
00000000
00000001
00000000
00000000
00000002
00000001
00000000
00000001
00000000
00000001
00000001
00000001
00000001
ffffffff
00000000
00000001
00000002
00000000
00000000
00000002
00000000
00000001
00000003
00000001
00000000
00000000
00000000
00000001
00000001
ffffffff
00000000
00000000
00000000
00000001
fffffffe
00000001
00000001
00000000
00000000
ffffffff
00000000
00000002
00000003
00000000
00000001
00000001
00000001
00000001
00000001
00000001
00000000
00000000
00000001
00000002
00000000
00000000
00000000
00000001
00000000
00000002
00000000
00000000
00000000
00000002
00000000
00000002
00000000
00000000
00000001
ffffffff
00000004
00000000
00000001
00000001
00000001
00000001
00000001
00000003
00000000
00000000
00000001
00000000
00000001
00000001
ffffffef
ffffffee
00000002
ffffffe3
fffffff0
fffffff8
fffffffc
00000001
fffffff2
ffffffed
00000003
fffffffc
00000006
ffffffed
fffffff4
00000008
fffffff4
0000000b
00000000
00000004
00000005
fffffff7
0000000a
ffffffff
0000000e
00000006
00000005
ffffffe7
fffffff5
ffffffff
00000004
00000000
00000000
fffffff7
fffffff4
ffffffee
00000012
ffffffef
0000000d
00000017
fffffff1
ffffffe6
00000007
fffffffb
00000009
00000015
ffffffe0
fffffffb
00000010
ffffffe9
0000000f
fffffff6
00000007
00000002
0000000d
fffffff8
0000001e
00000003
0000000a
fffffff6
fffffff2
0000000d
ffffffff
fffffffd
fffffff9
fffffff3
fffffff7
fffffff4
fffffffc
ffffffed
fffffff6
fffffffa
00000002
fffffff5
0000002a
fffffff9
0000000b
00000001
00000030
00000000
fffffff8
fffffffd
0000001c
00000007
00000010
0000000e
fffffff2
00000016
ffffffef
fffffffe
ffffffed
fffffffc
ffffffec
00000013
ffffffed
0000000a
00000014
ffffffea
fffffff1
ffffffea
0000000a
fffffff7
fffffffe
00000005
fffffff2
00000026
00000004
fffffff5
0000000b
fffffff6
fffffff9
fffffff9
00000006
00000009
00000019
0000000d
fffffff8
fffffff9
fffffff9
fffffff3
00000019
ffffffeb
00000016
ffffffe9
ffffffed
00000001
00000008
fffffffd
00000014
fffffffa
fffffff2
ffffffd7
00000005
fffffffd
fffffff2
0000001a
ffffffff
fffffff5
0000000b
00000007
0000001c
00000010
fffffff0
00000010
ffffffed
fffffffd
0000000b
ffffffe2
ffffffd5
0000000a
00000007
ffffffe9
fffffffb
ffffffdc
00000028
fffffff8
fffffffb
00000024
00000006
fffffffc
0000000d
ffffffff
ffffffea
00000036
00000008
ffffffee
fffffff1
ffffffe5
00000002
0000001f
fffffff9
00000018
fffffff6
ffffffdc
00000017
00000017
ffffffff
fffffffe
00000002
fffffff8
fffffff8
ffffffec
00000006
00000019
fffffff5
fffffff8
ffffffff
ffffffec
ffffffdf
00000005
0000001b
0000001a
fffffff3
00000001
fffffff3
ffffffee
fffffff9
fffffffe
0000000b
0000000c
00000009
0000000b
00000002
fffffffc
0000000e
00000003
00000005
fffffff0
fffffff8
00000000
ffffffce
00000008
00000007
fffffff4
fffffff8
fffffffd
fffffff4
fffffff2
fffffff2
fffffff3
00000003
0000000b
00000009
fffffff6
00000013
fffffff5
0000000b
ffffffe4
00000009
00000010
00000002
fffffff2
ffffffe1
00000022
fffffff0
fffffffa
00000005
ffffffe4
00000009
00000014
ffffffea
fffffff0
00000005
0000000c
ffffffee
fffffffc
fffffff2
ffffffdf
00000002
00000009
fffffff3
0000000c
ffffffff
ffffffe6
fffffff7
00000010
00000000
00000000
00000000
00000000
00000000
00000000
00000000
00000000
00000000
00000000
00000000
00000000
00000000
00000000
00000000
00000000
00000000
00000000
00000000
00000000
00000000
00000000
00000000
00000000
00000000
00000000
00000000
00000000
00000000
00000000
00000000
00000000
00000000
00000000
00000000
00000000
00000000
00000000
00000000
00000000
00000000
00000000
00000000
00000000
00000000
00000000
00000000
00000000
00000000
00000000
00000000
00000000
00000000
00000000
00000000
00000000
00000000
00000000
00000000
00000000
00000000
00000000
00000000
00000000
00000000
00000000
00000000
00000000
00000000
00000000
00000000
00000000
00000000
00000000
00000000
00000000
00000000
00000000
00000000
00000000
00000000
00000000
00000000
00000000
00000000
00000000
00000000
00000000
00000000
00000000
00000000
00000000
00000000
00000000
00000000
00000000
00000000
00000000
00000000
00000000
00000000
00000000
00000000
00000000
00000000
00000000
00000000
00000000
00000000
00000000
00000000
00000000
00000000
00000000
00000000
00000000
00000000
00000000
00000000
00000000
00000000
00000000
00000000
00000000
00000000
00000000
00000000
00000000
00000000
00000000
00000000
00000000
00000000
00000000
00000000
00000000
00000000
00000000
00000000
00000000
00000000
00000000
00000000
00000000
00000000
00000000
00000000
00000000
00000000
00000000
00000000
00000000
00000000
00000000
00000000
00000000
00000000
00000000
00000000
00000000
00000000
00000000
00000000
00000000
00000000
00000000
00000000
00000000
00000000
00000000
00000000
00000000
00000000
00000000
00000000
00000000
00000000
00000000
00000000
00000000
00000000
00000000
00000000
00000000
00000000
00000000
00000000
00000000
00000000
00000000
00000000
00000000
00000000
00000000
00000000
00000000
00000000
00000000
00000000
00000000
00000000
00000000
00000000
00000000
00000000
00000000
00000000
00000000
00000000
00000000
00000000
00000000
00000000
00000000
00000000
00000000
00000000
00000000
00000000
00000000
00000000
00000000
00000000
00000000
00000000
00000000
00000000
00000000
00000000
00000000
00000000
00000000
00000000
00000000
00000000
00000000
00000000
00000000
00000000
00000000
00000000
00000000
00000000
00000000
00000000
00000000
00000000
00000000
00000000
00000000
00000000
00000000
00000000
00000000
00000000
00000000
00000000
ffffffde
fffffff0
00000004
ffffffff
ffffffee
00000010
00000005
0000000b
ffffffef
0000000b
fffffff4
00000005
0000001d
fffffff5
fffffff9
fffffff8
ffffffe9
00000004
00000023
00000019
00000009
fffffff4
ffffffeb
fffffffa
fffffff9
00000007
00000002
0000000c
fffffffc
00000004
fffffff8
ffffffea
00000023
00000013
fffffff0
00000016
00000008
00000000
0000000a
ffffffff
0000000b
fffffffe
0000000d
0000000a
ffffffef
00000006
fffffffa
00000008
fffffffe
fffffff1
fffffffb
fffffffe
00000001
0000001a
00000017
ffffffd4
ffffffed
fffffffe
fffffffa
fffffffd
fffffffb
fffffff8
00000003
fffffff9
fffffff9
0000000d
00000004
00000001
ffffffe4
00000039
00000022
fffffff2
fffffff8
00000001
00000007
00000006
fffffffc
0000000f
00000036
fffffff9
00000005
fffffff8
00000002
00000007
00000003
00000000
00000017
ffffffe7
00000009
fffffff7
fffffff2
0000001e
fffffff7
fffffff3
ffffffee
ffffffe5
00000002
ffffffe8
00000015
fffffff8
00000010
fffffff4
0000000d
fffffff0
00000005
0000001f
00000002
0000000e
00000005
00000009
00000004
00000012
ffffffeb
fffffffe
ffffffef
00000013
ffffffee
fffffff9
ffffffee
00000000
0000000b
00000001
fffffff1
fffffffd
00000001
0000000b
00000004
fffffff5
00000003
00000010
0000001d
fffffff9
00000005
00000002
ffffffff
00000002
00000009
ffffffff
fffffff9
00000003
00000017
fffffff3
0000000c
0000000d
00000000
fffffffb
0000000d
fffffffe
00000006
fffffffe
00000016
00000010
fffffffd
ffffffea
fffffff7
00000024
0000000f
00000002
00000014
0000000e
fffffffb
0000000a
0000000a
00000008
fffffffe
fffffffa
fffffff5
00000010
fffffffd
fffffffe
0000001b
ffffffeb
ffffffef
fffffffb
00000004
00000002
fffffff8
fffffff9
fffffffc
00000003
00000000
0000000b
fffffff5
fffffff6
fffffff1
0000001f
fffffff7
00000006
00000007
fffffff6
0000000b
0000000b
0000000d
0000000c
00000002
00000002
00000009
00000011
ffffffff
fffffff8
ffffffed
00000005
00000007
00000008
00000002
00000003
ffffffff
0000000a
00000006
00000007
00000001
fffffff5
ffffffff
fffffffc
fffffff9
ffffffec
ffffffee
fffffffb
fffffff4
00000017
00000000
00000007
00000007
ffffffe9
ffffffef
fffffff7
fffffffc
ffffffe6
00000012
fffffffd
fffffff6
fffffffa
00000003
00000002
00000007
fffffffb
fffffff6
0000000d
ffffffff
0000001e
fffffff6
00000002
00000012
fffffff8
fffffffa
0000001e
00000002
fffffffd
00000001
ffffffe1
00000017
fffffffa
fffffff8
00000001
fffffff7
00000000
00000000
00000000
00000000
00000000
00000000
00000000
00000000
00000000
00000000
00000000
00000000
00000000
00000000
00000000
00000000
00000001
00000000
00000001
00000000
00000000
00000000
00000000
00000000
00000000
00000000
00000000
00000000
00000000
00000000
00000000
00000000
00000000
00000000
00000000
00000000
00000000
00000000
00000000
00000000
00000000
00000000
00000000
00000000
00000000
00000000
00000000
00000000
00000000
00000000
00000000
00000000
00000000
00000000
00000000
00000000
00000000
00000000
00000001
00000000
00000000
00000000
00000000
00000000
00000000
00000000
ffffffff
00000000
00000000
00000000
00000000
00000000
00000001
00000000
00000000
00000000
00000000
00000000
00000000
00000000
00000000
00000000
00000000
00000000
00000000
00000000
00000000
00000000
00000000
00000000
00000000
00000000
00000000
00000000
00000000
00000000
00000000
00000001
00000000
00000000
00000000
00000000
00000000
00000000
00000000
00000000
00000000
00000000
00000000
00000000
00000000
00000000
00000001
00000000
00000000
00000000
00000000
00000000
00000000
00000000
00000000
00000000
00000000
00000000
00000000
00000000
00000000
00000000
00000000
00000000
00000000
00000000
00000000
00000000
00000000
00000001
00000000
ffffffff
00000000
00000000
00000000
00000000
00000000
00000000
00000000
00000000
00000000
00000000
00000000
00000000
00000000
00000000
00000000
00000000
00000000
00000000
00000000
00000000
00000000
00000000
00000000
00000001
00000000
00000000
00000000
00000000
00000000
00000000
00000000
00000000
00000000
00000000
00000000
00000000
00000000
00000000
00000000
00000000
00000000
00000000
00000000
00000000
00000000
00000000
00000000
00000000
00000000
00000000
00000000
00000000
00000000
00000000
00000000
00000000
00000000
00000000
00000000
00000000
00000000
00000000
00000000
00000000
00000000
00000000
00000000
00000000
00000000
00000000
00000000
00000000
00000000
00000000
00000000
00000000
00000000
00000000
00000000
00000000
00000000
00000000
00000000
00000000
00000000
00000000
00000000
00000000
00000000
00000000
00000000
00000000
00000000
00000000
00000000
00000000
00000000
00000000
00000000
00000000
00000000
00000000
00000000
00000000
00000000
00000000
00000000
00000000
00000000
00000000
00000000
00000001
00000000
00000000
00000000
00000000
00000000
00000000
00000002
ffffffff
00000000
00000001
00000001
00000000
00000001
00000000
00000001
00000000
00000000
00000001
00000000
00000000
00000000
00000000
ffffffff
00000000
00000001
00000001
00000001
00000000
00000000
00000000
00000000
00000001
00000000
00000000
00000000
00000001
00000000
00000001
00000001
00000001
00000001
00000000
00000000
00000001
00000000
00000001
00000000
00000001
00000000
00000002
00000000
ffffffff
00000000
00000000
00000000
00000000
00000001
00000001
00000000
00000001
00000001
00000001
00000000
00000000
00000000
00000000
00000000
00000000
00000000
00000001
00000000
00000001
00000000
00000001
00000002
00000000
00000001
00000000
00000000
00000001
00000000
00000001
00000001
00000000
00000000
00000000
00000000
00000000
00000001
00000001
00000000
00000000
00000001
00000001
00000000
00000000
00000000
00000001
00000001
00000000
00000001
00000000
00000000
00000001
00000001
00000000
00000001
00000002
00000000
00000000
00000000
00000000
00000001
00000000
00000001
00000001
00000001
00000001
ffffffff
ffffffff
00000001
00000001
00000000
00000000
00000000
00000002
00000000
00000001
00000001
00000000
00000000
00000002
00000001
00000000
00000001
00000001
00000001
00000001
00000000
00000000
00000000
00000001
00000000
00000000
00000000
00000001
00000001
00000000
00000001
00000000
00000001
00000001
00000000
00000000
00000000
00000000
00000001
00000000
00000000
00000000
00000000
00000001
00000001
00000000
00000000
00000000
00000001
00000000
00000001
00000000
00000000
00000001
00000002
ffffffff
00000000
00000000
00000001
00000000
00000001
ffffffff
00000000
00000000
00000000
00000000
00000000
00000001
00000000
00000001
00000000
00000000
00000000
00000000
00000002
00000001
00000000
00000001
00000000
00000000
00000003
00000000
00000001
00000000
00000000
00000000
ffffffff
00000000
00000000
00000001
00000002
00000001
00000000
00000000
00000000
00000001
fffffffe
00000000
00000001
00000001
00000000
00000000
00000000
00000000
00000000
00000000
ffffffff
ffffffff
00000000
00000000
00000000
00000002
00000002
00000001
00000000
00000001
00000000
00000000
00000000
00000000
00000001
00000000
00000000
00000001
00000000
00000000
00000001
00000000
00000001
00000000
00000000
00000002
00000000
00000001
00000002
00000000
00000000
00000001
00000001
00000001
00000001
00000002
00000001
00000000
fffffffe
ffffffff
00000001
fffffffe
00000001
fffffffe
00000003
00000002
00000000
00000000
00000002
00000000
00000001
00000002
00000000
00000002
00000004
00000000
00000002
00000001
00000004
00000000
00000000
00000002
ffffffff
ffffffff
00000002
ffffffff
00000000
00000001
ffffffff
00000001
00000000
00000000
00000003
00000002
00000000
00000000
ffffffff
00000001
00000000
00000000
00000000
ffffffff
00000002
00000001
00000000
00000002
00000000
00000000
00000003
00000000
00000000
00000000
00000001
00000001
00000000
00000002
00000003
ffffffff
00000005
ffffffff
fffffffe
00000003
00000000
00000002
00000000
00000001
ffffffff
00000000
00000001
00000000
00000002
00000000
ffffffff
ffffffff
ffffffff
00000000
00000000
00000000
ffffffff
fffffffe
00000002
00000000
00000002
00000000
00000002
00000003
00000002
00000000
00000000
00000001
00000000
00000003
00000000
00000000
00000000
00000001
00000000
00000000
00000001
00000000
00000000
00000002
00000003
00000000
00000000
ffffffff
ffffffff
00000002
00000000
00000000
ffffffff
00000000
00000000
00000000
ffffffff
00000000
00000000
ffffffff
00000000
00000002
00000000
00000000
ffffffff
00000000
00000003
00000001
00000000
00000001
00000000
00000000
00000002
00000001
00000001
00000001
00000000
fffffffe
00000002
00000000
00000002
00000001
00000000
00000002
00000001
00000003
00000001
00000000
00000000
00000001
00000002
fffffffe
00000003
00000002
00000001
00000001
00000000
00000000
00000000
ffffffff
00000002
00000003
00000001
00000001
00000000
00000001
00000000
00000000
00000001
00000000
00000001
00000000
ffffffff
00000001
00000001
00000000
00000002
00000001
ffffffff
00000000
00000000
00000002
00000000
00000001
00000001
00000000
00000000
00000002
00000002
00000000
00000000
00000003
ffffffff
00000002
00000003
00000001
00000000
00000000
00000000
00000003
ffffffff
00000000
00000003
00000000
ffffffff
00000001
fffffffe
00000001
00000001
00000000
00000000
00000000
00000000
00000002
00000003
00000000
00000003
00000000
fffffffd
00000002
00000001
00000001
00000000
00000000
00000000
00000001
00000000
00000000
00000000
00000001
00000001
00000002
00000000
00000000
00000001
fffffffd
00000002
00000002
00000001
00000000
00000002
00000000
00000001
00000000
00000000
00000002
00000000
00000000
ffffffff
00000004
ffffffff
00000000
ffffffff
ffffffff
00000002
00000000
00000000
00000000
00000000
00000000
00000000
00000000
00000000
00000000
00000000
00000000
00000000
00000000
00000000
00000000
00000000
00000000
00000000
00000000
00000000
00000000
00000000
00000000
00000000
00000000
00000000
00000000
00000000
00000000
00000000
00000000
00000000
00000000
00000000
00000000
00000000
00000000
00000000
00000000
00000000
00000000
00000000
00000000
00000000
00000000
00000000
00000000
00000000
00000000
00000000
00000000
00000000
00000000
00000000
00000000
00000000
00000000
00000000
00000000
00000000
00000000
00000000
00000000
00000000
00000000
00000000
00000000
00000000
00000000
00000000
00000000
00000000
00000000
00000000
00000000
00000000
00000000
00000000
00000000
00000000
00000000
00000000
00000000
00000000
00000000
00000000
00000000
00000000
00000000
00000000
00000000
00000000
00000000
00000000
00000000
00000000
00000000
00000000
00000000
00000000
00000000
00000000
00000000
00000000
00000000
00000000
00000000
00000000
00000000
00000000
00000000
00000000
00000000
00000000
00000000
00000000
00000000
00000000
00000000
00000000
00000000
00000000
00000000
00000000
00000000
00000000
00000000
00000000
00000000
00000000
00000000
00000000
00000000
00000000
00000000
00000000
00000000
00000000
00000000
00000000
00000000
00000000
00000000
00000000
00000000
00000000
00000000
00000000
00000000
00000000
00000000
00000000
00000000
00000000
00000000
00000000
00000000
00000000
00000000
00000000
00000000
00000000
00000000
00000000
00000000
00000000
00000000
00000000
00000000
00000000
00000000
00000000
00000000
00000000
00000000
00000000
00000000
00000000
00000000
00000000
00000000
00000000
00000000
00000000
00000000
00000000
00000000
00000000
00000000
00000000
00000000
00000000
00000000
00000000
00000000
00000000
00000000
00000000
00000000
00000000
00000000
00000000
00000000
00000000
00000000
00000000
00000000
00000000
00000000
00000000
00000000
00000000
00000000
00000000
00000000
00000000
00000000
00000000
00000000
00000000
00000000
00000000
00000000
00000000
00000000
00000000
00000000
00000000
00000000
00000000
00000000
00000000
00000000
00000000
00000000
00000000
ffffffff
00000000
00000000
00000000
00000000
00000000
00000000
00000000
00000000
00000000
00000000
00000000
00000000
00000000
00000000
00000000
00000000
00000000
00000000
00000000
00000000
00000009
fffffff1
fffffff9
00000003
fffffff8
0000001a
0000000c
ffffffd8
ffffffd7
fffffffd
0000001c
00000003
fffffff4
0000000b
0000000b
0000000e
fffffff4
fffffffe
00000000
00000028
fffffffd
00000003
0000000a
0000001d
fffffff2
fffffff2
00000023
fffffff5
0000000e
fffffffc
00000003
ffffffe6
0000000f
fffffff5
ffffffee
00000002
0000000f
00000018
0000000c
00000007
ffffffd8
00000009
fffffff7
fffffffe
00000028
ffffffe7
00000016
0000000f
00000018
00000010
ffffffdf
00000003
00000023
fffffff7
ffffffdf
fffffff1
ffffffea
0000000f
ffffffdf
ffffffee
00000007
00000004
fffffff1
fffffffc
ffffffed
00000004
fffffff8
0000001c
fffffffe
ffffffe7
ffffffea
00000011
ffffffe4
00000017
fffffffc
ffffffec
0000000b
00000004
ffffffda
0000002f
fffffff0
0000001c
00000010
fffffff7
00000006
0000001f
00000012
ffffffff
00000001
fffffff4
fffffff6
00000014
00000003
fffffffc
00000003
0000000b
fffffff9
fffffffb
fffffff3
ffffffe2
ffffffff
00000023
fffffff3
0000001d
00000009
00000001
0000000b
00000005
00000004
00000006
0000000e
fffffffc
ffffffd8
ffffffef
fffffff7
fffffffb
ffffffe3
ffffffe6
0000000d
ffffffe2
ffffffff
0000001c
0000000c
fffffff4
00000011
ffffffe7
00000013
00000001
0000000a
fffffff1
fffffff3
00000010
00000005
0000000d
fffffff5
0000003c
ffffffef
0000000f
00000003
fffffff1
ffffffdd
00000002
00000013
fffffff2
fffffff6
00000005
00000001
00000004
00000019
ffffffd6
00000005
ffffffe8
fffffffa
ffffffc4
ffffffdd
ffffffc8
fffffffc
ffffffec
00000012
ffffffe8
00000006
fffffff2
fffffff5
fffffff5
fffffffb
00000010
00000007
00000014
00000005
fffffff3
ffffffe8
00000006
00000013
fffffff6
ffffffe9
fffffff0
fffffff7
00000005
00000002
fffffff7
00000009
ffffffff
fffffffb
0000000a
0000000f
fffffff8
00000025
00000006
0000000f
00000005
fffffff6
fffffffa
00000007
00000006
ffffffff
fffffff2
00000016
fffffffd
0000001c
fffffffd
fffffffb
0000000e
ffffffef
fffffffb
fffffffb
ffffffde
fffffff1
00000010
00000002
ffffffff
fffffff7
ffffffea
ffffffda
fffffffd
00000006
00000010
fffffffb
fffffffa
0000001a
00000024
fffffffb
fffffff4
00000004
00000008
ffffffff
fffffffb
00000007
ffffffe3
ffffffff
fffffffb
fffffff0
00000000
ffffffd1
00000018
fffffffe
ffffffe8
0000001c
fffffffc
ffffffee
ffffffee
fffffff1
fffffff8
fffffffd
fffffff1
00000000
00000013
00000007
fffffff4
0000000a
00000003
00000008
00000023
fffffffe
00000008
00000000
fffffffd
00000000
00000000
00000000
00000000
00000000
00000000
00000000
00000000
00000000
00000000
00000000
00000000
00000000
00000000
00000000
00000000
00000000
00000000
00000000
00000000
00000000
00000000
00000000
00000000
00000002
00000000
00000000
00000000
00000000
00000000
00000000
00000000
00000000
00000000
00000000
00000000
00000000
00000000
00000001
00000000
00000000
00000000
00000000
00000000
00000000
00000000
00000000
00000000
00000000
00000000
00000000
00000000
00000000
ffffffff
00000000
00000000
00000000
00000000
00000000
00000000
00000000
00000000
00000000
00000000
00000000
00000000
00000000
00000000
00000000
00000000
00000000
00000000
00000000
00000000
00000000
00000000
00000000
00000000
00000000
00000000
00000000
00000000
00000000
00000000
00000000
00000000
00000000
00000000
00000000
00000000
00000000
00000000
00000000
fffffffe
00000000
00000000
00000000
00000000
00000000
00000000
00000000
00000000
00000000
00000000
00000000
00000000
00000000
00000000
00000000
00000000
00000000
00000000
00000000
00000000
00000000
00000000
00000000
00000000
00000000
00000000
00000001
00000000
00000000
00000000
00000000
00000000
00000000
00000000
00000000
00000000
00000000
00000000
00000000
00000000
00000000
00000000
00000000
00000000
00000000
00000000
00000000
00000000
00000000
00000000
00000000
00000000
00000000
00000000
00000000
00000000
00000000
00000000
00000000
00000000
00000000
00000000
00000000
00000000
00000000
00000000
00000000
00000000
00000000
00000000
00000000
00000000
00000000
00000000
00000000
00000000
00000000
00000000
00000000
00000000
00000000
00000000
00000000
00000000
00000000
00000000
00000000
00000000
00000000
00000000
00000000
00000000
00000000
00000000
00000000
00000000
00000000
00000000
00000000
00000000
00000001
00000000
00000000
00000000
00000000
00000000
00000000
00000000
00000000
00000000
00000000
00000000
00000000
00000000
00000000
ffffffff
00000000
00000000
00000000
00000000
fffffffe
00000000
00000000
00000000
00000000
00000000
00000000
00000000
00000000
00000000
00000000
00000000
00000000
00000000
00000000
00000000
00000000
00000000
00000000
00000000
00000000
00000000
00000000
00000000
00000000
00000000
00000000
00000000
00000000
00000000
00000000
00000000
00000000
00000000
00000000
00000000
00000001
00000000
00000000
00000000
00000000
00000000
00000000
ffffffff
fffffffa
fffffffe
00000004
fffffff8
fffffff9
00000000
0000000b
0000000a
00000006
fffffffd
ffffffbf
00000001
00000000
fffffffc
00000002
fffffff5
ffffffff
00000003
00000006
ffffffff
ffffffff
fffffffd
ffffffff
fffffffe
00000002
00000000
fffffffd
ffffffff
fffffffc
00000006
fffffffc
00000000
fffffffc
00000005
00000001
ffffffff
ffffffff
00000000
00000001
00000009
00000002
00000001
00000032
00000004
fffffff6
ffffffff
0000000f
00000005
00000003
0000000f
00000002
00000009
00000005
ffffffff
fffffffa
00000001
00000002
00000000
00000003
00000002
00000002
00000000
00000000
00000000
fffffffa
00000007
fffffffd
fffffff8
ffffffeb
00000000
00000001
00000004
fffffff9
fffffffd
00000001
fffffffe
00000004
fffffff5
00000001
ffffffff
ffffffff
00000003
fffffffb
ffffffe6
00000000
fffffffc
fffffffb
fffffffe
fffffff6
00000001
00000000
fffffffe
00000002
fffffff3
00000001
fffffffc
fffffffa
00000000
00000000
00000000
fffffffd
00000000
fffffffb
00000005
00000003
00000006
00000003
fffffffe
00000005
00000004
fffffffd
00000002
00000000
00000002
00000010
00000000
fffffff7
ffffffff
00000004
0000000c
00000006
fffffffc
00000005
fffffffc
00000001
ffffffff
fffffffb
00000006
00000014
fffffff6
00000001
00000001
ffffffff
00000003
00000003
fffffffd
00000000
fffffffb
00000001
00000000
fffffffb
fffffff5
00000003
00000003
00000000
00000006
fffffff6
ffffffff
fffffffc
ffffffff
00000005
fffffffc
fffffff6
00000007
ffffffff
00000009
00000001
00000010
00000007
00000000
fffffffb
00000000
00000006
fffffffd
fffffffb
fffffffe
ffffffff
fffffffd
00000005
00000002
fffffff5
ffffffff
ffffffeb
00000001
00000000
0000000a
fffffff6
fffffffc
00000001
00000001
00000009
fffffffc
ffffffff
fffffffc
00000003
00000008
fffffffa
00000001
fffffff3
ffffffff
fffffffc
fffffffd
ffffffff
00000017
ffffffe3
00000000
00000007
00000000
00000005
fffffffe
ffffffff
fffffffa
0000000d
00000000
00000001
fffffffe
00000002
00000004
fffffffd
fffffffb
fffffffa
00000000
00000000
0000001d
fffffffe
ffffffff
00000005
0000000d
00000000
fffffffe
00000016
fffffffd
fffffffd
ffffffff
ffffffff
00000004
00000000
00000016
0000000b
00000002
fffffff9
fffffffd
00000000
00000002
fffffffe
fffffffe
00000009
fffffffd
00000004
fffffffe
0000000a
00000007
fffffffe
fffffffe
00000002
00000002
00000003
fffffffe
fffffffe
00000002
fffffffd
ffffffff
00000002
fffffffe
ffffffed
00000000
00000014
fffffffa
fffffffb
00000005
ffffffec
0000000d
0000000c
0000000d
00000017
fffffff4
0000000b
ffffffe7
fffffffd
00000013
fffffffa
00000015
00000000
ffffffee
00000011
fffffff6
ffffffe8
ffffffda
fffffff5
fffffffc
ffffffe5
0000000a
fffffff4
ffffffd9
fffffffb
fffffff7
0000000d
0000000d
00000015
00000007
00000010
fffffffe
fffffffd
00000022
00000008
ffffffee
fffffff9
00000020
ffffffed
ffffffff
ffffffef
fffffff7
ffffffe9
fffffff5
0000000f
00000005
fffffff3
0000000b
00000016
ffffffde
ffffffe4
00000029
fffffff6
00000001
fffffff9
fffffffa
fffffff6
00000006
00000013
ffffffeb
fffffff2
00000010
fffffff1
ffffffcc
0000000a
ffffffed
00000005
ffffffff
00000000
ffffffee
fffffffd
fffffff5
00000011
ffffffe9
00000005
fffffffe
fffffffa
fffffff7
00000011
00000009
fffffff4
0000001c
ffffffea
00000006
fffffff8
fffffffc
00000005
00000000
00000003
00000014
0000000d
00000001
ffffffe7
ffffffee
fffffff4
0000001d
0000000b
0000000a
0000000a
00000009
fffffffc
fffffffd
00000005
00000003
ffffffff
00000020
0000000e
fffffff8
00000006
ffffffe8
00000009
00000007
00000006
00000010
0000000d
ffffffdc
00000003
ffffffef
fffffff9
00000008
00000002
0000000f
0000001d
0000000a
0000000a
00000028
fffffff2
fffffffe
fffffff9
ffffffe8
fffffffb
00000008
ffffffe6
00000023
fffffff0
00000013
fffffff1
fffffffe
fffffff6
fffffffc
00000006
ffffffed
0000004e
00000007
00000001
00000013
00000013
ffffffdf
00000028
fffffff4
00000003
fffffffd
0000001c
0000001e
ffffffd7
00000002
fffffff0
0000000f
fffffff8
00000007
fffffff7
00000028
fffffff1
0000000f
fffffff3
00000014
0000000f
0000000b
fffffffa
fffffff9
0000000b
fffffff7
00000003
0000000d
ffffffeb
fffffff0
fffffff7
ffffffff
fffffff4
0000001a
fffffff9
00000023
fffffff4
fffffffc
fffffffc
ffffffe8
0000001a
00000005
00000012
fffffff5
00000000
fffffff0
ffffffeb
fffffff7
0000000a
fffffff6
00000003
fffffffd
00000005
ffffffe9
0000000c
ffffffda
00000002
00000004
0000000f
fffffff3
fffffff9
ffffffee
fffffff6
fffffff2
fffffff7
0000000b
fffffff4
00000019
fffffffa
00000001
00000000
ffffffe5
00000008
fffffff5
00000004
fffffffa
0000000b
00000018
fffffff3
0000000a
fffffff4
00000005
00000007
0000001a
fffffffb
00000004
0000000a
00000017
00000013
ffffffdd
ffffffff
00000014
ffffffff
fffffff9
00000019
ffffffea
fffffff9
00000008
0000000f
fffffff2
00000004
00000005
ffffffe4
ffffffff
00000003
00000004
ffffffff
fffffffc
0000000c
fffffffb
fffffffc
fffffffd
00000003
fffffffc
fffffffd
fffffff1
fffffff2
fffffff1
fffffffc
00000007
fffffffd
00000001
00000000
fffffff0
ffffffdd
fffffffe
fffffffe
fffffff4
00000006
fffffffc
00000002
fffffff2
fffffff3
fffffff8
ffffffe7
fffffff1
fffffffd
0000000a
fffffff7
00000002
fffffffc
00000001
00000000
fffffffd
fffffffa
00000005
fffffffa
fffffffd
fffffff5
fffffffe
00000001
fffffffd
00000009
00000003
00000006
00000007
fffffff8
00000001
00000006
00000002
ffffffe6
00000008
fffffff4
00000000
00000003
fffffffc
00000006
00000006
00000006
fffffffb
00000009
fffffff6
fffffff6
0000000b
fffffff5
fffffff1
00000002
00000001
fffffff4
fffffffd
00000004
ffffffff
fffffff6
ffffffee
00000003
fffffff2
fffffffc
fffffffc
0000000a
00000008
00000002
fffffff7
fffffff5
fffffffd
ffffffff
00000006
fffffffb
ffffffff
00000001
fffffffc
fffffffc
00000009
00000007
fffffffa
fffffffe
00000000
fffffffe
fffffffc
00000006
fffffffe
fffffff4
fffffff6
ffffffff
00000004
fffffffd
fffffffa
00000009
00000014
ffffffff
00000012
fffffff7
fffffffe
00000004
fffffffc
00000001
0000000c
fffffff3
fffffffa
fffffffe
ffffffff
fffffff6
00000009
fffffff7
00000003
fffffff9
ffffffed
0000000a
fffffffd
00000002
fffffffb
fffffffb
fffffff7
00000004
ffffffe9
00000002
fffffffd
fffffffc
fffffff8
fffffffb
00000000
00000007
00000005
0000000c
fffffff4
ffffffec
fffffff6
fffffff9
ffffffd6
00000006
fffffffc
fffffffd
ffffffff
fffffff6
fffffff3
fffffff0
00000004
fffffffb
00000006
00000003
00000019
00000003
ffffffea
00000003
00000013
ffffffff
00000005
ffffffeb
0000000b
fffffffd
ffffffe9
fffffffb
00000001
fffffff9
ffffffef
00000005
fffffff2
00000003
fffffffd
fffffffa
ffffffdf
00000004
fffffff9
00000009
00000000
0000002d
00000009
fffffff3
00000011
fffffff6
fffffffd
00000005
fffffff4
00000012
fffffffe
fffffff5
fffffff9
00000006
0000001a
ffffffe9
00000014
00000003
fffffff6
00000006
00000007
00000010
00000002
fffffffa
fffffffb
00000007
00000009
00000005
00000001
fffffff1
fffffff0
fffffffb
fffffffe
00000017
0000000d
ffffffef
00000001
00000002
fffffff4
00000003
00000002
fffffffb
00000004
00000006
ffffffff
00000002
00000006
00000005
0000001f
00000000
00000003
00000006
fffffff9
ffffffff
fffffff9
fffffff3
fffffff4
fffffffe
fffffff9
fffffffd
fffffff5
00000000
00000000
fffffff4
fffffffc
00000008
00000001
00000000
00000000
00000000
00000000
00000000
00000000
00000000
00000000
00000000
00000000
00000000
00000000
00000000
00000000
00000000
00000000
00000000
00000000
00000000
00000000
00000000
00000000
00000000
00000000
00000000
00000000
00000000
00000000
00000000
00000000
00000000
00000000
00000000
00000000
00000000
00000000
00000000
00000000
00000000
00000000
00000000
00000000
00000000
00000000
00000000
00000000
00000000
00000000
00000000
00000000
00000000
00000000
00000000
00000000
00000000
00000000
00000000
00000000
00000000
00000000
00000000
00000000
00000000
00000000
00000000
00000000
00000000
00000000
00000000
00000000
00000000
00000000
00000000
00000000
00000000
00000000
00000000
00000000
00000000
00000000
00000000
00000000
00000000
00000000
00000000
00000000
00000000
00000000
00000000
00000000
00000000
00000000
00000000
00000000
00000000
00000000
00000000
00000000
00000000
00000000
00000000
00000000
00000000
00000000
00000000
00000000
00000000
00000000
00000000
00000000
00000000
00000000
00000000
00000000
00000000
00000000
00000000
00000000
00000000
00000000
00000000
00000000
00000000
00000000
00000000
00000000
00000000
00000000
00000000
00000000
00000000
00000000
00000000
00000000
00000000
00000000
00000000
00000000
00000000
00000000
00000000
00000000
00000000
00000000
00000000
00000000
00000000
00000000
00000000
00000000
00000000
00000000
00000000
00000000
00000000
00000000
00000000
00000000
00000000
00000000
00000000
00000000
00000000
00000000
00000000
00000000
00000000
00000000
00000000
00000000
00000000
00000000
00000000
00000000
00000000
00000000
00000000
00000000
00000000
00000000
00000000
00000000
00000000
00000000
00000000
00000000
00000000
00000000
00000000
00000000
00000000
00000000
00000000
00000000
00000000
00000000
00000000
00000000
00000000
00000000
00000000
00000000
00000000
00000000
00000000
00000000
00000000
00000000
00000000
00000000
00000000
00000000
00000000
00000000
00000000
00000000
00000000
00000000
00000000
00000000
00000000
00000000
00000000
00000000
00000000
00000000
00000000
00000000
00000000
00000000
00000000
00000000
00000000
00000000
00000000
00000000
00000000
00000000
00000000
00000000
00000000
00000000
00000000
00000000
00000000
00000000
00000000
00000000
00000000
00000000
00000000
00000000
00000000
00000000
00000000
00000000
fffffff7
00000001
fffffffd
0000000d
00000008
0000000c
00000008
fffffff9
ffffffe3
0000001b
ffffffeb
00000037
00000013
fffffff3
00000000
0000001f
00000001
00000004
0000000f
0000000e
fffffff2
fffffff3
ffffffec
0000000a
ffffffff
00000008
fffffff6
00000022
00000001
fffffff0
00000014
00000000
ffffffff
00000005
0000000c
fffffff4
00000014
ffffffff
fffffff9
fffffff8
fffffffe
ffffffea
fffffffb
00000001
00000014
ffffffef
00000019
0000000a
fffffffc
0000000e
00000000
00000012
ffffffee
fffffffa
fffffffb
fffffff1
00000010
0000001f
ffffffff
00000008
fffffffd
fffffff8
00000005
ffffffed
00000004
fffffffa
00000000
ffffffff
fffffff3
ffffffe5
00000010
fffffffc
00000007
00000003
0000001e
ffffffe1
ffffffea
00000008
fffffff5
ffffffeb
fffffff9
fffffff9
fffffffe
fffffffc
00000000
00000008
fffffff3
00000001
0000000c
00000001
fffffffb
fffffff5
fffffff2
00000000
00000000
00000018
fffffffe
00000010
fffffff8
00000004
00000001
0000002a
00000026
fffffff8
ffffffec
fffffff3
ffffffe7
ffffffe9
fffffffe
fffffff5
00000006
00000021
00000026
00000005
0000000a
fffffff5
00000041
0000002b
00000007
0000001e
0000000f
fffffffb
0000000e
fffffff4
0000000d
0000000c
00000013
00000007
0000000d
fffffff7
fffffff4
ffffffe7
00000000
00000005
fffffffc
ffffffed
00000001
00000012
fffffffc
0000000f
00000016
0000002c
00000002
ffffffff
ffffffeb
ffffffe3
ffffffef
fffffffc
00000018
ffffffeb
fffffff4
ffffffef
0000002a
ffffffec
ffffffd5
00000014
00000003
00000005
fffffff2
ffffffdc
fffffff0
fffffff7
0000000a
ffffffeb
fffffffe
00000007
ffffffff
ffffffe7
0000001d
00000008
ffffffe5
fffffffa
fffffffa
fffffff2
ffffffda
00000005
00000019
fffffff3
ffffffea
fffffffb
fffffffd
00000006
fffffffc
00000008
fffffff7
0000000c
00000010
00000015
fffffffb
00000000
00000013
ffffffe6
00000007
fffffff5
fffffff9
ffffffee
0000000e
fffffff2
00000005
fffffff3
00000024
0000000b
00000002
ffffffea
00000009
fffffff5
fffffffc
00000009
00000009
0000001a
fffffffe
00000009
0000001d
fffffff3
fffffff4
fffffff7
fffffff1
00000000
0000001e
00000004
ffffffec
ffffffff
00000005
fffffffb
00000012
fffffff5
00000004
fffffff4
0000001e
fffffffb
00000011
ffffffff
ffffffe8
00000016
ffffffed
00000011
ffffffe2
ffffffda
00000003
00000004
ffffffed
00000018
ffffffec
00000001
00000008
fffffff6
00000019
fffffff7
ffffffef
00000006
fffffffb
fffffff7
ffffffef
00000026
0000000d
fffffff7
fffffffc
00000000
fffffffc
00000001
fffffffa
00000007
fffffffa
fffffffb
00000005
00000002
00000006
00000006
fffffff7
0000000c
fffffffa
00000006
fffffff4
fffffff9
fffffffa
00000008
00000005
fffffffe
fffffffe
00000005
fffffff9
fffffff5
fffffff9
00000003
fffffffc
fffffff6
fffffff8
00000004
fffffff7
fffffff9
fffffff5
fffffffa
fffffffe
fffffff8
00000007
ffffffee
00000006
fffffffe
00000006
0000000b
00000005
fffffff7
00000007
00000011
fffffff9
fffffff7
00000003
00000001
00000000
00000008
fffffff2
00000000
fffffff3
00000006
00000013
ffffffff
00000004
00000003
00000000
fffffffb
ffffffff
00000005
fffffff7
ffffffff
00000004
fffffff9
00000007
00000008
0000000b
ffffffff
ffffffed
0000001c
fffffffb
fffffffe
0000001f
fffffff8
00000003
0000000b
fffffff0
fffffff2
ffffffe6
fffffff2
0000000c
00000012
fffffffe
fffffffc
00000001
fffffffe
fffffffd
00000001
00000001
00000002
00000012
fffffff3
ffffffff
0000000f
fffffffa
fffffff8
ffffffef
0000000f
00000009
0000001f
00000013
00000001
00000000
ffffffff
00000003
00000015
00000027
00000001
00000001
fffffff7
00000004
00000004
ffffffee
00000004
fffffff9
fffffff2
fffffffe
00000001
00000009
00000009
00000010
00000008
fffffffd
fffffffe
fffffffe
fffffffa
ffffffff
fffffff4
0000000f
fffffff5
0000000d
fffffffd
fffffff0
0000000b
fffffff4
fffffff8
00000006
00000005
00000001
fffffff2
fffffffe
0000000c
fffffffe
fffffff6
00000001
ffffffff
00000009
fffffff5
fffffffc
fffffff3
00000006
0000000a
00000009
0000001f
fffffffe
0000000b
fffffff7
00000004
ffffffee
00000008
fffffff4
fffffff9
fffffff2
0000000b
0000000a
fffffff7
00000006
0000000a
00000009
fffffffb
00000004
00000010
ffffffff
00000002
fffffffa
00000002
fffffff4
fffffffc
0000000b
ffffffe9
ffffffff
ffffffec
00000001
0000000c
00000001
ffffffff
00000018
00000007
fffffffc
00000019
fffffffc
0000000c
fffffffa
fffffff5
fffffff5
00000005
00000003
00000005
00000001
fffffffb
fffffffe
fffffff9
fffffff7
ffffffdf
0000001d
fffffffb
00000008
00000016
00000002
00000011
fffffff6
00000032
fffffffa
00000004
ffffffe7
ffffffde
00000007
00000004
00000001
fffffff5
fffffff9
00000011
ffffffe3
0000002e
ffffffd6
fffffffe
fffffff0
fffffff2
fffffffd
ffffffff
0000000c
00000009
00000016
00000015
fffffff8
00000004
ffffffd8
ffffffed
ffffffd4
fffffff3
fffffff2
ffffffff
fffffff2
00000002
ffffffe9
fffffffd
fffffff7
00000018
fffffff1
fffffff6
00000000
00000002
00000003
00000000
ffffffff
00000000
00000000
00000000
00000002
00000000
ffffffff
00000003
ffffffff
00000002
00000000
00000001
00000000
00000005
00000000
fffffffa
00000000
00000005
fffffffe
00000000
00000006
ffffffff
00000005
00000001
ffffffff
00000000
00000002
00000001
00000000
00000003
00000000
00000000
00000003
00000005
fffffff5
00000000
00000004
00000004
00000000
ffffffff
00000003
ffffffff
00000000
ffffffff
00000002
00000003
00000000
ffffffff
00000000
00000007
fffffffe
00000001
00000000
00000000
00000000
00000000
00000000
ffffffff
ffffffff
00000000
00000007
ffffffff
00000003
00000004
fffffffe
00000002
fffffff7
00000006
00000000
00000005
00000000
ffffffff
ffffffff
fffffffb
fffffff7
fffffff7
00000001
00000000
00000000
0000000a
00000000
00000005
fffffffd
fffffffe
00000000
00000006
00000003
00000000
fffffffb
00000000
00000001
00000005
00000005
00000000
00000007
fffffffc
00000001
00000001
00000000
00000000
00000000
00000000
00000000
00000001
00000000
ffffffff
00000003
00000000
00000000
00000000
00000005
fffffffd
00000004
00000006
fffffffe
ffffffff
00000001
00000003
00000003
ffffffff
00000000
00000000
ffffffff
00000000
00000006
00000000
fffffffa
fffffffc
00000000
0000000a
00000000
ffffffff
0000000c
00000000
00000000
00000001
00000000
00000007
00000004
ffffffff
00000000
00000000
00000000
00000004
fffffffc
fffffffe
ffffffff
00000000
ffffffff
00000000
00000006
00000000
00000000
00000004
fffffffc
00000001
00000003
00000000
ffffffff
00000001
00000004
00000000
00000001
fffffffd
fffffffa
ffffffff
ffffffff
00000001
00000004
00000001
0000000f
00000000
00000000
00000004
00000000
00000000
00000005
00000000
00000004
00000001
00000002
00000002
00000002
ffffffff
ffffffff
fffffff8
00000005
00000000
00000002
ffffffff
00000000
fffffffe
00000006
00000004
00000000
ffffffff
00000000
00000000
ffffffff
fffffffd
00000007
ffffffff
00000000
00000000
00000001
00000001
00000006
00000001
00000003
ffffffff
00000000
00000001
00000000
00000004
ffffffff
00000000
00000001
00000004
fffffff8
fffffffd
00000009
ffffffff
fffffff3
00000003
00000003
00000007
00000002
00000006
00000004
00000007
00000000
00000000
00000000
ffffffff
00000009
00000004
00000000
fffffffd
00000000
fffffff7
00000000
00000000
00000005
00000000
00000000
00000000
00000004
00000001
00000000
00000001
00000000
00000002
fffffffb
00000002
0000000f
fffffffe
00000003
ffffffdf
0000000d
fffffff0
00000005
fffffff5
fffffffe
00000003
0000000a
fffffff0
0000000d
0000000a
00000011
0000001b
00000018
fffffff7
fffffff5
fffffff3
00000005
0000000e
fffffff6
ffffffff
00000001
fffffff3
ffffffef
fffffff9
00000001
00000006
00000005
ffffffe9
fffffffa
0000000d
fffffff7
00000009
00000018
ffffffe2
fffffffd
fffffff9
00000004
fffffff9
0000000c
0000000c
0000000c
fffffffe
00000015
00000009
fffffffc
0000000f
fffffff1
00000003
ffffffde
fffffffb
00000026
fffffff4
00000002
fffffffb
00000006
00000002
00000013
00000002
fffffff7
00000002
0000000d
0000000e
00000005
fffffffd
fffffff6
00000006
ffffffff
00000007
00000022
0000000e
fffffff9
ffffffff
00000013
fffffff3
ffffffff
fffffff2
ffffffed
00000013
00000001
0000000a
00000016
ffffffec
ffffffea
fffffff5
00000008
0000001d
ffffffe3
fffffffc
ffffffef
fffffff1
00000017
fffffff9
fffffffd
00000002
0000000c
00000007
fffffff0
00000033
ffffffe4
00000009
00000010
00000007
00000005
fffffffc
fffffffc
00000011
fffffffe
fffffffe
0000000f
0000000c
ffffffed
00000009
fffffff2
0000000a
ffffffea
fffffff6
ffffffed
fffffff5
00000000
00000007
ffffffff
00000012
0000000c
00000004
ffffffee
fffffffc
fffffffc
00000028
ffffffda
ffffffde
00000001
00000008
fffffffd
fffffff5
0000000d
00000021
fffffff2
ffffffef
fffffffa
fffffff4
0000000d
ffffffe5
00000003
ffffffd4
0000000d
00000002
ffffffff
fffffffd
ffffffef
00000019
00000004
0000001f
0000000a
ffffffef
fffffffc
0000000b
ffffffff
0000001e
fffffff5
00000006
fffffff8
ffffffff
00000005
00000006
00000003
fffffff7
00000007
00000003
fffffffc
0000000d
0000000c
00000013
00000000
fffffff6
00000006
fffffffc
fffffff7
fffffffa
00000007
fffffff6
fffffff5
fffffff5
ffffffee
fffffff8
ffffffdd
fffffffd
ffffffea
fffffffb
0000000c
0000001a
fffffff6
0000001b
ffffffe7
fffffffd
ffffffff
fffffffa
fffffff9
fffffff9
ffffffe7
fffffff3
fffffffe
00000013
00000006
ffffffe7
ffffffef
fffffff0
00000007
00000000
0000000a
ffffffec
00000007
ffffffef
fffffff6
00000007
ffffffe3
00000001
00000000
0000000b
0000000b
fffffff3
00000010
00000019
fffffff0
0000002f
fffffffe
fffffff6
fffffffa
ffffffe4
00000013
fffffffa
00000003
00000006
0000000e
0000000a
fffffffc
00000007
00000007
0000000f
fffffff5
00000009
fffffff2
fffffff4
00000009
0000000e
00000009
fffffff9
fffffffe
fffffffc
fffffff1
00000001
ffffffff
00000000
ffffffff
00000002
00000000
00000000
00000000
fffffffe
00000000
00000000
00000000
00000000
00000000
00000000
00000000
00000000
00000001
ffffffff
00000000
fffffffd
00000000
00000001
fffffffe
00000003
ffffffff
00000000
00000000
00000000
00000000
ffffffff
00000001
00000001
fffffffe
00000000
00000000
00000000
00000000
00000000
00000000
00000000
00000000
00000000
00000000
00000000
00000000
00000000
00000000
00000001
00000000
00000000
00000000
00000001
00000000
ffffffff
00000000
fffffffe
fffffffe
00000001
00000000
00000000
ffffffff
00000001
00000000
00000000
ffffffff
00000000
00000001
00000000
00000002
00000000
00000002
ffffffff
00000001
00000001
ffffffff
ffffffff
00000001
00000003
fffffffe
fffffffe
00000001
00000000
00000000
00000000
00000000
00000002
00000003
00000002
00000000
00000000
00000001
ffffffff
00000001
00000000
00000000
00000001
ffffffff
00000000
00000000
ffffffff
ffffffff
00000000
00000000
00000000
00000000
ffffffff
00000000
00000000
00000001
00000001
00000000
00000001
00000000
ffffffff
00000001
ffffffff
ffffffff
00000002
00000000
00000000
ffffffff
00000000
00000000
00000000
00000000
00000000
00000002
ffffffff
00000000
00000000
00000002
00000001
00000000
ffffffff
00000000
fffffffe
00000002
00000000
00000000
ffffffff
00000000
00000001
00000000
00000001
00000000
00000000
00000000
00000000
fffffffd
ffffffff
00000000
ffffffff
00000000
ffffffff
ffffffff
00000000
ffffffff
00000000
00000001
00000001
00000000
00000001
00000003
ffffffff
00000002
00000000
00000001
fffffffd
00000000
00000001
00000000
00000000
00000000
00000000
00000000
00000000
00000001
00000000
00000002
00000000
ffffffff
00000002
00000001
00000001
00000000
00000000
00000000
00000001
00000000
00000000
00000000
00000000
ffffffff
00000001
00000001
ffffffff
00000001
00000000
00000000
00000001
00000000
00000000
00000000
00000000
00000001
00000005
00000001
00000000
00000000
00000001
00000000
00000000
00000000
00000002
00000000
00000000
00000000
00000000
00000000
00000001
00000000
00000000
00000000
ffffffff
ffffffff
00000002
00000002
00000000
00000001
00000000
00000000
00000000
00000001
00000001
00000000
00000000
00000001
00000000
00000001
00000000
00000001
fffffffe
00000000
00000000
00000000
00000000
00000000
00000000
ffffffff
ffffffff
00000000
00000001
ffffffff
00000000
00000000
ffffffff
00000000
00000000
00000000
00000000
00000000
00000000
00000000
00000000
00000000
00000000
00000000
00000000
00000000
00000000
00000000
ffffffff
00000000
00000000
00000000
ffffffff
00000000
00000000
00000000
00000000
00000000
00000000
00000000
00000000
00000000
00000000
00000000
00000000
00000000
00000000
00000000
00000000
00000000
00000000
00000000
00000000
00000000
00000000
00000000
00000000
00000000
00000000
00000000
00000000
00000000
00000000
00000000
00000000
00000000
00000000
00000000
00000000
ffffffff
00000000
00000000
00000000
00000000
00000000
00000000
00000000
00000000
00000000
00000000
00000000
00000000
00000000
00000000
00000000
00000000
00000000
00000000
00000000
00000000
ffffffff
00000000
ffffffff
00000000
00000000
00000000
00000000
00000000
00000000
00000000
00000000
00000000
00000000
00000000
00000000
00000000
00000000
00000000
00000000
00000000
ffffffff
00000000
00000000
00000000
00000000
00000000
00000000
00000000
00000000
00000000
00000000
00000000
00000000
00000000
00000000
00000000
00000000
00000000
00000000
ffffffff
00000000
00000000
00000000
00000000
00000000
00000000
00000000
00000000
00000000
00000000
00000000
00000000
00000000
00000001
00000000
00000000
00000000
00000001
00000000
00000000
00000000
00000000
00000000
00000000
00000000
ffffffff
00000000
00000000
00000000
00000001
00000000
00000000
00000000
00000000
00000000
ffffffff
00000000
00000000
00000000
00000000
ffffffff
00000000
00000000
ffffffff
00000000
00000000
00000000
00000000
00000000
00000000
00000000
00000000
00000000
00000000
00000000
00000000
00000000
00000000
00000001
00000000
00000000
00000000
00000000
00000000
00000000
00000000
00000000
00000000
00000000
00000000
00000000
00000000
00000000
00000000
00000000
00000000
00000000
00000000
00000000
ffffffff
00000000
00000000
00000000
00000000
00000000
00000000
00000000
00000000
00000000
00000000
00000000
00000000
00000000
00000000
00000000
00000000
00000000
00000000
ffffffff
00000000
00000000
00000000
00000000
00000000
00000000
00000000
00000000
00000000
00000000
00000000
00000000
00000000
ffffffff
00000000
00000000
00000000
00000000
00000000
00000000
00000000
00000000
00000000
00000000
00000000
00000000
00000000
00000000
00000000
00000000
00000000
00000000
00000000
00000000
00000000
00000000
00000000
ffffffff
00000000
00000000
00000000
00000000
00000000
00000000
00000000
00000000
00000000
00000000
00000000
00000000
00000000
00000000
00000000
00000000
00000000
00000000
00000000
00000000
00000000
00000000
00000000
00000000
00000000
00000000
00000000
00000000
00000000
00000000
00000000
00000000
00000000
00000000
00000000
00000000
00000000
00000000
00000000
00000000
00000000
00000000
00000000
00000000
00000000
00000000
00000000
00000000
00000000
00000000
00000000
00000000
00000000
00000000
00000000
00000000
00000000
00000000
00000000
00000000
00000000
00000000
00000000
00000000
00000000
00000000
00000000
00000000
00000000
00000000
00000000
00000000
00000000
00000000
00000000
00000000
00000000
00000000
00000000
00000000
00000000
00000000
00000000
00000000
00000000
00000000
00000001
00000000
00000000
00000000
00000000
00000000
00000000
00000000
00000000
00000000
00000000
00000000
00000000
00000000
00000000
00000000
00000000
00000000
00000000
00000000
00000000
00000000
00000000
00000000
00000000
00000000
00000000
00000000
00000000
00000000
00000000
00000000
00000000
00000000
00000000
00000000
00000000
00000000
00000000
00000000
00000000
00000000
00000000
00000000
00000000
00000000
00000000
00000000
00000000
00000000
00000000
00000000
00000000
00000000
00000000
00000000
00000000
00000000
00000000
00000000
00000000
00000000
00000000
00000000
00000000
00000000
00000000
00000000
00000000
00000000
00000000
00000000
00000000
00000000
00000000
00000000
00000000
00000000
00000000
00000000
00000000
00000000
00000000
00000001
00000000
00000000
00000000
00000000
00000000
00000000
00000000
00000000
00000000
00000000
00000000
00000000
00000000
00000000
00000000
00000000
00000000
00000000
00000000
00000000
00000000
00000000
00000000
00000000
00000000
00000000
00000000
00000000
00000000
00000000
00000000
00000000
00000000
00000000
00000000
00000000
00000000
00000000
00000000
00000000
00000000
00000000
00000000
00000000
00000000
00000000
00000000
00000000
00000001
00000000
00000000
00000000
00000000
00000000
00000000
00000000
00000000
00000000
00000000
00000000
00000000
00000000
00000000
00000000
00000000
00000000
00000000
00000000
00000000
00000000
00000000
00000000
00000000
00000000
00000000
00000000
00000000
ffffffff
00000000
00000000
00000000
00000000
00000000
00000000
00000000
00000000
00000000
00000000
00000000
00000000
00000000
00000000
00000000
00000000
00000000
00000000
ffffffff
00000000
00000000
00000000
00000000
00000000
00000000
00000000
00000000
00000000
00000000
00000000
00000000
ffffffff
00000000
00000000
00000000
00000000
00000000
00000000
00000000
ffffffff
00000000
ffffffff
00000000
00000000
00000000
00000000
00000000
00000000
00000000
00000000
00000000
00000000
00000000
ffffffff
00000000
00000000
00000000
00000000
00000000
00000000
00000000
00000000
00000000
00000000
00000000
00000000
00000000
00000000
00000000
00000000
00000000
00000000
00000000
00000000
00000000
00000000
00000000
ffffffff
00000000
00000000
00000000
00000000
00000000
00000000
00000000
00000000
ffffffff
00000000
00000000
00000000
00000000
00000000
00000000
ffffffff
00000000
00000000
00000000
00000000
00000000
00000000
00000000
00000000
00000000
00000000
00000000
00000001
00000000
00000000
00000000
00000000
00000000
00000000
00000000
00000000
00000000
00000000
00000000
00000000
00000000
00000000
00000000
00000000
00000000
00000000
00000000
00000000
00000000
00000000
00000000
00000000
00000000
ffffffff
00000000
00000000
00000000
00000000
00000000
00000000
00000000
00000000
ffffffff
00000000
00000000
00000000
00000000
00000000
00000000
00000000
00000000
00000000
00000000
00000000
00000000
00000000
00000000
00000000
00000000
00000000
00000000
00000000
00000000
00000000
00000000
00000000
00000000
00000000
00000000
00000000
00000000
00000000
00000000
00000000
00000000
00000000
00000000
00000000
00000000
00000000
00000000
00000000
00000000
00000000
00000000
00000000
00000000
00000000
00000000
00000000
ffffffff
ffffffff
00000000
00000000
00000000
00000000
00000000
00000000
ffffffff
00000000
00000000
00000000
00000000
ffffffff
00000000
00000000
00000000
00000000
ffffffff
ffffffff
00000000
00000000
00000000
ffffffff
00000000
00000000
00000000
00000000
00000000
00000000
00000000
00000000
00000000
00000000
00000000
00000000
00000000
ffffffff
00000000
00000000
00000000
00000000
00000000
00000000
00000000
ffffffff
00000000
00000000
00000000
00000000
00000000
00000000
00000000
00000000
00000000
00000000
00000000
00000000
00000000
00000000
00000000
00000000
00000000
00000000
00000000
00000000
00000000
00000000
00000000
00000000
00000000
ffffffff
00000000
00000000
00000000
ffffffff
00000000
00000000
00000000
00000000
00000000
00000000
00000000
00000000
00000000
00000001
00000000
00000000
00000001
00000000
00000000
00000001
00000000
00000000
00000001
00000000
00000000
00000000
00000001
00000000
00000000
00000001
00000000
00000000
00000000
00000000
00000000
00000000
00000000
ffffffff
00000000
00000000
00000000
00000000
00000000
00000000
00000000
00000000
00000000
00000000
00000001
00000000
00000000
00000000
00000001
00000000
00000000
00000000
00000000
00000000
00000001
00000000
00000000
00000000
00000000
00000000
00000000
00000001
00000001
00000000
00000000
00000000
00000000
00000001
00000000
00000000
00000001
00000000
00000000
00000000
00000000
00000000
00000001
00000000
00000000
00000000
00000000
00000000
00000000
00000001
00000000
00000000
00000000
00000000
00000000
00000001
00000001
00000000
00000000
00000000
00000000
00000001
00000000
00000000
00000000
00000000
00000000
00000000
00000001
00000000
00000000
ffffffff
00000000
00000000
00000000
00000000
00000000
00000000
00000000
00000000
00000000
00000000
00000000
00000000
00000000
00000001
00000000
00000001
00000000
00000000
00000000
00000000
00000000
00000000
00000000
00000000
00000000
00000000
00000000
00000000
00000001
00000000
00000000
00000000
00000000
00000000
00000000
00000000
00000000
00000000
00000000
00000001
00000000
ffffffff
00000000
00000000
00000000
00000000
00000000
00000000
ffffffff
ffffffff
00000000
00000000
00000000
00000000
00000000
00000000
00000000
00000000
00000000
00000001
00000000
00000001
00000000
00000001
00000000
ffffffff
ffffffff
00000000
00000000
00000000
00000000
00000000
00000000
00000000
00000000
00000000
00000000
00000000
00000000
ffffffff
00000001
00000000
00000000
00000000
00000001
00000000
00000000
00000000
00000000
00000001
00000000
00000000
00000000
00000000
00000000
00000000
ffffffff
00000000
00000000
00000000
00000000
00000000
00000000
00000001
00000000
00000000
00000000
00000000
00000000
00000000
00000000
00000000
00000001
00000000
00000000
00000000
00000000
00000000
00000000
00000000
00000000
00000000
00000000
00000000
00000000
00000000
00000000
00000000
00000000
00000000
ffffffff
00000000
00000000
00000000
00000000
00000000
00000001
00000000
00000001
00000000
00000000
00000001
00000000
00000000
00000001
00000001
00000000
00000000
00000000
00000000
00000001
00000000
00000000
00000000
00000000
00000005
ffffffff
00000000
00000000
00000000
00000001
00000000
00000002
ffffffff
00000001
00000003
ffffffff
00000000
ffffffff
00000000
00000000
00000006
00000000
ffffffff
00000000
ffffffff
00000000
00000001
00000000
00000003
ffffffff
00000002
00000000
00000002
00000000
00000001
00000005
fffffffe
ffffffff
00000001
00000000
00000005
ffffffff
00000001
ffffffff
00000001
00000000
00000000
00000000
00000000
00000000
ffffffff
ffffffff
00000002
fffffffe
00000000
00000001
00000000
ffffffff
00000004
00000004
ffffffff
00000000
00000000
ffffffff
00000004
fffffffe
00000001
ffffffff
00000003
fffffffd
00000003
00000002
00000000
00000003
00000000
00000000
00000002
00000001
00000000
00000000
00000000
ffffffff
ffffffff
ffffffff
00000005
00000000
00000001
00000001
00000002
ffffffff
ffffffff
ffffffff
ffffffff
00000002
00000000
fffffffe
00000001
ffffffff
00000003
ffffffff
00000000
00000004
00000001
00000000
00000000
00000000
ffffffff
00000002
fffffffe
00000000
00000001
00000000
00000004
ffffffff
00000001
00000000
00000003
fffffffe
00000000
ffffffff
00000001
00000000
fffffffd
ffffffff
00000000
ffffffff
ffffffff
00000003
ffffffff
00000004
00000000
00000004
00000005
00000005
00000000
00000001
00000000
00000000
00000002
00000001
00000003
00000003
00000000
00000005
00000003
00000005
00000001
ffffffff
00000003
00000003
00000002
00000000
ffffffff
ffffffff
ffffffff
fffffffe
ffffffff
00000002
fffffffe
00000000
00000001
fffffffd
ffffffff
00000003
ffffffff
ffffffff
00000002
fffffffe
ffffffff
ffffffff
ffffffff
00000001
00000000
00000000
00000001
00000005
00000002
00000000
00000001
00000005
00000003
ffffffff
00000003
00000000
00000000
00000000
00000000
00000001
00000001
00000002
00000000
00000000
00000002
00000002
ffffffff
00000000
00000002
00000008
00000000
00000000
fffffffe
00000001
00000002
00000001
ffffffff
00000002
00000002
00000000
00000003
fffffffe
00000002
00000002
00000002
00000001
00000003
00000002
00000004
00000000
00000001
ffffffff
00000002
ffffffff
00000002
ffffffff
00000001
fffffffe
00000000
00000000
00000001
00000001
00000004
00000000
00000001
00000001
00000002
00000000
00000000
ffffffff
00000003
00000000
00000000
00000003
00000001
00000001
00000005
00000000
00000001
00000002
00000000
00000000
00000004
00000000
00000000
00000000
00000005
00000000
00000000
ffffffff
ffffffff
00000000
00000001
fffffffe
00000001
00000000
fffffffe
00000000
00000000
00000000
00000000
ffffffff
00000000
00000000
ffffffff
ffffffff
00000000
00000000
ffffffff
fffffffe
00000000
00000000
00000000
00000000
ffffffff
00000000
ffffffff
00000000
00000001
00000000
00000001
00000000
00000000
00000000
00000000
00000000
00000000
00000000
ffffffff
00000000
00000000
00000000
ffffffff
ffffffff
00000000
ffffffff
ffffffff
00000000
00000000
00000000
00000000
ffffffff
00000000
00000000
00000000
00000000
ffffffff
00000001
ffffffff
ffffffff
00000000
00000001
00000000
00000000
fffffffe
00000000
00000000
fffffffe
00000000
00000000
00000000
ffffffff
00000000
fffffffe
00000000
00000000
00000000
ffffffff
ffffffff
00000000
00000000
00000000
00000000
fffffffe
00000001
00000001
00000000
00000000
00000000
00000000
00000000
00000001
00000000
00000000
00000000
00000000
ffffffff
00000000
00000000
ffffffff
00000000
00000000
00000001
00000000
ffffffff
00000000
00000000
00000000
ffffffff
00000000
00000000
ffffffff
ffffffff
00000000
00000000
00000000
00000000
00000000
ffffffff
00000000
00000000
00000000
00000000
00000001
00000000
00000000
00000000
00000000
ffffffff
00000000
00000000
ffffffff
00000000
00000000
ffffffff
00000000
00000000
00000001
00000000
ffffffff
00000000
00000000
00000001
ffffffff
00000001
ffffffff
00000000
00000000
00000000
00000000
ffffffff
00000001
00000000
00000000
00000000
00000000
00000000
00000000
00000000
ffffffff
ffffffff
ffffffff
ffffffff
00000000
ffffffff
00000000
fffffffe
00000000
ffffffff
ffffffff
00000000
00000000
00000000
00000000
00000000
ffffffff
00000000
00000001
00000000
00000000
00000000
00000000
00000000
00000000
00000000
00000000
ffffffff
ffffffff
00000000
00000000
ffffffff
00000000
fffffffe
00000000
ffffffff
00000000
00000000
00000000
00000000
ffffffff
00000000
00000000
00000000
00000000
00000001
ffffffff
ffffffff
00000000
00000000
00000000
00000001
00000000
ffffffff
00000000
00000000
fffffffe
00000000
00000000
fffffffe
00000000
00000000
00000000
00000000
ffffffff
00000001
00000000
00000000
00000000
00000000
00000000
00000001
00000000
00000000
ffffffff
ffffffff
ffffffff
00000000
00000000
00000000
ffffffff
ffffffff
ffffffff
00000001
00000000
fffffffe
00000000
00000000
ffffffff
ffffffff
00000000
00000000
ffffffff
00000000
fffffffe
ffffffff
fffffffd
00000000
ffffffff
fffffffd
ffffffff
ffffffff
00000000
00000000
fffffffa
00000000
00000000
00000000
00000001
fffffffd
00000001
00000000
00000000
00000000
00000000
fffffffd
fffffffd
fffffffb
00000000
00000000
00000000
00000002
00000000
ffffffff
00000001
fffffffe
ffffffff
00000000
ffffffff
00000003
fffffffd
00000001
ffffffff
00000000
00000000
00000000
00000001
fffffffc
00000001
fffffffb
00000000
00000002
ffffffff
fffffffd
00000000
00000000
00000000
fffffffe
00000000
ffffffff
ffffffff
ffffffff
00000000
00000006
fffffffd
00000000
00000000
00000000
ffffffff
fffffffe
00000001
00000003
00000001
fffffffd
fffffffd
fffffffe
fffffffc
00000000
fffffffe
00000000
ffffffff
00000001
00000005
00000001
ffffffff
fffffffd
00000000
00000000
00000000
fffffffd
ffffffff
ffffffff
fffffffe
00000000
ffffffff
fffffffa
00000000
ffffffff
fffffffd
00000000
ffffffff
00000000
00000001
fffffffd
00000003
00000000
fffffffb
ffffffff
ffffffff
00000000
ffffffff
00000000
ffffffff
00000002
fffffffd
00000002
ffffffff
fffffffd
fffffffe
00000001
ffffffff
fffffffe
00000004
00000000
ffffffff
00000000
ffffffff
fffffffb
fffffffe
fffffffd
ffffffff
ffffffff
fffffffc
ffffffff
fffffffc
00000002
fffffffb
ffffffff
00000003
00000001
00000001
fffffffe
00000000
fffffffe
00000000
fffffffc
fffffffe
00000000
fffffffb
fffffffd
fffffffb
ffffffff
fffffffe
fffffffd
fffffffb
ffffffff
00000001
00000000
00000000
00000001
00000001
00000000
00000000
00000000
ffffffff
fffffffe
00000000
ffffffff
fffffffe
00000001
00000000
ffffffff
00000001
ffffffff
ffffffff
ffffffff
ffffffff
ffffffff
00000000
00000002
ffffffff
00000003
00000002
ffffffff
fffffffb
fffffffd
00000000
ffffffff
00000001
00000000
00000001
00000000
fffffffd
ffffffff
fffffffc
ffffffff
00000000
00000000
fffffffc
00000001
fffffffe
00000000
fffffffb
fffffffc
fffffffe
fffffffe
00000000
fffffffc
fffffffe
fffffffd
00000000
00000001
00000000
ffffffff
00000000
fffffffe
fffffffc
00000002
ffffffff
00000000
00000000
fffffffc
00000000
ffffffff
fffffffe
00000005
00000000
fffffffe
00000000
fffffffc
00000001
00000000
00000000
00000000
00000001
fffffffe
00000001
ffffffff
00000000
00000001
ffffffff
fffffffe
00000000
fffffffd
ffffffff
ffffffff
00000000
fffffffe
00000000
00000001
00000000
00000001
fffffffe
00000002
00000000
fffffffe
00000001
00000002
00000001
fffffffc
ffffffff
ffffffff
00000000
00000001
ffffffff
00000001
00000002
00000000
00000001
00000001
00000000
00000000
00000001
00000000
00000000
00000001
00000000
00000000
00000002
00000000
00000001
00000000
00000002
00000000
00000000
00000002
00000000
00000000
ffffffff
00000000
00000000
00000000
00000000
00000000
00000000
00000000
00000001
00000001
00000000
00000000
00000000
00000001
00000000
00000000
00000000
ffffffff
00000000
00000000
00000001
00000000
00000000
00000000
00000000
00000000
00000001
00000000
00000000
00000001
00000000
00000000
00000000
00000000
00000001
ffffffff
ffffffff
00000000
00000000
00000000
00000000
00000000
00000000
00000000
00000000
00000000
00000002
00000000
00000001
00000000
00000000
00000000
00000000
00000000
00000000
00000001
00000000
00000000
00000001
00000000
00000000
00000001
00000001
00000000
00000000
00000000
00000001
00000001
00000000
00000000
00000000
00000000
00000000
00000000
00000001
00000000
00000000
00000001
00000001
00000001
00000000
00000000
00000000
00000000
00000000
00000000
00000001
00000001
00000000
00000000
00000000
00000001
00000000
00000002
00000000
ffffffff
00000000
00000000
00000001
00000001
ffffffff
00000000
00000000
00000001
00000000
00000000
00000001
00000000
00000000
00000000
00000000
00000000
00000001
00000000
00000000
00000000
00000000
00000000
00000001
ffffffff
00000001
00000000
00000000
00000001
00000001
00000000
ffffffff
ffffffff
ffffffff
00000000
00000000
00000000
00000000
00000000
00000001
00000000
00000001
00000002
00000000
00000001
00000000
00000002
00000000
00000000
00000001
ffffffff
00000000
00000000
00000000
00000000
00000001
ffffffff
00000000
00000000
00000000
ffffffff
00000000
00000000
00000001
00000000
00000000
00000000
00000001
00000000
00000000
00000001
00000000
00000000
00000002
00000000
00000000
00000000
00000000
00000001
fffffffe
00000000
00000002
00000000
00000000
ffffffff
ffffffff
00000001
00000000
00000000
00000000
00000000
00000000
ffffffff
00000000
00000000
00000000
00000000
00000001
00000000
00000000
00000000
00000000
00000000
00000001
00000000
00000000
00000000
00000000
00000000
00000000
00000000
00000000
00000000
00000001
ffffffff
00000001
00000001
00000000
00000000
ffffffff
00000000
00000001
00000000
00000000
00000001
00000000
00000001
00000001
00000001
00000000
00000000
00000000
00000000
00000002
00000001
00000001
00000000
00000000
00000000
fffffffd
ffffffff
00000001
00000001
00000004
00000000
00000000
00000000
00000000
00000003
00000000
00000001
00000000
ffffffff
ffffffff
00000005
00000003
00000004
00000000
fffffffe
00000001
00000003
ffffffff
00000000
00000000
fffffffd
00000000
00000001
00000001
00000003
00000007
ffffffff
ffffffff
00000000
00000000
ffffffff
ffffffff
00000002
00000000
00000004
00000000
ffffffff
00000000
00000002
fffffffe
00000000
00000005
00000003
00000000
00000001
00000001
00000003
00000000
00000003
00000002
ffffffff
00000000
00000001
00000000
00000004
ffffffff
00000003
00000000
00000004
00000001
ffffffff
00000002
00000001
ffffffff
00000000
00000000
fffffffe
fffffffd
00000002
00000004
00000005
00000001
00000005
00000000
fffffffc
00000000
fffffff7
00000003
00000003
00000000
00000005
ffffffff
00000001
00000003
00000000
00000003
fffffffe
ffffffff
fffffffd
00000003
00000000
00000002
00000000
00000000
ffffffff
00000000
00000000
00000000
ffffffff
00000002
fffffffe
00000002
00000003
00000004
ffffffff
00000000
00000003
ffffffff
ffffffff
00000000
00000004
00000000
ffffffff
00000000
00000004
00000001
00000001
00000003
ffffffff
00000005
ffffffff
00000003
00000007
00000004
00000000
00000002
00000000
00000000
00000003
00000001
00000004
00000003
00000000
00000001
00000004
00000001
00000001
ffffffff
00000004
00000003
00000001
00000001
00000005
00000001
00000001
00000000
00000002
00000000
ffffffff
ffffffff
00000002
00000002
00000000
00000003
ffffffff
00000000
00000002
00000003
fffffffe
00000000
00000000
00000001
00000000
00000000
00000000
fffffffe
fffffffe
ffffffff
00000000
00000005
00000003
00000002
fffffffd
00000000
ffffffff
ffffffff
00000000
00000006
00000001
00000002
00000005
fffffffe
00000008
00000001
ffffffff
00000002
ffffffff
00000007
00000005
00000003
00000001
00000000
00000005
00000001
00000000
ffffffff
ffffffff
ffffffff
fffffffe
ffffffff
00000002
00000005
ffffffff
00000000
ffffffff
00000000
00000005
00000000
ffffffff
ffffffff
00000002
00000000
00000000
ffffffff
00000004
00000002
ffffffff
00000000
00000001
00000000
fffffffc
00000000
00000001
ffffffff
00000000
00000002
00000001
fffffffe
fffffffc
00000000
00000006
00000001
00000002
00000000
00000000
00000000
00000000
00000003
00000001
00000000
00000002
ffffffff
00000004
00000000
0000000a
00000001
00000000
00000001
00000001
ffffffff
ffffffff
fffffffe
00000000
00000001
00000002
ffffffff
00000000
00000002
00000000
00000001
00000001
00000000
00000000
00000000
00000001
00000000
00000000
00000002
00000000
00000000
ffffffff
00000000
00000001
00000000
00000001
00000000
00000001
00000000
ffffffff
ffffffff
00000000
00000003
00000002
00000000
00000000
ffffffff
00000001
00000000
00000000
00000002
ffffffff
00000001
00000000
00000002
00000000
00000000
00000000
00000000
00000000
00000002
00000000
00000000
00000000
00000000
00000001
ffffffff
00000002
00000001
00000000
00000000
00000001
00000000
fffffffd
00000000
00000000
00000000
00000000
00000000
00000000
00000001
00000000
00000002
00000000
ffffffff
ffffffff
00000000
00000000
00000000
00000000
00000002
00000001
00000002
00000000
00000001
00000002
00000001
00000000
00000000
ffffffff
00000000
00000001
00000000
ffffffff
00000000
00000002
00000001
00000000
00000001
00000000
00000000
00000000
00000001
00000000
00000000
00000000
00000000
00000000
00000000
ffffffff
00000001
00000001
00000000
00000000
00000000
00000001
00000000
00000003
00000000
00000000
00000001
00000000
ffffffff
00000001
00000002
00000000
00000000
00000000
00000000
00000000
00000002
00000000
00000000
00000000
00000000
00000001
00000001
00000000
00000001
00000000
00000000
00000001
00000001
00000000
00000001
00000000
00000000
00000000
00000000
ffffffff
00000002
00000001
00000000
00000000
00000000
00000000
00000000
00000000
00000002
00000001
00000001
00000001
00000000
00000002
ffffffff
00000003
00000000
00000000
00000001
ffffffff
00000000
00000000
00000000
00000001
00000001
ffffffff
00000000
00000001
ffffffff
00000000
00000000
00000000
00000001
00000000
00000000
00000000
00000002
00000000
00000000
ffffffff
00000000
00000002
00000001
00000000
00000001
00000000
00000000
00000001
fffffffe
00000000
00000003
00000000
00000000
00000001
ffffffff
00000001
ffffffff
00000000
00000000
00000000
00000000
00000000
00000000
00000000
00000002
00000000
ffffffff
00000000
00000000
00000000
00000000
00000000
00000001
00000000
00000000
00000000
ffffffff
00000000
00000000
00000000
00000000
00000000
ffffffff
00000002
ffffffff
00000000
00000001
00000000
00000002
ffffffff
00000001
00000000
00000000
00000001
00000001
00000001
00000002
00000001
00000000
00000000
00000000
00000000
00000003
00000001
00000000
00000001
00000000
fffffffd
ffffffff
00000000
ffffffff
00000000
ffffffff
00000000
00000000
00000000
00000000
fffffffe
00000000
ffffffff
00000001
00000000
00000000
fffffffd
ffffffff
ffffffff
00000000
00000001
00000000
00000001
00000000
00000001
00000000
00000000
00000000
ffffffff
ffffffff
fffffffd
fffffffd
00000000
00000000
00000000
00000000
fffffffd
00000000
ffffffff
00000000
ffffffff
00000000
00000000
00000000
ffffffff
00000000
00000000
fffffffd
ffffffff
00000000
00000000
ffffffff
00000000
00000000
fffffffe
ffffffff
00000001
00000000
00000001
00000000
fffffffe
00000000
00000000
00000000
fffffffd
00000001
ffffffff
00000001
00000000
fffffffd
00000000
ffffffff
00000000
ffffffff
ffffffff
ffffffff
ffffffff
00000000
00000000
ffffffff
00000000
00000000
ffffffff
ffffffff
ffffffff
00000001
fffffffd
00000000
ffffffff
ffffffff
00000000
00000000
00000001
00000000
fffffffe
00000000
00000000
fffffffd
00000001
00000000
00000001
00000000
00000000
ffffffff
00000001
ffffffff
00000000
00000001
00000002
ffffffff
00000000
00000000
fffffffe
00000000
00000000
00000001
00000000
00000000
fffffffe
00000000
ffffffff
ffffffff
ffffffff
ffffffff
00000000
fffffffd
ffffffff
fffffffd
00000001
fffffffd
00000000
00000001
00000001
00000000
ffffffff
00000000
fffffffe
ffffffff
00000000
fffffffc
fffffffe
fffffffd
ffffffff
00000000
fffffffd
fffffffe
00000001
ffffffff
ffffffff
00000000
00000001
00000000
00000000
00000000
00000000
ffffffff
ffffffff
fffffffe
00000000
ffffffff
00000000
00000001
ffffffff
00000000
ffffffff
00000000
00000000
00000000
00000000
00000000
00000002
ffffffff
ffffffff
00000001
00000000
fffffffd
ffffffff
00000001
ffffffff
00000000
00000000
00000000
00000000
fffffffd
00000000
fffffffe
ffffffff
00000000
00000000
fffffffe
00000000
ffffffff
ffffffff
fffffffd
fffffffe
00000001
ffffffff
00000000
fffffffc
00000000
00000001
00000000
00000001
00000000
ffffffff
00000000
ffffffff
fffffffe
ffffffff
ffffffff
fffffffe
00000000
fffffffe
ffffffff
00000000
00000000
00000002
00000000
00000000
00000000
00000000
fffffffe
00000000
00000000
00000000
00000001
00000000
00000000
00000000
00000000
ffffffff
00000000
fffffffe
00000000
00000001
00000000
fffffffe
00000000
ffffffff
00000000
fffffffe
00000000
00000001
ffffffff
00000000
ffffffff
ffffffff
00000000
fffffffe
00000001
00000002
00000000
ffffffff
00000000
00000000
00000000
00000000
00000001
00000000
00000000
00000000
00000000
00000000
00000000
00000000
00000000
00000000
00000000
ffffffff
00000000
00000000
00000000
00000000
00000000
00000000
00000000
00000000
00000000
00000000
00000000
00000000
00000000
00000000
00000000
00000000
00000000
00000000
00000001
00000000
00000000
00000000
00000000
00000000
00000000
00000000
00000000
00000000
00000000
00000000
00000000
00000000
00000000
00000000
00000000
00000000
00000000
00000000
00000000
00000000
00000000
00000000
00000000
00000000
00000001
00000000
00000000
00000000
00000000
00000001
00000000
00000000
00000000
00000000
00000000
00000000
00000001
00000000
00000001
00000000
00000000
00000000
00000000
00000000
00000000
00000000
00000001
00000000
00000000
00000000
00000000
00000000
00000000
00000000
00000000
00000000
00000000
00000000
00000000
00000000
00000000
00000000
00000000
00000000
00000000
00000000
00000000
00000000
00000000
00000000
00000000
00000000
00000000
00000000
00000000
00000000
00000000
00000000
00000000
00000000
00000000
00000000
00000000
00000000
00000000
00000000
00000000
00000000
00000000
00000000
00000001
00000000
00000000
00000000
00000000
00000000
00000000
00000000
00000000
00000000
00000000
00000000
00000000
00000000
00000000
00000000
00000000
00000000
00000001
00000000
00000000
00000000
00000000
00000000
00000000
00000000
00000000
00000000
00000000
00000000
00000000
00000000
00000000
00000000
00000000
00000000
00000000
00000000
00000000
ffffffff
00000000
00000001
00000000
00000000
00000000
ffffffff
00000000
00000000
00000000
00000000
00000000
00000000
00000000
00000000
00000000
00000000
00000000
00000000
00000000
00000000
00000000
00000000
00000000
00000000
00000000
00000000
00000000
00000000
00000000
00000000
00000000
00000000
00000000
00000000
00000000
00000000
00000001
00000000
00000000
00000000
00000000
00000000
00000000
00000000
00000000
00000000
00000000
00000000
00000000
00000000
00000000
00000000
ffffffff
00000000
00000000
00000000
00000000
00000000
00000000
00000000
00000000
00000000
00000000
00000000
00000000
00000000
00000000
00000000
00000000
00000001
00000000
00000000
00000000
00000000
00000001
00000000
00000000
00000000
00000000
00000000
00000000
00000000
00000000
00000000
00000000
00000000
00000000
00000000
00000000
00000000
00000000
00000000
00000000
00000000
00000000
00000000
00000000
00000000
00000000
00000000
00000000
00000000
00000000
00000000
00000000
00000000
00000000
00000000
00000000
00000000
00000000
00000000
00000000
00000000
00000000
00000000
00000000
00000000
00000000
00000000
00000000
00000000
00000000
00000000
00000000
00000000
00000000
00000000
00000000
00000000
00000000
00000000
00000000
00000000
00000000
00000000
00000000
00000000
00000000
00000000
00000000
00000000
00000000
00000000
00000000
00000000
00000000
00000000
00000000
00000000
00000000
00000000
00000000
00000000
00000000
00000000
00000000
00000000
00000000
00000000
00000000
00000000
00000000
00000000
00000000
00000000
00000000
00000000
00000000
00000000
00000000
00000000
00000000
00000000
00000000
00000000
00000000
00000000
00000000
00000000
00000000
00000000
00000000
00000000
00000000
00000000
00000000
00000000
00000000
00000000
00000000
00000000
00000000
00000000
00000000
00000000
00000000
00000000
00000000
00000000
00000000
00000000
00000000
00000000
00000000
00000000
00000000
00000000
00000000
00000000
00000000
00000000
00000000
00000000
00000000
00000000
00000000
00000000
00000000
00000000
00000000
00000000
00000000
00000000
00000000
00000000
00000000
00000000
00000000
00000000
00000000
00000000
00000000
00000000
00000000
00000000
00000000
00000000
00000000
00000000
00000000
00000000
00000000
00000000
00000000
00000000
00000000
00000000
00000000
00000000
00000000
00000000
00000000
00000000
00000000
00000000
00000000
00000000
00000000
00000000
00000000
00000000
00000000
00000000
00000000
00000000
00000000
00000000
00000000
00000000
00000000
00000000
00000000
00000000
00000000
00000000
00000000
00000000
00000000
00000000
00000000
00000000
00000000
00000000
00000000
00000000
00000000
00000000
00000000
00000000
00000000
00000000
00000000
00000000
00000000
00000000
00000000
00000000
00000000
00000000
00000000
00000000
00000000
00000000
00000000
00000000
00000000
00000000
00000000
00000000
00000000
00000000
00000000
00000000
00000000
00000000
00000000
00000000
00000000
00000000
00000000
00000000
00000000
00000000
00000000
00000000
00000000
00000000
00000000
00000000
00000000
00000000
00000000
00000000
00000000
00000000
00000000
00000000
00000000
00000000
00000000
00000000
00000000
00000000
00000000
00000000
00000000
00000000
00000000
00000000
00000000
00000000
00000000
00000000
00000000
00000000
00000000
00000000
00000000
00000000
00000000
00000000
00000000
00000000
00000000
00000000
00000000
00000000
00000000
00000000
00000000
00000000
00000000
00000000
00000000
00000000
00000000
00000000
00000000
00000000
00000000
00000000
00000000
00000000
00000000
00000000
00000000
00000000
00000000
00000000
00000000
00000000
00000000
00000000
00000000
00000000
00000000
00000000
00000000
00000000
00000000
00000000
00000000
00000000
00000000
00000000
00000000
00000000
00000000
00000000
00000000
00000000
00000000
00000000
00000000
00000000
00000000
00000000
00000000
00000000
00000000
00000000
00000000
00000000
00000000
00000000
00000000
00000000
00000000
00000000
00000000
00000000
00000000
00000000
00000000
00000000
00000000
00000000
00000000
00000000
00000000
00000000
00000000
00000000
00000000
00000000
00000000
00000000
00000000
