00000007
00000001
fffffffa
00000009
00000001
fffffff4
00000005
00000004
fffffff9
fffffff7
00000002
00000007
fffffffd
00000008
ffffffff
fffffffb
00000003
fffffff5
fffffffc
ffffffff
00000009
fffffffb
00000006
00000002
fffffffa
00000003
00000005
fffffffe
fffffffb
fffffffb
00000001
fffffff6
fffffff9
00000001
ffffffff
fffffffe
fffffffc
00000002
fffffff8
fffffffe
0000000a
fffffffe
ffffffff
00000003
00000000
fffffff6
fffffffb
00000008
fffffffd
00000004
00000001
fffffffb
00000003
fffffff8
00000012
0000001d
ffffffec
0000001a
00000014
ffffffe3
0000002b
00000002
ffffffe3
fffffffd
00000000
00000000
fffffffd
fffffffd
00000000
00000000
00000002
00000006
ffffffff
00000004
fffffffb
ffffffff
00000006
fffffffb
00000000
00000006
fffffff3
00000001
fffffff2
00000006
fffffffe
fffffffe
00000004
ffffffef
00000000
0000000b
fffffffe
00000000
fffffffd
fffffffe
00000006
00000003
00000006
00000007
00000002
fffffffc
fffffffb
fffffff6
00000003
00000005
fffffff8
00000005
00000008
fffffffd
ffffffff
00000001
fffffffb
fffffff7
00000000
ffffffee
00000001
00000000
fffffff4
ffffffff
fffffffb
fffffffa
00000006
fffffff1
00000000
00000005
fffffffa
00000004
fffffffb
fffffff9
00000004
fffffffa
fffffff8
00000001
fffffff7
fffffffa
00000005
fffffffe
00000009
fffffffe
00000003
00000005
fffffff4
00000005
00000000
fffffff7
00000001
0000000b
fffffffa
00000002
00000008
fffffff3
00000003
00000001
fffffff9
00000002
ffffffe8
0000000d
fffffffd
ffffffdf
0000000c
fffffff7
fffffff8
00000014
00000003
fffffffc
fffffff7
00000000
fffffffd
00000004
fffffffb
00000002
00000001
ffffffff
fffffffb
00000002
00000007
00000004
00000002
00000003
00000005
ffffffff
fffffff9
ffffffff
fffffffc
fffffff5
ffffffff
fffffff7
fffffff8
00000009
00000004
00000001
00000005
fffffff5
0000000b
00000009
fffffffb
00000005
00000004
fffffffb
00000007
00000004
fffffffa
00000007
00000002
fffffff7
00000003
fffffffc
fffffffc
00000001
fffffffe
0000000c
00000003
00000001
0000000e
fffffffc
fffffffa
0000000c
fffffffc
fffffff9
0000000b
fffffff7
fffffffd
00000004
fffffff3
00000004
00000005
00000000
00000000
fffffffa
ffffffff
ffffffff
ffffffff
fffffffc
fffffffd
00000000
fffffffb
fffffffd
00000009
fffffffc
fffffffb
0000000a
fffffffb
00000007
00000007
00000001
fffffffb
fffffffb
00000000
fffffff6
fffffffc
fffffffe
fffffff9
fffffffd
fffffff6
00000004
00000006
fffffff5
fffffff8
00000000
ffffffeb
fffffffd
00000004
00000006
00000015
ffffffe1
00000010
0000001b
ffffffcf
00000019
00000002
ffffffe2
fffffff5
00000000
00000005
ffffffeb
00000000
00000000
ffffffed
00000007
00000003
fffffff3
fffffffe
00000010
fffffff1
00000002
0000000f
fffffff2
00000002
00000007
fffffffe
fffffffd
fffffffb
00000000
fffffffd
00000000
00000002
00000000
00000001
00000000
fffffffc
00000002
00000001
ffffffff
ffffffff
00000002
fffffffe
ffffffff
00000007
00000003
00000000
fffffffd
fffffffc
fffffffd
fffffffb
fffffffb
00000000
fffffffb
fffffff5
fffffffc
00000002
fffffffc
ffffffff
00000003
00000005
00000002
fffffffe
fffffffc
fffffff8
00000000
00000007
00000003
fffffffe
00000003
00000008
ffffffff
fffffffe
00000003
00000001
fffffffe
00000003
00000001
fffffffc
fffffffe
00000002
fffffffa
fffffffd
00000006
00000003
00000007
00000000
ffffffff
00000000
00000002
00000002
00000000
00000000
00000002
fffffffe
ffffffff
00000000
00000000
00000001
00000000
00000000
fffffffc
ffffffff
ffffffff
fffffff6
fffffffa
fffffff8
00000002
ffffffff
00000001
00000001
fffffffe
00000000
ffffffff
fffffffe
00000000
fffffffe
00000000
00000002
fffffffe
fffffff9
fffffffe
00000000
00000000
00000002
fffffffc
fffffffd
00000000
00000001
00000002
fffffffe
00000000
00000002
fffffffd
00000004
00000006
00000001
fffffff7
fffffff8
fffffffe
fffffffb
fffffffe
ffffffff
00000002
fffffffe
00000000
fffffffe
fffffffd
00000002
fffffffc
fffffffc
00000000
00000002
00000005
0000000b
fffffffd
00000000
00000007
00000006
ffffffff
fffffffc
fffffffc
fffffffd
00000001
00000000
fffffffe
00000000
00000003
ffffffff
ffffffff
00000003
0000000b
ffffffff
fffffffd
00000004
fffffffe
ffffffff
00000004
ffffffff
fffffff9
fffffff9
00000000
00000003
00000002
00000005
00000003
00000005
00000000
fffffffa
fffffff6
fffffff9
00000003
00000003
00000006
00000000
ffffffff
00000001
00000017
00000026
00000014
fffffff3
fffffff2
fffffff0
ffffffef
ffffffec
fffffff7
fffffff9
fffffffb
fffffff8
ffffffff
fffffffa
fffffffc
00000006
00000005
00000004
ffffffee
ffffffed
fffffff1
00000003
00000010
00000008
00000005
0000000b
00000008
fffffffc
fffffffe
ffffffff
fffffffd
00000000
fffffffd
fffffffe
00000000
ffffffff
fffffffb
fffffff8
fffffffe
00000008
00000000
fffffff9
00000001
00000006
fffffffd
00000000
fffffffc
fffffffd
ffffffff
fffffffe
00000002
00000000
00000002
00000001
0000000a
0000000a
00000003
00000001
fffffffe
fffffffd
fffffffc
fffffffe
00000004
fffffffc
fffffff3
fffffffd
0000000a
0000000c
00000004
fffffffe
00000000
ffffffff
fffffffa
fffffffe
00000005
fffffffb
fffffff7
fffffffb
fffffffb
fffffff5
fffffff7
fffffffa
00000001
ffffffff
ffffffff
fffffffb
00000000
fffffffe
00000000
00000000
ffffffff
00000006
fffffff8
fffffffb
00000004
fffffffb
fffffff9
00000003
fffffffd
00000000
ffffffff
00000000
fffffffd
00000001
ffffffff
00000000
00000000
fffffffe
00000001
ffffffff
00000001
00000000
fffffffd
00000001
00000000
fffffffe
00000002
00000003
ffffffff
00000001
00000004
ffffffff
00000005
00000002
00000002
00000000
fffffffb
fffffffb
00000003
ffffffff
fffffffc
00000006
00000002
fffffffd
00000004
00000006
fffffffa
fffffff9
00000002
fffffff3
fffffff7
00000003
fffffffd
fffffffc
00000006
fffffff3
fffffffd
00000009
fffffff4
fffffffb
00000002
ffffffff
00000003
00000003
00000004
ffffffff
00000004
00000002
0000000b
00000001
fffffff7
00000007
fffffffb
00000003
00000000
fffffffd
fffffffd
00000005
ffffffff
fffffffc
ffffffff
0000000a
ffffffff
00000002
0000000c
fffffff8
00000001
0000000b
00000002
00000004
00000002
fffffffe
fffffffb
00000000
00000005
fffffffb
fffffffc
00000004
00000000
fffffffd
ffffffff
00000002
fffffffb
fffffffa
0000000a
fffffffb
00000000
00000005
00000000
00000000
fffffffd
fffffff9
00000003
fffffffa
fffffffb
00000004
00000002
00000004
fffffffd
fffffffe
00000001
fffffffa
fffffffb
00000004
fffffffd
ffffffff
fffffffc
fffffff9
00000001
00000000
fffffff6
00000000
0000000b
fffffffe
00000004
00000003
fffffff9
fffffff3
fffffffd
fffffff3
fffffff7
ffffffff
fffffffa
fffffffa
fffffff7
ffffffff
00000002
fffffffd
00000002
fffffffd
00000000
fffffffd
fffffff9
0000000c
fffffff5
fffffffa
0000001f
0000000e
ffffffca
0000000b
0000000e
ffffffe1
00000002
00000003
00000005
00000000
fffffffc
00000005
fffffffd
00000004
00000004
00000002
00000002
00000001
00000002
fffffffd
00000000
00000002
fffffff9
00000004
fffffffa
00000002
fffffff9
fffffffa
00000006
00000001
fffffff8
00000004
fffffff9
00000000
00000001
fffffff5
fffffffe
00000000
fffffff4
00000002
00000002
fffffffa
fffffffa
fffffff7
00000008
00000004
fffffffd
00000003
00000001
00000007
fffffffc
fffffff6
00000000
00000004
fffffff5
fffffff9
0000000a
fffffffd
fffffffe
00000003
00000004
fffffffe
00000002
0000000f
ffffffed
fffffffd
00000008
fffffff9
00000001
00000001
00000001
00000001
00000000
00000000
00000003
00000001
00000002
00000006
fffffff9
fffffffb
fffffffc
00000005
fffffff3
fffffff2
00000000
fffffff0
fffffff7
ffffffff
fffffffe
00000003
fffffffe
fffffffe
fffffffd
00000004
00000000
fffffffd
fffffff0
00000011
fffffffa
ffffffd1
00000020
00000007
ffffffe3
0000000c
00000005
fffffff7
00000005
00000004
ffffffe3
0000000a
0000001c
fffffff5
00000001
0000000b
fffffffc
fffffffc
00000003
fffffff6
fffffff8
fffffffd
fffffffb
fffffffa
00000003
00000003
00000009
fffffffd
00000001
00000009
00000007
ffffffff
00000002
fffffffe
00000000
fffffffc
00000003
00000004
fffffff4
0000000c
fffffffe
fffffffb
0000000a
fffffff9
fffffff4
ffffffff
00000005
00000000
00000002
00000003
fffffffa
00000000
00000000
00000002
ffffffff
fffffff7
fffffffd
00000000
00000001
00000002
00000004
fffffffd
fffffffa
fffffff8
fffffffb
fffffff9
fffffff6
fffffffc
fffffff8
fffffff5
fffffffb
fffffffc
00000004
fffffff8
fffffff9
00000000
fffffff8
fffffffb
00000002
00000002
00000002
00000000
00000002
00000001
00000002
ffffffff
00000001
00000001
fffffffd
fffffffe
ffffffff
00000002
fffffffe
fffffffe
00000001
00000000
ffffffff
00000000
ffffffff
00000000
00000001
00000001
00000001
00000000
ffffffff
00000001
fffffffb
fffffff5
ffffffff
fffffff4
fffffff2
fffffff9
fffffff5
fffffff3
fffffffc
fffffffd
fffffffd
ffffffff
ffffffff
fffffffe
fffffffd
fffffffe
fffffffb
fffffffd
00000005
00000005
00000003
00000007
00000004
00000002
00000006
00000004
00000002
00000000
00000002
ffffffff
00000002
00000000
00000000
00000000
fffffffe
ffffffff
00000001
fffffffb
fffffff8
00000001
fffffffb
fffffff8
00000002
fffffffc
fffffff7
ffffffff
00000002
fffffffe
00000001
00000001
00000002
00000000
00000001
00000002
00000001
00000006
00000004
00000006
00000009
0000000a
00000002
00000004
00000005
00000002
00000003
00000001
00000002
00000003
00000000
ffffffff
ffffffff
00000000
00000000
00000002
00000002
00000001
00000001
00000000
00000001
00000000
00000000
ffffffff
00000000
00000002
00000003
00000000
fffffffd
00000001
00000001
00000004
fffffffd
ffffffff
fffffffd
fffffffb
fffffffe
00000000
fffffffe
ffffffff
00000000
00000000
00000003
00000003
ffffffff
ffffffff
00000001
00000000
00000000
fffffffd
ffffffff
ffffffff
fffffffe
00000000
ffffffff
fffffffc
00000002
00000000
fffffffe
ffffffff
fffffffe
fffffffd
00000000
00000002
ffffffff
fffffffe
ffffffff
00000001
00000001
00000006
fffffffd
00000002
00000000
00000000
00000002
00000000
00000003
00000001
ffffffff
ffffffff
fffffffe
fffffffd
00000001
fffffffe
00000000
00000002
00000000
ffffffff
00000002
00000001
00000002
00000001
00000000
00000001
00000002
fffffff7
fffffff6
fffffff7
fffffff8
fffffff7
fffffff7
fffffff9
fffffff8
fffffff7
00000000
00000001
fffffffe
ffffffff
00000000
00000000
fffffffe
fffffffd
fffffffd
00000001
ffffffff
fffffffe
00000000
00000000
00000001
fffffffe
00000000
00000001
00000001
00000001
00000000
00000000
00000000
00000003
00000002
00000000
00000000
00000001
00000000
00000000
00000000
00000001
00000002
00000001
00000003
00000002
00000000
00000001
00000001
00000001
00000003
00000003
00000001
00000002
00000002
00000002
00000001
00000001
00000001
00000003
00000003
00000001
00000001
00000002
ffffffff
ffffffff
ffffffff
ffffffff
00000000
00000000
00000000
ffffffff
00000000
00000001
00000003
00000000
00000003
00000001
00000001
00000000
00000002
00000000
fffffffd
fffffff8
fffffff9
fffffffb
fffffff6
fffffffa
fffffff8
fffffff5
fffffffb
00000002
fffffffa
00000000
00000003
fffffffb
fffffffe
00000005
ffffffff
ffffffff
00000000
fffffffb
00000001
ffffffff
fffffffd
00000006
00000000
00000000
00000005
fffffffe
ffffffff
ffffffff
fffffffe
fffffffd
00000001
fffffffe
fffffffe
00000000
00000001
00000001
fffffffe
ffffffff
00000003
00000000
ffffffff
ffffffff
00000000
fffffffe
00000000
00000000
00000002
fffffffd
00000001
fffffffe
fffffffb
ffffffff
00000002
ffffffff
fffffffc
00000001
ffffffff
00000001
fffffffe
ffffffff
00000000
00000004
00000006
00000001
00000004
00000006
00000004
00000001
00000004
00000003
00000002
fffffffc
00000000
00000005
fffffffc
fffffffc
00000009
ffffffff
fffffffc
fffffffa
fffffffd
00000001
fffffffd
fffffffc
00000000
fffffffe
ffffffff
00000000
00000001
00000000
fffffffd
00000004
ffffffff
fffffffd
00000002
00000003
00000000
fffffffd
00000000
00000000
ffffffff
fffffffe
00000000
fffffffe
ffffffff
00000000
00000001
fffffff8
fffffff6
0000000b
fffffffe
fffffff2
0000000a
00000004
fffffffe
00000006
00000000
fffffffc
00000000
00000004
00000004
00000002
00000001
00000003
00000001
fffffffd
fffffffd
fffffffd
ffffffff
fffffffd
00000000
00000001
fffffffd
fffffff5
fffffff3
fffffff5
ffffffed
ffffffeb
ffffffef
fffffff5
fffffff2
fffffff7
00000002
00000003
00000002
00000007
00000002
00000001
00000004
00000003
00000000
ffffffff
ffffffff
00000000
00000001
00000002
00000003
00000000
ffffffff
00000000
fffffffc
fffffffd
00000000
00000003
fffffffc
ffffffff
00000003
00000000
fffffffe
00000001
00000000
00000001
00000001
00000000
00000002
00000000
00000000
ffffffff
00000003
00000005
00000001
00000001
00000001
00000005
00000002
00000002
00000004
fffffffd
fffffff9
fffffffd
fffffff9
fffffff5
00000001
00000002
fffffffb
fffffffe
fffffffe
fffffff9
fffffffa
fffffffb
fffffff8
fffffffb
fffffff8
fffffffa
fffffffe
00000000
fffffffc
fffffffe
00000001
fffffffd
00000001
00000003
00000001
00000001
fffffffd
fffffffb
fffffffd
fffffffe
fffffff7
fffffffb
00000002
fffffffd
fffffffd
00000000
00000001
00000003
00000002
ffffffff
00000000
fffffffe
00000000
ffffffff
00000004
00000006
00000009
00000006
00000009
00000005
00000009
00000007
00000004
00000008
0000000a
00000006
00000008
00000008
00000008
00000004
00000004
00000004
fffffffd
fffffff9
fffffffb
ffffffff
fffffffc
fffffffc
ffffffff
fffffffd
00000000
fffffffe
00000001
fffffffd
fffffffd
fffffffd
fffffffb
00000000
ffffffff
fffffffd
fffffffe
ffffffff
00000004
00000000
ffffffff
00000005
00000003
00000000
00000000
00000001
fffffffe
00000002
00000004
fffffffe
00000003
00000000
00000003
00000000
ffffffff
ffffffff
00000001
ffffffff
fffffffd
ffffffff
00000003
00000000
fffffffc
00000002
00000000
00000000
fffffffb
00000001
00000008
00000002
fffffffe
00000003
fffffffd
00000001
00000001
ffffffff
fffffffc
fffffffd
00000007
00000004
fffffffe
fffffff8
fffffffa
00000002
ffffffe8
ffffffed
ffffffff
fffffff5
fffffff1
fffffffe
00000007
00000005
00000001
00000006
0000000d
00000001
00000009
00000008
00000004
fffffffa
fffffffe
00000003
fffffff5
fffffffc
00000006
fffffff9
fffffffb
00000000
00000000
00000006
00000003
fffffffa
00000001
00000002
00000000
00000003
fffffffe
fffffff4
ffffffee
ffffffee
0000000f
00000007
00000006
0000000b
00000012
0000001c
00000001
fffffffe
fffffffc
00000003
00000001
fffffffe
00000004
fffffffd
fffffffd
fffffffd
00000002
00000000
00000000
00000005
00000002
fffffffa
00000004
00000001
00000009
00000006
00000001
ffffffff
00000000
00000005
00000001
fffffff3
fffffff9
fffffff8
fffffffc
fffffffa
ffffffec
ffffffee
fffffffa
fffffff4
fffffff1
fffffff7
fffffffa
00000004
00000005
fffffff4
fffffffa
00000001
ffffffff
00000000
ffffffff
fffffffc
ffffffff
00000005
fffffff3
fffffff3
fffffffc
fffffff7
fffffff6
fffffffc
00000008
00000007
00000003
0000000a
00000007
fffffffe
00000005
ffffffff
fffffff8
00000002
ffffffff
00000000
00000007
00000003
fffffffc
00000003
00000005
ffffffff
00000002
00000003
ffffffff
0000000a
00000009
00000000
00000008
00000008
00000003
fffffff9
00000001
00000002
fffffffa
00000005
00000004
fffffffb
00000005
00000005
0000000b
00000006
00000000
00000006
fffffffd
fffffffd
00000005
fffffff9
fffffff7
fffffff9
fffffffe
00000001
fffffffc
fffffff8
fffffffa
00000005
ffffffff
fffffffc
fffffffd
00000000
00000001
00000001
00000001
00000000
fffffffd
00000002
00000008
fffffff2
fffffffa
00000003
ffffffe8
ffffffe8
00000000
fffffffd
fffffff1
00000004
00000001
fffffffe
00000000
00000006
00000006
fffffffb
00000000
0000000b
00000006
ffffffff
00000002
00000002
ffffffff
ffffffff
00000003
00000006
00000003
00000001
fffffffe
00000000
00000003
fffffffe
ffffffef
fffffff9
ffffffff
fffffff1
ffffffe9
fffffff9
fffffffc
ffffffff
fffffff4
fffffff3
ffffffff
fffffffa
fffffff3
fffffffc
00000004
00000004
00000000
0000000a
00000009
00000000
00000003
00000007
00000007
fffffffd
fffffffd
fffffffe
fffffff7
fffffff4
fffffffe
fffffffd
fffffff7
fffffffa
00000003
00000004
00000000
0000000c
0000000e
00000003
00000009
0000000e
00000004
00000007
00000004
00000003
fffffff4
00000001
00000001
fffffff8
fffffff1
ffffffff
fffffff2
ffffffff
00000001
fffffffd
0000000a
00000005
fffffffb
00000006
0000000d
00000003
00000003
00000003
fffffff4
fffffff9
fffffffc
fffffff3
ffffffee
fffffffc
00000000
00000001
00000007
fffffff0
fffffff3
00000006
fffffff9
fffffff0
00000001
ffffffff
00000004
00000002
00000006
fffffffe
fffffff6
fffffffc
00000000
00000004
00000000
00000001
00000003
00000001
00000001
00000000
00000000
fffffffd
fffffffc
00000001
00000009
00000007
00000005
00000000
fffffff5
fffffffb
fffffffa
fffffffb
00000005
fffffff7
ffffffff
00000002
fffffffc
00000008
00000003
00000000
00000005
fffffffa
fffffffb
fffffffa
fffffff9
00000007
00000006
00000007
00000000
fffffff7
fffffff9
fffffffd
00000000
00000002
0000000a
00000006
00000001
fffffff9
fffffffa
00000007
00000008
00000001
00000000
00000002
ffffffff
fffffff9
00000001
fffffffe
00000005
00000002
00000001
00000003
00000000
00000001
fffffffd
fffffffe
fffffffd
ffffffff
fffffffe
fffffffc
fffffffe
0000000d
00000002
0000000a
fffffffd
fffffff5
fffffffa
fffffff5
fffffffe
00000002
0000000a
0000000a
00000002
fffffffd
fffffffd
fffffffd
00000004
00000000
00000004
00000015
00000009
00000003
fffffffa
fffffffa
fffffff9
fffffffb
00000003
00000003
00000001
fffffffb
00000000
fffffffc
ffffffff
fffffffb
fffffff5
fffffffc
00000003
00000002
00000000
ffffffff
fffffff9
fffffffe
00000001
fffffffb
fffffffe
fffffffd
fffffffd
00000001
00000001
00000006
00000002
fffffffb
fffffff3
fffffff1
fffffffe
ffffffff
00000009
0000000b
00000009
00000008
00000005
00000000
00000003
00000000
fffffffc
00000003
fffffffe
00000000
00000005
00000001
fffffffe
fffffffe
00000001
00000005
00000002
00000001
fffffffd
fffffffd
00000009
00000006
fffffff8
fffffff7
ffffffe1
ffffffff
00000001
00000011
0000000b
fffffffc
fffffffb
00000000
00000000
00000005
fffffffe
00000004
00000001
fffffffd
fffffffc
fffffffa
fffffffc
fffffff7
00000003
00000007
00000009
00000009
fffffff9
fffffff5
fffffffc
00000003
0000000e
0000000b
fffffffd
fffffff3
fffffff9
ffffffff
00000002
00000005
00000006
00000008
fffffffe
fffffff9
fffffffb
fffffff8
fffffffa
00000001
fffffffe
fffffffd
ffffffff
fffffffd
ffffffff
00000002
00000003
fffffffe
00000003
00000001
00000004
fffffffc
fffffffb
00000002
00000003
00000007
00000002
fffffff9
00000000
00000002
00000000
00000005
fffffff9
00000003
fffffff6
fffffffc
00000006
00000004
00000003
fffffff9
fffffff3
00000000
fffffffa
00000001
00000003
fffffffe
0000000b
0000000b
00000004
00000006
fffffff9
fffffffc
fffffff6
fffffffa
fffffffd
fffffff4
fffffffe
fffffff4
fffffff0
00000002
fffffffd
00000001
00000001
ffffffff
00000001
00000000
fffffffd
00000000
ffffffff
00000000
fffffffc
00000001
fffffff9
00000005
ffffffff
00000008
00000004
fffffff5
fffffff8
ffffffff
fffffff5
fffffff7
fffffff6
fffffffe
ffffffff
00000002
00000001
00000008
00000006
00000000
fffffff9
00000001
00000008
0000000a
00000009
fffffffe
00000000
fffffffa
fffffffa
00000003
00000002
00000001
fffffffa
fffffffe
fffffffe
fffffffc
00000005
00000002
00000004
00000000
00000006
00000002
fffffffe
00000002
fffffff9
fffffffb
fffffffc
00000002
00000004
00000001
00000003
00000003
00000004
ffffffff
00000001
00000003
fffffff7
ffffffe6
ffffffe8
ffffffed
ffffffe4
fffffff3
fffffff0
fffffff1
fffffff9
00000006
00000003
00000005
00000004
00000001
00000001
00000001
fffffffe
00000003
00000004
fffffffc
fffffffc
00000001
fffffffa
00000000
ffffffff
fffffffc
00000002
fffffffe
00000009
0000000d
00000001
00000001
00000000
00000003
fffffffb
fffffff8
00000004
ffffffff
00000003
00000001
fffffffe
00000001
fffffffc
fffffffe
00000000
00000001
fffffffe
00000003
ffffffff
fffffffa
00000004
fffffff7
fffffffc
00000004
00000002
fffffff9
fffffff9
fffffffc
fffffffb
fffffffe
00000001
00000004
00000004
00000002
00000004
00000007
00000007
00000004
00000008
00000004
00000002
00000002
00000002
fffffffb
fffffffc
fffffffd
fffffffb
00000005
fffffff9
fffffffd
00000008
00000005
fffffff1
fffffffc
fffffff5
ffffffeb
fffffffe
fffffff3
fffffff2
00000005
fffffff3
ffffffec
fffffff4
fffffff0
fffffff1
fffffffb
ffffffee
fffffff3
fffffffd
00000003
00000004
fffffffe
00000004
ffffffff
fffffffe
00000004
fffffffc
00000001
fffffffc
fffffff9
fffffffb
fffffff4
fffffff9
00000001
fffffff7
00000000
00000005
ffffffff
fffffffb
00000001
fffffffb
fffffffb
00000005
fffffff9
00000001
00000003
fffffffd
0000000c
00000005
00000007
0000000a
00000000
0000000c
00000006
fffffff5
00000009
00000000
fffffffd
00000003
fffffffc
00000003
00000001
ffffffff
00000002
fffffffe
00000000
00000000
fffffffe
ffffffff
fffffffc
ffffffff
fffffffb
fffffffd
00000005
00000000
00000005
ffffffff
fffffffd
00000003
ffffffff
00000000
0000000a
fffffffb
fffffff7
fffffff8
fffffff3
fffffff4
ffffffff
fffffff0
fffffff8
00000003
00000000
00000000
00000005
ffffffff
ffffffff
00000002
fffffffd
00000001
00000003
00000005
00000003
00000001
ffffffff
00000002
fffffffd
00000007
fffffffd
fffffffe
00000003
00000005
00000003
00000008
00000007
00000002
00000007
00000007
00000001
fffffffb
fffffff7
fffffff8
fffffffa
fffffffb
fffffffd
fffffff7
fffffffc
fffffffe
00000006
0000000c
00000007
0000000b
00000006
00000004
0000000a
00000002
00000003
fffffffc
fffffff5
fffffff5
fffffff6
fffffff4
fffffffb
fffffff3
fffffff8
ffffffff
00000002
00000006
00000001
00000000
ffffffff
00000002
00000005
00000005
00000001
fffffffe
fffffffd
00000007
fffffff6
ffffffff
00000008
fffffff5
00000001
00000007
00000000
ffffffff
fffffffd
00000001
00000002
00000001
00000008
00000006
00000002
00000005
00000005
00000000
00000004
00000003
00000003
00000005
00000003
00000004
00000000
00000002
00000005
fffffffd
fffffff5
00000002
00000004
fffffffc
00000001
00000001
ffffffff
ffffffff
00000000
fffffffb
fffffffe
00000002
00000001
00000002
00000006
fffffff9
fffffffb
0000000a
00000003
fffffff7
00000003
00000007
00000001
fffffff2
00000004
00000002
fffffffa
fffffff7
ffffffff
ffffffff
fffffff9
00000002
00000001
fffffff8
fffffff7
fffffff9
ffffffeb
fffffff6
fffffffc
fffffff7
fffffff7
00000003
00000001
00000001
00000000
fffffffd
00000002
fffffffe
fffffffc
fffffffd
0000000a
fffffffd
fffffffe
00000005
0000000b
fffffffe
fffffff8
00000006
00000004
fffffffe
00000003
00000002
00000000
00000000
00000000
ffffffff
00000000
00000000
00000005
00000007
00000002
00000004
00000006
00000000
fffffffe
00000003
00000003
fffffffe
0000000a
00000000
fffffffa
fffffffa
00000001
fffffffc
fffffff9
00000000
00000007
00000001
00000000
00000005
00000007
fffffffe
00000003
00000003
00000000
fffffffd
fffffff7
00000001
fffffff5
fffffff1
00000002
fffffffb
fffffff9
fffffff9
fffffff7
00000006
0000000a
fffffff3
ffffffed
00000001
fffffff4
ffffffef
fffffff3
ffffffff
00000005
ffffffff
00000001
00000004
00000004
00000001
ffffffff
00000001
fffffff9
00000002
0000000d
fffffffe
ffffffeb
00000002
00000009
fffffffd
ffffffea
00000002
00000008
00000007
ffffffee
fffffffb
00000008
fffffffc
fffffff7
00000003
00000000
fffffffc
00000001
fffffffa
fffffffc
fffffffa
fffffffa
fffffffc
fffffffa
fffffff8
fffffffa
fffffffd
fffffffa
00000004
00000004
fffffffe
fffffff7
00000006
fffffffe
ffffffee
00000003
00000003
fffffffc
fffffffb
00000004
00000003
ffffffff
00000011
00000007
fffffff8
00000012
0000001e
fffffffb
0000000e
00000011
fffffffe
fffffffe
fffffffa
00000003
fffffff8
fffffff1
fffffffd
fffffff9
fffffffc
fffffffc
ffffffee
ffffffff
0000000d
ffffffec
ffffffd4
0000000a
00000005
ffffffeb
fffffffd
fffffffc
fffffff7
00000002
00000004
00000002
ffffffff
00000002
00000004
00000003
00000006
00000003
0000000b
00000004
fffffff8
00000004
00000001
fffffffe
00000001
00000006
fffffffc
fffffffd
00000007
ffffffff
fffffffe
00000004
00000004
00000000
0000000d
fffffff6
fffffffe
0000000a
00000010
fffffff4
ffffffff
00000007
00000003
0000000c
fffffff7
fffffff7
00000004
00000008
fffffffe
fffffffb
0000000b
00000009
00000000
00000000
ffffffff
00000000
fffffffd
fffffffe
fffffffe
00000000
ffffffff
00000003
ffffffff
00000002
ffffffff
00000006
ffffffff
fffffffe
00000003
00000003
00000005
fffffff7
00000007
fffffffe
fffffffc
fffffff9
fffffffc
00000002
fffffffb
fffffff8
fffffffd
00000003
fffffff9
fffffffb
ffffffff
fffffffa
fffffffa
fffffffc
00000001
fffffffe
00000003
00000002
fffffffc
fffffffd
ffffffff
fffffffe
ffffffff
ffffffff
fffffffa
ffffffff
ffffffff
fffffffb
ffffffff
fffffffe
fffffffb
ffffffff
00000003
fffffffe
00000003
00000003
fffffffe
00000003
fffffffd
fffffffe
fffffffe
ffffffff
fffffffc
ffffffff
ffffffff
fffffffd
ffffffff
ffffffff
ffffffff
fffffffd
fffffffe
fffffffb
fffffffc
fffffffb
fffffff9
fffffffe
fffffffb
fffffffc
fffffffd
00000000
fffffffd
00000002
00000004
00000001
00000004
00000001
00000001
00000003
00000005
00000001
00000001
00000003
fffffffe
00000001
00000001
fffffffd
00000001
fffffffc
fffffff9
fffffffc
fffffff7
ffffffee
fffffff8
00000004
00000001
00000004
00000002
ffffffff
00000002
00000004
ffffffff
00000002
00000003
00000001
00000001
00000000
00000003
00000001
00000003
00000001
00000003
00000001
fffffffd
00000001
fffffffb
ffffffff
00000003
00000000
00000000
00000007
00000002
00000003
00000003
fffffffc
fffffffb
fffffffc
fffffffe
fffffffa
fffffffb
00000000
fffffffd
fffffffd
fffffffb
fffffff0
fffffffc
00000000
fffffff3
fffffffe
00000003
fffffffd
ffffffff
00000001
fffffff4
00000002
ffffffff
fffffff1
fffffffe
00000002
fffffffa
00000001
00000000
ffffffff
ffffffff
ffffffff
ffffffff
00000001
00000000
00000001
00000001
fffffffd
fffffff8
fffffffd
ffffffff
fffffff1
fffffff9
fffffffc
fffffffe
fffffffe
00000002
fffffffe
fffffffe
00000003
00000001
00000001
00000001
00000001
00000003
00000001
00000000
00000001
00000001
ffffffff
00000000
00000000
00000002
00000000
ffffffff
fffffffb
ffffffff
fffffffc
00000001
ffffffff
00000000
fffffffe
fffffffe
00000001
ffffffff
ffffffff
00000002
00000001
00000004
ffffffff
00000001
00000001
00000003
00000006
00000001
00000002
00000003
00000003
00000000
00000000
00000000
fffffffc
fffffff5
00000000
ffffffff
fffffff7
00000000
00000000
00000000
ffffffff
ffffffff
00000002
00000001
00000001
00000001
00000001
fffffffb
fffffffe
fffffffd
fffffffe
fffffff9
00000001
fffffffe
fffffff9
ffffffff
fffffffe
fffffffd
fffffffe
fffffffd
fffffffa
ffffffff
fffffffe
fffffff9
00000001
fffffffe
ffffffff
ffffffff
00000002
00000000
00000001
00000001
00000000
00000000
00000001
00000001
ffffffff
fffffffc
fffffff9
fffffffe
fffffffb
fffffff5
ffffffff
fffffffe
fffffffe
ffffffff
fffffffd
fffffff6
fffffffe
ffffffff
fffffff7
fffffffc
00000000
fffffffe
fffffffe
00000003
00000001
00000000
ffffffff
00000002
00000003
00000000
00000000
00000003
fffffffd
00000000
ffffffff
fffffffd
fffffff8
ffffffff
00000001
00000003
ffffffff
00000000
fffffff9
ffffffff
ffffffff
fffffff6
00000000
00000001
fffffffb
00000001
fffffffe
fffffffb
ffffffff
fffffffe
fffffff9
00000000
00000002
00000004
ffffffff
00000004
00000005
ffffffff
00000003
00000003
00000000
00000000
ffffffff
fffffffd
00000004
fffffffa
00000000
00000000
fffffff8
00000000
00000000
ffffffff
00000004
00000001
fffffffe
00000003
00000000
fffffffb
00000001
fffffffd
fffffffe
00000002
fffffffb
00000003
fffffffe
00000000
00000002
00000000
00000001
00000001
ffffffff
00000002
00000002
00000001
00000000
00000002
00000000
fffffffe
00000001
00000001
00000002
00000001
fffffffe
ffffffff
fffffffc
fffffffc
fffffffa
fffffff9
00000002
fffffffd
00000001
00000001
00000000
fffffffe
00000000
00000001
00000000
00000000
fffffffa
00000008
00000009
00000002
0000000e
00000008
00000007
0000000a
00000001
00000003
ffffffff
00000004
fffffffe
fffffffb
00000003
fffffffc
fffffffc
00000006
00000001
00000000
00000000
00000002
ffffffff
00000000
ffffffff
00000001
00000000
00000003
fffffffe
fffffffa
00000003
fffffffd
ffffffff
00000002
fffffffe
00000001
00000001
00000001
00000002
00000003
00000003
00000002
00000000
00000001
ffffffff
fffffffe
fffffffa
00000001
fffffffc
fffffffa
00000006
ffffffff
00000000
0000000b
00000005
fffffffd
00000002
00000006
fffffffa
ffffffff
fffffffe
fffffffa
00000001
00000002
00000002
ffffffff
00000002
00000002
00000004
00000004
00000005
00000001
00000007
0000000c
00000010
00000009
00000016
00000010
00000008
0000000c
0000000a
fffffffd
ffffffff
ffffffff
ffffffff
fffffffb
00000001
ffffffff
ffffffff
00000000
00000000
ffffffff
00000000
00000000
00000001
00000002
ffffffff
00000003
00000000
fffffffc
fffffff9
00000001
fffffffe
ffffffff
00000005
fffffffe
00000000
00000002
00000001
fffffffb
00000002
ffffffff
fffffffb
00000004
fffffffe
fffffffc
00000003
00000006
00000008
00000005
00000008
0000000c
00000002
00000007
00000008
00000006
00000003
fffffffe
00000001
fffffffd
fffffff9
00000001
fffffffa
fffffffd
00000007
fffffffd
fffffff4
fffffffc
fffffff9
fffffff2
fffffffb
fffffffb
fffffffa
fffffffe
ffffffff
fffffffc
00000002
ffffffff
fffffffe
00000004
00000000
00000001
00000006
00000004
fffffffe
fffffffc
00000004
fffffff8
fffffff9
ffffffff
fffffffd
00000000
00000002
00000000
ffffffff
00000000
ffffffff
00000001
00000000
fffffffd
00000000
fffffffc
fffffff7
fffffff5
fffffff6
ffffffeb
fffffff2
fffffffa
fffffff5
fffffffa
ffffffff
fffffff6
fffffff8
fffffff8
ffffffef
fffffff6
fffffffa
fffffff4
fffffffe
00000004
00000004
00000001
00000006
00000000
00000002
00000004
00000004
00000002
fffffffd
fffffffa
fffffffd
fffffff7
fffffff9
00000001
fffffffb
ffffffff
ffffffff
00000000
fffffffd
fffffffc
00000002
fffffffc
fffffffd
fffffffe
00000001
00000004
00000001
fffffffe
ffffffff
fffffffe
00000000
00000003
00000002
00000004
00000002
00000004
00000003
00000000
fffffffd
ffffffff
ffffffff
fffffffe
fffffffe
00000001
00000000
fffffff5
00000007
fffffff8
fffffff5
00000005
fffffffa
fffffff6
00000003
00000004
ffffffdc
ffffffda
00000025
ffffffff
ffffffdc
00000025
0000001d
fffffffe
fffffffe
ffffffff
fffffffe
fffffffe
00000002
00000000
fffffffd
fffffffe
ffffffff
00000001
fffffffd
fffffffb
ffffffff
ffffffff
fffffffd
00000001
00000000
00000001
fffffffd
fffffffe
ffffffff
ffffffff
00000000
fffffffe
ffffffff
ffffffff
00000001
fffffffc
ffffffdf
fffffff2
00000024
ffffffff
ffffffdf
00000014
00000014
fffffff9
00000007
fffffffa
fffffff7
0000000a
ffffffff
fffffffc
0000000b
00000005
00000000
ffffffff
00000011
0000000e
ffffffe8
00000000
00000010
fffffff2
fffffff3
0000000a
00000001
00000000
ffffffff
00000005
00000002
00000002
ffffffff
00000001
00000001
fffffffc
0000001d
00000010
ffffffd8
0000000a
00000019
ffffffd6
ffffffec
00000009
00000001
00000000
00000001
00000001
00000003
00000002
ffffffff
00000000
ffffffff
fffffffd
00000008
00000007
fffffff3
00000000
0000000b
fffffff8
fffffffb
00000003
fffffffd
fffffffe
00000002
ffffffff
fffffffa
00000000
00000004
00000000
00000002
00000003
00000002
fffffffc
00000001
00000004
fffffffd
ffffffff
00000002
00000000
00000002
00000003
00000005
00000003
ffffffff
00000002
00000000
00000003
00000002
00000005
00000002
00000001
00000000
00000000
00000002
00000003
ffffffff
00000003
00000000
00000000
fffffffe
00000001
ffffffff
00000000
ffffffff
00000000
00000000
00000000
ffffffff
00000002
00000003
fffffffd
fffffffc
00000004
00000004
fffffffd
00000000
fffffffe
00000002
00000000
fffffffc
fffffffe
00000003
00000001
00000000
ffffffff
fffffffc
00000000
ffffffff
fffffff9
fffffffd
00000001
fffffffd
fffffffe
00000001
00000001
fffffffb
00000001
00000001
fffffffc
00000002
ffffffff
fffffffd
ffffffff
00000003
00000004
fffffffb
ffffffff
00000001
00000000
00000000
00000002
fffffff9
00000006
00000007
fffffffc
fffffff7
00000004
00000005
fffffff7
fffffffa
ffffffff
00000001
00000003
00000001
fffffffd
fffffffd
fffffffe
ffffffff
fffffffe
00000001
00000002
00000001
00000002
00000000
00000002
00000000
ffffffff
ffffffff
ffffffff
ffffffff
00000001
00000001
fffffffd
ffffffff
00000000
00000000
00000001
fffffffe
fffffffb
00000001
00000001
fffffffe
00000000
00000001
ffffffff
fffffffe
00000001
fffffffd
ffffffff
00000001
00000002
00000000
00000000
00000000
00000001
00000003
00000001
00000001
00000001
00000002
00000003
00000000
00000001
00000001
fffffffd
fffffffd
ffffffff
00000000
fffffffe
00000001
ffffffff
fffffffe
00000000
fffffffb
00000000
fffffffe
fffffffe
ffffffff
ffffffff
00000000
00000000
00000001
fffffffd
fffffffa
fffffffc
fffffff9
fffffffd
ffffffff
00000000
ffffffff
ffffffff
fffffffb
0000000c
fffffff7
00000000
00000012
00000004
fffffffd
00000005
00000001
ffffffee
fffffffb
ffffffec
00000003
00000016
00000001
fffffff2
00000003
fffffff3
ffffffff
00000000
fffffff3
00000006
0000000a
fffffffe
fffffffc
fffffffa
ffffffff
fffffff5
00000001
00000000
00000001
00000001
00000000
00000004
00000002
fffffff8
00000006
00000001
fffffffa
00000004
00000008
00000008
fffffffe
00000006
0000000b
ffffffe2
fffffff8
ffffffdf
fffffffa
00000018
fffffffe
ffffffe5
00000004
ffffffee
fffffffa
ffffffea
00000002
00000007
fffffffb
00000016
fffffff9
ffffffec
00000001
ffffffec
fffffffa
ffffffed
fffffff8
00000012
fffffffd
ffffffeb
00000000
fffffff0
00000003
00000003
fffffffd
00000000
00000003
fffffffe
fffffff6
fffffff8
fffffff3
ffffffeb
fffffff9
ffffffe5
fffffffe
0000001c
fffffffe
ffffffe1
fffffffb
ffffffe3
00000002
00000000
fffffff3
fffffffa
00000003
fffffffa
fffffff9
fffffffb
fffffffa
fffffffb
00000001
fffffff2
0000000b
00000019
0000000d
ffffffec
ffffffef
ffffffe4
00000001
fffffffe
ffffffff
00000003
00000003
ffffffff
fffffffb
ffffffed
fffffff7
00000001
00000005
00000004
ffffffff
00000003
fffffffe
fffffffc
00000000
fffffff7
00000003
00000001
00000008
00000003
fffffffb
00000003
00000004
00000002
fffffffa
fffffff1
fffffff9
00000005
00000003
00000009
00000001
00000003
0000000d
fffffff4
00000000
00000002
fffffffc
ffffffff
00000005
fffffffd
fffffffe
00000007
fffffffd
fffffffa
ffffffff
fffffff3
fffffff2
00000002
ffffffed
fffffff6
00000004
fffffff7
fffffff3
00000002
fffffff5
fffffffe
0000000d
00000008
fffffff2
fffffffc
fffffff3
fffffffe
fffffffe
fffffff6
00000004
00000004
00000002
fffffff7
00000002
ffffffff
fffffff4
fffffff9
ffffffed
fffffff8
00000013
00000000
fffffff0
fffffffa
fffffff7
fffffff2
00000001
fffffffc
ffffffff
0000000b
00000004
fffffffc
00000002
ffffffed
00000005
00000008
00000001
00000002
00000008
00000002
00000000
00000003
fffffffc
fffffffc
fffffffc
fffffff2
00000001
00000009
00000007
00000002
00000002
fffffffd
00000001
00000001
fffffffc
00000000
fffffffe
ffffffff
fffffff8
00000002
fffffffc
fffffff7
fffffffc
00000008
00000001
00000000
00000001
fffffffc
00000008
fffffff4
00000006
ffffffff
fffffff7
0000000a
00000008
fffffff9
fffffff8
00000003
00000008
fffffff9
ffffffff
00000002
ffffffff
0000000d
00000006
fffffffb
ffffffff
fffffff6
fffffffc
fffffffb
fffffff9
ffffffff
00000004
00000001
fffffffa
00000000
00000000
fffffffc
fffffff3
fffffff6
00000002
ffffffff
00000001
fffffffe
00000000
00000000
00000001
00000004
00000001
fffffffd
ffffffff
00000002
00000001
00000005
00000001
00000001
fffffffe
ffffffe8
00000006
0000000d
fffffff8
fffffff1
fffffff9
ffffffef
fffffffb
00000008
0000000b
fffffff8
fffffff6
fffffffc
00000001
fffffffd
00000001
00000006
fffffffc
ffffffff
00000000
ffffffee
00000003
00000001
fffffffd
00000006
00000015
fffffffe
fffffff4
00000006
fffffffc
fffffffe
fffffff8
ffffffff
00000004
ffffffe9
00000004
00000014
fffffffd
fffffffe
00000003
00000001
fffffffb
fffffff8
00000005
00000000
fffffffa
fffffff5
fffffffe
fffffff3
fffffffd
0000000d
0000000e
ffffffff
fffffffe
fffffffb
fffffff4
00000004
fffffffd
fffffffa
00000011
fffffff4
00000029
00000037
00000027
ffffffd8
ffffffc5
ffffffdb
0000000c
00000004
0000000a
fffffff3
00000002
00000001
00000002
00000013
00000008
fffffffd
fffffff3
fffffff5
fffffff2
00000010
fffffffc
ffffffea
00000015
fffffff0
fffffff7
00000001
fffffff8
ffffffff
00000003
ffffffff
00000005
0000000b
fffffff2
00000000
ffffffef
00000002
00000012
00000005
ffffffec
00000000
00000003
fffffffe
ffffffef
fffffffe
00000004
00000013
ffffffff
00000003
fffffffa
ffffffff
fffffff6
00000002
ffffffff
ffffffef
fffffff8
fffffff9
fffffff6
fffffff4
00000001
fffffff6
fffffffe
fffffff5
ffffffec
ffffffe7
00000003
0000000c
fffffffc
00000005
0000000c
00000006
fffffff8
fffffff8
ffffffff
00000003
0000000c
00000000
fffffff5
00000000
fffffffd
fffffffb
00000002
ffffffee
fffffffb
00000002
ffffffea
fffffffd
ffffffef
0000000a
00000006
fffffff4
fffffff9
00000012
fffffffe
fffffffe
00000014
fffffff5
00000005
00000009
fffffff8
00000006
ffffffdc
00000011
0000001c
ffffffe2
00000018
0000000f
ffffffdd
0000000c
00000001
00000002
fffffffe
fffffffb
00000006
fffffffc
fffffff3
fffffffc
ffffffff
0000000b
ffffffff
00000002
fffffff9
fffffff5
fffffff9
00000008
00000003
ffffffff
0000000e
00000003
fffffff4
fffffffd
0000000d
00000001
fffffff3
fffffff8
fffffffb
fffffffe
00000014
0000000f
ffffffee
fffffff7
fffffffd
00000004
fffffff9
fffffff4
fffffffe
fffffff8
fffffffb
fffffffe
fffffff9
00000003
00000008
fffffffa
00000005
fffffffe
ffffffd6
ffffffe9
00000003
fffffffe
00000011
fffffffd
fffffff0
00000002
0000000b
fffffff3
fffffff6
00000012
00000007
fffffffe
fffffffd
00000001
00000002
fffffff3
0000000d
0000000e
fffffff7
fffffffd
00000005
00000007
fffffff3
fffffff6
00000012
00000005
fffffff3
00000000
fffffffa
fffffff9
fffffffa
fffffff9
00000007
fffffff2
00000013
00000014
fffffff6
00000002
ffffffff
00000003
fffffffb
fffffff7
fffffff2
ffffffeb
fffffffb
00000009
00000006
0000000a
00000000
00000001
00000001
0000000c
0000002d
00000002
ffffffe9
00000002
ffffffdb
00000007
0000000e
00000002
fffffff3
fffffff6
ffffffff
00000013
0000000a
00000004
fffffffc
fffffff9
00000005
0000000b
ffffffef
ffffffe7
00000006
00000007
fffffff4
fffffff6
00000009
00000007
00000004
fffffff5
fffffff3
fffffffd
fffffff3
fffffffd
0000000c
00000002
00000003
ffffffe4
00000015
00000026
ffffffe2
fffffff3
0000001b
fffffff4
ffffffef
00000003
00000000
00000001
00000000
ffffffff
00000000
00000000
fffffffc
fffffffe
fffffffd
00000000
00000000
fffffffc
00000000
00000001
00000000
ffffffff
00000001
00000002
fffffffb
ffffffff
00000001
fffffffd
fffffffe
00000000
fffffffd
ffffffff
ffffffff
fffffff2
0000002a
00000031
ffffffcd
fffffff2
0000002b
ffffffdd
ffffffe4
00000001
00000006
fffffffb
fffffffb
00000005
00000002
fffffffd
00000005
00000005
fffffffd
00000010
fffffff3
ffffffdb
0000000f
00000006
ffffffef
0000000d
0000000e
0000000a
00000001
ffffffff
00000002
00000000
00000000
00000004
ffffffff
ffffffff
00000002
00000012
ffffffee
ffffffdd
00000013
0000000d
ffffffe6
0000000a
00000011
fffffff5
ffffffff
00000000
00000000
00000001
00000001
00000001
ffffffff
00000001
00000001
fffffffb
fffffffe
0000000b
ffffffff
fffffffb
00000002
00000000
ffffffff
00000000
ffffffff
fffffffc
00000003
00000000
fffffffa
ffffffff
ffffffff
ffffffff
00000000
ffffffff
00000002
ffffffff
fffffffe
00000002
00000000
fffffffd
00000000
00000000
00000002
00000001
00000002
00000000
fffffffd
fffffffe
fffffffe
00000003
00000002
00000003
00000003
00000002
fffffffe
fffffffe
00000004
00000001
ffffffff
00000002
00000000
00000000
00000001
ffffffff
ffffffff
00000000
00000000
fffffffe
00000000
ffffffff
00000000
00000000
00000000
ffffffff
fffffffd
00000002
00000002
00000000
00000001
fffffffe
00000000
fffffffe
00000000
00000002
ffffffff
00000001
00000001
00000000
00000000
00000001
00000002
fffffffe
fffffffd
00000000
fffffffe
00000000
ffffffff
00000002
00000003
00000000
fffffffe
00000003
fffffffe
fffffffc
00000000
ffffffff
00000002
00000002
fffffffe
ffffffff
00000001
fffffffc
00000001
00000003
00000005
00000001
fffffff1
00000001
00000003
fffffffc
00000008
00000003
00000000
ffffffff
fffffffd
00000002
ffffffff
ffffffff
00000000
00000000
ffffffff
00000001
00000002
00000001
00000001
00000001
00000001
00000000
00000000
ffffffff
00000000
00000001
fffffffb
00000000
00000000
fffffffd
00000001
00000002
00000002
00000001
fffffffd
fffffffa
00000000
ffffffff
fffffffc
00000000
00000003
ffffffff
fffffffe
00000002
00000002
00000001
ffffffff
00000001
00000003
ffffffff
ffffffff
00000001
00000000
00000004
00000002
00000001
ffffffff
00000000
00000000
00000000
00000001
00000001
fffffffe
ffffffff
00000001
ffffffff
00000000
00000000
00000000
fffffffe
fffffffe
00000000
00000001
00000001
ffffffff
00000000
00000001
00000000
ffffffff
fffffffb
00000003
fffffffb
fffffffe
fffffffd
fffffffd
fffffff8
fffffffa
00000002
fffffffe
fffffffb
ffffffff
fffffffd
00000001
fffffffa
00000001
00000001
00000000
00000003
00000001
00000001
00000000
00000002
00000001
fffffffe
ffffffff
00000001
00000004
00000006
00000002
00000000
00000000
00000004
00000000
00000002
00000005
00000005
00000002
00000005
00000003
00000009
00000002
00000006
00000003
00000003
00000001
00000003
ffffffff
fffffffe
fffffffe
fffffffc
ffffffff
fffffffb
00000003
00000008
fffffffd
00000001
00000005
00000006
ffffffff
fffffffe
00000006
fffffffe
fffffffd
00000007
00000006
fffffffc
fffffffc
00000000
00000002
fffffff7
ffffffff
fffffffe
00000001
00000004
00000002
00000000
00000002
00000001
00000000
ffffffff
fffffffb
fffffffa
fffffffa
fffffffa
fffffff2
fffffff7
fffffff6
fffffffb
fffffffa
00000003
00000003
00000000
00000005
fffffffe
00000000
00000001
00000001
00000001
00000006
0000000b
00000004
00000005
00000002
00000008
00000005
00000002
00000004
00000005
00000000
00000000
fffffffb
fffffffe
00000004
fffffffd
00000000
fffffffa
00000004
00000006
fffffffe
fffffffe
fffffffc
fffffff9
ffffffff
fffffffc
fffffffc
00000004
00000003
00000005
00000004
00000002
00000000
00000005
00000006
00000003
00000004
00000008
fffffff8
00000000
fffffff9
00000007
fffffffd
fffffffb
00000005
fffffffd
ffffffff
00000002
00000003
fffffffc
00000002
00000003
00000005
fffffffd
fffffffa
fffffffc
fffffffc
fffffffd
fffffff6
fffffff9
fffffffb
fffffffd
fffffffb
fffffffc
fffffff9
fffffffc
fffffffe
fffffffd
fffffff7
00000001
fffffffc
fffffff9
fffffffe
00000003
00000001
fffffffc
fffffffd
00000001
fffffffd
ffffffff
fffffffe
00000003
00000001
fffffffb
00000005
fffffffc
00000002
fffffffe
00000007
00000002
fffffffd
00000001
00000002
ffffffff
00000003
00000002
00000000
00000003
00000001
00000002
00000000
00000001
fffffffc
0000000b
00000001
00000004
ffffffff
00000003
ffffffff
00000001
00000002
00000000
fffffffe
fffffffd
00000001
00000002
00000000
fffffffb
fffffffa
fffffff6
fffffffd
fffffff4
fffffff5
fffffffc
fffffff4
fffffff7
00000005
00000006
00000004
00000002
00000003
00000004
00000005
00000006
00000004
fffffffb
fffffff9
00000005
00000007
00000002
fffffffc
00000004
00000003
fffffffd
00000000
ffffffff
0000000a
fffffffd
00000006
00000000
00000004
00000002
fffffffd
00000003
ffffffff
00000002
00000006
00000002
00000002
00000001
00000001
00000001
fffffffb
fffffff5
00000000
fffffffd
fffffffd
fffffff8
fffffffa
fffffffc
fffffff7
fffffffb
fffffffb
fffffffe
fffffffc
fffffff5
fffffffb
fffffffd
fffffff9
fffffffe
00000000
fffffffd
fffffffb
fffffffa
fffffffd
fffffffd
fffffffb
fffffffe
fffffffc
00000002
00000003
00000000
00000001
00000007
fffffffe
00000002
fffffffd
00000000
00000002
00000000
ffffffff
fffffffc
fffffffc
fffffffa
00000004
00000003
00000003
00000006
fffffffe
ffffffff
00000003
fffffff9
ffffffff
00000002
fffffffb
00000001
fffffffe
00000001
00000003
ffffffff
00000002
fffffff8
fffffffe
fffffffc
fffffff9
fffffffd
ffffffff
00000001
fffffffb
fffffffb
fffffffc
ffffffff
fffffffe
fffffffe
00000006
00000001
00000003
00000006
fffffffb
00000004
fffffff6
fffffff8
fffffffb
00000008
00000007
0000000b
fffffffd
fffffff9
fffffffc
fffffffa
fffffff7
fffffffa
0000001f
0000001e
00000019
fffffffa
fffffff4
fffffff8
ffffffed
ffffffec
fffffff8
00000003
ffffffff
00000001
fffffffe
fffffffb
ffffffff
00000005
00000000
00000000
00000001
00000003
00000002
00000009
ffffffff
00000003
fffffffb
fffffff4
fffffffb
00000001
00000001
00000004
fffffffa
fffffff9
fffffff9
00000004
00000003
fffffffb
00000003
00000005
00000005
00000000
00000002
00000001
fffffff8
fffffff8
fffffffc
00000007
00000004
00000004
0000000b
ffffffff
00000003
fffffffa
fffffff4
fffffff7
00000004
fffffffa
fffffffc
00000001
fffffff7
fffffffd
00000000
fffffff0
fffffff6
fffffff5
fffffff3
fffffffe
fffffffe
fffffffe
00000000
fffffffd
00000001
00000000
00000002
00000007
00000002
00000003
00000004
00000000
00000000
00000002
00000001
00000006
00000003
00000005
fffffffd
fffffff5
00000001
00000003
fffffffd
fffffffe
00000007
00000005
00000003
ffffffff
fffffff9
fffffffa
ffffffff
fffffff8
fffffff8
ffffffe5
ffffffdf
ffffffe5
00000005
0000001a
00000012
00000006
00000015
0000000a
ffffffff
00000003
fffffffd
00000001
00000002
fffffffd
fffffffb
fffffffc
fffffffd
00000004
00000006
00000000
fffffffd
fffffffd
00000000
fffffffe
00000000
ffffffff
00000004
00000005
00000004
00000000
fffffffe
fffffffd
00000006
ffffffff
fffffffa
00000008
00000004
00000007
fffffffb
fffffff2
fffffff5
fffffff8
fffffff8
fffffff9
ffffffff
ffffffff
00000000
00000001
00000002
00000001
ffffffff
00000002
00000003
fffffffc
fffffff1
fffffff3
00000003
0000000b
0000000a
00000001
00000000
fffffffa
ffffffff
00000008
00000000
00000006
00000008
00000001
fffffffd
ffffffff
fffffffd
00000000
fffffffe
ffffffff
00000002
00000000
00000001
fffffffd
00000001
ffffffff
00000001
00000007
00000007
00000000
00000006
00000002
ffffffff
00000004
00000001
00000003
00000001
fffffffe
fffffffd
fffffff9
ffffffff
fffffffe
fffffffc
ffffffff
fffffffb
fffffffa
fffffffb
00000007
00000009
00000003
00000003
00000004
00000002
00000016
0000000f
00000012
fffffff7
ffffffd9
fffffff4
fffffffe
fffffff1
fffffffe
fffffff5
fffffff4
fffffff9
0000000d
0000000b
00000004
00000003
00000005
ffffffff
00000009
00000006
00000008
fffffffe
00000001
fffffffc
00000001
fffffffd
fffffff9
fffffffe
00000005
00000001
fffffffe
00000007
ffffffff
fffffffc
00000003
00000000
00000004
fffffffc
fffffffb
00000006
ffffffff
fffffffd
00000003
00000003
fffffffe
fffffffc
fffffff8
fffffffd
00000000
fffffffd
fffffffe
00000005
00000001
00000001
00000000
00000000
ffffffff
ffffffff
ffffffff
fffffffe
00000000
fffffffe
00000002
00000004
ffffffff
00000003
00000005
ffffffff
00000001
00000004
00000001
00000000
00000004
ffffffff
00000003
fffffffe
fffffffa
fffffffd
ffffffff
00000002
ffffffff
00000008
00000003
00000007
0000000d
00000004
0000000c
ffffffff
fffffffb
fffffffb
00000005
00000009
00000000
00000002
00000001
fffffffc
fffffffc
00000000
fffffff6
00000004
00000002
00000003
fffffffe
ffffffff
00000004
00000001
00000001
ffffffff
ffffffff
fffffffc
fffffffe
fffffffa
fffffff5
fffffffb
00000005
00000003
00000004
00000000
fffffffd
00000004
00000004
00000003
00000002
00000003
00000002
00000002
fffffff1
fffffff8
fffffff7
fffffff5
fffffffe
fffffffb
00000008
00000008
00000006
fffffff9
ffffffff
fffffff9
fffffff5
fffffff6
fffffff0
fffffffd
00000003
00000003
00000003
00000001
00000000
ffffffff
00000000
00000001
00000004
00000000
00000001
fffffff8
fffffff5
fffffff7
fffffff6
fffffff3
fffffff3
fffffff8
00000001
00000002
fffffffb
ffffffff
00000006
fffffff7
fffffffa
00000000
fffffffa
00000000
ffffffff
00000000
00000000
00000002
ffffffff
00000000
00000002
fffffffd
00000000
00000001
ffffffee
fffffff6
fffffff6
fffffff5
fffffff6
fffffff8
fffffffe
fffffffb
fffffffc
fffffffb
00000003
fffffff8
00000001
00000001
fffffffe
00000005
00000002
00000001
00000009
00000004
00000005
00000000
fffffffe
00000003
0000000a
00000006
00000006
ffffffef
fffffff8
fffffff7
fffffff7
fffffffc
fffffff7
fffffffc
00000002
00000001
00000009
00000007
0000000c
00000007
00000005
00000006
00000004
00000003
00000004
fffffffc
00000001
fffffffd
00000001
00000004
00000003
00000001
00000001
00000001
ffffffd3
ffffffd8
ffffffda
ffffffd3
ffffffd1
ffffffd7
fffffff0
fffffff1
ffffffed
00000004
00000003
ffffffff
00000003
00000001
ffffffff
00000007
00000001
00000003
fffffff8
fffffff9
00000000
fffffff9
fffffff9
fffffffe
fffffffb
fffffffe
fffffffd
fffffffb
fffffffd
fffffff8
fffffff9
ffffffff
fffffff8
00000001
00000001
fffffffc
00000003
00000002
00000003
00000003
00000001
00000006
00000004
fffffffe
00000006
fffffff5
ffffffff
fffffffd
fffffff6
fffffff9
fffffff8
fffffff8
fffffffb
fffffffe
ffffffff
fffffffb
0000000a
fffffffd
fffffffb
0000000b
00000000
fffffffe
00000004
ffffffee
fffffff8
fffffff2
ffffffec
fffffff4
fffffff2
fffffff9
fffffffb
fffffffa
fffffffe
fffffff6
fffffffa
fffffffb
fffffffe
ffffffff
00000003
00000002
00000004
00000003
00000006
fffffffe
00000004
00000003
fffffffc
00000002
fffffffe
00000000
fffffffc
00000009
fffffffa
fffffff8
00000000
00000002
ffffffff
fffffffe
00000006
fffffffd
fffffff7
00000002
00000009
fffffff8
fffffff7
00000009
00000006
ffffffff
fffffff9
00000009
00000005
fffffff7
fffffff4
0000000c
00000000
fffffff1
0000000f
00000003
fffffffb
fffffff6
00000006
00000006
fffffff4
00000001
0000000c
fffffffd
fffffffa
0000000e
fffffff8
fffffff7
00000003
00000004
fffffffc
fffffffa
00000009
0000001c
ffffffd8
00000006
0000001e
00000001
ffffffe7
00000007
00000022
fffffff3
fffffffb
00000003
00000000
fffffffb
00000004
00000005
fffffffc
00000000
00000007
00000003
ffffffff
fffffffd
ffffffff
00000009
fffffff7
fffffffa
0000000c
fffffffa
fffffffb
00000004
fffffffc
fffffffd
00000001
00000000
fffffffc
fffffffa
0000000c
fffffffc
ffffffef
fffffff7
00000005
fffffffb
fffffff2
00000008
00000005
fffffffd
ffffffff
fffffff8
fffffffb
00000004
fffffffd
fffffff9
fffffffc
00000006
fffffffd
fffffffd
fffffffe
fffffff6
fffffff9
00000000
fffffff1
fffffff6
fffffffc
fffffffa
fffffffb
00000005
00000004
fffffff7
00000005
00000005
fffffffc
fffffff6
00000003
fffffffa
fffffff9
0000000b
fffffff9
fffffff7
00000004
00000001
fffffffd
fffffffb
00000007
0000000a
fffffffb
fffffff1
00000015
fffffffe
ffffffee
fffffffe
00000003
00000005
00000002
fffffffa
00000002
0000000b
fffffffb
fffffffd
00000009
ffffffff
fffffffa
00000005
00000012
fffffffd
ffffffe6
0000000c
00000010
ffffffe0
fffffffa
00000000
fffffffd
fffffffc
ffffffff
fffffffb
00000001
00000000
fffffff9
00000000
fffffffa
00000006
00000000
fffffffd
00000005
fffffffd
00000001
00000005
00000004
fffffffc
fffffff7
fffffff4
ffffffff
fffffffe
fffffffa
ffffffff
fffffffd
00000000
00000005
ffffffff
fffffffe
00000001
fffffffa
0000000a
00000000
fffffffb
ffffffff
00000009
fffffffc
fffffff7
00000005
00000001
fffffffa
00000000
fffffffe
fffffffe
00000001
0000000a
00000004
00000006
fffffff2
00000009
00000000
fffffffd
fffffff7
00000000
fffffff9
00000001
ffffffff
fffffff3
fffffff9
00000006
ffffffff
fffffffc
fffffffc
0000000c
00000002
fffffff3
00000007
0000000b
fffffff7
fffffff6
00000005
fffffffd
fffffff7
fffffffe
00000003
00000002
fffffff6
00000006
00000007
00000005
fffffffe
00000001
ffffffff
fffffff5
fffffffa
00000003
fffffffc
fffffff6
fffffffd
fffffffb
00000007
00000001
fffffff5
fffffff9
00000000
fffffff8
fffffff7
00000000
00000015
ffffffe9
fffffffc
00000010
0000000c
ffffffe9
fffffffa
0000001c
fffffff4
00000004
00000004
fffffff8
fffffff0
00000002
00000000
fffffff8
fffffffe
ffffffff
fffffffb
00000003
00000002
fffffffa
00000001
fffffffd
fffffffd
00000001
00000002
00000000
00000001
00000002
00000000
ffffffff
fffffffa
00000002
ffffffff
ffffffff
fffffffe
00000002
00000005
0000000b
ffffffff
fffffff6
fffffffd
fffffffa
00000004
ffffffe6
00000004
00000006
0000000e
00000004
fffffff4
fffffffe
ffffffff
fffffffb
00000008
fffffffe
fffffffa
fffffff8
fffffff3
fffffffe
fffffffd
00000001
00000002
fffffffa
fffffff7
00000001
00000001
00000016
0000000a
00000005
fffffff5
fffffffb
fffffff8
ffffffff
00000004
00000008
0000000a
ffffffff
00000002
fffffff1
fffffff7
0000000b
00000006
fffffff8
fffffff8
00000006
0000000c
00000000
00000003
ffffffff
00000007
00000002
ffffffff
00000002
00000000
fffffff8
fffffffd
00000002
00000001
00000000
fffffff3
fffffffb
ffffffef
0000000c
00000010
00000008
00000004
fffffffe
fffffff1
fffffff4
00000005
00000009
00000011
fffffffc
00000006
fffffffd
fffffffa
fffffff4
00000006
00000009
0000000c
0000000e
00000004
00000003
fffffffe
fffffffa
fffffff9
fffffff2
ffffffff
0000000c
0000000a
fffffffb
fffffffa
fffffffd
fffffffe
fffffff7
fffffffc
00000003
fffffffd
fffffff5
fffffffa
fffffffe
ffffffff
00000002
0000000a
00000004
ffffffff
ffffffff
fffffffd
00000004
fffffffd
ffffffff
00000003
00000001
00000007
00000007
00000004
fffffff6
fffffffb
fffffff4
fffffffa
fffffffb
00000001
00000000
00000003
fffffffb
fffffff3
00000000
fffffffd
00000004
00000001
fffffffb
fffffffa
00000002
00000002
fffffffa
fffffffc
fffffffc
fffffffc
fffffffc
0000001c
0000000a
ffffffec
fffffff5
ffffffe0
00000003
ffffffff
0000000e
0000000f
fffffff9
00000003
00000007
00000008
00000006
fffffffd
ffffffff
ffffffff
ffffffff
fffffffa
0000000b
00000006
00000009
fffffffe
fffffffc
00000000
fffffffb
ffffffff
fffffffa
0000000f
00000010
00000009
fffffff6
ffffffef
ffffffff
00000000
fffffffb
ffffffff
00000003
fffffffc
fffffffb
fffffffe
00000001
00000003
00000003
00000001
00000004
00000008
00000001
ffffffff
fffffff7
fffffffa
fffffff9
fffffffd
00000001
00000004
00000000
00000001
fffffff3
ffffffee
fffffff5
00000003
0000000a
00000004
fffffff4
fffffffb
fffffffb
00000001
00000000
fffffffd
00000004
00000001
fffffffd
00000004
fffffff7
fffffff3
fffffff5
fffffff3
00000001
00000003
0000000a
0000000a
fffffff4
fffffff8
ffffffff
00000005
00000010
00000005
0000000a
00000001
fffffffb
00000005
fffffffa
fffffffd
fffffff9
fffffff6
00000004
00000002
ffffffff
00000001
00000002
00000000
00000001
fffffffc
fffffffa
ffffffff
00000002
00000003
00000003
fffffffa
fffffffb
00000001
00000006
00000006
00000000
fffffffd
fffffffe
fffffffb
0000000a
00000003
00000001
fffffff4
00000001
00000000
00000003
ffffffff
00000002
fffffff4
00000005
0000000d
0000000d
00000008
fffffffc
fffffffe
fffffff9
fffffffb
fffffff8
0000000e
00000004
fffffffc
00000007
00000006
fffffff2
00000004
00000005
00000001
fffffff7
fffffffb
00000008
fffffffb
00000000
00000005
00000004
00000003
fffffffa
fffffffa
00000003
ffffffff
00000000
00000005
fffffff9
fffffffe
00000002
00000007
ffffffe9
fffffff6
00000004
ffffffee
ffffffef
00000004
ffffffff
fffffff8
fffffffe
00000008
00000002
fffffffd
fffffffd
00000001
0000000f
fffffffb
fffffffd
00000007
ffffffec
fffffffd
00000015
ffffffec
fffffff8
00000004
00000002
00000000
0000000f
00000020
00000004
ffffffe9
0000001f
00000011
ffffffd4
00000000
0000001c
fffffffd
fffffffb
fffffffe
0000000b
fffffffa
fffffff8
00000009
00000004
fffffffc
fffffffa
00000006
ffffffff
00000003
fffffff7
00000004
00000002
ffffffff
00000003
00000009
fffffff4
fffffff6
00000012
fffffff9
ffffffed
0000000b
0000000b
fffffff1
00000001
00000003
00000000
fffffffb
00000001
00000002
fffffffe
00000002
00000003
00000003
fffffff9
fffffffa
fffffff8
00000005
fffffffe
fffffff9
00000005
00000002
fffffff8
fffffff5
fffffff4
fffffff6
ffffffe5
fffffff6
ffffffff
fffffff1
fffffff2
00000007
fffffff0
fffffff8
00000002
00000001
fffffff7
ffffffff
fffffffd
fffffff9
00000006
fffffff3
fffffff8
0000000b
fffffff4
fffffff5
00000013
00000006
fffffff6
ffffffeb
00000005
fffffff9
fffffff0
00000007
00000003
ffffffff
fffffff6
00000000
fffffffd
00000005
ffffffff
fffffffe
00000001
00000001
fffffffd
fffffffe
fffffffc
ffffffff
fffffff9
ffffffff
fffffff7
00000005
0000000a
fffffff8
fffffffb
00000005
00000006
fffffff8
fffffffc
00000001
0000000b
fffffffc
fffffffe
00000002
00000005
fffffff8
fffffffc
00000005
fffffff9
fffffffb
00000004
00000000
00000002
00000003
00000001
fffffff4
fffffffc
00000010
fffffff6
fffffff8
00000007
00000008
fffffff6
00000006
fffffffa
fffffffa
0000000e
fffffffb
fffffffd
0000000b
00000005
fffffff9
fffffffd
00000004
00000003
fffffff4
00000006
00000008
fffffffa
00000001
00000004
0000000f
fffffffa
00000000
00000003
00000011
ffffffff
fffffffe
00000005
00000005
fffffffe
fffffff9
fffffffd
fffffffe
fffffffb
00000001
ffffffff
ffffffff
00000000
00000000
fffffff4
fffffffe
00000005
fffffffd
fffffff7
00000003
00000001
fffffff9
fffffff8
00000001
00000000
fffffff4
fffffffa
fffffffc
fffffffc
fffffff6
00000000
00000005
fffffff5
fffffffa
00000010
00000001
fffffff6
00000003
00000009
ffffffff
00000001
00000000
00000005
0000000c
ffffffff
ffffffff
00000001
fffffffd
ffffffff
00000001
00000013
00000000
ffffffe6
0000001d
fffffffe
fffffff1
00000000
00000008
fffffff6
00000002
fffffffe
ffffffed
00000002
ffffffff
fffffff5
fffffff5
fffffffb
fffffffc
ffffffec
fffffffb
0000000e
ffffffe8
fffffff4
0000000d
00000001
fffffff9
fffffffe
00000000
00000000
ffffffff
00000001
00000000
fffffffe
00000000
00000000
00000001
00000002
fffffffe
ffffffff
00000001
ffffffff
00000000
00000001
00000000
fffffffc
fffffffe
fffffffe
fffffffd
ffffffff
ffffffff
ffffffff
ffffffff
ffffffff
00000002
00000005
00000005
00000001
00000002
00000004
00000002
00000002
00000002
00000005
00000003
00000001
00000003
00000006
00000002
00000001
00000002
00000003
00000001
00000002
ffffffff
00000001
00000002
00000001
ffffffff
00000002
00000000
fffffffe
fffffffc
00000003
ffffffff
fffffffa
ffffffff
00000000
fffffffe
ffffffff
00000000
00000002
00000000
00000000
00000002
00000002
fffffffe
ffffffff
00000001
fffffffe
fffffffb
ffffffff
fffffffd
fffffffe
fffffffd
fffffffe
fffffffe
fffffffd
00000000
00000001
fffffffe
00000002
00000006
00000001
00000000
00000001
00000002
00000000
00000000
ffffffff
00000000
ffffffff
ffffffff
00000000
00000000
ffffffff
00000001
00000001
00000001
00000000
00000008
00000001
00000001
00000000
ffffffff
00000000
00000008
00000004
00000002
00000003
00000005
00000001
00000003
00000002
ffffffff
ffffffff
ffffffff
ffffffff
ffffffff
00000000
ffffffff
00000000
00000000
00000001
fffffffe
00000000
00000002
00000001
00000000
00000001
00000002
00000000
00000002
00000001
00000001
00000001
00000005
00000001
00000000
00000001
00000002
00000001
00000002
00000000
00000000
00000001
00000001
00000000
00000000
00000001
00000001
fffffffb
ffffffff
ffffffff
00000000
fffffffe
ffffffff
00000001
ffffffff
ffffffff
00000009
00000005
00000002
00000001
00000003
00000000
00000000
00000000
ffffffff
00000001
00000001
ffffffff
00000000
00000003
ffffffff
ffffffff
00000002
00000002
00000007
00000003
00000001
00000002
00000005
00000000
00000003
00000004
00000000
00000002
00000000
00000001
00000001
ffffffff
ffffffff
00000001
00000000
00000000
00000000
ffffffff
00000000
00000001
00000000
00000000
00000000
00000001
00000001
00000001
00000000
00000002
00000004
00000000
00000002
00000002
00000002
00000000
00000000
00000000
00000001
00000000
ffffffff
ffffffff
00000000
00000000
ffffffff
ffffffff
00000000
00000000
fffffffe
ffffffff
00000000
00000000
00000000
00000004
00000003
00000001
00000000
00000002
00000002
00000000
00000000
00000001
00000001
00000000
fffffffe
ffffffff
00000000
ffffffff
fffffffe
ffffffff
ffffffff
ffffffff
00000001
00000000
00000002
00000000
00000000
ffffffff
00000000
00000000
fffffffe
ffffffff
00000002
ffffffff
ffffffff
ffffffff
ffffffff
ffffffff
ffffffff
00000001
00000000
00000000
00000001
00000003
00000002
00000003
00000004
00000003
00000001
00000001
00000000
00000002
00000003
00000001
fffffffe
00000000
ffffffff
00000000
00000003
fffffffe
00000003
00000002
00000001
00000000
ffffffff
ffffffff
00000004
fffffffa
00000006
ffffffff
fffffff2
fffffffc
00000008
fffffffa
00000005
fffffffa
ffffffed
00000003
ffffffee
ffffffe2
fffffff0
0000000b
fffffffe
00000004
00000000
fffffff1
fffffffe
fffffff1
ffffffe9
fffffff4
fffffffd
fffffff8
0000000a
00000000
00000000
00000002
fffffffd
00000002
ffffffff
00000004
00000003
fffffffe
fffffffe
fffffffa
00000007
fffffff9
fffffff5
fffffffb
00000004
ffffffff
00000008
00000010
0000001b
00000009
0000000a
00000016
00000008
00000008
00000013
0000000c
00000004
fffffff9
ffffffff
00000001
fffffff8
ffffffff
00000003
ffffffff
00000006
00000000
fffffffc
00000003
00000000
00000002
ffffffff
00000001
00000002
00000001
ffffffff
fffffff6
00000000
fffffffd
fffffff9
fffffffd
00000007
00000005
00000007
fffffffb
fffffff4
fffffffc
ffffffef
ffffffec
fffffff4
00000001
fffffff8
fffffffd
00000002
00000003
00000006
00000002
00000008
00000005
fffffff9
fffffffe
fffffff7
00000002
fffffff4
fffffffe
fffffff8
ffffffea
fffffff6
fffffffb
fffffffa
00000000
fffffff7
ffffffe7
fffffff6
ffffffec
ffffffde
ffffffee
fffffff9
fffffff1
fffffffe
00000002
fffffffd
0000000c
00000008
fffffffd
00000009
ffffffff
fffffffc
0000000c
fffffffe
fffffffd
00000008
fffffff9
00000000
00000002
00000000
00000002
00000009
fffffffe
00000003
00000002
00000000
00000007
00000002
fffffffe
00000005
00000006
fffffffe
00000001
00000007
00000009
0000000d
00000010
fffffffe
fffffff9
fffffffe
00000004
fffffff8
ffffffff
fffffffe
fffffff8
fffffffe
00000002
fffffffd
00000000
fffffffe
00000005
00000000
fffffffc
fffffffd
fffffffe
00000007
00000005
0000000a
00000001
fffffffe
00000003
fffffffe
fffffffb
fffffffe
00000005
ffffffff
00000005
00000004
fffffffe
00000000
fffffff5
fffffff8
fffffff5
00000008
00000008
00000008
00000002
fffffffd
00000004
ffffffff
fffffffc
00000000
00000003
fffffffe
0000000a
00000002
00000000
00000001
00000005
00000007
00000007
fffffffc
fffffffb
fffffffd
fffffff8
ffffffe8
fffffff0
ffffffef
ffffffdf
ffffffe5
fffffffe
ffffffed
fffffff5
00000007
fffffffc
ffffffff
00000005
ffffffff
00000003
00000008
fffffffb
ffffffff
0000000b
fffffffd
00000007
00000006
fffffffa
fffffffa
0000000a
ffffffff
fffffffd
ffffffff
fffffff6
fffffffd
fffffff0
ffffffec
fffffff2
fffffffe
fffffff9
00000005
ffffffff
ffffffff
ffffffff
00000000
00000004
00000006
fffffffc
fffffff8
fffffffc
fffffff1
0000000b
ffffffec
fffffff0
00000007
ffffffed
ffffffff
00000005
00000003
00000002
00000004
00000005
00000009
0000000b
00000006
fffffffc
fffffffb
fffffffd
00000005
fffffff9
0000000c
fffffffe
fffffff0
fffffffe
0000000a
fffffffb
00000007
fffffffd
ffffffe2
fffffff7
fffffff3
fffffff0
fffffff2
0000000f
00000014
00000010
00000022
00000023
00000013
00000001
fffffff2
fffffff4
ffffffec
ffffffe1
ffffffec
fffffffc
fffffffd
ffffffff
ffffffff
00000000
ffffffff
00000000
ffffffff
fffffffe
00000002
00000004
00000001
00000000
00000002
00000000
00000000
ffffffff
ffffffff
00000001
00000003
00000003
00000001
00000001
fffffffc
00000001
00000001
00000004
00000026
00000040
0000001e
fffffffa
00000008
ffffffef
ffffffd7
ffffffce
ffffffd4
00000002
fffffffb
00000002
00000003
00000000
00000000
fffffffe
fffffffe
00000001
ffffffec
ffffffd8
fffffff3
00000003
fffffffd
00000004
00000015
0000001c
00000014
fffffffe
fffffffd
ffffffff
ffffffff
fffffff8
00000000
fffffffe
fffffffa
00000000
ffffffdf
ffffffd2
ffffffed
0000000a
00000012
00000011
00000010
00000015
00000007
00000000
00000000
ffffffff
00000003
00000000
ffffffff
fffffffe
00000000
ffffffff
fffffffa
fffffffb
fffffffa
00000004
fffffffd
00000006
00000003
00000004
fffffffe
00000002
00000000
00000005
fffffffb
ffffffff
ffffffff
fffffffb
fffffffc
fffffffc
00000002
ffffffff
00000000
00000001
00000000
00000001
ffffffff
ffffffff
00000002
00000000
00000002
fffffffe
00000001
fffffffe
00000002
ffffffff
ffffffff
00000001
00000000
fffffffc
00000000
fffffffe
fffffffe
00000000
00000002
00000004
ffffffff
00000001
00000002
00000001
00000000
00000002
ffffffff
00000001
00000000
00000000
00000000
fffffffe
fffffffc
ffffffff
ffffffff
ffffffff
00000000
ffffffff
00000001
00000002
00000001
00000001
00000000
00000002
00000001
ffffffff
fffffffd
fffffffe
00000004
00000002
00000003
00000004
ffffffff
00000002
00000005
00000005
00000001
00000002
00000001
00000003
00000000
00000000
ffffffff
fffffffe
00000001
00000001
00000001
ffffffff
00000001
fffffffe
fffffffc
00000000
00000002
00000001
00000000
fffffffc
fffffff2
fffffffe
fffffffc
fffffffe
fffffffc
00000003
0000000b
00000003
00000001
ffffffff
ffffffff
fffffffd
fffffffe
fffffffe
00000001
00000001
fffffffe
ffffffff
00000000
ffffffff
00000001
00000000
ffffffff
00000002
00000000
ffffffff
fffffffd
fffffffe
fffffffd
ffffffff
00000001
00000000
fffffffe
fffffffd
ffffffff
00000001
00000005
00000002
00000004
ffffffff
fffffffe
00000001
00000001
00000002
00000000
fffffffe
00000000
00000000
ffffffff
00000001
00000000
ffffffff
00000000
ffffffff
00000001
00000000
00000002
00000001
ffffffff
00000000
ffffffff
ffffffff
00000002
fffffffb
00000000
00000002
00000000
ffffffff
fffffffc
00000002
ffffffff
ffffffff
fffffffe
ffffffff
00000001
fffffffe
fffffffe
fffffffe
00000002
00000001
fffffffd
ffffffff
fffffffa
fffffffd
fffffffc
fffffffe
fffffffd
fffffff8
fffffffe
00000004
fffffffe
00000006
ffffffff
fffffffb
00000001
00000001
fffffffd
00000006
00000004
00000002
00000004
fffffff8
fffffff8
fffffff9
00000004
00000000
ffffffff
fffffff9
fffffff8
fffffffa
fffffff9
fffffff8
fffffffd
fffffff9
fffffff3
ffffffff
fffffffd
fffffff8
fffffff7
fffffffd
fffffffa
fffffff7
00000003
fffffff7
fffffff2
00000002
ffffffff
ffffffff
00000006
00000004
00000005
fffffffe
00000002
00000003
00000002
ffffffff
00000002
00000003
00000000
00000004
fffffffe
fffffffc
fffffffd
0000000a
fffffff6
00000005
00000017
00000005
00000012
ffffffff
fffffff1
00000007
00000002
00000001
00000001
fffffffe
fffffffc
fffffffd
00000003
00000000
00000002
ffffffff
00000004
fffffffd
00000007
00000008
00000007
ffffffff
00000002
00000001
fffffff8
00000000
fffffff7
00000004
00000006
00000006
00000000
00000004
00000001
fffffff4
fffffff3
fffffff5
fffffff4
fffffff1
fffffff1
fffffff2
fffffff1
fffffff1
fffffffd
fffffff4
fffffffa
00000002
fffffff4
fffffffd
0000000b
ffffffff
00000002
00000000
fffffff4
00000000
fffffff6
ffffffeb
fffffff8
00000001
ffffffef
00000000
fffffff7
fffffff2
fffffff7
fffffff7
ffffffee
fffffff1
fffffffc
ffffffed
fffffff1
00000000
ffffffff
00000003
ffffffff
00000000
00000002
00000006
00000004
00000007
00000002
fffffffe
fffffffe
00000001
fffffffd
00000000
fffffffe
fffffff7
fffffffc
00000006
00000003
00000007
0000000b
00000007
0000000d
00000004
00000006
00000007
fffffffd
0000000b
00000008
ffffffee
fffffff5
fffffff4
00000001
00000011
00000014
ffffffff
fffffffc
00000001
00000004
ffffffff
ffffffff
00000003
ffffffff
fffffffd
00000000
fffffffe
00000005
fffffffe
fffffffc
00000000
00000002
fffffffe
00000003
00000003
fffffffe
00000002
ffffffff
fffffffb
fffffffd
00000003
fffffffe
00000004
00000002
fffffffd
00000000
00000005
00000001
00000004
00000004
fffffffb
ffffffff
00000006
fffffffd
00000001
fffffffd
fffffff9
fffffffb
00000007
ffffffff
00000004
00000006
00000006
00000008
ffffffff
00000000
fffffffd
00000008
00000008
00000004
fffffff9
fffffff3
fffffff2
fffffff8
fffffff2
fffffff1
fffffff7
ffffffee
fffffff5
ffffffff
00000000
00000001
fffffffc
ffffffff
00000001
00000000
00000003
00000004
fffffffd
00000002
00000000
00000001
00000001
00000000
fffffff9
00000001
ffffffff
fffffff8
fffffff7
fffffff5
fffffffa
fffffff6
fffffff7
fffffff9
fffffff6
fffffff8
00000007
00000005
00000001
00000001
00000002
00000000
00000008
00000007
00000006
00000005
fffffff4
00000003
00000012
fffffffd
00000016
fffffffc
fffffff2
fffffffe
00000006
00000007
00000003
00000004
00000004
00000000
00000007
0000000b
00000006
fffffffd
00000000
ffffffff
00000000
00000002
00000000
00000003
00000004
00000003
fffffffe
00000003
fffffffe
fffffffb
fffffffc
fffffffb
ffffffff
ffffffff
ffffffff
00000002
00000004
00000002
00000001
00000000
fffffffe
fffffffd
fffffffc
fffffffd
fffffffe
00000002
00000001
ffffffff
fffffffb
00000000
fffffffe
fffffffe
00000000
fffffffe
fffffffb
fffffff8
fffffffb
fffffff8
fffffffe
ffffffff
fffffffb
ffffffff
fffffffb
fffffffc
fffffffd
00000000
fffffffa
fffffffc
fffffffc
fffffffc
fffffffe
fffffffd
00000002
00000001
00000003
0000000b
00000003
fffffffd
00000000
ffffffff
fffffffe
fffffffb
fffffffd
00000000
fffffffe
fffffffe
fffffffe
fffffffd
ffffffff
ffffffff
00000002
00000000
ffffffff
00000004
00000000
00000000
00000003
00000000
fffffffe
00000000
fffffffd
fffffffe
fffffffb
fffffffe
fffffffc
fffffff9
fffffffc
fffffffb
00000002
fffffffe
fffffffe
00000004
00000003
00000000
00000003
00000004
fffffffc
fffffffd
00000001
00000001
fffffffd
00000000
ffffffff
00000000
00000001
fffffff9
00000004
00000001
fffffffb
fffffffb
ffffffff
fffffff9
fffffffb
fffffffd
ffffffff
00000002
00000000
fffffff9
fffffffa
fffffffa
fffffffe
ffffffff
ffffffff
00000001
00000002
fffffffc
00000000
fffffffd
ffffffff
ffffffff
00000000
00000001
ffffffff
00000004
00000003
00000002
00000007
00000001
00000003
00000001
00000004
00000003
00000003
00000001
00000003
00000005
00000006
00000003
00000005
00000003
00000002
00000000
00000002
00000001
fffffffe
ffffffff
00000000
ffffffff
ffffffff
fffffffe
00000000
fffffffc
fffffff8
ffffffec
fffffff0
fffffffc
fffffff2
fffffff8
ffffffff
00000003
ffffffff
00000002
00000005
00000002
00000002
00000002
00000000
fffffffc
ffffffff
fffffffc
ffffffff
fffffff7
fffffffc
fffffffe
fffffffa
fffffffe
00000000
00000005
00000003
fffffffe
fffffffc
fffffffd
00000000
00000001
00000001
fffffffe
00000000
fffffffd
fffffffe
fffffffa
00000000
fffffffc
fffffffb
ffffffff
fffffffe
00000002
fffffffe
fffffffc
fffffffa
fffffff9
fffffffe
fffffffd
fffffffe
00000002
00000006
00000006
00000000
fffffffa
fffffffa
00000001
00000003
ffffffff
fffffff9
ffffffff
fffffffe
fffffffd
fffffffc
fffffffe
00000000
ffffffff
00000000
00000002
00000002
fffffffd
00000000
00000001
00000001
00000000
00000001
fffffffe
00000000
00000000
00000004
00000006
00000002
ffffffff
00000001
00000000
00000003
00000000
ffffffff
fffffffd
00000001
fffffffb
00000003
fffffffe
ffffffff
ffffffff
00000000
00000002
ffffffff
fffffffb
fffffffc
ffffffff
fffffffc
fffffffc
00000000
00000001
fffffffb
00000002
00000002
00000000
ffffffff
fffffffc
fffffffb
fffffffd
00000001
00000003
fffffffc
00000001
fffffffc
fffffffe
00000002
fffffffd
fffffffe
00000000
00000006
00000003
00000000
00000004
00000002
00000003
00000002
00000002
fffffffe
00000000
00000003
00000003
00000000
00000001
00000004
ffffffff
00000001
00000006
00000003
00000004
00000001
ffffffff
fffffffe
fffffffb
fffffffa
fffffffb
fffffffd
00000000
00000002
fffffffc
00000006
00000003
0000000a
00000007
00000004
00000002
00000000
fffffff9
ffffffff
fffffff5
ffffffef
fffffff5
fffffff3
fffffffa
ffffffff
fffffffd
ffffffff
00000002
00000002
00000009
00000006
0000000d
00000001
00000002
ffffffff
fffffffd
00000000
fffffffd
00000000
00000002
fffffffd
00000001
ffffffec
ffffffe7
fffffff2
00000000
0000000a
00000013
00000022
00000023
00000010
00000007
00000006
00000001
00000007
00000000
fffffffb
fffffffa
fffffffb
fffffffd
00000001
00000004
00000002
00000002
00000000
00000007
00000005
00000003
00000004
00000002
00000004
00000000
00000001
00000000
00000000
fffffffd
fffffff8
ffffffff
fffffffc
fffffffe
ffffffff
00000001
00000007
00000006
0000000a
0000000b
00000003
fffffffe
00000001
00000002
fffffffc
fffffffc
fffffffd
00000003
fffffffd
00000006
00000003
00000000
fffffffe
00000002
fffffff6
fffffff0
fffffff8
ffffffea
fffffff4
00000005
00000002
fffffffd
00000002
fffffffa
fffffff3
fffffffa
fffffff4
fffffffb
fffffffd
fffffffe
00000000
fffffffd
fffffffe
00000000
fffffffb
fffffffe
00000001
00000001
00000000
fffffff9
00000005
fffffffe
fffffff7
fffffffd
fffffff3
fffffffa
00000000
fffffffd
fffffffa
00000006
ffffffff
ffffffff
00000003
00000002
fffffffe
00000006
0000000c
0000000d
00000000
fffffff6
fffffff4
fffffff6
ffffffef
fffffffe
00000002
00000006
ffffffff
00000002
fffffffb
fffffffa
fffffffe
fffffff6
00000006
00000000
fffffffc
00000001
fffffffe
fffffffd
00000009
0000000b
0000000b
00000005
00000000
00000003
fffffffd
00000004
00000002
fffffff8
00000005
fffffffc
ffffffff
fffffffe
ffffffff
fffffffc
ffffffff
fffffffd
00000000
00000006
fffffffe
00000002
fffffffe
00000001
00000002
00000002
00000000
fffffffc
00000002
00000001
00000001
00000001
00000003
00000009
ffffffff
00000006
fffffffe
fffffffb
ffffffef
fffffff2
00000000
00000002
00000006
fffffffe
00000005
00000006
fffffffe
00000004
00000006
fffffffe
00000001
fffffff9
fffffffa
fffffff7
fffffff2
fffffff4
fffffff9
fffffffc
fffffffb
fffffffe
00000002
fffffffa
00000006
0000000d
0000000b
0000000d
0000000a
fffffffa
fffffffd
fffffff5
fffffff3
ffffffef
ffffffe9
fffffff1
fffffff2
fffffff8
00000001
00000007
00000004
00000002
fffffffb
fffffff9
ffffffef
fffffff5
00000002
fffffffe
fffffff5
fffffff6
fffffffe
00000000
00000009
0000000d
00000010
00000002
00000008
00000009
00000001
00000004
fffffff6
fffffffa
ffffffeb
fffffff5
00000002
00000004
00000001
00000003
00000004
00000006
00000002
00000002
fffffffe
00000003
fffffffc
fffffff6
fffffff8
fffffff4
fffffff7
00000000
00000002
00000003
0000000a
ffffffb9
ffffffce
ffffffff
ffffffce
fffffff6
0000003a
fffffff4
0000002a
0000005d
fffffffe
ffffffff
00000002
00000000
ffffffff
00000003
00000002
00000002
00000004
00000002
00000003
00000000
00000002
00000001
fffffffe
00000000
00000000
fffffffd
00000000
00000000
00000000
00000000
00000001
ffffffff
00000001
00000001
00000000
00000017
00000016
00000004
00000009
fffffffe
ffffffee
fffffff6
ffffffeb
ffffffe6
fffffffe
fffffffc
00000000
ffffffff
ffffffff
00000001
00000003
00000000
ffffffff
ffffffe1
ffffffea
ffffffff
ffffffeb
fffffffc
00000012
00000000
00000014
0000001f
00000001
ffffffff
00000000
fffffffe
fffffffd
fffffffd
ffffffff
fffffffe
00000000
0000000f
00000008
fffffffd
fffffffe
fffffff4
fffffff8
fffffffb
fffffffd
fffffff7
00000002
00000001
00000002
00000000
00000002
00000000
00000001
fffffffd
fffffffd
00000006
00000002
00000001
ffffffff
fffffffe
fffffffc
ffffffff
fffffff7
fffffffb
00000001
fffffffc
00000002
00000001
ffffffff
00000001
ffffffff
ffffffff
fffffffe
00000002
00000000
ffffffff
00000001
00000001
fffffffe
ffffffff
ffffffff
00000001
00000001
00000000
fffffffd
ffffffff
00000000
00000000
00000001
00000000
00000003
fffffffe
fffffffc
00000003
fffffffd
fffffffe
00000003
00000001
fffffffd
00000000
ffffffff
00000001
00000002
00000000
00000000
00000000
fffffffe
00000000
00000000
00000002
00000006
00000001
00000001
fffffffc
fffffff8
ffffffff
00000004
00000001
fffffffc
fffffffe
00000001
00000000
00000003
00000000
00000001
00000003
00000002
00000002
fffffffc
fffffffe
fffffffd
ffffffff
00000000
ffffffff
fffffffe
00000002
fffffffc
00000000
00000001
00000001
00000000
00000007
fffffffe
ffffffff
00000004
00000001
00000001
ffffffff
fffffffe
fffffffe
ffffffff
fffffffd
fffffffe
00000000
ffffffe5
ffffffeb
fffffffd
fffffff4
00000003
00000012
fffffffa
0000000b
00000017
00000001
ffffffff
00000005
fffffffe
fffffffd
00000000
fffffffa
fffffffe
00000000
00000001
00000003
00000000
00000000
fffffffe
00000000
00000000
00000000
ffffffff
00000000
fffffffe
00000000
fffffffe
00000000
fffffffe
fffffffe
00000000
fffffffe
00000001
00000001
00000000
00000001
00000000
fffffffe
00000003
00000000
00000001
ffffffff
00000000
fffffffe
00000001
00000002
ffffffff
ffffffff
00000000
fffffffe
00000005
00000001
00000002
ffffffff
00000000
00000000
00000000
00000000
fffffffe
00000001
ffffffff
00000003
00000003
fffffffd
00000001
ffffffff
00000000
fffffffc
fffffffe
ffffffff
00000000
00000001
00000000
00000000
00000002
00000001
00000001
ffffffff
ffffffff
00000004
fffffffb
fffffff6
00000000
fffffffd
fffffffe
0000000a
fffffff3
00000004
fffffff9
ffffffff
fffffffd
00000001
fffffffe
fffffff9
fffffff3
fffffffc
ffffffe2
ffffffff
ffffffef
ffffffce
fffffff0
fffffffe
ffffffee
fffffff7
00000001
00000000
fffffffe
00000001
fffffffb
00000000
ffffffff
fffffffd
ffffffff
00000004
00000002
00000002
00000003
ffffffff
00000002
00000004
00000002
00000001
fffffffc
fffffffe
00000000
ffffffff
00000000
00000004
00000003
00000001
00000001
00000007
00000009
00000009
ffffffef
ffffffe3
fffffffb
fffffffc
fffffff6
00000003
fffffffe
00000003
fffffff9
fffffffe
00000001
fffffffc
fffffffe
00000003
fffffffe
fffffff7
00000009
fffffff7
00000008
0000001e
0000000b
fffffff7
00000005
fffffff2
00000003
0000000a
00000002
00000001
00000001
00000000
fffffffe
00000000
ffffffff
ffffffff
00000006
fffffff9
00000000
0000000b
fffffffe
fffffff8
00000001
fffffff9
00000001
00000001
ffffffff
fffffffe
fffffffd
fffffffe
fffffffd
00000000
00000001
fffffffe
fffffff9
fffffffa
fffffff5
ffffffeb
fffffff2
fffffffa
fffffff7
fffffffa
00000006
00000004
00000003
00000002
00000009
00000004
00000001
00000005
00000007
00000000
00000000
00000004
ffffffff
ffffffff
ffffffff
fffffffe
00000000
ffffffff
00000004
00000006
ffffffff
00000000
00000003
00000000
fffffffd
fffffffe
00000005
ffffffff
00000000
00000000
00000000
fffffffd
fffffffe
00000001
fffffffd
00000000
ffffffff
00000002
ffffffff
00000000
fffffffe
00000002
00000003
fffffffd
00000003
ffffffff
fffffffe
ffffffff
00000000
00000001
00000000
fffffffe
00000002
ffffffff
00000002
00000001
fffffffb
00000002
00000000
00000000
00000000
00000003
00000000
00000000
00000001
fffffffc
00000001
fffffffe
00000000
00000000
00000000
00000001
fffffffa
fffffffe
00000001
00000004
00000004
00000005
00000005
00000000
0000000b
00000000
fffffffb
fffffffe
ffffffff
ffffffff
00000000
00000000
00000004
ffffffff
fffffff9
fffffff5
fffffffc
fffffffd
fffffffb
ffffffff
fffffffa
fffffffd
fffffffd
00000001
00000003
00000000
00000002
00000000
00000000
00000000
fffffffd
00000001
00000003
00000001
ffffffff
00000000
00000000
00000000
00000000
00000002
ffffffff
00000002
00000004
ffffffff
fffffffd
fffffff8
fffffffd
fffffffc
fffffffa
ffffffff
00000003
00000003
00000002
00000005
00000000
00000000
00000004
fffffffc
00000000
fffffffe
ffffffff
00000001
ffffffff
fffffffd
ffffffff
00000002
fffffffe
ffffffff
fffffffd
00000000
00000002
ffffffff
00000000
ffffffff
00000003
00000000
ffffffff
fffffffe
00000005
fffffffb
ffffffff
ffffffff
00000001
00000002
00000001
00000002
fffffffe
fffffffa
00000000
00000002
fffffffc
00000000
00000001
00000000
fffffffd
ffffffff
ffffffff
00000004
fffffffc
fffffffb
00000005
00000003
00000002
00000005
00000007
fffffff8
00000001
fffffffe
fffffff1
fffffff5
00000008
ffffffff
00000002
00000005
fffffffd
00000007
fffffffc
fffffff9
00000001
00000004
fffffffe
00000004
fffffffc
fffffffa
fffffffc
fffffffd
fffffffb
fffffff9
fffffffc
ffffffff
00000006
ffffffff
ffffffff
00000000
00000002
ffffffff
00000003
00000000
fffffffc
fffffff9
ffffffff
fffffffd
fffffffb
fffffffc
fffffffa
fffffff4
fffffffb
fffffffc
fffffffe
00000007
00000000
00000008
fffffffc
fffffff7
00000001
fffffffe
fffffff7
00000000
fffffff9
fffffff8
fffffff3
00000003
fffffffd
fffffffc
00000004
fffffffc
fffffffe
fffffffe
ffffffff
00000000
00000000
fffffffc
fffffffe
00000004
00000000
ffffffff
fffffffb
fffffffc
fffffffa
fffffff3
fffffff5
fffffff7
fffffffa
fffffff6
fffffff8
00000007
00000001
0000000a
fffffffc
fffffff5
fffffffe
00000004
fffffffa
00000002
00000001
00000003
00000001
00000007
00000004
00000005
00000003
00000004
00000001
00000002
fffffffe
00000009
fffffff9
fffffffa
00000002
ffffffff
fffffffa
ffffffff
fffffff7
fffffff4
00000000
ffffffee
ffffffe6
fffffff7
fffffff3
ffffffe6
fffffff0
00000001
00000004
00000001
ffffffff
00000003
00000002
ffffffff
00000006
fffffffe
00000000
00000001
00000000
00000002
ffffffff
00000008
00000001
fffffffc
00000004
fffffff6
fffffff8
ffffffff
fffffff7
fffffff1
ffffffff
fffffff7
fffffff9
fffffffe
00000006
ffffffff
00000002
00000005
00000001
00000005
00000003
ffffffff
00000002
fffffffc
ffffffee
fffffffe
fffffffe
ffffffef
ffffffff
00000001
fffffff4
00000000
00000002
00000002
00000002
fffffffc
fffffffb
fffffffe
fffffffc
fffffff9
fffffffc
fffffffe
fffffff8
fffffffa
fffffffb
fffffff5
fffffff3
fffffffd
fffffff8
fffffffb
fffffff9
ffffffed
00000000
fffffff4
ffffffe9
fffffff4
fffffff9
ffffffeb
fffffffa
fffffffc
fffffffd
00000006
fffffff4
fffffff8
fffffffc
fffffffb
fffffff8
fffffffa
00000004
00000002
00000000
ffffffff
ffffffff
ffffffff
00000000
00000000
00000000
00000005
fffffff2
fffffffa
00000000
fffffff4
fffffff8
00000005
fffffff2
fffffff7
00000001
00000006
fffffffe
00000001
00000003
ffffffff
00000005
00000003
00000000
00000002
fffffffe
00000006
00000003
00000003
00000003
00000003
00000003
00000006
00000003
fffffffa
fffffffc
00000004
0000000a
fffffffd
ffffffff
fffffffd
00000001
00000003
00000002
00000000
00000003
00000007
00000006
00000004
00000003
00000000
00000001
00000000
00000003
ffffffff
ffffffff
00000001
00000002
00000001
00000004
00000002
00000001
fffffffb
fffffffc
fffffffd
fffffffc
fffffffc
fffffffd
fffffff9
00000004
00000001
00000005
00000004
00000005
00000002
ffffffff
00000000
00000005
00000002
fffffff6
fffffffd
fffffff5
fffffff0
fffffff4
ffffffff
fffffff4
00000000
00000001
00000002
ffffffff
fffffffe
00000001
00000002
ffffffff
fffffffe
ffffffff
ffffffff
00000000
fffffffe
00000002
ffffffff
fffffffb
00000002
ffffffff
00000001
fffffffe
00000001
00000005
ffffffff
fffffff7
00000000
00000004
fffffffc
fffffffe
00000001
fffffffb
fffffff8
00000002
00000007
ffffffff
fffffffb
fffffffc
00000000
fffffffd
00000002
00000001
00000003
fffffffa
ffffffff
ffffffff
00000000
ffffffff
fffffffd
fffffffb
fffffffa
0000000c
00000006
fffffffa
fffffff4
00000000
00000007
00000002
00000003
00000001
00000002
00000008
0000000b
00000001
00000001
fffffffb
00000000
00000000
fffffffc
00000004
00000001
ffffffff
ffffffff
00000000
fffffffe
fffffff5
00000002
ffffffff
0000000a
00000002
fffffff8
fffffffc
00000007
00000006
fffffffe
fffffffe
fffffffb
00000003
fffffffc
fffffffd
fffffffd
00000002
00000006
00000003
00000000
ffffffff
fffffffd
fffffff7
00000000
00000000
fffffffb
fffffffb
fffffffd
ffffffff
fffffffc
00000000
fffffffc
fffffff7
00000000
00000005
00000003
fffffffe
00000001
00000000
00000003
fffffff3
fffffff7
fffffffb
00000001
00000007
00000002
00000002
fffffffb
fffffffe
00000000
fffffffd
fffffffb
00000000
ffffffff
00000005
00000005
00000002
00000003
0000000c
0000000b
fffffff7
ffffffef
fffffff2
fffffffd
ffffffff
fffffffe
00000006
fffffff9
fffffff4
fffffffd
0000000a
00000006
fffffffb
00000000
fffffffb
00000006
00000008
00000001
fffffffa
00000004
00000006
00000002
0000000e
0000000b
fffffff6
ffffffec
fffffffe
0000000a
00000009
fffffffa
00000003
00000000
00000001
00000004
ffffffff
fffffffd
fffffffb
fffffffd
00000000
fffffff7
fffffffe
00000003
fffffffe
fffffff1
fffffff9
00000009
0000000b
00000002
fffffffa
fffffff9
fffffff9
00000001
ffffffff
00000004
00000001
fffffffd
00000004
0000000c
00000000
fffffff7
00000001
00000015
00000009
ffffffec
fffffff1
00000003
fffffffc
00000002
00000002
fffffff9
fffffff8
fffffffe
00000008
00000005
00000001
00000006
00000007
00000003
fffffff6
fffffffc
fffffffe
00000007
fffffffe
00000000
00000000
00000001
00000004
fffffffe
fffffffa
00000003
00000005
00000002
fffffffe
fffffffb
fffffffa
fffffffd
ffffffff
fffffffe
fffffff9
00000004
0000000f
0000000a
fffffffa
fffffffc
00000001
fffffffc
fffffff5
ffffffff
0000000a
00000003
00000003
00000002
fffffffe
fffffffd
00000009
0000000b
00000001
fffffffd
00000001
00000002
00000001
fffffffc
fffffffe
fffffff7
fffffffc
00000000
00000002
00000006
00000002
00000002
fffffffb
fffffff3
00000003
0000000b
00000005
fffffffa
fffffffd
00000002
00000002
00000007
00000002
ffffffff
fffffff8
fffffffd
ffffffff
fffffffd
00000000
00000002
00000001
ffffffff
00000003
00000004
00000003
00000001
fffffffe
00000000
00000000
00000005
00000002
00000002
fffffffe
00000001
00000001
00000000
00000000
00000002
fffffff7
00000002
00000000
fffffff6
fffffffd
00000003
fffffffe
ffffffff
00000002
00000003
ffffffff
00000002
00000001
00000001
00000002
ffffffff
ffffffff
ffffffff
00000000
00000002
00000001
ffffffff
ffffffff
00000002
00000002
ffffffff
fffffffe
ffffffff
00000001
00000001
00000000
00000001
ffffffff
00000002
00000000
00000001
fffffffe
fffffffd
00000003
00000000
fffffffc
fffffffe
ffffffff
fffffffa
fffffffe
ffffffff
fffffffe
fffffffb
fffffffd
fffffffc
ffffffff
fffffffe
00000000
fffffffe
00000006
00000000
00000002
00000007
00000003
fffffffc
ffffffff
fffffffc
fffffffe
00000003
00000000
ffffffff
00000003
00000001
00000002
00000000
00000001
fffffffe
00000001
00000003
fffffffa
fffffff4
fffffffd
00000003
fffffffd
00000004
fffffffe
fffffffe
fffffffe
fffffffe
fffffffe
00000000
00000001
ffffffff
00000000
fffffffa
fffffff6
fffffff8
fffffff7
fffffff6
fffffff6
fffffff9
fffffff8
fffffff6
00000001
00000001
00000000
00000008
00000011
00000000
00000001
00000003
ffffffff
ffffffff
00000002
00000000
00000001
00000002
ffffffff
00000001
00000000
00000001
fffffffe
00000003
00000001
fffffffe
00000000
00000004
00000001
ffffffff
00000004
fffffffd
fffffffc
fffffffe
00000001
00000001
00000000
00000000
00000002
fffffffd
00000002
00000001
00000001
00000002
00000001
ffffffff
00000000
00000001
ffffffff
ffffffff
ffffffff
00000000
00000000
fffffffe
00000001
ffffffff
00000000
fffffffe
fffffffc
fffffffe
ffffffff
fffffffd
fffffffd
fffffffe
ffffffff
ffffffff
00000000
ffffffff
fffffffd
fffffffd
00000002
00000005
fffffffe
00000001
00000006
00000000
00000007
0000000d
00000003
00000008
00000014
0000000c
00000002
00000004
00000006
00000000
00000007
00000001
00000002
00000005
00000001
00000001
00000003
00000001
fffffffb
fffffff2
fffffffc
fffffffd
fffffff0
fffffffa
00000004
00000000
00000000
00000001
00000001
ffffffff
ffffffff
fffffffe
00000003
fffffffd
fffffffd
fffffffd
00000000
ffffffff
fffffffe
ffffffff
fffffffe
00000000
00000000
00000001
00000000
00000003
00000003
00000002
00000004
00000002
00000002
00000002
00000000
ffffffff
00000002
00000000
fffffffe
00000001
fffffffe
fffffffe
00000001
00000000
00000001
00000000
00000002
00000001
00000000
00000002
00000001
ffffffff
00000001
00000001
ffffffff
fffffffe
00000000
00000001
00000001
00000003
00000000
00000000
ffffffff
ffffffff
00000002
ffffffff
ffffffff
fffffffe
00000000
00000000
00000000
ffffffff
00000001
00000000
00000000
00000006
ffffffff
fffffffe
fffffffe
00000001
00000002
00000002
00000004
00000001
00000004
00000003
00000002
00000002
00000001
fffffffe
00000003
fffffffc
ffffffff
00000000
00000000
00000002
00000003
00000007
00000000
00000001
00000003
00000000
00000000
00000000
00000001
fffffffa
00000000
fffffffd
00000009
fffffffd
fffffffd
00000007
00000007
00000001
00000003
00000006
00000003
fffffff9
00000002
00000007
ffffffff
00000001
00000003
00000002
00000001
00000000
00000001
00000003
fffffff7
00000006
00000000
fffffffb
00000001
fffffffb
00000004
00000001
fffffffe
00000001
fffffffe
fffffff3
00000004
fffffffc
ffffffff
00000003
fffffff7
fffffff6
fffffff8
fffffffe
00000008
fffffffa
00000005
00000005
fffffff9
fffffffd
fffffffe
fffffffd
ffffffff
ffffffff
fffffffa
00000006
00000001
00000001
00000001
00000000
ffffffff
00000004
fffffff6
fffffffb
fffffffd
ffffffed
fffffffb
00000000
0000000c
fffffffe
00000002
fffffffa
ffffffff
fffffff6
fffffff6
ffffffff
00000007
00000000
fffffff6
00000008
00000001
fffffff8
ffffffff
00000003
00000002
00000005
00000005
00000001
00000004
fffffffd
00000002
fffffffa
fffffffd
fffffffb
00000003
ffffffff
fffffffb
fffffffe
fffffff2
fffffff4
00000001
fffffff8
fffffff9
fffffffc
00000009
00000006
00000001
00000003
00000002
00000005
ffffffff
00000000
00000006
00000000
00000003
fffffffe
00000006
00000001
fffffffe
00000004
00000005
fffffff8
00000006
00000008
fffffffc
00000005
00000004
00000007
00000001
00000001
ffffffec
ffffffe8
fffffff6
ffffffe5
ffffffe0
fffffff1
ffffffed
ffffffec
fffffff5
fffffffd
00000004
00000006
fffffffb
00000009
00000003
00000002
00000003
00000006
fffffffc
fffffffc
fffffff9
fffffffa
fffffff4
fffffffa
fffffff9
ffffffff
ffffffff
0000000c
00000002
00000006
00000008
00000006
00000006
00000000
00000004
00000002
00000006
fffffff9
fffffffa
fffffffb
fffffffb
fffffffc
fffffffa
00000006
00000000
fffffffb
00000008
00000009
00000001
00000003
00000006
00000001
00000000
00000000
00000001
00000006
00000001
00000004
00000007
fffffffe
ffffffff
00000001
ffffffff
00000000
00000001
00000000
00000000
fffffffd
00000001
00000003
00000002
00000003
00000003
00000001
ffffffff
00000001
00000004
00000001
ffffffff
00000006
00000003
fffffffa
00000006
00000009
fffffffe
00000005
00000005
00000000
fffffffc
00000000
00000009
00000003
fffffffa
00000005
00000005
fffffffe
fffffffe
00000004
00000004
ffffffee
fffffffd
00000004
fffffff8
fffffff6
ffffffff
00000002
fffffff8
fffffff6
fffffffd
ffffffff
00000004
00000004
00000005
ffffffff
fffffffd
fffffffc
ffffffff
00000000
fffffff5
00000001
00000000
fffffffc
ffffffff
00000005
ffffffff
00000004
00000003
00000000
00000001
00000000
00000004
ffffffff
fffffffd
00000000
00000002
00000007
00000003
fffffffb
00000004
fffffffe
fffffffc
fffffffc
00000000
00000007
00000000
00000001
fffffffe
00000002
00000000
fffffffe
00000001
00000002
ffffffff
fffffffd
00000001
00000007
fffffffd
fffffff4
fffffffa
00000006
00000003
fffffffe
fffffffd
fffffffe
00000002
fffffffd
ffffffff
00000004
fffffffd
00000000
ffffffff
00000000
00000000
00000001
00000004
fffffffd
00000002
00000002
00000001
00000003
00000003
00000008
ffffffff
fffffffe
00000006
00000004
00000002
00000003
00000004
fffffffe
00000007
00000005
fffffffa
fffffff4
00000001
00000001
ffffffff
fffffffc
0000000a
00000003
fffffff8
00000005
00000010
00000001
fffffff3
00000003
00000006
ffffffff
00000001
00000003
ffffffff
fffffffc
ffffffff
00000003
fffffffd
00000001
ffffffff
00000000
ffffffff
fffffff8
fffffff9
fffffffc
fffffffc
fffffff6
fffffff9
00000004
00000006
00000005
fffffffd
fffffff5
fffffffc
00000002
fffffffa
fffffffb
00000006
00000004
00000000
00000005
00000006
00000006
00000003
00000003
00000003
ffffffff
00000002
00000003
fffffff8
fffffff7
ffffffff
00000000
fffffff8
fffffff5
fffffffe
ffffffff
00000007
fffffffc
ffffffeb
ffffffff
00000006
fffffffb
fffffffc
fffffff8
fffffffb
00000002
fffffffd
fffffff5
fffffffe
fffffffe
fffffff8
fffffffe
fffffffe
fffffffe
00000002
00000006
00000011
0000000d
00000002
00000003
00000003
00000000
00000002
00000001
fffffff6
fffffff4
00000003
00000002
fffffffc
ffffffff
ffffffff
00000000
00000002
ffffffff
fffffffc
ffffffff
00000002
00000000
00000000
00000003
fffffffe
fffffff8
00000005
0000000b
00000005
00000001
00000002
00000002
00000002
00000002
00000004
00000005
fffffffa
fffffffc
00000003
00000005
00000000
fffffff3
fffffff5
00000003
fffffff3
ffffffe5
fffffffd
fffffffc
fffffff1
fffffffb
fffffff9
fffffffc
00000003
fffffff9
fffffff6
fffffffd
00000003
00000003
fffffffe
00000007
00000008
00000006
00000006
0000001a
00000000
00000008
00000010
ffffffff
ffffffff
00000002
00000004
00000000
fffffffd
00000001
00000001
fffffffb
fffffffe
ffffffff
fffffff8
00000001
00000004
00000003
fffffffc
00000000
00000004
ffffffff
00000004
00000001
00000000
00000002
00000007
00000003
00000000
00000002
00000004
fffffff5
fffffff6
00000001
fffffff4
ffffffe6
fffffff7
ffffffff
fffffff8
fffffff9
fffffffe
fffffffb
fffffffb
fffffffb
fffffffd
fffffff4
00000001
fffffffc
fffffffb
fffffffe
00000003
00000002
fffffffb
fffffff4
ffffffff
ffffffff
fffffffe
fffffffc
fffffffe
fffffffd
fffffffe
fffffffc
fffffffe
fffffffe
fffffffc
ffffffff
00000001
ffffffff
fffffffc
00000006
fffffffb
00000002
fffffffa
00000001
00000003
ffffffff
fffffffe
ffffffff
fffffffe
00000002
00000005
00000001
00000005
00000003
fffffffd
fffffffe
ffffffff
00000002
fffffffa
fffffff8
00000001
fffffffe
fffffffb
ffffffff
00000002
fffffffb
ffffffff
00000003
00000001
00000002
00000001
00000000
ffffffff
fffffffe
fffffffc
fffffffd
00000007
ffffffff
fffffffc
fffffffe
00000004
00000005
00000000
00000006
00000002
fffffff7
00000001
ffffffff
fffffffe
ffffffff
00000001
00000003
fffffff5
fffffff3
00000005
0000000a
00000006
00000001
00000000
00000003
fffffffc
fffffffd
00000000
00000008
ffffffff
fffffffe
00000001
00000004
ffffffff
fffffff7
fffffffa
fffffffe
0000000c
00000004
fffffffb
fffffff6
00000002
00000007
fffffff9
fffffffc
00000002
fffffffa
fffffff3
fffffff7
00000018
0000000f
00000008
00000000
fffffffe
fffffffd
00000004
00000005
00000003
fffffff8
ffffffff
00000002
fffffffb
00000001
00000005
00000007
ffffffdf
fffffff3
0000000c
00000005
00000002
fffffffa
fffffffb
fffffffd
0000000a
00000003
fffffffa
fffffffa
00000000
00000004
00000003
00000004
00000004
fffffff8
fffffffe
00000003
fffffffe
fffffffa
fffffffb
fffffff7
fffffffc
fffffffc
fffffffc
ffffffef
ffffffeb
00000004
0000000f
0000000e
fffffff3
fffffff0
fffffff6
00000009
00000006
fffffff4
fffffff3
fffffff8
fffffffa
fffffffe
fffffff6
fffffffc
00000000
fffffff6
fffffff1
00000000
00000009
00000000
00000002
00000004
00000002
fffffff3
fffffff9
fffffff6
00000003
00000004
00000001
fffffff7
fffffff7
fffffff7
0000000b
00000005
fffffffb
fffffffc
00000006
00000009
fffffffa
fffffffa
fffffff9
00000008
00000006
fffffffe
fffffffd
00000003
00000003
00000012
0000001f
00000012
ffffffde
ffffffe1
00000003
00000009
fffffff8
fffffff4
00000000
fffffff8
00000002
00000005
00000008
00000002
00000002
00000004
00000006
fffffffe
fffffffa
fffffff7
00000006
00000006
00000001
ffffffff
00000002
00000007
00000002
fffffffe
fffffffb
fffffffb
0000000c
00000003
fffffff7
fffffff6
fffffffc
fffffffa
fffffff2
fffffffa
00000008
ffffffff
fffffff9
0000000a
00000007
00000004
00000006
fffffffc
fffffffa
ffffffff
00000004
00000008
fffffffd
fffffffd
00000000
00000008
00000005
00000002
fffffff9
00000003
00000007
00000002
fffffffe
fffffffc
00000001
00000005
00000003
fffffffb
00000000
00000001
fffffffd
fffffffd
fffffffe
fffffffd
fffffff6
ffffffff
00000003
fffffffc
fffffffb
00000003
00000003
ffffffff
00000002
0000000c
00000008
fffffffb
00000001
0000000a
fffffffb
fffffff5
fffffffb
fffffff6
fffffffa
fffffffa
00000009
00000002
fffffff6
ffffffff
00000003
0000000c
00000008
00000005
00000001
fffffffc
00000009
00000002
fffffff9
fffffff7
fffffffc
fffffff8
fffffff1
fffffff8
0000000f
fffffffb
fffffff7
fffffffe
0000000a
00000005
00000007
00000007
00000000
fffffffe
fffffffe
00000003
fffffffd
fffffff9
fffffffa
fffffff9
fffffffe
fffffffd
00000003
00000006
00000003
fffffff9
fffffffb
ffffffff
fffffffe
00000000
00000003
fffffffd
00000003
0000000b
fffffffe
00000003
00000004
00000002
00000003
fffffffe
ffffffff
00000008
fffffffd
fffffff7
fffffffa
00000001
fffffffc
fffffff3
fffffffa
00000007
ffffffee
fffffff7
00000001
fffffffa
fffffff9
00000009
0000000b
00000007
00000000
0000000b
00000009
fffffffc
00000002
00000004
fffffff4
fffffffc
fffffff2
fffffff9
fffffff4
fffffff6
fffffffc
fffffffd
fffffff8
00000000
fffffff4
ffffffe7
00000009
00000010
fffffff4
fffffffc
00000013
00000011
fffffffd
00000003
00000016
fffffff5
00000006
00000013
fffffffe
00000003
0000000b
00000008
00000000
00000003
00000004
fffffffa
00000006
fffffff8
fffffffd
00000000
fffffff6
fffffffd
00000001
00000004
fffffffd
fffffffe
00000001
00000003
00000007
00000009
fffffffa
ffffffed
0000000b
0000000e
fffffffb
fffffffc
00000002
fffffffe
fffffffd
fffffffc
00000001
fffffffc
ffffffed
fffffff4
fffffffe
00000002
fffffffc
fffffff4
fffffff6
fffffffd
00000001
fffffff6
fffffff9
fffffffd
00000005
0000000b
fffffff9
fffffffe
fffffffa
00000007
00000001
00000001
fffffffe
00000004
00000000
00000003
0000000c
00000008
fffffffd
0000000c
00000008
fffffffc
00000009
0000000a
00000004
00000002
00000000
00000007
00000009
00000003
fffffffc
00000006
fffffffe
00000006
00000005
00000007
00000013
0000000e
00000007
00000007
00000013
0000000a
fffffff9
fffffffb
fffffff3
fffffffd
fffffffc
ffffffff
fffffff8
00000000
fffffffd
00000007
0000000b
00000006
00000001
00000006
fffffff9
00000007
00000007
fffffffb
00000002
fffffff9
00000003
fffffffd
00000003
fffffffd
fffffffd
fffffffd
00000001
fffffffd
00000001
00000002
00000008
00000001
00000001
fffffffb
00000003
fffffff9
00000003
fffffff1
fffffff5
00000013
fffffff7
fffffffb
00000004
fffffffb
fffffffa
00000003
00000005
ffffffff
00000003
0000000e
0000000c
fffffff2
ffffffff
00000006
00000000
00000001
00000007
00000004
00000002
00000002
fffffffc
00000002
fffffffd
fffffffa
00000001
00000000
00000007
00000000
ffffffff
00000004
00000006
fffffffc
00000000
00000002
fffffffb
00000003
fffffff8
fffffff6
00000004
fffffffa
00000000
00000004
00000009
00000005
00000009
00000008
00000007
00000002
0000000c
00000008
fffffffb
fffffff3
fffffff7
fffffffc
fffffff4
ffffffef
ffffffff
ffffffff
fffffff4
0000000a
00000005
00000009
00000007
0000000e
0000000b
00000000
00000003
00000008
fffffffa
fffffff6
fffffffd
ffffffff
fffffffa
fffffffa
00000001
fffffffa
fffffffb
fffffffd
00000002
00000002
ffffffff
00000000
00000008
ffffffff
fffffffe
00000000
00000001
fffffff7
fffffffc
00000003
fffffff7
fffffffa
00000001
fffffffb
fffffffc
fffffffc
fffffff6
fffffff3
00000005
fffffffa
fffffffa
00000004
fffffffb
fffffffa
00000001
ffffffff
fffffff8
00000003
fffffffa
ffffffff
fffffffc
fffffffb
0000000e
ffffffff
00000000
00000003
fffffffb
fffffffc
fffffffd
00000005
00000000
fffffffe
fffffffe
0000000a
fffffffc
0000000e
00000008
fffffffd
00000005
fffffffa
00000004
fffffffd
00000003
0000000a
00000002
ffffffe6
00000001
00000004
00000006
fffffffb
00000000
ffffffe6
00000000
fffffff4
00000000
00000008
fffffffe
00000005
fffffffd
fffffffa
00000010
0000000b
fffffff7
fffffffc
00000003
00000008
fffffff3
fffffff0
0000001e
fffffff0
fffffff4
00000006
00000000
00000008
ffffffea
00000018
00000010
fffffffe
00000003
00000004
00000001
fffffffa
00000000
00000005
fffffffc
00000000
00000007
fffffffd
fffffffe
fffffff4
00000004
00000010
00000001
fffffff8
00000004
fffffff8
00000004
00000007
fffffff7
00000002
00000002
00000007
fffffff9
fffffff7
fffffff9
fffffff8
00000001
00000009
00000013
00000003
00000003
ffffffff
00000004
fffffffd
00000008
00000001
ffffffff
fffffffb
00000003
00000002
fffffffb
00000001
fffffffe
00000000
fffffffa
fffffffb
ffffffed
fffffffb
fffffffc
fffffff3
fffffffa
fffffff7
fffffffb
00000006
fffffffa
ffffffe9
00000006
00000001
fffffff7
fffffff6
fffffffa
00000002
00000002
fffffffa
fffffff6
00000003
00000001
00000002
fffffff9
0000000c
0000000f
00000002
fffffff1
fffffff5
00000016
00000009
ffffffef
00000008
00000002
00000001
fffffffd
fffffffc
fffffff3
00000002
00000001
fffffffe
fffffffc
00000004
fffffff8
ffffffef
00000004
00000008
00000008
fffffff9
fffffffe
00000008
fffffff9
ffffffff
00000000
00000004
00000001
fffffff0
00000004
00000000
00000003
fffffff9
00000002
00000002
fffffffb
fffffffa
00000006
fffffff9
00000007
ffffffff
fffffff7
00000006
00000006
00000004
ffffffff
fffffff5
00000002
fffffff4
00000001
fffffffc
00000004
00000002
fffffffb
ffffffe9
00000005
00000006
fffffffc
fffffff5
00000007
fffffffa
fffffff8
00000002
fffffffb
00000006
fffffff7
00000001
00000008
00000004
fffffffb
00000005
00000006
00000004
fffffffb
fffffffb
00000009
fffffffd
fffffffb
00000007
fffffffd
00000005
00000012
fffffffe
00000007
0000000b
00000009
00000006
00000009
00000009
fffffff8
fffffff0
00000006
fffffffa
fffffffc
fffffff3
fffffffa
fffffffc
fffffffe
00000004
0000000e
fffffffd
00000000
ffffffff
fffffffc
00000004
0000000b
00000009
fffffff3
ffffffea
00000003
00000006
00000001
fffffff7
fffffff7
fffffffd
fffffff9
ffffffff
fffffff4
fffffffb
fffffffa
fffffff4
00000000
0000000f
fffffff6
fffffffc
00000006
fffffff1
00000002
fffffff5
00000011
00000002
fffffff8
fffffffd
fffffff4
00000006
fffffffc
fffffffd
00000004
fffffff7
00000005
fffffff2
00000007
00000006
00000007
00000007
fffffff5
00000009
fffffff7
fffffffe
00000000
fffffffd
00000004
00000001
fffffffd
fffffffe
00000005
00000001
fffffffe
ffffffff
ffffffff
00000009
00000000
fffffff8
00000005
00000004
fffffff5
00000001
ffffffeb
fffffffc
00000005
fffffff0
fffffff1
00000001
fffffff1
ffffffeb
00000000
00000009
ffffffff
ffffffff
00000003
00000003
ffffffff
00000003
00000005
00000003
ffffffef
fffffff1
00000005
fffffff4
ffffffe2
00000000
fffffffb
ffffffe8
fffffff5
00000009
00000007
00000000
fffffffe
00000000
fffffffd
fffffffd
fffffffe
fffffffb
fffffff8
fffffffa
00000004
00000003
fffffffe
fffffffd
00000003
00000002
fffffff9
00000005
fffffff9
00000002
00000008
fffffff7
00000002
00000008
fffffff6
00000000
fffffffc
fffffffa
00000002
fffffff8
fffffff1
00000005
00000004
ffffffea
fffffff8
fffffffe
00000006
fffffffe
fffffffd
ffffffff
fffffffe
00000000
ffffffff
00000003
ffffffff
fffffffe
00000006
00000004
fffffffa
00000006
00000000
fffffffc
00000002
fffffff4
00000005
00000005
fffffff7
fffffffa
00000003
fffffffd
fffffff7
00000004
ffffffff
fffffffe
00000004
fffffff8
fffffff1
fffffffd
fffffffe
ffffffef
fffffffd
00000007
00000007
fffffffd
00000003
0000000a
00000003
00000003
00000008
00000007
0000000c
00000007
00000001
fffffffe
00000009
00000003
00000000
00000001
00000006
00000008
00000004
00000007
fffffffc
00000005
00000004
fffffffc
00000004
00000005
ffffffff
fffffffd
00000006
00000002
fffffff6
00000005
00000005
fffffff8
ffffffff
0000000a
00000010
fffffff2
fffffffb
0000000e
fffffffc
fffffffc
00000011
00000003
fffffffd
fffffff9
00000002
00000005
fffffff9
fffffffe
00000002
00000001
ffffffff
fffffff6
fffffffa
fffffff9
fffffff7
fffffff9
fffffffa
fffffff4
fffffff5
fffffffa
00000001
fffffffb
00000008
00000002
fffffff8
00000001
00000007
00000002
00000000
fffffffc
fffffffc
fffffffa
fffffff5
fffffffd
fffffffd
fffffff5
fffffffb
00000001
fffffffd
fffffffe
00000008
ffffffff
fffffffc
00000003
ffffffff
fffffffc
00000004
00000007
00000005
fffffffa
00000002
00000002
fffffffc
00000005
00000002
00000003
fffffff3
fffffff5
fffffffd
fffffffa
fffffff4
fffffffd
fffffffa
fffffff3
fffffffc
0000000d
00000003
ffffffff
00000006
00000006
00000002
00000004
00000007
00000007
fffffff9
fffffffc
00000000
00000001
fffffffb
fffffffc
ffffffff
00000001
fffffffb
fffffffb
fffffffb
00000001
fffffffc
fffffff7
00000005
00000001
fffffffb
00000003
00000003
00000004
00000000
fffffffc
00000001
00000002
00000003
00000003
00000000
fffffff6
fffffff7
0000000f
00000000
ffffffe6
00000000
00000006
ffffffec
fffffffc
00000008
00000003
00000002
00000003
00000003
ffffffff
00000005
00000006
ffffffff
fffffff8
fffffffe
00000007
fffffffd
fffffff7
00000001
00000001
ffffffff
fffffffd
00000003
fffffffc
00000001
00000004
fffffffc
00000002
00000002
fffffffd
00000000
0000000c
00000004
00000001
fffffffc
fffffff5
fffffffc
fffffffd
00000000
00000001
ffffffff
fffffffa
fffffffd
fffffff9
fffffff6
00000002
fffffffc
ffffffff
00000001
fffffffe
00000001
ffffffff
00000002
00000003
fffffffe
00000001
00000002
ffffffff
00000002
00000005
00000006
00000000
00000005
00000005
00000004
0000000a
00000002
ffffffff
00000005
00000000
00000003
fffffff9
fffffffb
00000001
fffffffd
00000002
fffffff6
ffffffff
00000004
00000002
0000000c
00000000
0000000a
00000007
fffffff8
00000006
00000001
00000001
ffffffff
ffffffff
00000001
fffffffe
ffffffff
fffffffd
ffffffff
00000000
fffffffe
fffffffd
fffffffc
fffffffc
fffffff8
fffffff9
fffffffc
00000006
00000006
00000004
00000003
fffffffc
fffffffb
fffffffd
fffffff8
fffffffc
00000000
ffffffff
00000001
ffffffff
fffffffb
fffffffd
00000000
fffffffd
00000000
0000000d
00000006
fffffffe
00000003
fffffffa
fffffff2
fffffff6
fffffff7
fffffff5
00000002
00000002
fffffffe
fffffff4
fffffff2
fffffff9
fffffff8
00000000
00000007
00000001
00000002
00000001
00000000
00000004
00000002
00000000
fffffffe
fffffffd
00000001
fffffff8
fffffff6
fffffff3
ffffffe7
ffffffee
fffffffa
fffffff8
fffffff9
00000000
00000002
00000002
00000000
00000003
00000000
00000001
ffffffff
00000001
00000000
00000001
00000002
ffffffff
00000001
fffffffd
fffffffe
00000000
00000001
fffffffe
fffffffd
00000002
00000000
00000008
00000009
00000002
ffffffff
00000001
00000004
00000002
fffffffe
00000001
fffffff9
