fffffffc
00000000
fffffffb
fffffffc
ffffffff
ffffffff
00000000
fffffffc
ffffffff
fffffffc
00000001
00000000
00000000
00000003
ffffff96
00000002
ffffffff
00000000
00000000
fffffffa
fffffffc
fffffffc
ffffffff
00000000
fffffffa
fffffff9
fffffff9
fffffffb
ffffffff
fffffffe
00000000
00000000
fffffffc
00000000
fffffffa
ffffffff
fffffffe
fffffff9
fffffffc
fffffffb
fffffffe
fffffffc
fffffffe
fffffffe
ffffffff
fffffffc
fffffff9
fffffffa
fffffffd
ffffffff
fffffffb
fffffffd
fffffffe
fffffffb
ffffffff
fffffff7
fffffffe
00000000
ffffffff
fffffffd
fffffffb
fffffffe
fffffffd
ffffffff
fffffffc
fffffffa
00000000
fffffffa
fffffffd
00000000
ffffffff
00000000
fffffffc
ffffffff
0000000b
fffffffe
fffffffe
fffffffc
fffffffd
ffffffff
ffffffff
fffffffa
00000000
fffffffa
fffffffd
fffffffb
ffffffff
fffffffd
fffffffd
fffffff6
00000000
ffffffff
ffffffff
fffffffb
fffffffe
00000000
00000000
ffffffff
fffffffc
ffffff80
00000007
fffffffc
ffffffff
fffffffe
fffffffc
ffffffff
fffffffb
00000000
fffffffc
fffffff8
fffffffc
ffffffff
fffffff8
fffffffa
fffffffd
fffffff2
fffffffd
fffffffe
00000000
ffffffff
fffffffa
fffffffa
fffffffe
ffffffff
fffffff9
fffffffb
fffffffe
fffffffd
ffffffff
fffffffb
fffffffe
fffffffd
fffffff7
fffffffc
fffffffa
fffffff9
fffffffe
fffffffd
fffffffc
fffffffc
fffffffb
00000000
fffffffb
fffffff6
fffffff7
fffffff9
ffffffff
fffffffb
fffffffd
fffffffa
ffffffff
fffffffa
fffffffb
fffffffa
ffffffff
fffffffe
fffffffa
fffffff8
00000000
fffffffd
ffffffff
fffffffd
fffffffe
ffffffff
fffffff8
fffffffd
fffffff9
00000000
fffffffd
fffffffb
fffffff0
fffffff8
fffffffd
ffffffff
fffffffc
fffffffb
fffffffa
fffffffa
fffffffd
fffffff8
00000003
00000000
00000001
00000002
00000002
00000000
00000002
00000000
00000001
00000002
ffffffff
00000001
00000004
00000001
00000003
00000001
00000002
00000001
00000002
00000001
00000001
00000000
00000000
00000002
00000002
fffffffe
00000000
00000002
00000000
00000002
00000002
00000000
00000002
00000002
00000000
00000000
00000000
00000002
00000001
00000000
00000001
00000000
00000000
00000001
00000002
00000003
00000000
00000000
00000003
00000001
00000002
00000002
00000006
00000005
00000002
ffffffff
00000002
00000001
00000000
00000000
00000002
00000002
00000000
00000001
00000000
00000002
ffffffff
00000001
00000001
fffffff9
00000000
00000002
00000001
00000001
0000000a
ffffffff
00000001
00000000
00000001
00000000
fffffffe
00000000
fffffffe
00000000
00000002
00000001
00000001
00000000
00000001
00000000
00000000
00000000
00000002
00000001
00000002
00000000
00000000
00000000
00000000
00000001
00000002
00000000
00000001
00000002
00000000
00000000
00000000
00000001
00000001
00000002
00000000
00000001
00000001
00000002
00000001
fffffff8
00000002
00000000
00000001
00000002
00000003
00000000
00000001
00000004
00000002
00000000
00000004
00000001
00000002
00000002
00000000
00000000
00000000
00000000
ffffffff
00000001
00000002
00000000
00000000
00000001
00000000
00000000
00000000
fffffffd
00000000
00000000
ffffffff
00000002
00000002
00000001
00000001
ffffffff
00000000
00000002
00000002
00000001
00000000
00000001
00000000
00000002
00000001
00000001
ffffffff
00000002
00000001
00000001
00000001
00000001
00000002
00000002
fffffffb
00000000
00000003
ffffffff
00000001
00000002
ffffffff
00000000
fffffffc
00000001
00000001
00000000
00000001
00000000
00000004
00000000
00000003
00000001
00000003
00000004
00000002
00000001
00000005
00000000
00000002
00000000
00000002
00000002
00000001
00000002
00000002
00000002
00000000
ffffffff
00000002
00000004
00000000
00000003
00000003
00000000
00000001
00000001
00000001
00000002
00000000
00000002
00000001
00000000
00000001
00000000
00000000
00000002
ffffffff
00000003
00000000
00000001
fffffffc
00000000
00000000
00000001
00000001
00000001
00000003
00000003
00000004
00000000
00000002
00000001
00000000
00000000
00000002
00000000
00000002
00000000
00000000
00000004
00000000
00000001
00000001
00000000
00000000
00000001
00000000
00000000
00000003
00000000
00000001
00000001
00000001
00000000
fffffffe
00000000
fffffffd
00000001
00000000
00000001
00000002
00000000
00000000
00000006
00000001
00000001
00000002
00000000
00000000
00000001
00000000
00000000
00000001
00000003
00000000
00000002
00000000
00000000
00000001
00000001
00000001
00000001
00000001
00000002
00000002
00000005
00000000
00000003
00000000
ffffffff
00000000
00000002
00000003
00000001
00000002
00000002
00000001
00000002
00000001
00000000
00000002
00000000
00000002
00000001
00000002
00000002
00000003
ffffffff
00000001
00000002
00000001
00000000
ffffffff
00000000
00000001
00000002
00000003
00000001
00000001
00000003
00000001
00000001
00000000
00000000
00000003
00000004
ffffffff
ffffffff
fffffffe
00000000
00000001
00000001
00000000
00000000
00000000
00000000
00000000
ffffffff
00000000
00000000
00000000
00000000
00000000
00000000
00000000
00000000
00000005
00000001
00000000
00000000
fffffffc
00000000
ffffffff
00000000
00000000
00000000
00000000
00000001
00000000
ffffffff
00000000
ffffffff
00000000
00000000
fffffffe
00000000
00000002
00000003
00000000
00000000
00000000
ffffffff
fffffffb
00000001
ffffffff
00000000
00000000
00000001
00000000
00000006
fffffff0
00000000
00000001
00000001
00000000
00000001
00000000
00000000
00000000
00000000
ffffffff
00000000
00000000
00000001
00000001
00000000
ffffffff
00000000
ffffffff
ffffffff
fffffffd
ffffffff
00000000
00000001
00000000
00000000
00000000
00000000
00000000
00000000
00000000
00000000
ffffffff
00000000
00000005
00000002
00000000
00000000
00000001
00000002
00000000
00000002
00000000
00000000
00000000
00000000
00000000
00000002
ffffffff
00000000
ffffffff
ffffffff
00000000
00000001
00000000
00000000
00000000
00000000
ffffffff
00000000
00000001
ffffffff
00000000
fffffffe
ffffffff
ffffffff
fffffff8
00000000
00000001
ffffffff
00000000
00000000
00000000
00000000
00000000
00000000
00000000
00000001
ffffffff
00000001
00000001
00000001
00000000
00000000
ffffffff
00000003
ffffffff
00000000
ffffffff
fffffffc
00000000
00000002
00000001
ffffffff
00000000
ffffffff
00000000
00000000
00000001
00000001
00000001
00000001
00000000
00000000
00000001
00000001
00000001
00000003
00000000
ffffffff
ffffffff
00000002
00000000
00000000
00000000
00000001
fffffffc
00000004
00000001
00000000
00000000
ffffffff
00000001
00000000
00000000
00000000
ffffffff
00000000
fffffffe
ffffffff
00000001
00000000
00000000
00000000
00000000
fffffffd
00000002
00000000
00000000
00000001
00000000
00000000
00000000
00000000
ffffffff
00000000
00000002
ffffffff
00000000
ffffffff
00000001
00000001
00000000
ffffffff
00000000
ffffffff
00000000
00000000
00000000
ffffffff
00000001
00000000
00000001
ffffffff
00000001
00000000
00000001
00000000
00000001
00000001
00000000
00000000
00000000
00000000
00000000
00000001
00000003
00000000
00000000
00000000
fffffff4
fffffffe
00000000
00000001
00000000
00000000
00000000
00000001
ffffffff
ffffffff
00000001
ffffffff
00000000
00000000
00000001
00000007
00000001
fffffff9
00000000
ffffffff
00000001
00000000
00000000
00000000
fffffffb
ffffffff
00000001
00000002
00000000
00000000
ffffffff
ffffffff
ffffffff
00000000
00000002
00000001
00000000
fffffffe
00000000
00000004
ffffffff
00000001
00000000
00000000
00000000
00000000
ffffffff
00000000
00000000
00000001
00000001
ffffffff
fffffffb
ffffffff
00000001
00000001
00000000
00000000
ffffffff
ffffffff
00000000
00000000
fffffff8
00000000
ffffffff
00000000
fffffffb
00000001
00000000
00000001
00000001
fffffff8
fffffffe
ffffffff
00000000
ffffffff
00000001
ffffffff
00000000
00000000
00000000
00000001
00000000
ffffffff
00000000
00000000
00000000
00000000
fffffffe
00000000
00000001
00000000
00000000
ffffffff
ffffffff
00000000
ffffffff
00000003
00000000
00000001
00000002
00000000
00000000
ffffffff
00000009
00000003
00000000
00000001
00000000
00000000
ffffffff
00000000
00000002
fffffffe
00000000
00000002
00000000
00000001
00000003
00000000
fffffffe
fffffffe
00000001
00000001
00000000
00000000
00000007
00000000
00000006
00000001
00000001
00000000
00000000
fffffffb
ffffffff
fffffffa
00000001
00000001
00000000
00000000
00000001
00000000
fffffffd
ffffffff
fffffffe
00000000
00000001
ffffffff
00000000
ffffffff
00000000
00000001
00000000
00000000
00000000
00000000
00000000
00000001
00000001
fffffffd
00000000
00000001
ffffffff
00000000
ffffffff
00000000
00000001
00000000
ffffffff
00000000
00000000
ffffffff
00000001
00000000
00000000
00000000
00000002
00000000
00000002
00000000
00000000
00000000
00000000
00000000
00000001
00000001
fffffffe
00000000
ffffffff
fffffffa
00000000
00000000
00000000
ffffffff
00000001
00000001
00000001
fffffffb
00000001
00000000
00000000
fffffffd
00000001
00000000
fffffffc
00000001
00000000
00000001
00000000
00000000
00000000
00000001
00000000
00000000
00000000
00000003
ffffffff
ffffffff
00000000
00000001
00000000
ffffffff
00000001
00000000
00000000
00000002
00000000
ffffffff
00000000
00000001
00000001
00000000
fffffffe
fffffffe
00000000
ffffffff
00000000
fffffffd
ffffffff
00000002
00000000
00000000
00000000
00000001
00000000
00000000
00000001
00000000
00000007
00000000
00000000
fffffffb
00000000
00000000
00000001
00000000
00000001
00000001
00000000
00000000
00000000
00000003
00000000
ffffffff
00000000
00000000
00000001
00000000
ffffffff
00000007
ffffffff
00000000
00000000
ffffffff
00000001
00000001
00000000
00000000
00000000
00000000
00000002
fffffffe
00000000
00000000
00000000
00000000
00000000
00000000
00000000
00000000
00000000
00000000
00000002
00000000
00000000
00000000
00000000
00000000
00000000
00000000
00000000
00000000
00000001
00000000
ffffffff
00000000
00000000
00000000
00000000
00000000
00000001
00000000
ffffffff
00000000
00000000
00000000
00000000
00000000
00000000
00000000
00000000
00000001
00000000
00000000
fffffffd
00000000
00000000
00000000
ffffffff
00000000
00000000
00000000
ffffffff
ffffffff
fffffffd
00000000
00000000
00000001
00000000
ffffffff
00000000
00000000
00000000
00000000
00000000
00000000
00000000
00000000
ffffffff
00000000
00000000
00000000
fffffffe
00000000
00000000
00000000
ffffffff
00000000
00000000
00000000
00000000
00000000
00000000
00000000
00000000
ffffffff
00000000
00000005
00000000
00000000
00000000
ffffffff
00000000
00000000
00000000
00000001
00000000
fffffffe
00000000
00000000
00000000
00000000
00000000
00000000
00000000
00000000
00000000
00000000
00000000
00000000
00000000
00000000
00000002
00000002
00000000
00000000
00000000
00000000
00000000
00000000
00000000
00000000
00000001
ffffffff
00000000
00000000
00000000
00000000
00000000
00000000
00000001
00000000
ffffffff
00000000
00000001
00000000
00000000
00000000
00000000
00000000
00000000
00000000
00000000
00000000
00000001
00000000
00000000
00000000
00000000
00000000
00000000
00000000
00000000
00000002
00000000
00000000
00000000
00000000
00000000
00000000
00000000
00000000
ffffffff
00000000
00000000
00000000
00000000
00000000
fffffffd
00000000
00000000
00000000
00000000
00000000
00000000
ffffffff
00000000
00000000
00000000
00000000
00000000
00000001
ffffffff
00000000
00000000
00000001
00000000
ffffffff
00000000
00000000
ffffffff
ffffffff
00000000
00000000
00000000
00000000
00000002
00000000
00000000
00000000
00000000
00000000
ffffffff
00000003
00000001
00000000
00000000
ffffffff
00000000
00000000
00000000
00000000
00000000
00000000
00000000
00000000
00000000
00000000
00000000
00000000
00000000
00000000
00000000
00000000
00000000
00000000
00000000
00000000
00000000
00000000
00000000
00000000
ffffffff
00000000
fffffffd
00000000
00000000
ffffffff
00000000
00000000
00000000
00000000
00000001
00000000
00000000
00000000
00000000
ffffffff
00000000
00000002
00000000
00000000
00000000
00000000
00000000
00000000
00000000
00000000
fffffffb
00000000
ffffffff
00000000
00000000
00000000
00000000
00000000
00000000
00000000
00000000
00000000
ffffffff
00000002
ffffffff
00000000
00000000
00000000
00000000
00000000
00000000
00000000
00000000
00000000
00000000
00000000
00000000
00000000
00000000
00000001
00000000
00000000
00000000
00000000
00000000
00000001
00000000
00000000
00000001
00000000
00000000
00000000
00000001
ffffffff
00000000
00000001
00000000
00000000
00000000
00000000
00000000
00000000
00000000
00000000
00000000
00000000
00000000
00000001
00000000
00000000
00000000
00000000
00000001
ffffffff
00000000
00000000
00000000
00000000
00000000
00000000
00000000
fffffffd
00000000
00000000
00000001
00000000
00000000
00000001
00000000
ffffffff
00000000
00000000
00000000
00000000
00000000
00000000
00000001
00000000
ffffffff
00000000
ffffffff
00000000
00000000
00000000
00000000
00000000
00000000
00000000
00000000
00000000
00000002
00000000
00000000
00000000
00000000
00000000
00000001
00000000
00000000
00000000
00000001
00000000
00000000
00000000
00000000
00000000
ffffffff
00000000
00000000
00000000
ffffffff
00000000
00000000
00000000
00000000
00000002
00000000
00000000
00000000
00000000
00000000
00000000
00000000
ffffffff
00000000
00000000
00000000
00000000
00000000
00000000
00000000
00000000
00000000
00000000
00000000
00000000
fffffffe
00000000
00000000
00000000
00000000
00000000
00000000
00000000
ffffffff
00000000
00000000
00000000
00000000
00000000
00000000
00000000
00000000
ffffffff
00000000
00000000
00000000
00000000
00000000
00000000
00000000
00000000
00000000
00000000
00000000
00000000
00000000
00000000
00000000
00000000
ffffffff
00000000
00000000
00000000
00000000
00000000
00000000
00000000
00000000
00000000
00000000
00000000
00000000
00000000
00000000
00000000
ffffffff
00000000
00000000
00000000
00000000
00000000
00000000
00000000
00000000
00000000
00000000
00000000
00000000
00000000
00000000
00000001
00000000
00000000
00000000
00000000
00000000
0000000d
00000000
00000000
00000000
ffffffff
00000000
00000000
00000000
00000000
00000000
00000000
00000000
00000000
00000000
ffffffff
00000001
00000000
00000000
00000000
00000000
00000000
00000000
00000000
ffffffff
00000000
00000000
ffffffff
00000000
00000000
00000000
00000000
00000000
fffffffe
00000000
00000000
00000001
00000000
fffffffe
00000001
00000000
00000000
00000000
fffffffe
00000000
00000000
00000000
00000000
00000000
00000000
00000000
00000000
00000000
00000000
00000000
00000000
00000000
00000000
00000000
00000000
ffffffff
00000001
00000000
00000000
00000000
00000000
00000000
00000000
ffffffff
00000000
00000000
00000000
00000000
ffffffff
00000000
00000000
ffffffff
00000001
00000000
00000000
00000000
00000000
00000000
00000000
00000000
00000000
00000000
00000001
00000000
00000000
00000002
00000002
00000001
00000000
00000000
00000000
00000000
00000000
00000000
00000000
00000000
00000000
00000000
00000000
00000000
00000000
00000000
00000000
00000000
00000000
00000001
00000000
00000000
00000000
00000000
00000000
00000000
ffffffff
00000000
00000000
00000000
00000000
00000000
00000000
00000001
fffffffd
00000000
00000000
00000000
00000000
00000000
00000000
00000000
ffffffff
00000000
00000000
ffffffff
fffffffa
00000000
00000001
00000001
00000000
ffffffff
00000000
00000000
00000000
00000000
00000000
ffffffff
00000000
00000000
ffffffff
00000000
00000000
00000000
00000000
00000001
00000000
00000000
00000000
ffffffff
00000000
00000000
00000000
00000000
ffffffff
00000000
00000000
fffffffe
00000000
00000000
00000000
00000000
00000000
00000000
00000001
00000000
00000000
00000000
fffffffe
00000000
0000000b
00000001
00000000
00000000
ffffffff
00000000
ffffffff
00000000
00000000
00000000
ffffffff
00000000
ffffffff
00000000
00000000
00000000
00000000
00000000
00000000
00000002
00000000
ffffffff
00000000
00000001
00000000
00000001
00000000
00000000
00000000
00000000
00000000
00000000
00000000
00000000
00000000
00000000
00000000
00000000
fffffffd
ffffffff
00000000
00000000
00000000
00000000
00000001
00000000
ffffffff
00000000
00000001
00000000
00000000
00000000
00000000
00000000
00000000
00000000
00000000
00000000
00000000
00000001
00000001
00000000
00000000
00000000
00000000
00000000
00000000
00000000
ffffffff
00000000
00000000
00000000
00000000
00000000
00000000
00000000
00000000
00000000
00000000
00000000
00000001
00000000
00000000
00000001
00000000
00000000
00000000
00000000
00000000
00000001
00000000
00000004
00000000
00000000
00000001
00000000
00000000
00000000
00000000
00000000
00000000
00000000
00000000
00000000
00000000
ffffffff
fffffffc
00000000
00000000
00000000
00000001
00000000
00000000
00000000
00000000
00000001
00000000
00000001
00000000
00000000
00000000
00000000
00000000
00000000
00000000
00000000
00000000
00000000
fffffffd
00000000
00000000
00000000
00000001
00000000
00000000
00000000
00000000
00000000
00000001
00000000
00000000
00000000
00000000
00000000
00000000
00000000
00000001
00000000
00000000
00000000
ffffffff
fffffffe
00000000
ffffffff
00000000
ffffffff
00000000
00000000
00000000
00000000
ffffffff
00000000
ffffffff
00000000
ffffffff
00000000
00000000
00000000
00000000
ffffffff
00000000
00000000
00000000
00000000
00000000
00000001
00000000
00000000
00000002
00000000
00000000
00000000
00000000
00000001
00000000
00000000
00000003
00000000
00000000
00000000
00000000
00000000
00000000
00000001
00000001
00000000
00000000
00000000
ffffffff
ffffffff
00000000
fffffffd
00000000
00000000
00000000
ffffffff
00000000
00000001
00000000
ffffffff
00000000
00000000
00000000
00000000
00000000
fffffffe
00000000
00000000
00000000
00000000
00000000
00000000
ffffffff
00000000
00000001
00000000
00000000
ffffffff
00000000
00000000
00000000
00000001
00000000
fffffffe
00000000
00000000
00000000
00000000
00000000
00000000
00000000
00000000
00000000
00000000
00000000
00000000
ffffffff
ffffffff
00000001
fffffffe
00000000
00000000
00000000
00000000
00000000
00000000
00000000
00000000
ffffffff
00000000
00000000
00000000
00000000
00000000
00000000
ffffffff
00000000
00000001
00000000
ffffffff
00000000
00000000
00000000
00000000
00000000
00000000
00000000
00000000
00000000
00000000
00000000
00000000
00000000
00000000
00000000
00000000
ffffffff
00000000
00000000
00000000
ffffffff
00000000
00000000
00000000
00000000
00000001
00000000
00000000
00000000
00000000
00000000
00000000
00000000
00000000
00000000
00000000
00000000
00000000
00000000
00000000
00000000
00000001
00000000
00000000
ffffffff
00000000
00000000
00000000
00000000
00000000
00000000
ffffffff
00000000
00000000
00000000
00000000
ffffffff
00000000
00000000
00000000
00000000
00000000
ffffffff
00000000
00000000
00000000
00000000
ffffffff
00000000
00000000
00000000
ffffffff
00000000
00000000
00000000
00000000
00000003
00000000
00000000
00000000
ffffffff
00000000
fffffffe
00000000
00000000
00000000
00000000
00000000
00000001
00000000
00000000
00000000
00000001
ffffffff
00000003
00000000
00000000
fffffffc
00000006
fffffffc
0000000b
0000000b
fffffffb
ffffffff
ffffffff
ffffffff
fffffffe
00000002
00000001
00000000
00000000
fffffffe
ffffffff
00000001
ffffffff
00000000
00000000
ffffffff
fffffffe
00000000
00000005
fffffffa
fffffffb
fffffffc
00000001
fffffffe
fffffffb
00000000
00000003
fffffffe
ffffffff
fffffffe
fffffff9
00000000
fffffffc
00000000
ffffffff
fffffff9
fffffff6
ffffffff
00000001
00000003
00000003
ffffffff
ffffffff
fffffff7
ffffffff
fffffffc
ffffffe6
ffffffff
fffffffd
00000006
00000002
00000000
ffffffff
00000002
fffffff5
00000001
ffffffec
00000000
ffffffff
fffffffe
fffffffc
00000008
fffffffe
00000000
00000002
00000000
00000000
00000002
00000000
00000004
00000000
ffffffff
fffffffe
00000002
00000000
00000002
fffffffe
00000001
00000001
fffffffb
ffffffff
00000003
00000000
fffffffe
fffffffc
fffffffe
ffffffff
00000000
fffffff7
00000002
00000008
00000000
00000000
ffffffff
ffffffff
fffffff8
00000001
fffffffe
fffffff0
fffffffb
ffffffff
00000000
00000001
ffffffff
fffffffa
ffffffff
ffffffff
fffffffe
fffffff8
00000002
00000001
fffffffd
fffffffd
00000000
00000000
ffffffff
00000007
00000000
00000003
fffffffb
fffffffb
00000005
ffffffff
00000004
fffffffd
ffffffff
fffffffd
00000000
00000002
ffffffff
fffffffc
00000002
fffffffb
ffffffff
00000000
fffffffc
00000002
fffffff8
fffffff8
00000001
fffffffd
00000003
fffffff5
fffffffe
fffffffd
fffffffe
00000004
fffffffb
00000001
00000000
ffffffff
fffffffe
ffffffff
00000004
fffffff3
ffffffff
ffffffff
00000003
00000003
00000001
fffffffc
ffffffff
00000001
ffffffff
ffffffff
00000002
fffffffb
fffffff5
00000001
fffffffa
ffffffff
00000000
00000002
ffffffff
ffffffff
fffffffb
00000003
fffffffd
0000000e
00000002
00000004
fffffff5
ffffffff
ffffffff
ffffffe9
fffffffe
00000000
ffffffff
fffffff8
00000001
00000001
fffffffe
0000000c
fffffff0
00000001
ffffffff
00000001
00000004
0000000b
fffffff8
ffffffef
00000006
fffffff7
00000001
fffffff5
00000002
00000000
fffffffb
fffffffc
00000001
fffffff6
00000003
00000001
00000005
00000000
fffffffc
00000000
00000004
fffffffc
00000000
00000003
00000003
00000000
fffffff9
00000001
fffffffc
fffffff0
fffffff9
fffffffc
ffffffff
ffffffff
fffffffb
00000000
00000003
fffffffa
ffffffff
fffffff5
fffffffe
00000000
00000006
ffffffff
00000001
fffffff5
fffffffa
00000004
00000002
fffffffc
00000001
00000000
fffffffe
ffffffff
00000000
ffffffff
0000000b
00000004
fffffffb
fffffff9
ffffffff
00000006
fffffffb
00000001
fffffff5
00000002
fffffffb
fffffffe
00000000
ffffffff
00000000
00000009
ffffffff
00000001
00000000
fffffffb
00000002
fffffff7
fffffffb
00000001
00000000
fffffff3
fffffffd
00000000
fffffffb
00000008
fffffffe
fffffff6
00000003
fffffff5
fffffffd
fffffff6
00000001
fffffffe
ffffffff
00000005
00000001
00000000
fffffff5
00000005
ffffffff
ffffffff
fffffffe
00000005
ffffffff
fffffffc
fffffffb
fffffff9
00000001
00000000
00000003
00000005
fffffffb
00000000
00000002
00000003
00000002
00000001
00000001
00000001
fffffff2
fffffff4
00000003
00000003
fffffff4
fffffff2
ffffffff
ffffffff
ffffffff
fffffffa
00000004
fffffffb
fffffff5
00000003
00000001
fffffff5
00000008
fffffff8
00000000
fffffffb
ffffffff
00000001
fffffffc
fffffffe
fffffffe
fffffffc
fffffffc
fffffffb
00000001
fffffffe
fffffff5
00000000
fffffff5
fffffff6
fffffffd
00000001
00000005
00000000
00000002
ffffffff
0000000f
00000003
ffffffed
00000001
fffffff3
fffffff8
fffffff7
ffffffee
fffffff0
00000002
fffffff8
ffffffff
00000001
ffffffff
fffffff7
00000003
ffffffe7
00000001
00000002
fffffff5
fffffffd
00000001
fffffffe
fffffff2
00000008
fffffff8
00000000
ffffffff
ffffffff
00000002
fffffffd
fffffff5
fffffff4
fffffff9
00000000
00000006
00000000
ffffffff
00000000
0000000a
00000001
fffffff8
00000004
00000000
fffffff6
00000000
ffffffff
ffffffff
fffffffb
00000000
fffffffe
fffffffe
fffffff9
00000002
fffffffb
ffffffff
fffffff9
00000004
00000001
00000001
fffffffa
00000002
00000006
00000000
00000001
fffffffe
fffffffe
00000004
ffffffff
fffffff7
00000003
ffffffff
fffffffc
00000007
fffffffd
fffffff2
00000002
00000002
fffffffd
00000000
fffffffb
00000002
00000000
00000001
fffffff1
fffffff6
ffffffff
0000000b
00000011
00000003
00000012
00000002
00000000
00000004
00000004
00000002
00000003
fffffff0
00000000
00000002
00000002
ffffffff
ffffffff
fffffffc
fffffffc
fffffffd
ffffffff
fffffff7
fffffffb
fffffff8
00000003
fffffff7
00000005
00000000
00000000
00000005
fffffff3
fffffffe
fffffff1
fffffff9
fffffff5
00000001
fffffff8
00000005
fffffff4
00000002
fffffff6
fffffffe
fffffff7
ffffffef
00000001
00000002
ffffffff
00000001
fffffffe
fffffffb
ffffffff
00000004
fffffffe
fffffff9
fffffff4
fffffff1
fffffffc
00000001
fffffff4
fffffff6
00000000
00000006
00000000
fffffff1
00000001
fffffffc
fffffff9
00000002
00000002
fffffff5
00000003
00000002
fffffffa
fffffff8
00000000
00000000
fffffffb
ffffffff
ffffffff
fffffffe
fffffffd
fffffffe
fffffffc
00000001
00000001
00000000
fffffff3
fffffff7
ffffffff
00000002
00000003
00000000
00000007
ffffffff
00000008
00000001
00000000
fffffffd
00000000
fffffff8
fffffff6
00000001
fffffff6
00000001
fffffffc
00000000
00000001
00000000
fffffff8
00000001
00000002
00000001
00000003
fffffff9
00000001
ffffffff
00000008
fffffffe
00000000
fffffffe
00000001
ffffffff
fffffffd
ffffffff
00000001
fffffff8
fffffff8
00000005
00000001
00000001
ffffffff
00000000
00000001
00000000
00000003
00000002
00000002
ffffffff
fffffff6
ffffffff
00000001
00000000
00000001
ffffffff
00000000
00000001
fffffff9
00000001
fffffffd
00000002
fffffff7
00000002
ffffffff
fffffffc
fffffff9
fffffffd
fffffffa
fffffffe
00000000
ffffffff
ffffffff
00000000
00000001
fffffff7
00000001
00000001
fffffffe
00000002
fffffffb
fffffff1
00000001
00000002
00000001
00000002
00000000
fffffffd
00000001
00000000
fffffffc
fffffff5
00000001
00000004
0000000d
00000000
00000007
00000000
00000000
00000003
00000005
00000001
ffffffff
fffffffb
fffffffd
00000002
00000000
fffffffe
00000000
fffffffc
00000000
fffffffe
00000000
ffffffff
fffffff4
fffffffe
00000001
fffffff9
00000002
00000000
00000000
00000000
fffffff9
00000001
fffffff6
ffffffff
fffffffa
00000000
fffffffb
00000001
fffffff8
00000002
00000003
00000000
fffffff3
ffffffe5
00000001
00000001
00000001
00000000
0000000d
fffffffa
00000001
00000001
fffffffe
fffffff3
00000000
fffffff5
ffffffff
ffffffff
00000001
00000002
00000001
00000003
00000000
00000000
00000001
fffffff6
00000002
00000000
00000001
00000001
00000000
00000003
fffffffa
fffffffe
ffffffff
00000000
00000001
fffffffe
00000000
fffffffd
00000001
fffffffe
00000000
00000002
00000002
fffffff8
00000000
00000000
00000003
00000001
00000002
fffffffe
fffffffa
00000000
fffffffe
fffffffc
00000001
00000000
fffffffa
fffffffd
fffffffe
00000001
00000000
fffffffd
00000002
fffffffe
fffffffc
00000002
00000000
00000001
fffffffa
fffffff4
00000005
00000003
00000001
00000000
ffffffff
00000000
00000002
00000003
ffffffff
fffffffb
fffffffe
fffffffd
ffffffff
00000001
00000000
fffffffb
00000001
fffffffd
fffffff2
00000000
00000001
fffffffb
00000000
00000001
fffffff5
fffffffd
fffffffe
fffffffe
00000002
00000003
fffffffc
fffffffe
fffffffd
00000001
ffffffff
00000000
00000000
00000000
00000002
fffffffe
00000001
ffffffff
fffffffd
fffffffa
ffffffff
00000004
00000001
00000004
00000000
fffffffe
fffffffa
ffffffff
00000000
fffffffa
00000002
00000004
00000000
00000002
ffffffff
fffffffe
00000003
00000001
fffffffd
ffffffff
fffffffe
00000001
ffffffff
00000000
00000001
00000000
00000000
00000005
00000000
00000003
00000001
fffffffe
00000000
00000000
00000003
fffffffd
fffffffa
00000003
fffffffd
00000005
00000006
fffffffd
fffffffd
00000000
00000007
00000003
ffffffff
00000002
fffffffe
ffffffff
00000002
00000001
fffffff8
00000004
00000000
00000002
fffffffc
00000000
00000000
00000005
fffffffc
fffffffe
00000002
00000000
00000000
00000000
fffffffe
ffffffff
fffffffc
ffffffff
fffffffb
fffffff9
ffffffff
00000000
00000001
00000000
00000000
fffffffe
00000002
fffffffb
fffffffd
fffffff9
fffffffe
00000000
00000002
fffffffd
00000001
ffffffff
ffffffff
fffffffe
ffffffff
00000003
00000000
fffffffa
00000000
00000002
00000001
00000001
00000001
fffffffd
00000003
fffffff3
00000000
fffffffe
00000001
00000000
00000001
ffffffff
00000002
fffffffe
fffffff8
fffffffd
00000004
fffffffe
ffffffff
ffffffff
ffffffff
fffffffd
00000000
fffffffe
00000000
00000003
ffffffff
00000006
fffffffb
fffffffa
fffffffb
fffffff8
00000000
00000002
fffffffd
00000002
00000006
fffffffe
fffffffe
00000005
00000003
00000002
00000002
00000000
00000001
ffffffff
00000001
fffffffd
00000001
00000002
fffffff4
00000003
00000000
fffffffe
fffffffb
00000000
fffffffd
ffffffff
00000001
00000002
00000002
fffffffe
00000000
fffffffb
fffffff7
fffffffc
ffffffff
00000000
00000002
fffffffc
ffffffff
00000008
fffffff9
00000001
00000000
fffffff4
fffffff8
00000001
00000001
fffffffd
00000000
ffffffff
fffffffd
fffffffc
fffffffe
fffffffb
00000002
fffffffd
00000001
ffffffff
fffffffe
00000002
fffffffd
fffffff7
fffffffd
fffffff9
00000002
00000000
00000002
fffffff9
00000000
fffffff8
fffffffc
fffffffb
fffffffa
00000000
00000001
fffffffb
00000005
00000002
00000001
fffffffe
ffffffff
fffffffd
ffffffff
fffffffd
00000000
fffffffe
fffffffe
fffffffd
fffffffe
ffffffff
00000000
00000001
fffffffe
fffffffa
fffffffe
00000001
fffffffe
00000002
fffffffa
fffffffe
00000003
00000000
fffffffe
fffffffd
fffffffc
00000001
00000001
00000001
fffffffb
ffffffff
00000000
00000003
00000000
fffffffe
00000002
ffffffff
fffffffb
00000000
00000001
00000002
fffffffe
ffffffff
00000001
00000001
00000001
00000001
00000001
fffffffe
fffffffe
ffffffff
00000002
fffffffa
00000001
ffffffff
fffffff8
00000001
00000001
00000000
00000004
ffffffff
fffffff9
00000000
00000002
fffffff7
fffffffd
fffffffe
fffffffe
00000000
00000000
00000001
00000001
00000001
00000003
fffffffd
00000001
00000000
00000006
ffffffff
fffffffa
00000001
fffffffd
fffffffd
00000000
fffffffe
fffffffa
00000000
fffffff6
00000000
fffffffe
ffffffff
ffffffff
ffffffff
00000004
00000002
00000002
fffffffb
00000001
fffffffe
ffffffff
fffffffe
00000001
fffffffa
00000003
00000001
00000001
00000000
00000000
fffffffe
ffffffff
ffffffff
00000000
fffffffd
00000000
00000000
fffffffc
ffffffff
fffffffe
00000004
fffffff9
fffffff9
fffffffe
fffffffa
ffffffff
00000002
ffffffff
00000000
00000000
00000001
fffffffe
fffffffd
fffffffd
00000001
ffffffff
00000000
00000000
fffffffc
00000002
ffffffff
00000000
00000003
00000002
00000001
00000001
00000003
ffffffff
00000002
00000000
fffffffb
00000001
00000002
ffffffff
fffffffb
00000001
ffffffff
ffffffff
fffffffe
fffffff8
00000000
fffffff6
00000001
ffffffff
fffffffe
00000001
00000003
00000002
00000001
00000000
00000001
00000001
00000000
00000001
fffffffd
00000000
00000003
fffffffa
00000000
00000002
fffffffe
00000003
fffffffe
fffffffc
ffffffff
fffffffb
ffffffff
fffffffe
ffffffff
ffffffff
00000001
fffffff7
00000001
00000005
ffffffff
fffffffb
ffffffff
fffffffd
00000001
00000000
00000001
fffffffe
fffffffc
fffffffe
fffffffe
fffffffd
ffffffff
00000004
ffffffff
00000000
00000003
00000002
00000006
fffffffe
00000001
ffffffff
fffffff9
00000001
00000001
00000001
00000004
fffffffe
00000000
fffffffe
00000000
00000000
00000000
00000004
fffffffe
00000000
fffffffe
fffffff9
fffffffc
ffffffff
00000004
ffffffff
fffffffd
fffffff6
fffffffc
00000001
ffffffff
00000002
00000000
00000003
ffffffff
ffffffff
fffffffd
00000001
fffffffd
00000003
00000000
fffffffa
00000000
fffffffd
00000002
00000003
00000001
fffffffe
00000001
fffffffe
ffffffff
00000002
fffffffb
00000001
fffffffc
00000000
00000001
00000000
00000000
fffffffe
fffffffe
fffffffe
fffffff9
00000000
00000000
00000000
00000002
ffffffff
fffffffb
ffffffff
00000001
fffffff5
00000000
00000000
fffffffc
00000000
fffffffd
00000001
fffffffd
ffffffff
fffffffe
00000003
fffffffd
ffffffff
00000009
fffffffb
00000001
fffffffd
fffffff9
00000000
00000001
fffffffa
fffffffd
fffffffe
fffffffb
fffffffe
fffffffd
fffffffc
00000000
ffffffff
ffffffff
fffffffb
00000001
00000003
ffffffff
00000000
fffffff9
fffffffd
00000000
00000000
00000000
ffffffff
00000000
00000003
00000000
00000003
00000000
00000000
00000000
00000002
ffffffff
00000000
00000000
ffffffff
00000001
fffffffe
00000001
fffffffd
00000003
00000001
00000000
fffffffe
00000000
fffffff9
00000003
00000004
fffffffe
00000000
fffffffd
ffffffff
ffffffff
fffffff9
00000001
00000007
fffffff9
ffffffff
00000006
00000000
ffffffff
fffffff9
ffffffff
00000000
00000000
fffffffa
00000001
fffffffb
fffffffd
00000003
00000001
00000000
fffffffe
00000000
00000000
fffffffe
00000000
fffffff5
00000000
fffffffa
fffffffe
ffffffff
fffffffe
00000000
fffffffe
00000000
fffffffa
fffffffd
fffffffd
00000002
fffffff7
ffffffff
ffffffff
ffffffff
fffffffc
00000000
fffffffe
00000000
fffffffd
ffffffff
fffffff9
00000001
00000001
00000000
00000001
fffffffd
00000000
00000000
fffffffe
00000000
fffffffd
00000000
fffffff5
00000000
00000000
ffffffff
00000002
fffffffc
ffffffff
fffffffe
fffffff9
00000002
fffffffe
fffffffc
00000001
00000000
fffffffb
00000004
00000002
ffffffff
00000001
00000001
00000001
fffffffa
fffffffc
00000001
fffffff8
fffffffe
00000003
fffffff5
00000000
fffffffe
fffffffd
00000003
00000002
fffffffb
fffffffc
00000001
00000003
00000000
00000001
00000001
fffffff9
fffffffd
fffffffb
fffffffc
00000000
00000000
ffffffff
00000000
00000001
fffffffa
ffffffff
00000000
00000002
00000000
fffffffd
fffffffd
fffffffe
fffffffa
00000004
ffffffff
00000002
ffffffff
fffffffc
fffffffe
00000007
fffffffb
00000001
00000001
fffffff9
00000002
00000002
00000000
fffffffb
00000000
fffffffe
fffffffd
fffffffd
ffffffff
fffffffa
fffffffc
00000003
fffffffd
00000000
00000004
00000000
fffffffe
fffffffc
fffffffa
fffffff9
fffffffc
ffffffff
00000000
fffffffd
00000001
fffffffb
00000003
00000000
fffffff7
00000000
fffffffe
fffffffa
00000001
fffffffe
ffffffff
ffffffff
ffffffff
00000000
00000002
fffffffe
00000001
fffffffd
00000002
fffffffd
00000001
ffffffff
00000006
fffffffd
fffffffd
ffffffff
00000006
00000001
00000000
fffffffd
ffffffff
fffffffe
ffffffff
00000003
00000000
fffffffd
fffffffb
00000000
ffffffff
00000000
fffffffa
ffffffff
ffffffff
ffffffff
fffffffe
fffffffe
00000001
fffffffc
fffffffb
00000000
ffffffff
00000003
fffffffb
00000000
ffffffff
00000002
fffffffd
fffffffe
00000000
00000000
00000002
fffffffb
fffffff9
00000000
00000003
fffffffe
fffffffb
00000001
00000000
00000000
00000001
fffffffe
00000002
ffffffff
00000001
fffffff1
00000001
ffffffff
ffffffff
00000001
00000002
00000001
00000001
00000002
00000000
fffffffa
ffffffff
fffffff7
fffffffd
00000000
00000000
00000000
00000004
00000000
00000000
00000001
fffffffe
ffffffff
fffffff9
00000000
00000001
fffffffd
00000000
00000000
ffffffff
00000001
00000001
fffffffa
00000000
fffffff9
fffffffd
fffffffc
fffffffc
ffffffff
fffffff4
fffffffe
fffffffb
ffffffff
00000001
00000002
ffffffff
00000003
00000002
00000002
00000001
ffffffff
fffffff9
fffffff9
00000000
00000003
fffffff9
00000000
fffffffe
fffffffc
00000001
00000001
fffffff4
ffffffff
fffffffd
00000000
00000003
fffffffd
fffffffb
00000000
fffffffd
ffffffff
ffffffff
00000001
00000000
00000000
ffffffff
00000004
fffffffd
00000000
fffffffd
fffffffe
00000002
00000002
00000002
ffffffff
00000000
00000001
fffffffc
fffffff8
fffffffd
fffffff9
fffffffd
00000003
00000002
ffffffff
fffffffc
00000001
00000008
00000004
fffffffe
ffffffff
00000000
00000000
00000002
00000001
00000000
ffffffff
00000002
00000000
fffffffe
00000000
ffffffff
00000001
fffffffe
00000000
ffffffff
fffffffe
fffffffc
00000002
00000003
00000005
00000001
ffffffff
ffffffff
ffffffff
fffffffa
00000000
fffffffb
00000000
fffffffe
00000000
00000000
00000000
00000000
fffffffe
fffffffc
fffffffc
00000000
ffffffff
fffffffe
fffffffe
00000000
ffffffff
fffffffc
ffffffff
00000000
ffffffff
fffffffa
fffffffc
00000007
fffffffc
00000000
00000002
00000000
fffffffe
ffffffff
00000001
fffffffd
fffffffe
00000001
fffffffd
00000001
fffffffe
ffffffff
00000004
fffffff7
fffffffa
00000000
00000003
00000002
00000000
fffffff9
fffffff9
00000001
ffffffff
00000001
fffffffe
00000008
00000001
00000002
fffffffe
00000001
00000001
fffffffe
00000003
0000000a
00000000
ffffffff
00000000
00000000
fffffffe
00000005
fffffffe
00000001
ffffffff
00000001
fffffffb
00000000
00000003
00000002
00000000
ffffffff
00000001
fffffffe
00000000
00000000
fffffffb
fffffffe
fffffffe
ffffffff
00000001
00000003
fffffff8
00000000
fffffffe
fffffff1
fffffffe
ffffffff
fffffffb
00000001
ffffffff
fffffffe
fffffff8
00000001
00000002
00000000
00000002
fffffffe
00000000
00000001
00000000
fffffffe
fffffffe
00000000
00000000
fffffffc
fffffffc
fffffffe
fffffffe
fffffffc
fffffffe
ffffffff
00000000
00000000
fffffffb
fffffffc
00000001
fffffffb
ffffffff
00000001
00000005
fffffff9
00000000
00000000
ffffffff
00000000
00000001
00000002
00000000
fffffffc
00000000
00000002
00000000
ffffffff
00000000
00000000
00000001
00000002
fffffffe
00000000
fffffff9
fffffffd
fffffffd
00000002
00000000
fffffffd
fffffffe
fffffff6
00000001
fffffffc
00000001
00000000
fffffffc
00000001
00000002
fffffffa
fffffffd
fffffffa
fffffff9
fffffffe
fffffffb
00000002
ffffffff
fffffff9
fffffff7
ffffffff
00000001
fffffffc
fffffffe
fffffffb
fffffff7
00000002
00000000
00000002
fffffffd
00000001
fffffffc
fffffffb
00000000
fffffffc
ffffffff
fffffffe
fffffffa
fffffffb
00000001
00000001
00000001
00000000
00000000
fffffffe
fffffffd
00000000
00000002
ffffffff
00000001
ffffffff
fffffffc
ffffffff
00000001
fffffffd
fffffff8
00000000
fffffffb
00000002
00000000
00000000
00000002
00000000
00000001
00000000
ffffffff
00000001
fffffff6
00000001
fffffff9
ffffffff
00000007
00000001
00000000
ffffffff
00000002
00000003
fffffff7
00000002
ffffffff
fffffffe
00000001
00000000
00000005
fffffffe
fffffffe
ffffffff
00000000
fffffff7
00000000
fffffff8
fffffffe
00000001
fffffff9
fffffffb
00000001
fffffffc
00000002
00000000
00000000
00000000
00000000
fffffffe
ffffffff
00000000
fffffffe
00000000
00000003
00000002
fffffffb
fffffffe
ffffffff
ffffffff
fffffffa
00000000
fffffffb
00000000
00000000
fffffffb
00000002
00000002
00000002
00000001
00000003
ffffffff
00000001
fffffffd
ffffffff
00000000
00000000
00000001
ffffffff
ffffffff
fffffffd
fffffffa
fffffffe
00000002
fffffffe
fffffff7
00000003
ffffffff
00000000
00000001
fffffffe
fffffffe
fffffffa
00000000
00000003
fffffffe
fffffffb
00000004
00000004
00000005
00000000
00000004
fffffffd
00000000
fffffffa
ffffffff
ffffffff
00000001
ffffffff
00000000
ffffffff
00000000
00000000
fffffff5
00000000
fffffffe
00000007
00000000
00000001
00000002
00000001
00000000
fffffffd
00000000
fffffffc
00000001
00000000
00000003
fffffffa
00000002
ffffffff
00000003
00000001
00000003
00000001
00000008
00000001
ffffffff
ffffffff
00000001
0000000c
00000002
fffffffa
00000001
fffffffc
fffffffa
fffffffe
00000000
00000001
fffffffe
fffffffd
fffffffd
00000000
00000001
fffffffe
00000002
fffffff8
00000001
fffffffe
ffffffff
00000000
fffffffd
00000001
00000001
00000006
fffffffb
fffffffd
00000001
00000000
fffffffd
fffffffd
fffffffb
fffffffe
00000000
00000002
00000004
00000004
00000000
fffffffc
00000000
00000003
00000004
ffffffff
fffffffd
00000002
00000003
00000000
fffffff3
00000000
00000002
ffffffff
00000001
fffffffa
00000001
00000000
00000000
fffffffa
fffffffd
fffffffe
00000000
00000001
fffffffe
00000001
00000003
00000000
fffffffd
00000000
fffffff6
00000001
00000001
fffffffc
ffffffff
00000000
fffffffd
00000000
00000001
fffffff8
ffffffff
fffffffc
00000000
00000000
00000001
fffffff7
00000000
00000000
fffffffc
ffffffff
ffffffff
fffffffd
00000000
00000001
00000003
00000002
00000001
00000001
00000002
fffffff8
ffffffff
00000000
fffffffa
fffffff8
ffffffff
ffffffff
00000000
00000001
fffffff5
00000000
00000001
fffffffd
00000001
fffffffc
00000000
00000002
fffffff9
00000000
00000004
00000004
00000001
0000000d
00000000
00000004
00000001
00000001
fffffffa
fffffffc
ffffffff
00000003
00000001
fffffffd
00000000
00000000
00000000
fffffffd
fffffffe
00000002
00000002
fffffffc
00000003
00000000
fffffff6
00000001
fffffffe
ffffffff
fffffffb
fffffff9
00000001
00000000
00000002
ffffffff
00000000
00000000
00000000
fffffffd
fffffffd
00000004
ffffffff
fffffffb
fffffffb
00000000
ffffffff
fffffffd
fffffffb
00000001
ffffffff
ffffffff
00000002
fffffffd
00000001
00000006
fffffffd
00000001
00000001
00000000
00000006
fffffffe
ffffffff
ffffffff
00000002
ffffffff
00000002
00000000
00000001
00000000
fffffffe
00000000
00000004
fffffffc
fffffffa
00000000
00000000
00000000
fffffffa
fffffffe
ffffffff
fffffffc
00000001
00000003
ffffffff
fffffffb
00000002
00000003
fffffff9
00000001
00000000
fffffffe
ffffffff
ffffffff
ffffffff
fffffffd
fffffff8
fffffffd
00000000
00000003
00000002
fffffffc
fffffff9
fffffffe
00000002
fffffffd
00000000
fffffffe
00000006
ffffffff
ffffffff
fffffffa
00000000
fffffffd
fffffffa
fffffffd
fffffffb
00000000
ffffffff
fffffff9
00000001
fffffffe
fffffffc
00000002
00000001
00000000
00000004
fffffffb
00000002
fffffffd
00000001
00000000
ffffffff
00000000
fffffffd
ffffffff
00000000
fffffff9
fffffffc
00000000
00000000
00000000
00000000
fffffff8
ffffffff
00000002
fffffffa
ffffffff
00000000
fffffffa
ffffffff
00000002
fffffffa
fffffffa
ffffffff
00000002
00000000
fffffffa
ffffffff
ffffffff
fffffff9
00000000
00000000
ffffffff
00000000
00000000
fffffffa
fffffffe
fffffffd
ffffffff
fffffffe
fffffff9
fffffffe
00000000
00000000
fffffffa
fffffffd
00000000
fffffffc
00000001
00000000
fffffffc
ffffffff
ffffffff
00000000
00000000
00000000
ffffffff
00000001
00000001
00000005
fffffffc
00000001
00000000
00000000
ffffffff
00000000
ffffffff
00000001
ffffffff
fffffffd
fffffffe
fffffffd
00000000
00000000
ffffffff
00000001
00000001
fffffff9
00000001
fffffffc
00000006
00000003
00000002
00000002
fffffffe
fffffff9
00000000
00000001
fffffffd
00000000
fffffff5
ffffffff
ffffffff
fffffff9
00000003
ffffffff
00000001
fffffffc
ffffffff
fffffff9
fffffffa
00000000
00000000
00000001
00000004
00000000
00000000
00000000
00000000
fffffff9
00000000
00000001
ffffffff
00000004
fffffffe
00000000
ffffffff
00000000
fffffffc
fffffffd
fffffffe
00000002
fffffff8
00000000
00000003
fffffffe
fffffffe
ffffffff
fffffffe
00000001
fffffffa
ffffffff
00000000
00000000
fffffff5
ffffffff
00000001
fffffffc
00000000
ffffffff
00000006
00000001
00000002
00000000
fffffff9
ffffffff
ffffffff
00000000
fffffffe
00000002
00000000
fffffffb
fffffff6
00000001
fffffffe
fffffffd
00000003
fffffffc
fffffffc
fffffffe
00000002
00000000
00000002
00000002
ffffffff
fffffff9
fffffffb
00000001
00000003
fffffffd
00000002
fffffffb
00000001
ffffffff
ffffffff
ffffffff
00000000
00000005
fffffffe
ffffffff
ffffffff
00000000
00000001
00000000
fffffff9
fffffffd
fffffffb
fffffffa
00000003
00000000
00000001
ffffffff
00000002
fffffffd
00000001
ffffffff
00000003
00000001
00000003
fffffffd
ffffffff
fffffff8
00000007
00000001
00000000
00000001
00000002
00000003
00000005
ffffffff
00000002
00000002
fffffffc
fffffff6
00000000
ffffffff
fffffffa
ffffffff
fffffffd
00000000
fffffffa
00000001
00000002
00000000
fffffffc
ffffffff
00000003
00000000
00000000
fffffffe
00000003
fffffffe
fffffffb
00000001
ffffffff
00000000
00000003
00000000
fffffffa
00000002
00000000
fffffff6
00000000
fffffffb
fffffff7
00000001
fffffffe
00000000
00000000
ffffffff
ffffffff
00000000
00000000
00000000
00000002
00000000
fffffffc
00000004
00000001
fffffffd
fffffffd
fffffffd
fffffffc
ffffffff
ffffffff
fffffffd
fffffffd
fffffffc
fffffffe
00000000
fffffff8
fffffffe
fffffffe
fffffffb
00000000
ffffffff
00000000
fffffff9
fffffffe
fffffffc
fffffffe
fffffffc
fffffffd
ffffffff
fffffffa
fffffffb
00000000
fffffffd
ffffffff
fffffff5
00000000
ffffffff
00000002
ffffffff
00000000
00000001
00000000
ffffffff
00000001
00000000
ffffffff
00000000
fffffffd
fffffffa
fffffffe
ffffffff
00000001
00000001
00000000
00000000
00000002
fffffffd
00000000
00000000
00000001
fffffff9
00000000
ffffffff
00000000
00000000
fffffffd
00000002
fffffffb
00000000
fffffffa
ffffffff
00000000
00000000
00000000
fffffffe
fffffffe
ffffffff
fffffffd
fffffffd
ffffffff
fffffffb
fffffffc
00000000
00000002
fffffffb
ffffffff
fffffffe
00000000
00000000
fffffff8
00000000
00000007
fffffffd
00000000
fffffffb
fffffffc
fffffff5
fffffffd
fffffffc
00000001
00000001
00000000
00000004
00000002
fffffffd
00000000
00000001
00000000
00000007
fffffff9
ffffffff
fffffffe
fffffffb
00000000
ffffffff
fffffffb
00000001
fffffffb
fffffff4
ffffffff
ffffffff
00000001
ffffffff
fffffffc
00000001
00000000
fffffff9
fffffffe
fffffffe
ffffffff
00000000
ffffffff
fffffffe
00000001
fffffffd
00000001
fffffffe
fffffffa
ffffffff
00000004
00000001
fffffffd
00000001
00000002
00000000
fffffffc
00000000
fffffffb
fffffffe
fffffff9
00000000
ffffffff
fffffff9
00000000
00000000
00000005
fffffffc
00000000
00000002
00000000
00000002
ffffffff
00000000
fffffffe
00000002
fffffffe
00000002
00000001
fffffffe
fffffffc
fffffff9
00000000
fffffffe
fffffffb
ffffffff
00000000
00000005
fffffffd
00000000
ffffffff
00000000
fffffffe
fffffffb
00000000
fffffffa
00000000
00000003
00000000
00000000
00000001
00000001
ffffffff
00000003
fffffffd
ffffffff
fffffffc
00000003
fffffffe
ffffffff
00000006
fffffffb
00000000
00000001
ffffffff
fffffffc
fffffffe
ffffffff
00000000
00000001
00000001
00000000
fffffffc
fffffffe
00000001
fffffff6
fffffffd
00000001
00000003
fffffffc
00000001
fffffffe
fffffffd
fffffff8
fffffffd
fffffffd
00000001
00000004
fffffff7
fffffff7
00000001
00000002
00000000
ffffffff
ffffffff
fffffffc
ffffffff
fffffffb
00000004
00000000
00000002
fffffffc
fffffffe
fffffffd
00000000
fffffffd
00000002
00000003
fffffffb
fffffffe
fffffffa
ffffffff
fffffffe
00000001
00000001
00000001
fffffffe
00000000
00000000
00000001
00000001
ffffffff
ffffffff
ffffffff
fffffff8
fffffffe
ffffffff
00000002
00000001
00000002
ffffffff
ffffffff
00000002
fffffffc
00000001
00000000
fffffffe
fffffffe
00000002
00000003
fffffff9
ffffffff
fffffffe
00000001
00000000
00000003
00000000
fffffffc
00000000
fffffffa
00000005
ffffffff
00000000
fffffffc
fffffffc
fffffffe
fffffffb
fffffffc
fffffffe
fffffff9
fffffffd
fffffffc
fffffffc
fffffff9
00000000
fffffffa
fffffffe
00000000
ffffffff
fffffffe
00000000
00000001
00000003
00000002
00000002
00000000
00000000
fffffff5
fffffffc
fffffffe
00000000
00000000
fffffffe
00000001
00000000
00000001
00000003
fffffffe
fffffffb
00000001
00000002
00000001
ffffffff
00000001
ffffffff
fffffffa
00000001
00000005
00000001
00000000
fffffffb
ffffffff
00000000
fffffffc
00000000
00000002
fffffffc
fffffffd
00000005
00000003
00000001
00000006
fffffffc
00000000
00000000
fffffff6
00000000
fffffffb
fffffffc
00000000
00000000
00000001
00000009
ffffffff
fffffffd
00000003
00000000
fffffff8
ffffffff
ffffffff
fffffffc
fffffffa
00000005
ffffffff
00000001
00000001
fffffffb
fffffffe
ffffffff
ffffffff
fffffffe
ffffffff
00000001
fffffffe
00000000
00000000
fffffffa
fffffffc
fffffffb
fffffffe
fffffffd
00000000
00000000
00000002
ffffffff
fffffffd
00000000
00000000
fffffffc
00000000
fffffffb
00000000
fffffffa
00000000
fffffffd
00000001
00000002
fffffffb
fffffffc
00000008
fffffffa
00000001
fffffffe
0000000f
00000001
00000000
00000001
00000000
00000003
00000002
ffffffff
fffffff8
00000002
ffffffff
fffffff8
ffffffff
00000002
fffffffb
ffffffff
fffffff5
00000000
00000001
fffffffe
fffffffd
ffffffff
00000003
00000005
00000001
fffffffe
00000000
00000000
00000001
00000001
fffffffd
fffffffe
fffffffb
fffffff8
00000001
fffffff9
00000004
ffffffff
fffffffc
00000001
fffffffa
00000004
00000002
fffffffe
00000006
00000001
fffffffb
fffffffe
00000000
fffffffd
00000002
00000000
fffffffd
fffffffe
fffffffd
00000003
00000001
fffffffd
fffffffc
00000002
00000001
fffffffd
00000002
00000000
fffffffa
fffffffe
ffffffff
fffffff7
fffffffd
00000001
00000009
ffffffff
fffffffa
00000002
00000004
00000002
00000000
fffffffe
ffffffff
00000000
00000001
fffffffe
00000002
00000004
fffffffe
ffffffff
fffffffb
00000000
fffffffa
fffffffd
00000000
fffffffb
00000000
00000002
ffffffff
fffffffe
00000000
00000004
00000001
fffffffe
00000000
00000001
00000003
00000000
fffffffe
00000003
fffffffd
fffffffb
fffffffe
ffffffff
ffffffff
fffffffe
fffffff9
00000003
00000000
fffffffd
ffffffff
fffffffc
00000000
fffffffd
00000000
00000001
fffffffd
00000001
fffffffc
fffffffd
fffffffc
00000005
00000002
00000001
00000006
00000001
ffffffff
ffffffff
fffffffa
00000000
fffffffe
fffffffc
fffffffd
fffffffd
00000001
00000000
fffffffe
fffffffd
fffffff8
fffffffe
fffffffe
fffffffc
ffffffff
00000001
00000000
fffffffe
00000000
00000000
fffffffe
00000001
fffffffd
fffffffe
fffffffd
fffffffc
fffffff9
00000000
00000000
ffffffff
00000001
fffffffd
00000002
fffffffc
ffffffff
fffffffb
ffffffff
00000002
ffffffff
fffffffd
00000001
00000000
fffffffc
fffffffd
00000002
fffffffe
fffffffd
fffffffd
00000001
00000000
fffffffe
ffffffff
fffffffe
ffffffff
00000001
ffffffff
ffffffff
fffffffa
00000000
fffffffb
00000001
ffffffff
ffffffff
fffffffa
00000003
fffffffb
ffffffff
00000005
00000004
00000000
fffffffe
fffffffc
00000002
fffffffb
fffffffd
00000002
00000000
00000005
fffffff8
fffffffa
fffffffe
fffffff7
00000000
fffffffe
fffffff9
00000000
fffffffd
00000003
00000000
00000002
fffffffa
00000000
fffffffb
fffffffe
00000002
00000001
00000001
00000000
ffffffff
00000001
00000001
00000001
fffffffd
fffffffa
fffffffc
00000002
00000002
fffffffe
00000000
00000001
fffffffe
fffffffa
ffffffff
00000001
00000001
fffffffa
ffffffff
fffffffc
fffffff6
00000001
fffffffd
fffffffe
fffffffc
fffffffc
ffffffff
00000001
00000002
ffffffff
00000000
ffffffff
00000001
fffffffb
fffffffe
00000007
00000000
fffffffc
00000001
00000000
00000000
fffffffd
fffffffd
00000001
fffffffc
fffffffa
00000000
fffffffe
00000001
fffffffc
fffffffe
00000000
fffffffb
00000000
00000002
fffffffe
fffffffd
00000000
00000000
ffffffff
fffffffc
fffffffd
00000002
fffffffd
fffffffc
ffffffff
00000000
fffffffb
00000000
00000003
ffffffff
00000000
fffffffc
fffffffe
fffffffe
00000001
00000001
00000002
00000001
00000001
fffffffe
00000000
00000000
fffffffb
00000001
fffffff9
fffffffc
fffffffe
fffffffe
fffffffb
fffffffb
fffffffc
fffffffd
00000002
00000001
fffffff7
fffffffa
ffffffff
00000000
00000000
ffffffff
ffffffff
00000005
ffffffff
fffffff9
00000008
00000001
00000000
fffffffc
00000000
fffffffc
00000000
00000002
fffffffe
00000000
fffffffe
fffffffc
fffffffd
00000000
fffffffe
00000001
fffffffb
00000001
00000001
00000002
00000000
00000000
00000001
00000003
ffffffff
ffffffff
ffffffff
fffffffd
fffffffe
ffffffff
ffffffff
ffffffff
00000000
00000000
fffffffd
fffffff8
00000002
00000001
fffffffb
00000002
fffffffa
fffffffe
fffffff8
00000000
fffffffe
fffffffe
fffffffe
00000005
fffffffe
ffffffff
00000001
fffffffe
fffffffe
00000000
00000000
fffffffc
00000002
fffffffe
fffffffc
fffffffe
fffffffe
fffffffe
fffffffe
ffffffff
00000005
fffffff9
00000000
fffffffb
00000001
00000001
ffffffff
00000001
00000000
00000001
ffffffff
00000001
00000000
00000001
00000001
fffffff8
fffffffd
ffffffff
00000001
fffffffe
fffffffe
00000000
00000000
fffffffe
ffffffff
fffffffe
ffffffff
fffffffd
00000001
00000000
fffffffe
fffffffd
ffffffff
fffffffa
00000002
fffffffe
fffffffa
00000005
fffffffb
00000003
00000001
fffffff9
00000002
00000001
fffffffa
ffffffff
fffffffe
ffffffff
ffffffff
fffffffe
00000006
00000001
00000000
fffffffe
00000001
fffffffc
fffffffb
fffffffd
00000001
00000002
fffffffe
00000001
ffffffff
fffffffa
00000000
fffffffc
fffffffe
fffffffc
fffffffd
fffffffa
fffffffe
00000001
fffffffd
00000001
fffffffb
00000001
ffffffff
00000001
fffffff9
ffffffff
00000001
fffffffe
00000004
ffffffff
00000006
ffffffff
fffffff8
fffffffe
00000000
00000000
fffffff9
00000000
00000001
00000001
ffffffff
00000000
fffffffd
00000001
fffffffd
fffffffe
fffffff7
00000001
fffffffe
00000001
00000000
00000003
fffffffd
fffffff7
fffffff7
00000000
fffffffd
fffffffe
00000001
00000000
fffffffc
00000001
00000004
00000001
00000000
fffffffc
00000000
fffffffb
fffffffe
00000000
fffffff8
ffffffff
ffffffff
fffffffa
00000001
fffffffe
fffffffe
00000001
ffffffff
fffffff7
00000001
00000000
fffffffd
00000000
00000001
00000001
0000000f
fffffffd
fffffffe
ffffffff
fffffffa
00000002
00000001
00000001
ffffffff
00000000
00000002
fffffffc
00000002
00000003
fffffffe
00000001
00000001
fffffff9
00000006
00000001
fffffffd
fffffffe
00000000
00000001
fffffffc
fffffff9
ffffffff
00000001
00000003
fffffffd
00000000
ffffffff
00000000
00000001
fffffffd
fffffffc
ffffffff
00000000
fffffffb
fffffffc
fffffffb
00000002
fffffffe
fffffff9
00000001
fffffffd
fffffffc
fffffffd
fffffffc
fffffffe
ffffffff
00000001
00000001
ffffffff
ffffffff
00000003
00000001
fffffff8
00000001
fffffffd
fffffffb
fffffffb
fffffffe
00000000
00000000
ffffffff
fffffffe
fffffffe
ffffffff
00000000
ffffffff
00000000
fffffff8
00000002
fffffffe
ffffffff
fffffffd
00000003
fffffff9
fffffffd
00000003
fffffffd
ffffffff
fffffffd
ffffffff
ffffffff
fffffffc
fffffffe
ffffffff
fffffffc
fffffffd
ffffffff
00000001
00000000
ffffffff
fffffffc
ffffffff
ffffffff
00000000
00000001
fffffff9
fffffffe
fffffffe
00000001
00000002
fffffffa
00000000
00000000
fffffff8
00000005
fffffffd
00000001
00000000
fffffffd
fffffffe
00000003
ffffffff
ffffffff
00000000
ffffffff
fffffffd
00000000
00000003
00000001
ffffffff
00000002
00000001
fffffffd
fffffffc
00000000
fffffffc
fffffff7
fffffffe
00000002
00000000
00000000
fffffffb
00000001
00000002
ffffffff
fffffffe
00000000
ffffffff
00000001
fffffffd
00000001
fffffffe
fffffffc
fffffffc
00000001
ffffffff
fffffffa
00000000
00000002
fffffffb
fffffffc
00000000
ffffffff
ffffffff
00000002
fffffffb
00000000
fffffffe
fffffffe
fffffffe
00000004
fffffff9
00000002
00000004
fffffffc
fffffffb
ffffffff
00000008
fffffffe
ffffffff
fffffffe
00000000
00000000
ffffffff
fffffffb
00000002
00000002
00000001
fffffffa
fffffffb
fffffffe
fffffff9
00000001
fffffffd
fffffffa
ffffffff
00000000
ffffffff
fffffffd
fffffffa
00000000
00000000
fffffffa
00000001
ffffffff
ffffffff
00000001
00000000
00000000
00000003
00000000
00000000
fffffffd
00000006
ffffffff
00000003
00000000
ffffffff
00000002
00000000
00000001
fffffffb
ffffffff
fffffffd
fffffffd
fffffffc
00000000
fffffffd
fffffff5
00000000
fffffffc
fffffffc
fffffffc
00000001
fffffffe
00000002
00000001
fffffffe
00000000
00000001
00000001
fffffffb
00000000
fffffffe
fffffffd
fffffffe
fffffffc
fffffffe
00000000
fffffffd
fffffffd
00000001
fffffffc
fffffffe
00000002
00000001
00000000
ffffffff
00000002
00000000
fffffffc
ffffffff
00000001
00000001
fffffffd
00000000
fffffffe
fffffffe
fffffffd
fffffffe
00000001
00000004
fffffffa
00000000
00000000
00000006
fffffffb
fffffffe
ffffffff
00000000
fffffffd
fffffffe
ffffffff
fffffffb
00000001
00000001
00000001
fffffffd
fffffffc
00000001
fffffffb
fffffffb
00000000
ffffffff
fffffffd
fffffffe
ffffffff
fffffffa
fffffffb
fffffffd
00000002
00000000
00000002
fffffff7
00000002
ffffffff
00000001
00000001
ffffffff
00000000
00000000
ffffffff
fffffffb
fffffffd
00000000
fffffffd
fffffff9
fffffffe
fffffff7
00000000
fffffffd
fffffffe
ffffffff
fffffffe
fffffff7
00000003
fffffffd
fffffffe
00000002
00000000
00000002
00000000
00000002
00000000
ffffffff
00000001
00000000
fffffffe
00000001
fffffffe
00000006
fffffffc
00000002
ffffffff
fffffffe
fffffffb
00000001
00000003
fffffffd
00000002
ffffffff
fffffffc
fffffffe
fffffffd
00000003
00000004
fffffffe
fffffffd
00000004
fffffffe
ffffffff
fffffffd
fffffffa
00000000
00000000
fffffffb
00000000
00000001
fffffffc
fffffffc
fffffffd
fffffffc
fffffffc
00000002
fffffffb
00000000
00000001
fffffffd
fffffffc
00000001
00000007
00000000
00000001
fffffffe
00000005
ffffffff
00000001
00000001
ffffffff
ffffffff
ffffffff
00000002
fffffff7
ffffffff
ffffffff
00000001
00000002
fffffffe
00000000
00000003
00000001
00000001
fffffffc
fffffffb
00000000
ffffffff
00000000
00000000
fffffffc
00000000
00000003
00000001
fffffffd
fffffff9
00000000
00000007
fffffffe
00000000
fffffff9
00000004
00000000
fffffffb
00000000
fffffff5
00000002
ffffffff
fffffffc
00000008
00000001
00000002
fffffff7
00000000
fffffffa
fffffffb
00000000
00000002
00000002
fffffffc
00000003
fffffffd
fffffffa
00000000
fffffffa
ffffffff
fffffffb
ffffffff
fffffffe
00000000
00000000
fffffffe
00000001
fffffffd
fffffffd
fffffffd
00000001
00000009
fffffffe
00000001
fffffffe
fffffffd
ffffffff
fffffffa
fffffffd
fffffffa
00000000
00000005
00000000
00000003
ffffffff
00000001
fffffffe
ffffffff
00000000
fffffffd
00000001
fffffffd
ffffffff
ffffffff
00000000
fffffffd
00000001
00000002
fffffffd
fffffffe
fffffff7
fffffff8
00000000
fffffffe
fffffffc
00000001
fffffffe
fffffffe
00000003
ffffffff
00000000
00000000
fffffffc
ffffffff
fffffffc
00000001
00000001
00000000
fffffffb
ffffffff
fffffffc
00000001
fffffffd
ffffffff
00000002
00000004
fffffff9
fffffffe
00000006
ffffffff
00000002
00000003
00000001
fffffff7
fffffffc
fffffffe
fffffffa
fffffff6
00000002
00000006
00000001
fffffffe
fffffffb
00000005
00000002
00000006
00000001
fffffffc
00000005
00000001
fffffff8
00000000
00000001
00000007
00000000
00000000
00000001
fffffffb
fffffffd
00000001
00000001
fffffffd
fffffffc
00000003
00000001
00000001
00000000
00000002
fffffffa
00000001
00000000
00000003
fffffffd
fffffffc
00000000
00000000
fffffff8
00000000
ffffffff
fffffffc
fffffff9
fffffff9
fffffffd
ffffffff
00000000
fffffffe
00000000
fffffffc
fffffffe
00000000
fffffff4
00000001
fffffffe
fffffff8
fffffff8
fffffffe
00000001
fffffffd
ffffffff
ffffffff
00000000
00000000
00000001
ffffffff
00000001
00000004
00000001
00000001
fffffffe
fffffffc
fffffffb
fffffffa
ffffffff
00000000
fffffffd
00000000
fffffffa
00000005
ffffffff
fffffffd
ffffffff
ffffffff
fffffffe
ffffffff
00000000
00000001
00000004
ffffffff
fffffffc
00000000
00000000
fffffffd
00000003
fffffff9
00000000
00000001
00000001
00000001
fffffff7
00000000
ffffffff
fffffffd
ffffffff
fffffffe
00000000
00000001
00000002
fffffffd
fffffffa
fffffffd
ffffffff
00000002
00000002
ffffffff
00000000
ffffffff
00000000
fffffffe
00000003
fffffffc
fffffffc
fffffffb
00000000
00000001
fffffff9
00000004
00000003
ffffffff
00000002
fffffffa
00000001
00000002
00000001
fffffffe
ffffffff
ffffffff
ffffffff
fffffffe
00000000
ffffffff
fffffffa
fffffffd
00000001
00000000
fffffffb
ffffffff
00000000
fffffffa
fffffffd
fffffffe
00000000
00000001
00000002
fffffffe
fffffffe
fffffffe
00000003
fffffffd
fffffffd
00000006
fffffffe
fffffffc
fffffffb
ffffffff
ffffffff
fffffffa
00000002
ffffffff
fffffffd
00000002
00000000
ffffffff
fffffff9
00000001
ffffffff
00000000
fffffff8
fffffffc
ffffffff
fffffff8
00000000
fffffffc
ffffffff
ffffffff
00000003
fffffffd
00000002
00000002
00000002
00000000
ffffffff
00000000
00000002
ffffffff
00000001
00000000
fffffffd
00000001
00000001
00000004
fffffffd
fffffffd
ffffffff
00000002
00000001
fffffffd
00000002
00000000
fffffffa
fffffffc
ffffffff
00000000
00000000
ffffffff
ffffffff
00000000
ffffffff
00000001
fffffffb
fffffffe
fffffffd
fffffffb
fffffffd
00000001
00000001
ffffffff
00000001
00000001
00000001
fffffffc
ffffffff
fffffffe
fffffffe
00000000
fffffffe
00000001
00000000
fffffffc
ffffffff
00000000
00000002
fffffffb
00000000
00000003
00000000
00000002
fffffffd
00000000
fffffffb
00000000
ffffffff
00000001
fffffffd
00000000
00000005
fffffffe
fffffffd
fffffffc
00000000
00000001
fffffffa
fffffffe
ffffffff
00000004
fffffffd
ffffffff
00000002
ffffffff
fffffffc
fffffffe
fffffffe
00000003
00000001
00000000
ffffffff
00000006
00000001
00000000
fffffff9
00000001
00000000
fffffff9
fffffffe
ffffffff
00000000
fffffffb
fffffff8
fffffffb
ffffffff
00000001
fffffffd
fffffff1
fffffffc
00000001
ffffffff
00000002
00000000
fffffffe
fffffffb
ffffffff
00000001
fffffffa
ffffffff
00000001
00000002
fffffffe
00000003
00000001
ffffffff
fffffffb
00000001
00000000
00000003
fffffffc
ffffffff
fffffffe
00000003
00000002
00000004
fffffffa
00000000
ffffffff
00000000
ffffffff
ffffffff
ffffffff
00000000
fffffffb
fffffffe
00000000
00000000
ffffffff
fffffffe
fffffffc
00000000
fffffffd
fffffff6
ffffffff
00000000
fffffffc
fffffffe
00000000
ffffffff
fffffff7
00000000
00000000
fffffffd
ffffffff
fffffffe
00000000
fffffffd
00000002
fffffffd
fffffff7
00000002
00000000
fffffffb
00000003
fffffffe
fffffffd
fffffffe
00000000
ffffffff
ffffffff
fffffffe
fffffffb
fffffff9
ffffffff
fffffffc
00000000
ffffffff
fffffffc
00000003
ffffffff
00000001
00000003
ffffffff
fffffffc
00000000
00000000
fffffff8
fffffffe
00000001
00000001
00000003
fffffffd
00000001
fffffffe
00000000
ffffffff
fffffffe
fffffff8
fffffffa
fffffffe
00000000
00000001
00000000
00000000
fffffffa
00000001
ffffffff
fffffffd
00000000
fffffffd
fffffffe
00000000
fffffff8
00000003
00000005
fffffff9
00000000
fffffff4
00000003
00000001
00000001
fffffffc
00000000
00000000
fffffffd
00000002
00000006
fffffff9
fffffffc
00000002
00000001
fffffffe
00000002
fffffffc
fffffffa
00000001
00000001
ffffffff
fffffffe
fffffffa
fffffffd
ffffffff
00000000
00000000
00000000
fffffffe
00000000
00000004
00000000
fffffffa
ffffffff
00000001
ffffffff
fffffffc
00000002
fffffffe
ffffffff
fffffff7
ffffffff
fffffffb
00000000
fffffffa
00000000
00000000
ffffffff
ffffffff
ffffffff
fffffffd
00000000
fffffff9
ffffffff
fffffff7
ffffffff
00000003
00000000
ffffffff
00000001
ffffffff
00000002
fffffff9
00000002
ffffffff
fffffffe
00000000
00000001
00000001
00000001
00000000
00000000
ffffffff
fffffff9
00000000
fffffff9
00000001
ffffffff
ffffffff
00000004
00000001
fffffffa
00000002
00000009
fffffffe
ffffffff
00000000
fffffff9
00000000
00000000
ffffffff
00000001
00000001
00000001
fffffffe
fffffffd
fffffffe
fffffffd
fffffff9
00000001
00000002
fffffffe
00000001
fffffffc
00000001
ffffffff
00000007
00000000
fffffffd
ffffffff
00000001
fffffffa
fffffffd
00000001
ffffffff
ffffffff
00000001
ffffffff
fffffffb
fffffffa
fffffffe
00000001
ffffffff
fffffffa
00000001
00000001
00000002
00000004
00000003
fffffffd
fffffffc
00000001
ffffffff
00000001
00000006
00000001
ffffffff
fffffffc
00000001
fffffffc
00000000
fffffffe
fffffffb
ffffffff
00000002
00000001
fffffffd
00000000
00000001
00000000
ffffffff
fffffff9
00000001
00000000
fffffffd
fffffffa
00000000
00000000
00000004
00000001
fffffffd
00000000
fffffffc
00000001
00000001
00000000
fffffffa
00000002
00000003
fffffffe
ffffffff
ffffffff
fffffffb
ffffffff
00000001
00000001
00000001
00000003
fffffff9
00000000
fffffffb
ffffffff
fffffffe
fffffffc
00000003
00000001
00000001
ffffffff
fffffffe
fffffffc
00000000
fffffffe
fffffff8
00000001
fffffffa
ffffffff
00000000
00000000
fffffffe
fffffff7
ffffffff
fffffffd
fffffffa
fffffffb
fffffffe
00000000
00000000
ffffffff
fffffffd
fffffffd
fffffffd
00000001
00000000
fffffffa
00000004
00000000
fffffffc
00000001
ffffffff
ffffffff
00000001
00000000
fffffffd
00000001
fffffffa
fffffff5
00000000
00000001
00000000
00000002
fffffffc
00000000
ffffffff
ffffffff
fffffffd
fffffffe
ffffffff
00000001
00000000
ffffffff
ffffffff
ffffffff
fffffffe
ffffffff
00000000
fffffffb
ffffffff
00000001
fffffffc
00000001
00000009
00000005
00000002
00000001
fffffff9
00000001
ffffffff
00000000
fffffffe
ffffffff
0000000b
00000000
fffffffa
fffffffe
00000000
00000001
00000001
00000002
ffffffff
fffffffc
00000001
00000001
00000001
fffffffd
fffffff6
00000000
00000001
00000003
fffffffc
00000000
fffffffd
00000000
ffffffff
fffffffe
00000000
00000002
00000000
00000001
fffffffd
ffffffff
00000000
fffffffb
00000000
00000001
fffffffe
00000001
00000001
00000001
00000002
00000000
00000004
fffffffc
fffffffe
00000001
00000003
00000003
fffffffe
00000001
00000000
00000000
fffffffc
00000000
fffffffe
ffffffff
fffffffe
ffffffff
fffffffd
00000000
00000004
fffffffe
ffffffff
fffffffb
fffffffc
fffffffe
00000002
00000001
00000001
00000002
00000000
00000002
00000000
fffffffe
00000003
fffffffc
fffffffd
fffffffd
ffffffff
ffffffff
fffffffb
fffffff9
00000001
00000001
00000000
00000000
00000001
00000000
fffffffe
00000003
00000000
00000003
00000000
00000000
00000001
fffffffe
ffffffff
fffffffe
ffffffff
fffffffc
00000000
00000001
00000002
00000001
ffffffff
00000000
fffffffa
fffffffc
00000000
00000006
00000000
fffffffe
00000004
00000000
fffffffc
00000001
00000001
00000001
fffffffa
00000001
00000001
fffffffd
ffffffff
00000000
fffffffd
fffffffb
00000002
00000001
00000001
fffffff7
fffffff9
fffffffa
00000001
fffffffe
fffffff3
00000001
fffffffc
00000001
00000001
ffffffff
00000002
00000007
ffffffff
fffffff9
fffffffc
ffffffff
00000000
00000000
ffffffff
00000008
00000001
00000000
00000004
00000000
fffffffc
fffffff4
fffffffe
fffffffe
00000001
fffffff8
fffffffc
00000001
00000008
00000000
00000000
00000001
00000001
00000000
fffffffe
00000001
fffffffd
fffffffb
00000001
00000002
00000001
00000002
fffffffa
00000000
ffffffff
fffffff7
00000004
00000000
fffffffc
fffffffe
ffffffff
00000001
fffffffc
00000000
00000000
00000001
fffffffd
00000002
00000006
fffffffb
fffffffe
00000003
fffffff6
00000000
00000001
fffffffc
00000001
00000001
ffffffff
ffffffff
fffffffd
fffffff8
ffffffff
fffffffa
fffffff8
00000005
00000001
0000000a
fffffffe
00000001
fffffffd
fffffffd
ffffffff
ffffffff
00000009
ffffffff
00000007
00000001
00000002
fffffffa
00000000
ffffffff
00000000
00000001
fffffffe
00000000
00000000
00000001
fffffffe
00000001
00000005
00000001
fffffffd
00000002
00000000
fffffffd
00000003
fffffffb
00000001
00000001
ffffffff
fffffffe
00000001
ffffffff
ffffffff
fffffff9
ffffffff
fffffffb
fffffffb
00000000
0000000a
00000001
00000000
fffffffc
fffffffc
00000000
00000001
fffffff9
00000000
ffffffff
fffffffb
fffffff9
00000002
00000001
fffffffa
00000002
00000001
ffffffff
00000001
00000004
00000001
fffffffc
ffffffff
00000005
00000000
fffffffe
ffffffff
00000001
00000001
fffffffe
00000002
00000000
fffffffe
ffffffff
00000000
00000000
ffffffff
00000000
fffffff8
ffffffff
00000003
00000000
fffffffb
00000001
fffffff2
00000000
00000002
fffffffc
00000001
00000001
00000003
00000002
fffffffd
00000000
fffffff9
ffffffff
ffffffff
00000000
00000003
00000002
fffffffb
fffffffc
fffffffd
00000000
ffffffff
fffffff3
00000000
ffffffff
00000004
00000002
fffffffe
00000001
00000000
fffffffc
ffffffff
fffffffd
fffffff9
00000002
ffffffff
00000001
fffffffb
fffffff5
00000001
00000001
00000000
00000001
fffffffe
00000001
00000001
00000001
00000000
00000001
00000000
00000001
00000006
00000000
fffffffd
fffffff9
ffffffff
00000002
fffffffc
00000002
fffffffe
fffffff9
00000001
fffffffd
00000003
00000000
ffffffff
fffffffd
00000002
00000000
00000000
00000001
fffffffb
00000000
fffffffc
00000004
fffffffc
00000004
00000003
00000001
00000003
fffffffc
00000002
00000001
fffffffa
00000001
ffffffff
fffffffd
fffffff9
00000000
fffffffe
00000004
00000001
00000004
fffffffb
fffffff8
00000001
00000002
00000006
fffffffa
fffffff9
00000000
ffffffff
00000000
fffffffd
00000000
ffffffff
00000001
00000000
fffffff6
00000000
fffffff6
fffffffe
fffffffc
fffffffc
00000000
ffffffff
ffffffff
ffffffff
00000004
00000001
00000000
00000003
ffffffff
00000005
00000001
fffffffe
fffffffc
fffffffd
ffffffff
ffffffff
fffffffd
00000001
00000002
00000003
fffffff7
fffffffe
00000001
ffffffff
ffffffff
fffffffc
fffffffc
fffffffd
00000001
00000000
00000004
fffffffc
00000000
00000000
00000002
ffffffff
00000002
00000000
fffffffb
00000000
fffffffb
00000000
fffffffe
00000001
00000000
00000000
00000007
fffffffd
00000001
ffffffff
00000003
fffffffb
fffffffe
fffffffe
ffffffff
fffffffc
fffffffe
00000000
00000000
fffffffc
00000001
ffffffff
ffffffff
00000001
fffffffa
00000000
ffffffff
fffffffc
fffffff6
fffffffd
00000000
fffffffe
00000000
00000000
00000000
00000001
00000000
fffffffc
fffffffd
fffffffe
00000001
fffffffc
00000001
ffffffff
fffffff9
ffffffff
fffffffe
ffffffff
fffffff9
ffffffff
00000002
fffffffb
fffffffd
00000000
00000000
00000000
00000002
fffffffa
00000001
fffffff9
00000002
fffffffd
fffffffc
fffffffe
00000001
00000006
fffffffd
00000004
ffffffff
00000003
00000000
00000000
fffffffc
fffffffe
00000000
ffffffff
fffffff9
fffffff9
00000000
00000000
fffffffd
00000003
ffffffff
00000001
00000002
00000001
fffffff5
ffffffff
00000003
00000002
fffffffe
00000004
fffffffb
00000000
fffffffc
ffffffff
fffffffe
00000000
00000000
00000002
ffffffff
00000002
00000002
00000001
fffffffc
fffffffb
fffffffd
ffffffff
00000002
fffffffd
00000002
00000001
fffffffe
fffffff8
00000000
fffffffe
fffffffd
fffffffe
00000001
00000003
fffffffc
00000000
fffffffc
00000003
00000001
fffffffd
00000000
00000000
00000001
ffffffff
00000000
ffffffff
00000002
fffffffe
00000001
00000000
fffffffb
00000002
fffffffd
00000001
00000000
fffffffb
fffffffc
00000000
ffffffff
ffffffff
00000001
00000002
ffffffff
fffffffc
00000002
00000000
fffffffd
ffffffff
00000002
ffffffff
00000001
00000000
00000002
ffffffff
00000003
fffffffe
00000000
ffffffff
fffffff9
00000000
00000000
fffffffc
fffffffa
fffffffe
00000004
ffffffff
fffffffa
fffffffe
00000001
fffffffa
00000001
00000000
ffffffff
fffffffb
fffffffc
00000001
fffffffc
ffffffff
00000000
00000001
fffffffc
fffffffd
fffffffe
ffffffff
fffffffd
fffffffd
fffffffa
00000002
00000003
fffffff6
fffffffa
fffffffd
00000000
00000001
00000000
fffffffd
fffffff8
fffffffe
00000001
00000002
00000000
fffffffe
00000002
fffffffe
00000006
00000000
00000003
fffffffe
00000001
fffffffe
fffffff9
ffffffff
ffffffff
fffffffc
00000004
ffffffff
00000003
ffffffff
00000002
ffffffff
ffffffff
00000000
00000000
ffffffff
00000000
fffffffc
fffffffa
ffffffff
00000002
fffffffe
00000000
fffffffd
ffffffff
fffffffb
fffffffa
fffffffd
fffffffe
ffffffff
ffffffff
fffffffc
00000000
00000001
ffffffff
00000004
ffffffff
00000000
ffffffff
fffffffd
00000001
fffffffc
fffffffc
00000000
00000001
00000001
fffffffc
00000005
fffffffe
fffffffb
00000004
fffffffb
fffffffb
00000000
ffffffff
fffffffb
ffffffff
ffffffff
00000003
00000000
00000002
fffffffd
fffffffa
00000001
00000000
00000004
ffffffff
ffffffff
00000003
00000001
fffffff8
00000000
00000003
00000000
ffffffff
fffffffd
00000000
00000001
00000000
fffffffe
fffffffe
fffffffd
fffffffe
fffffffd
ffffffff
00000000
ffffffff
ffffffff
fffffffa
00000001
fffffffc
fffffffb
fffffffb
fffffffc
fffffffd
00000000
00000000
00000003
00000000
fffffffb
00000001
fffffffa
00000001
00000000
fffffffe
fffffffc
ffffffff
00000002
fffffff8
fffffffe
fffffffa
fffffffc
fffffffd
00000001
00000002
fffffffd
00000001
fffffffa
fffffffc
ffffffff
00000001
fffffffe
fffffffe
fffffffc
fffffffb
fffffffe
00000001
fffffffe
fffffffe
fffffffa
ffffffff
ffffffff
00000000
fffffffa
ffffffff
00000001
ffffffff
fffffff9
00000000
0000000d
fffffffa
fffffff7
00000000
00000004
00000001
fffffff6
00000001
00000001
fffffffc
ffffffff
00000000
ffffffff
00000000
fffffffb
00000000
fffffff7
00000001
fffffffe
00000000
00000000
fffffffb
fffffffb
fffffffb
fffffffe
00000001
fffffffe
fffffffe
00000000
ffffffff
fffffffd
00000002
fffffffc
ffffffff
ffffffff
fffffffe
00000000
00000001
fffffffd
00000000
fffffffe
fffffffb
00000002
fffffffb
00000000
fffffffd
00000000
ffffffff
ffffffff
fffffffd
00000002
00000000
00000001
ffffffff
00000000
00000000
fffffffb
fffffffc
fffffffc
fffffffd
fffffffc
00000001
00000002
00000007
00000000
fffffffd
00000002
fffffffc
00000002
00000000
00000000
00000001
ffffffff
fffffff7
fffffffa
00000000
00000000
ffffffff
fffffffe
ffffffff
fffffffe
fffffff9
fffffffe
00000000
fffffffb
fffffff7
00000001
00000001
fffffffc
00000000
00000001
00000002
fffffffe
00000000
fffffff9
00000002
fffffff9
fffffffd
ffffffff
fffffffd
ffffffff
00000006
ffffffff
fffffff7
fffffffb
00000004
00000000
00000000
ffffffff
00000000
fffffffe
00000000
ffffffff
00000005
00000000
00000000
fffffffe
fffffffc
fffffffc
00000002
00000004
fffffffe
fffffffd
00000001
fffffffd
ffffffff
00000001
00000000
fffffffb
00000000
00000000
fffffffe
fffffffb
00000003
fffffffd
ffffffff
00000002
fffffffc
fffffffe
fffffff7
fffffffc
ffffffff
fffffffc
00000000
fffffffd
00000001
ffffffff
00000001
00000001
fffffffe
00000000
fffffffb
fffffffe
fffffff9
00000008
00000003
ffffffff
fffffffc
ffffffff
00000002
ffffffff
fffffffe
00000000
ffffffff
fffffffc
fffffffe
fffffffd
00000001
00000000
00000000
00000004
fffffffd
fffffffe
fffffffd
fffffffc
00000004
ffffffff
ffffffff
fffffffe
00000001
00000001
fffffffe
fffffffc
fffffffd
00000001
fffffffe
fffffffb
fffffffd
fffffffe
00000000
00000000
00000001
fffffffc
00000000
fffffffb
ffffffff
fffffffe
00000000
00000002
ffffffff
fffffffe
ffffffff
ffffffff
fffffffb
fffffffc
00000001
ffffffff
fffffffb
fffffffe
00000000
fffffffc
00000000
ffffffff
00000001
ffffffff
00000002
fffffffb
ffffffff
00000002
00000005
fffffffc
fffffffd
ffffffff
00000000
fffffffc
fffffffd
fffffffe
fffffffe
fffffffa
00000003
00000000
00000000
00000000
ffffffff
fffffffe
ffffffff
00000004
ffffffff
00000003
fffffffe
fffffffc
fffffffc
fffffffd
00000002
fffffffd
fffffffc
fffffffe
fffffffe
00000001
ffffffff
fffffffd
00000005
00000000
fffffffb
00000001
00000002
fffffffd
00000000
00000000
fffffffe
00000001
00000005
00000000
fffffffe
fffffffc
ffffffff
00000002
00000001
ffffffff
00000000
00000000
ffffffff
fffffff7
00000000
fffffffb
fffffffb
fffffffa
00000002
fffffffb
fffffff5
00000002
fffffffd
fffffffe
fffffffc
fffffffc
fffffffd
ffffffff
00000002
ffffffff
00000001
fffffffe
00000001
fffffffe
fffffffd
ffffffff
fffffffe
fffffffd
fffffffc
ffffffff
00000001
fffffffb
fffffffe
00000001
fffffffd
00000000
00000001
fffffffd
00000000
00000000
fffffffd
00000000
00000002
00000000
fffffffe
00000002
fffffffd
00000003
00000001
fffffffd
fffffffa
00000001
00000001
fffffffd
fffffffa
fffffffe
00000001
00000008
00000000
fffffffe
00000000
00000001
fffffffd
fffffffc
ffffffff
fffffffa
00000001
00000001
00000001
ffffffff
fffffffc
fffffffd
ffffffff
fffffffc
ffffffff
00000004
fffffffd
ffffffff
00000000
00000003
fffffffa
fffffffd
fffffffb
00000002
fffffffe
fffffff7
00000007
ffffffff
00000000
00000000
00000001
fffffffe
fffffffd
fffffffe
fffffffd
00000001
00000000
ffffffff
fffffffa
fffffffe
fffffff8
00000001
ffffffff
00000004
00000002
fffffffb
fffffffb
fffffffc
fffffffb
fffffffc
fffffffa
fffffffe
00000001
fffffffb
00000001
00000000
fffffffe
00000001
ffffffff
ffffffff
00000000
fffffffa
00000003
fffffffe
ffffffff
ffffffff
ffffffff
fffffffc
00000000
00000002
fffffff9
ffffffff
fffffffe
fffffffb
00000001
00000003
ffffffff
fffffffa
00000000
00000001
fffffffe
00000001
ffffffff
fffffffc
fffffffb
fffffffe
fffffffb
fffffff9
00000001
00000000
fffffffd
fffffffe
ffffffff
fffffffb
00000001
fffffff9
fffffffb
00000002
00000000
fffffff9
fffffffd
00000000
fffffffd
00000000
00000001
fffffffc
fffffffc
00000000
00000001
00000002
fffffffe
fffffffb
00000003
00000001
00000001
fffffffc
ffffffff
00000000
ffffffff
fffffffd
ffffffff
00000000
00000003
fffffffe
fffffffe
fffffffb
ffffffff
fffffffd
00000001
00000001
ffffffff
00000002
fffffffd
00000002
00000001
fffffffe
fffffffd
fffffffc
fffffffd
fffffffe
fffffffa
ffffffff
00000009
fffffffb
ffffffff
fffffff8
ffffffff
00000000
fffffffb
fffffffb
00000000
00000000
fffffff9
00000002
fffffff9
fffffffc
fffffffb
00000000
ffffffff
00000004
ffffffff
fffffffd
fffffffa
00000000
ffffffff
00000001
fffffffc
fffffffd
00000004
fffffffe
ffffffff
ffffffff
ffffffff
fffffffc
00000000
fffffffc
00000000
fffffffb
fffffffd
00000001
ffffffff
00000005
00000001
fffffffd
00000003
fffffffc
fffffffd
fffffffb
00000000
fffffffa
00000001
00000001
fffffffc
00000000
00000000
00000002
00000001
fffffffe
ffffffff
fffffffd
00000001
00000000
ffffffff
00000001
ffffffff
fffffffe
fffffffb
00000001
00000000
fffffffe
fffffffb
ffffffff
00000003
00000000
ffffffff
fffffffd
00000001
00000002
fffffffb
00000001
fffffffe
fffffff9
00000001
fffffffe
00000002
fffffff9
fffffffa
00000000
00000000
fffffffe
00000002
fffffffe
fffffff8
fffffffe
00000003
ffffffff
00000000
00000000
00000001
fffffffc
fffffffc
fffffffb
fffffffd
fffffffb
00000000
fffffffb
00000002
00000000
fffffffc
00000001
ffffffff
fffffffe
00000001
ffffffff
fffffffb
fffffffe
00000001
ffffffff
00000001
ffffffff
ffffffff
00000003
ffffffff
00000005
fffffffe
00000003
00000001
fffffffc
fffffffc
00000000
00000001
fffffffc
00000002
fffffffa
fffffffc
fffffffc
fffffffe
fffffffe
fffffffe
fffffff5
00000003
00000006
fffffffc
00000000
00000002
00000000
fffffff9
fffffff9
fffffffd
00000000
00000000
00000000
00000000
fffffffe
fffffffa
fffffffe
fffffffb
00000001
fffffffb
00000003
00000002
ffffffff
00000000
00000000
00000000
ffffffff
00000001
00000002
00000000
fffffffe
00000000
fffffff9
00000001
ffffffff
fffffffe
fffffffd
fffffffe
fffffffd
fffffffd
00000001
ffffffff
fffffffe
fffffffd
fffffffe
fffffffd
fffffffc
ffffffff
fffffffe
fffffffe
ffffffff
00000001
00000001
fffffffb
fffffffe
00000005
fffffffe
fffffffa
ffffffff
00000000
00000002
fffffffd
00000000
fffffffe
00000002
00000004
00000000
fffffffe
fffffffc
fffffffa
ffffffff
ffffffff
00000002
fffffffd
0000000a
fffffffe
fffffffc
00000002
fffffffd
00000000
ffffffff
ffffffff
fffffffe
00000001
fffffffe
00000006
fffffffb
fffffffb
fffffffe
00000000
00000002
fffffffb
ffffffff
00000002
00000000
00000002
fffffffa
00000000
fffffffe
ffffffff
fffffffc
fffffffd
00000000
ffffffff
ffffffff
00000000
00000000
ffffffff
00000000
fffffffe
fffffffe
fffffffc
fffffffc
00000000
fffffffc
00000000
00000001
00000000
00000000
00000001
fffffffb
00000001
fffffffe
fffffffb
fffffffd
fffffffc
fffffffb
fffffffb
ffffffff
00000000
fffffffd
00000000
fffffff9
00000000
00000000
00000003
fffffffe
ffffffff
00000000
fffffff8
fffffffc
00000001
ffffffff
fffffff7
fffffffe
fffffffe
ffffffff
00000002
fffffffa
fffffff5
00000000
fffffffd
ffffffff
fffffffb
ffffffff
00000002
00000000
fffffffc
00000002
ffffffff
00000000
00000000
00000001
fffffffe
00000001
fffffffe
00000001
fffffffe
fffffffb
ffffffff
00000002
ffffffff
00000000
00000002
00000002
0000000b
fffffffc
00000001
fffffffc
fffffffa
00000006
00000000
fffffffd
ffffffff
00000001
fffffffd
00000004
00000004
fffffffc
ffffffff
00000000
00000000
fffffffe
00000000
00000000
00000002
fffffffd
fffffffc
00000000
fffffffb
ffffffff
fffffffd
ffffffff
00000000
fffffffd
fffffffb
00000001
00000000
ffffffff
00000001
ffffffff
fffffffe
00000002
fffffffc
00000000
fffffffa
00000000
00000000
00000000
fffffffe
00000000
00000001
fffffffd
fffffffb
fffffffd
00000001
00000003
ffffffff
ffffffff
ffffffff
fffffffd
fffffffd
00000001
ffffffff
00000002
fffffffe
fffffffe
00000001
fffffffa
00000001
00000001
00000000
fffffffd
fffffffc
00000000
fffffff9
ffffffff
00000000
fffffffd
fffffffd
fffffffd
ffffffff
00000001
fffffffb
fffffffb
fffffffd
00000004
00000001
00000002
fffffff9
00000000
00000000
00000003
ffffffff
fffffffe
fffffffc
ffffffff
fffffffb
00000000
00000001
00000001
00000000
00000000
00000000
00000000
0000000b
00000001
00000003
00000002
00000000
00000000
fffffffe
fffffffe
00000000
fffffffd
00000002
fffffffc
00000000
00000001
ffffffff
00000001
ffffffff
ffffffff
00000000
00000001
fffffffc
ffffffff
00000002
00000000
00000000
fffffffc
00000000
00000004
fffffffc
fffffffe
ffffffff
ffffffff
fffffffe
fffffffd
fffffffc
fffffffe
ffffffff
fffffffd
ffffffff
fffffffe
00000001
fffffffd
fffffffe
00000008
ffffffff
fffffff6
00000001
00000001
fffffffd
00000001
fffffffe
fffffffe
00000001
fffffffa
fffffffc
00000001
ffffffff
fffffffa
fffffffb
ffffffff
00000006
00000002
00000001
fffffffe
fffffffc
00000002
00000000
00000000
00000000
fffffffd
00000000
ffffffff
fffffff6
fffffffc
00000001
00000001
00000000
fffffffe
00000001
00000000
fffffffd
fffffffe
ffffffff
00000009
fffffffe
ffffffff
00000000
00000000
fffffffc
ffffffff
fffffffd
00000002
fffffffb
fffffffd
fffffffe
fffffffd
fffffffb
ffffffff
00000000
fffffffe
00000000
fffffffb
ffffffff
fffffffb
00000001
ffffffff
00000007
fffffffd
00000000
00000001
fffffffa
00000000
fffffffc
fffffffe
fffffff9
00000002
00000002
00000007
fffffffe
fffffffb
fffffffb
00000000
00000001
00000000
fffffffb
ffffffff
fffffffd
00000000
00000001
ffffffff
ffffffff
fffffffc
fffffffe
00000001
00000001
fffffffe
fffffffd
00000000
00000001
fffffffc
00000001
fffffff8
fffffffa
fffffffe
00000001
fffffffa
00000000
fffffff6
00000000
00000002
fffffffc
ffffffff
00000001
fffffffe
00000000
fffffffb
fffffffe
fffffff6
ffffffff
ffffffff
00000001
00000001
fffffffd
fffffffc
fffffffe
ffffffff
00000001
ffffffff
fffffffd
00000000
fffffffe
ffffffff
00000001
fffffffb
00000000
00000001
fffffffc
00000000
fffffffe
00000005
00000000
fffffff7
fffffff7
00000001
fffffffa
00000000
fffffff9
fffffffd
00000002
00000000
fffffffa
00000000
ffffffff
00000001
00000000
00000002
00000001
fffffff9
fffffffd
fffffffc
fffffffc
fffffffb
00000001
fffffffd
00000000
00000000
fffffff7
ffffffff
fffffffc
00000002
00000001
fffffffe
ffffffff
fffffffe
fffffff7
fffffffe
ffffffff
00000001
00000000
fffffffe
00000001
fffffffd
00000001
fffffffd
00000001
fffffffb
ffffffff
00000003
00000000
ffffffff
00000001
00000000
fffffffc
00000002
ffffffff
ffffffff
ffffffff
ffffffff
fffffffe
fffffffc
00000005
00000000
00000006
fffffffe
00000001
fffffffc
00000000
00000000
00000000
ffffffff
00000000
00000004
00000001
ffffffff
fffffffe
00000002
fffffffd
00000000
fffffffe
00000000
00000001
00000001
ffffffff
fffffffe
00000001
fffffffc
00000000
ffffffff
00000000
fffffffa
00000001
ffffffff
00000000
fffffffc
00000004
00000004
fffffffe
00000002
ffffffff
ffffffff
ffffffff
fffffffa
ffffffff
fffffffd
00000000
fffffffc
ffffffff
fffffffd
00000000
00000000
fffffffc
fffffffd
00000000
00000000
fffffffe
fffffffe
00000001
00000001
00000000
fffffffe
00000003
00000000
fffffffd
00000000
00000001
00000002
00000000
fffffffd
00000001
ffffffff
fffffffe
fffffffc
00000003
fffffffe
fffffffe
fffffffe
00000001
00000001
ffffffff
00000004
00000000
ffffffff
fffffffe
fffffffc
fffffffb
fffffffe
00000000
fffffffc
fffffffa
ffffffff
00000002
00000000
00000001
fffffffc
00000001
fffffffc
fffffffe
ffffffff
ffffffff
00000000
ffffffff
ffffffff
ffffffff
ffffffff
fffffffa
fffffffc
00000003
ffffffff
fffffffe
fffffffe
00000000
fffffffc
fffffffd
00000001
00000000
ffffffff
00000001
fffffffc
ffffffff
fffffffe
ffffffff
fffffffc
fffffffc
fffffffd
fffffffb
00000001
fffffffc
fffffffe
fffffffe
fffffffa
fffffffd
00000000
fffffffc
fffffffd
00000000
fffffffe
fffffff9
ffffffff
ffffffff
00000005
fffffff9
fffffffe
fffffffd
fffffffa
00000000
00000005
fffffff5
fffffffe
ffffffff
fffffffd
fffffffe
00000004
00000002
00000000
fffffffc
fffffffe
00000001
ffffffff
00000000
00000002
00000000
00000002
fffffffd
fffffffc
00000001
fffffffa
00000000
00000000
00000000
fffffffd
00000000
00000001
fffffffd
fffffff8
00000000
fffffffe
fffffffc
00000000
00000000
fffffffd
00000001
00000000
fffffffd
fffffffd
fffffffc
ffffffff
fffffffe
00000000
00000000
fffffffe
00000001
00000001
00000002
fffffffc
fffffffd
ffffffff
fffffffc
fffffffd
fffffffd
00000000
00000001
fffffffd
fffffffa
00000001
fffffffd
00000001
00000001
00000000
00000001
ffffffff
fffffffe
00000000
fffffffd
ffffffff
00000002
ffffffff
fffffffe
00000000
00000001
fffffffd
fffffffb
ffffffff
00000001
fffffffd
fffffffb
ffffffff
00000000
fffffffd
fffffffb
00000000
ffffffff
ffffffff
fffffffc
fffffffe
fffffffe
fffffffa
00000000
00000000
00000000
00000001
fffffffd
fffffffe
fffffff9
fffffffc
00000000
ffffffff
fffffffd
fffffffd
fffffffd
00000000
fffffffb
fffffffc
00000000
00000002
00000002
fffffff7
fffffff8
fffffffd
00000000
00000001
ffffffff
ffffffff
fffffff9
ffffffff
fffffffb
00000005
00000000
fffffffd
00000005
ffffffff
00000004
00000000
00000002
ffffffff
00000000
00000001
fffffff9
fffffffe
00000000
00000000
fffffffe
fffffffd
00000001
fffffffe
00000001
00000000
ffffffff
00000000
00000000
fffffffe
ffffffff
fffffffe
fffffffb
00000000
fffffffe
ffffffff
ffffffff
fffffffb
ffffffff
ffffffff
fffffffa
fffffffd
00000000
fffffffd
ffffffff
ffffffff
00000004
fffffffd
ffffffff
fffffffb
fffffffb
ffffffff
fffffffe
fffffffd
fffffffe
00000003
fffffffd
fffffffc
00000002
00000000
fffffffd
fffffffe
ffffffff
fffffffd
fffffffd
fffffffa
fffffffb
fffffffe
ffffffff
00000001
fffffffe
00000001
fffffffd
ffffffff
00000000
00000002
00000002
00000001
00000000
00000000
fffffffe
00000000
00000001
00000001
00000001
fffffffd
ffffffff
00000001
ffffffff
fffffffd
ffffffff
00000000
ffffffff
00000000
fffffffd
00000002
fffffffd
fffffffd
00000000
ffffffff
ffffffff
ffffffff
fffffffd
00000000
fffffffc
fffffffb
00000008
fffffffc
fffffffd
fffffffe
fffffffe
ffffffff
00000007
fffffffe
00000001
fffffff9
00000000
ffffffff
fffffffa
fffffffd
00000000
00000001
fffffffa
fffffffe
fffffffa
fffffffc
fffffffe
ffffffff
00000002
fffffffe
00000001
fffffffb
fffffffb
00000000
fffffffa
ffffffff
ffffffff
fffffffd
fffffffe
ffffffff
fffffffd
fffffffd
fffffffd
fffffffe
ffffffff
fffffffc
00000000
00000005
fffffffe
00000002
fffffffe
fffffffa
ffffffff
fffffff9
fffffffb
fffffffa
00000000
00000001
00000001
fffffff7
00000000
00000001
fffffffe
ffffffff
00000000
00000001
00000001
fffffffb
00000001
fffffff9
00000000
ffffffff
ffffffff
00000000
00000000
fffffffb
fffffff9
fffffffd
ffffffff
fffffffd
ffffffff
00000001
fffffffc
fffffffd
00000003
fffffffc
00000000
ffffffff
fffffffe
00000000
fffffffe
00000002
00000000
fffffffb
00000002
fffffffb
fffffff9
00000000
fffffffe
fffffffe
00000000
ffffffff
fffffffa
fffffffd
ffffffff
00000001
00000000
ffffffff
00000000
fffffffd
fffffffc
fffffffc
fffffffe
fffffffb
00000000
fffffffa
00000001
00000000
fffffffe
00000004
fffffffc
00000003
00000000
ffffffff
ffffffff
fffffffe
00000000
00000005
ffffffff
ffffffff
fffffffe
00000002
fffffffd
ffffffff
fffffff9
00000000
00000000
ffffffff
fffffff9
00000001
00000000
fffffffd
00000000
fffffffc
fffffffe
00000000
00000000
fffffff8
00000000
fffffff8
fffffffd
fffffffe
00000003
00000000
fffffffd
fffffffd
fffffffc
fffffffb
00000001
ffffffff
00000000
00000000
00000000
fffffffd
fffffffd
ffffffff
fffffffe
00000001
fffffffd
0000000a
fffffffb
fffffffd
00000001
00000003
fffffffe
fffffffd
00000001
fffffffe
ffffffff
fffffffe
00000001
00000005
00000001
00000001
fffffffd
fffffffe
fffffffd
fffffffb
ffffffff
00000000
fffffffe
00000002
fffffff7
fffffffe
fffffffe
fffffffd
fffffffe
00000001
fffffffc
fffffffd
00000000
00000000
fffffffc
fffffffe
fffffffb
fffffffe
fffffffe
fffffffe
00000000
fffffffc
fffffffd
fffffffe
ffffffff
00000001
fffffffc
00000002
ffffffff
00000000
fffffffc
fffffffd
00000000
ffffffff
ffffffff
00000003
00000001
fffffffe
ffffffff
00000001
ffffffff
00000004
ffffffff
00000005
00000000
fffffffe
00000000
fffffffb
fffffffd
fffffff9
ffffffff
fffffffc
fffffffa
fffffffe
00000000
ffffffff
00000000
fffffffb
00000000
fffffffd
00000000
fffffffe
00000000
00000000
ffffffff
fffffffe
ffffffff
00000000
ffffffff
fffffffd
ffffffff
fffffffe
fffffffb
fffffffd
ffffffff
fffffffd
fffffffe
00000001
00000000
ffffffff
00000000
fffffffe
00000001
fffffffb
ffffffff
fffffffc
fffffffd
fffffffd
fffffffa
00000005
fffffffc
fffffffd
fffffffe
ffffffff
00000000
ffffffff
fffffffd
ffffffff
ffffffff
fffffffe
00000004
00000000
ffffffff
ffffffff
fffffffa
00000000
fffffffd
fffffffa
00000000
fffffffb
fffffff8
ffffffff
ffffffff
fffffffd
fffffffe
ffffffff
00000007
00000000
fffffffc
ffffffff
ffffffff
fffffffe
00000000
ffffffff
00000002
00000001
ffffffff
00000001
00000006
fffffff9
ffffffff
00000002
00000000
fffffffe
00000000
00000000
ffffffff
fffffff7
ffffffff
ffffffff
fffffffc
fffffffc
00000001
fffffffd
fffffffb
00000000
fffffffc
ffffffff
fffffffc
fffffffd
fffffffe
00000000
00000001
fffffffe
00000000
ffffffff
00000002
fffffffb
00000000
fffffffc
fffffffc
fffffffd
fffffffd
ffffffff
00000000
fffffffd
fffffffb
00000001
fffffffc
00000000
00000001
fffffffe
00000000
ffffffff
fffffffc
00000001
00000006
ffffffff
fffffffe
00000000
ffffffff
00000001
00000001
fffffffe
fffffffc
00000002
00000000
ffffffff
fffffffb
ffffffff
00000000
fffffffd
fffffffc
fffffffe
00000000
00000001
fffffffc
fffffffe
00000001
fffffffc
00000000
00000000
00000000
fffffffb
ffffffff
fffffffd
fffffff5
fffffff9
ffffffff
00000000
00000001
fffffffe
fffffffe
fffffffa
fffffff9
fffffffd
fffffffc
00000004
ffffffff
fffffff7
fffffff6
ffffffff
00000003
00000002
fffffffe
fffffffc
fffffffd
fffffffe
fffffffe
00000004
00000001
00000001
00000007
00000001
fffffffb
00000000
00000002
00000001
00000000
fffffffe
fffffffd
00000002
00000000
fffffffe
fffffffc
fffffffd
00000002
fffffffe
00000000
00000001
00000002
00000000
ffffffff
fffffffe
ffffffff
00000001
fffffffd
00000003
00000001
fffffffe
ffffffff
fffffffd
ffffffff
fffffffe
fffffffe
00000001
fffffffe
fffffffc
00000001
00000003
00000002
fffffffe
00000000
ffffffff
00000000
fffffffe
00000000
00000002
fffffffe
00000001
ffffffff
fffffff8
00000000
00000001
fffffffe
fffffffc
ffffffff
fffffffd
00000000
00000000
fffffff8
00000000
00000000
ffffffff
fffffffc
00000001
fffffffc
fffffffe
ffffffff
00000005
fffffffd
ffffffff
00000000
fffffffe
00000001
00000000
00000000
ffffffff
fffffffc
00000000
00000002
00000001
fffffffe
ffffffff
fffffffe
00000000
fffffffe
00000000
ffffffff
fffffffc
fffffffc
fffffff9
00000000
00000001
00000002
00000000
fffffff9
00000001
fffffffd
fffffffc
fffffffd
fffffffd
00000000
ffffffff
fffffffb
ffffffff
fffffffe
fffffffc
fffffffe
fffffffa
00000002
ffffffff
fffffff8
00000002
00000001
00000001
fffffffd
00000000
fffffffb
fffffffa
fffffffe
00000001
ffffffff
fffffffe
ffffffff
fffffffc
fffffffd
00000000
fffffffe
00000000
fffffffb
fffffffd
00000002
00000003
00000001
00000000
00000000
ffffffff
fffffffe
00000000
00000003
fffffff8
fffffffe
00000001
fffffffd
00000001
ffffffff
ffffffff
00000000
fffffffc
fffffffe
00000003
00000001
00000007
ffffffff
fffffffe
fffffffe
00000003
00000000
fffffffe
00000001
fffffffb
00000001
fffffffe
ffffffff
fffffffe
00000002
00000000
fffffffa
fffffffe
fffffffd
fffffff6
00000001
00000000
ffffffff
00000001
00000003
00000008
00000000
fffffffd
ffffffff
00000001
00000000
fffffffe
00000001
00000003
00000002
fffffffe
fffffffd
fffffff8
fffffff3
00000001
fffffffd
00000000
fffffffc
00000003
00000001
fffffffc
00000001
00000000
ffffffff
00000000
00000000
fffffffe
fffffffe
fffffffe
ffffffff
00000005
00000001
fffffffc
fffffffe
00000002
fffffff8
00000001
fffffffc
00000006
00000001
00000000
00000001
00000001
fffffffc
00000001
00000001
fffffffe
ffffffff
fffffffc
ffffffff
fffffffd
fffffffd
00000000
00000001
fffffffa
00000004
00000001
00000001
fffffffc
00000001
00000000
00000000
00000000
00000001
fffffff7
00000005
fffffff5
00000001
fffffffe
fffffffd
00000000
fffffffe
fffffffd
fffffff9
fffffff8
00000001
fffffffe
00000000
fffffffd
00000001
fffffffc
00000001
00000000
fffffff9
00000001
fffffffd
fffffff8
fffffff8
fffffffd
00000000
fffffffe
ffffffff
fffffffe
00000001
fffffffd
ffffffff
fffffffd
00000000
fffffffa
00000000
00000000
fffffffd
00000000
fffffffe
fffffffc
ffffffff
00000000
00000001
00000001
ffffffff
ffffffff
00000001
fffffffc
fffffffe
fffffffc
fffffffb
00000000
00000001
00000000
fffffff8
fffffffb
00000003
ffffffff
fffffffd
fffffffa
00000002
fffffffc
fffffffb
00000000
00000001
00000001
fffffff9
00000000
fffffffe
fffffffe
00000006
00000002
00000000
00000002
fffffffd
00000001
fffffffd
00000002
fffffffe
ffffffff
00000003
ffffffff
ffffffff
fffffffe
ffffffff
fffffffe
00000004
00000000
fffffffa
fffffff1
ffffffff
fffffffc
fffffffb
00000000
00000002
00000000
00000001
ffffffff
ffffffff
00000001
00000000
ffffffff
fffffffd
00000002
00000000
ffffffff
00000002
00000001
00000000
00000002
fffffffe
ffffffff
fffffffd
fffffffe
ffffffff
00000001
00000001
00000003
ffffffff
00000002
00000003
fffffffb
00000003
fffffff8
fffffffb
00000000
ffffffff
fffffffc
fffffffa
00000001
fffffffc
00000002
00000000
fffffffa
00000000
00000002
fffffffd
00000002
ffffffff
00000004
00000001
fffffffd
00000000
00000001
00000001
00000002
00000002
fffffffd
00000000
00000000
fffffffd
00000000
ffffffff
00000002
ffffffff
00000001
fffffffb
00000000
00000002
00000005
00000002
00000002
00000001
00000000
fffffffe
ffffffff
00000002
00000004
00000000
fffffffa
00000001
00000001
00000001
00000000
00000001
00000000
fffffffe
00000006
fffffffe
fffffffd
00000001
fffffff8
00000000
fffffffd
00000001
00000001
fffffffb
00000002
ffffffff
00000007
fffffffe
00000000
00000000
00000000
00000003
00000002
00000001
00000000
fffffffd
ffffffff
fffffffc
ffffffff
ffffffff
00000002
fffffffe
fffffffc
00000000
00000002
00000002
fffffffd
00000000
00000002
00000000
fffffffd
fffffff9
00000001
00000001
00000002
fffffffd
fffffffe
fffffffd
fffffffd
00000001
fffffffd
00000005
ffffffff
00000000
00000001
fffffffe
ffffffff
00000000
ffffffff
00000000
00000001
00000002
ffffffff
00000004
00000000
ffffffff
00000004
00000001
ffffffff
00000000
fffffff9
00000002
00000005
00000005
ffffffff
00000000
00000002
fffffffc
fffffffe
00000000
00000001
fffffffe
fffffffc
fffffffc
00000003
00000002
00000003
fffffff5
0000000a
00000004
00000002
00000000
ffffffff
fffffffe
00000001
00000002
fffffffc
ffffffff
00000003
ffffffff
00000000
fffffffa
00000000
fffffffd
00000000
00000003
00000005
00000007
00000000
fffffffb
fffffffe
fffffffd
00000002
00000003
fffffffd
00000001
00000001
00000001
00000001
ffffffff
fffffffe
00000001
fffffffa
fffffff9
00000003
fffffffe
00000001
ffffffff
00000003
00000000
ffffffff
fffffffa
ffffffff
00000001
00000000
00000000
fffffffc
00000000
fffffffd
00000000
00000001
00000006
00000002
fffffffe
00000004
ffffffff
ffffffff
fffffff8
fffffff4
00000000
00000002
fffffffc
ffffffff
00000000
ffffffff
00000001
00000001
fffffffa
fffffffd
fffffffc
00000002
00000003
00000000
fffffffe
ffffffff
00000002
fffffffb
ffffffff
00000001
00000001
00000000
00000002
fffffffb
00000000
00000000
00000000
fffffffe
00000001
00000001
fffffffe
fffffffe
00000003
00000001
fffffffc
00000000
00000000
fffffffb
00000001
fffffffd
00000001
00000000
fffffffb
00000000
00000001
00000001
fffffffd
fffffffd
fffffffd
fffffff9
00000000
00000000
fffffff9
00000004
00000002
00000000
00000001
fffffffd
00000001
00000001
fffffff6
fffffffc
00000000
00000001
fffffff5
00000001
fffffffc
00000000
0000000b
00000001
00000001
fffffffd
ffffffff
fffffffa
fffffffd
ffffffff
fffffff8
00000000
fffffffb
00000001
fffffffe
00000004
00000001
00000000
00000000
fffffffe
fffffffe
fffffffb
00000000
fffffff9
ffffffff
00000001
ffffffff
fffffffe
00000003
fffffffd
fffffffe
00000000
00000002
fffffffa
00000000
fffffffb
00000000
00000000
fffffffb
00000001
ffffffff
00000000
00000000
fffffffa
00000001
00000005
00000000
00000000
00000000
fffffffe
fffffffc
00000004
fffffffd
00000002
ffffffff
fffffffe
fffffff7
00000000
00000000
fffffffd
00000004
fffffffc
00000001
00000003
00000000
00000000
00000007
ffffffff
00000002
fffffffc
fffffffe
fffffffe
00000006
00000002
00000001
00000000
00000002
00000002
fffffffd
00000004
00000003
00000000
00000001
00000000
00000001
00000001
fffffffe
fffffffc
fffffffe
fffffff5
00000000
fffffffb
00000002
ffffffff
00000009
ffffffff
00000006
00000001
00000000
fffffffe
00000000
00000000
00000002
fffffffe
00000001
fffffffa
fffffffe
fffffffe
ffffffff
fffffffc
00000002
00000002
00000000
fffffffd
fffffff9
00000002
00000002
fffffffc
00000003
ffffffff
fffffffb
fffffffe
00000000
fffffffa
00000001
fffffff9
fffffffc
00000000
fffffff7
00000002
00000000
00000001
00000001
fffffffb
00000000
00000000
00000000
00000000
00000001
fffffffa
fffffffc
ffffffff
00000004
00000001
fffffff7
fffffffa
00000004
fffffffe
00000003
ffffffff
00000000
fffffffc
fffffffd
fffffffd
00000001
fffffffe
00000001
fffffff9
00000000
00000000
00000003
ffffffff
fffffffc
fffffff8
ffffffff
ffffffff
00000001
00000001
fffffff8
fffffffa
00000000
00000000
ffffffff
fffffffd
00000001
fffffff9
00000000
00000001
fffffffb
00000004
fffffffe
00000000
fffffffe
00000008
00000001
fffffffe
fffffffd
00000000
ffffffff
00000003
fffffffe
00000000
00000001
fffffffb
00000003
fffffffe
00000001
00000000
00000001
fffffffd
fffffff9
00000000
00000001
fffffffd
fffffffe
ffffffff
00000000
fffffffd
00000000
ffffffff
00000000
00000002
fffffffd
fffffff7
ffffffff
fffffffd
fffffffa
ffffffff
00000002
ffffffff
00000001
00000000
00000002
fffffffc
00000001
fffffffa
00000005
00000003
00000001
fffffffe
00000002
ffffffff
00000001
ffffffff
fffffffe
ffffffff
fffffffd
fffffffc
00000001
00000002
fffffffe
00000000
ffffffff
ffffffff
00000002
fffffffc
00000000
fffffffe
fffffffe
00000001
fffffffb
fffffffc
00000000
fffffffc
00000002
00000000
00000000
fffffffb
00000000
00000001
fffffffa
00000002
00000001
00000003
fffffffa
fffffffa
00000000
ffffffff
fffffffd
fffffffb
fffffffe
fffffffa
00000000
ffffffff
fffffff5
ffffffff
fffffffd
ffffffff
00000001
00000000
fffffffd
00000000
fffffffd
fffffff9
00000003
ffffffff
00000000
00000006
00000001
00000001
fffffffe
fffffffc
00000002
00000005
fffffffc
00000001
00000001
00000001
00000001
00000001
ffffffff
fffffff7
ffffffff
00000000
fffffffc
fffffffa
00000000
00000000
fffffff7
00000002
00000000
00000003
fffffffb
fffffffc
fffffffc
00000000
00000002
ffffffff
00000000
00000001
00000002
fffffffd
00000000
00000001
00000001
00000004
fffffffc
00000000
00000001
00000000
fffffffb
00000002
fffffffd
fffffffb
00000001
00000000
ffffffff
ffffffff
fffffffe
00000001
fffffff9
00000000
fffffffe
00000000
00000000
fffffffe
00000003
ffffffff
00000001
00000005
ffffffff
fffffffc
fffffffe
fffffffe
ffffffff
fffffffe
00000002
00000000
ffffffff
00000000
fffffffe
00000001
ffffffff
00000004
00000000
ffffffff
00000002
fffffffc
fffffffe
00000001
fffffff9
fffffffc
00000000
fffffffe
fffffffe
fffffffd
fffffffd
00000000
00000004
00000002
ffffffff
ffffffff
fffffffe
fffffff5
fffffffa
fffffffd
00000002
00000001
00000002
00000001
fffffffb
ffffffff
fffffffe
fffffffe
ffffffff
00000000
fffffffd
00000002
fffffffd
00000000
00000004
0000000a
00000003
fffffffa
ffffffff
00000001
fffffffa
fffffffa
fffffffb
00000007
00000000
ffffffff
00000001
00000000
00000000
00000000
ffffffff
00000000
fffffffe
fffffff6
fffffffe
00000005
00000000
00000001
00000003
fffffffd
ffffffff
00000002
fffffffe
00000001
00000000
00000000
fffffffe
fffffffb
fffffff8
fffffff9
ffffffff
fffffffb
00000000
00000005
fffffffd
fffffffb
00000001
fffffffd
fffffff9
fffffff8
00000000
ffffffff
fffffff9
00000001
fffffffd
fffffffe
fffffffb
fffffff9
ffffffff
ffffffff
fffffffb
fffffff9
ffffffff
00000001
fffffffe
fffffffe
00000000
fffffffd
fffffffe
00000003
00000002
00000000
00000002
ffffffff
00000006
ffffffff
fffffffc
ffffffff
00000003
00000002
00000000
fffffffe
00000000
fffffffe
fffffffd
ffffffff
fffffffe
fffffffd
00000002
fffffffe
ffffffff
ffffffff
00000000
00000001
fffffffc
00000001
00000002
fffffffc
fffffffe
00000008
ffffffff
00000003
fffffffc
00000000
ffffffff
fffffffb
00000000
fffffffe
00000002
00000000
fffffffa
fffffffa
00000000
00000002
fffffff8
00000001
00000005
fffffff9
fffffff8
00000001
00000001
fffffffd
00000002
fffffffe
fffffffa
00000000
fffffffc
ffffffff
fffffffc
00000000
00000001
00000005
00000000
ffffffff
00000001
fffffffd
ffffffff
ffffffff
00000001
fffffffe
ffffffff
00000001
ffffffff
fffffffe
ffffffff
fffffffb
fffffffd
00000000
fffffffe
00000001
00000000
00000003
ffffffff
00000001
fffffffb
00000000
00000001
00000004
00000000
fffffffd
fffffffd
fffffffe
ffffffff
00000002
00000000
00000001
fffffffc
fffffffd
fffffffe
fffffffe
00000001
00000000
00000003
00000000
fffffffb
fffffffc
00000008
fffffffb
00000002
00000001
00000002
00000000
fffffffd
00000004
00000000
fffffff9
00000004
fffffffb
fffffffb
00000001
fffffffd
ffffffff
00000000
00000002
00000005
fffffffa
00000002
00000005
00000000
00000002
00000001
fffffffe
fffffffe
fffffffd
fffffff8
0000000b
00000001
ffffffff
00000000
ffffffff
00000000
ffffffff
fffffffe
ffffffff
00000000
00000000
fffffffe
00000001
fffffff4
ffffffff
ffffffff
00000004
00000000
ffffffff
fffffffd
00000005
fffffffc
fffffffe
00000000
fffffffb
fffffffc
ffffffff
00000000
00000002
00000001
00000000
fffffffa
fffffffd
00000001
fffffffc
fffffffc
fffffff7
fffffffc
fffffffd
fffffffc
fffffffe
fffffffe
fffffffe
00000007
00000004
fffffffe
fffffffe
00000001
fffffffd
00000001
fffffffa
fffffffb
fffffffe
fffffff8
00000000
ffffffff
00000004
fffffffe
fffffffd
ffffffff
00000001
00000001
fffffffb
00000000
fffffffe
ffffffff
00000000
00000000
00000002
00000002
00000001
fffffffc
00000001
fffffffa
fffffff8
fffffffe
00000000
fffffffe
fffffffe
fffffffc
ffffffff
ffffffff
fffffffc
00000001
fffffffd
00000002
fffffffb
00000000
00000000
fffffffa
00000001
ffffffff
ffffffff
fffffffa
00000002
00000001
00000000
00000002
ffffffff
fffffffe
00000000
fffffff9
ffffffff
00000001
00000002
fffffff7
fffffffd
00000000
00000000
00000000
ffffffff
00000001
00000004
ffffffff
ffffffff
fffffffd
fffffffe
00000000
fffffffa
00000001
fffffffe
fffffff9
00000000
00000004
fffffff6
00000000
00000007
fffffffc
ffffffff
00000000
00000000
00000001
fffffffb
ffffffff
fffffffa
ffffffff
fffffffd
ffffffff
00000003
00000002
00000000
00000003
ffffffff
00000002
00000000
00000000
ffffffff
fffffff9
fffffffd
00000001
00000002
fffffffc
ffffffff
fffffffe
00000000
00000000
fffffff8
00000001
fffffffd
00000001
fffffffe
00000000
00000000
fffffffc
00000009
00000003
fffffffd
fffffffe
fffffff9
00000001
00000000
fffffffc
fffffffe
00000000
00000004
fffffff9
fffffffb
00000000
00000002
fffffffa
fffffffc
fffffffd
fffffffb
00000000
fffffffd
fffffff0
00000000
00000003
00000000
fffffffd
fffffffd
fffffffb
00000000
fffffffc
fffffffb
00000001
00000000
00000001
00000000
00000001
00000002
00000000
fffffffa
00000001
00000002
00000000
00000000
00000000
00000000
00000001
00000002
fffffffd
fffffffd
fffffffe
ffffffff
ffffffff
00000004
ffffffff
fffffffb
fffffff9
00000001
fffffffc
00000001
00000000
fffffffe
ffffffff
00000001
00000000
fffffffe
00000002
00000002
00000001
ffffffff
00000001
ffffffff
00000001
00000001
fffffffb
ffffffff
00000001
00000002
fffffffd
00000000
ffffffff
fffffffa
00000000
fffffffe
00000000
fffffffe
fffffffb
00000001
fffffffa
00000000
ffffffff
00000000
00000001
ffffffff
00000001
fffffffe
00000000
fffffff9
00000000
00000004
00000000
00000000
ffffffff
00000000
00000001
00000000
00000001
ffffffff
fffffffc
00000001
ffffffff
fffffffa
00000001
00000000
00000001
00000003
fffffffd
00000000
00000001
fffffffd
00000001
fffffffc
fffffffd
fffffffe
fffffffe
00000003
00000001
00000006
00000001
00000002
ffffffff
fffffff8
00000000
fffffffc
00000002
00000001
00000000
ffffffff
fffffffb
00000000
fffffffd
00000000
00000000
00000003
00000007
ffffffff
fffffffb
00000000
00000003
00000005
00000002
fffffffd
fffffffc
ffffffff
fffffffb
fffffffe
fffffffe
00000002
00000001
fffffffd
00000002
ffffffff
00000001
00000001
ffffffff
00000000
ffffffff
fffffff8
fffffffe
fffffffd
fffffffe
00000000
ffffffff
fffffffb
00000000
ffffffff
fffffff8
00000000
00000000
fffffffc
00000001
00000001
fffffff9
fffffffe
00000000
fffffff8
ffffffff
00000002
00000001
fffffffd
fffffffd
ffffffff
fffffff8
00000007
00000001
00000001
fffffffa
ffffffff
00000000
fffffffd
fffffffc
fffffffb
fffffffc
00000000
fffffffb
fffffffe
fffffffa
00000002
00000001
fffffffd
00000001
00000000
fffffffa
00000001
00000001
00000000
00000000
00000000
00000005
00000001
fffffffa
fffffffd
fffffffe
00000001
ffffffff
ffffffff
00000001
ffffffff
00000005
00000001
00000000
ffffffff
fffffffd
00000004
00000001
ffffffff
fffffffe
00000000
00000000
00000002
00000000
ffffffff
fffffffd
fffffffe
fffffffb
00000000
fffffffa
00000001
fffffffd
00000001
ffffffff
fffffffa
00000000
ffffffff
fffffff8
fffffffd
00000001
00000000
fffffff9
ffffffff
00000001
fffffff5
fffffffa
00000001
00000001
fffffffe
ffffffff
fffffffc
fffffffa
00000000
fffffffd
00000000
fffffffd
fffffffc
00000003
00000001
00000001
00000000
ffffffff
fffffffe
ffffffff
00000000
00000000
00000001
ffffffff
00000001
00000001
0000000a
00000002
