memory_initialization_radix = 16;
memory_initialization_vector=
000012eaffffe3270000079fffffe517000003930000026fffffa0250000124e,
00000a6900000853ffffff7a0000094d000004db000005d6000005fe00000058,
000000000002101b0000000000fc040d00000000000413160000000000f30b07,
0000000000f1dece0000000000ff04000000000000f8e3e5000000000000edf1,
0000000000b5313600000000001edcf400000000003208e700000000000204fb,
0000000000e03112000000000017edea00000000003817ff00000000000fcb0c,
0000000000fb07040000000000fb020100000000000d10eb0000000000dd011d,
0000000000f505020000000000f206050000000000f604050000000000fe0501,
0000000000fffb050000000000f902000000000000fb05030000000000fd0301,
0000000000fbf2130000000000fcf31000000000000001000000000000fefc06,
0000000000fefa080000000000fdf50d0000000000fef60a0000000000fdf90a,
00000000000a06100000000000f1ded40000000000c7b3b00000000000e5ccd0,
0000000000274843000000000014242d00000000000303050000000000081201,
00000000001f25b60000000000f5f10f0000000000b6cb7f0000000000131b25,
0000000000d8fe2b00000000003b2ba7000000000009fcec0000000000b2f259,
00000000002c59600000000000141b2d00000000004c1e9d00000000001506ed,
0000000000f8ddda00000000000822150000000000f9fefd000000000012060e,
00000000000409f30000000000f4d6d20000000000dbd1c40000000000ece1da,
0000000000d7d7cb0000000000fafff700000000000c0e0d0000000000f2e4da,
0000000000f1f6fe00000000000809070000000000fdfa0b00000000000101fd,
00000000001b0ee80000000000fd23340000000000fbf704000000000006f6de,
0000000000eec5b80000000000323e1b00000000000234520000000000d7abb7,
0000000000122027000000000001fbf70000000000ebe0da0000000000ea0123,
0000000000e3ddd600000000001f343a000000000004fefd0000000000ddccc8,
000000000024393c0000000000151f2600000000000f17250000000000111010,
0000000000050201000000000003fffe0000000000fffbfd0000000000101c25,
00000000001523210000000000ebe1d90000000000dacbc70000000000eae2dd,
0000000000fdf5f400000000002838380000000000e5dcde0000000000060202,
0000000000e7e8e5000000000002fefb0000000000161a240000000000dcd1d3,
00000000000706f000000000000700f000000000000f0bf300000000000809f3,
000000000006fdec00000000000605fa00000000000c02ef00000000000a04eb,
00000000000f130c000000000018201800000000000f100d00000000000c04fa,
0000000000fe04070000000000d3bfc50000000000d6bfc20000000000f7eeee,
0000000000d3c3bd0000000000e2dcd200000000001f313600000000000a1c1e,
00000000000102ff00000000000401ff00000000000c0d080000000000e9e6df,
00000000000bf900000000000012172200000000002b39420000000000131a27,
000000000013f4f800000000000df5fa000000000001f10200000000000df805,
00000000000cfafb00000000000ef3f6000000000009f9ff00000000000ffa00;
