memory_initialization_radix = 16;
memory_initialization_vector=
fffffc9affffffd1fffff830fffffcc1fffffe63fffffef2ffffff94fffffdec,
000001adfffffbf6fffffa57fffffddcfffff9f1fffffe29fffffec2fffffe30,
fffffb07fffffbe3000000a4fffffeefffffffdefffffd18ffffff2cfffffcac,
fffffe17fffffbe8fffffd98fffffeeafffffc24fffffb82fffffc63fffffdc6,
fffff83efffffb06fffffbc6fffff9fdfffff41bfffffce6fffff8d3fffff726,
fffffabffffffb77fffffa4ffffffe03fffff99f00000037fffffd4cfffffa94,
fffff92afffffa88fffffeb1fffffba8fffff9b8fffffed7fffffd9efffffd7d,
fffffdf4fffffec3fffffaacfffffb94fffff9e4000000ccfffffaa6fffffe3e,
fffff7e8fffffe31fffffd3efffffccefffffc44fffffc9bfffffdbbfffff5d3,
fffffbfafffffc6dfffffaff00000040fffffc3bfffffc9d0000017efffffdc6,
ffffff51fffff938fffffb13ffffffedfffffd36fffffa81fffffaea0000008b,
fffffa26fffff8d4fffffdc60000001dfffffcebfffffc79fffffb14fffffd98,
fffffdf1fffffbcafffff90efffff9aa0000002afffffab2fffffc1bfffffcca,
fffffa0100000387fffffc37fffffe05fffffc7cfffffe8000000031fffffbf3,
fffffbed00000068fffffcaa00000146fffffd3e000000cffffffeb5fffffff7,
fffffc83fffffe5dfffff9ddffffff64fffffe82fffffa70fffffbdcffffff70,
fffffd0cfffffe1ffffffd2dfffffc0efffffd71fffffd89fffffc4cfffffde0,
fffffc16fffffbfafffffe4dfffffa00fffffc37fffffe24ffffff50fffffc89,
fffffb2cfffffe18fffffcbefffffe25fffff4e5fffffb7900000026fffffe6a,
ffffff3bfffffd14fffff952fffffc33fffffd30fffffc76fffffc2afffffa20,
00000084fffffe27fffffb30fffffbf7fffffbd50000001efffffd3bfffffb84,
fffffbb2fffff6c1fffffc1efffffe240000009bfffffc5a0000008cfffff86c,
fffff8fefffffef5fffffb17fffff816fffffb18000002bffffffddbffffffa5,
fffffb0ffffff761fffffe32fffffedafffffa1cfffffafafffffd44fffffa40,
fffffa9ffffff82d0000006afffffed5fffff8befffffe76fffff89cfffffea3,
fffffafffffffd57fffffba6fffff647fffffd69fffffaf6fffffb3afffff7dd,
fffffbc4fffffed4fffffb14fffffec7fffffdabfffffce5fffffd78fffffae0,
fffffbc0fffffe3afffffc8dfffffb57fffffca2fffffd12fffffa46fffffd29,
fffff945fffffde8fffffb7cfffffbbafffffb35fffff6f1fffffdd8000001e4,
fffffc3efffffdb2fffffe97fffffe83fffff43afffff9eefffffd17ffffff78,
fffffbbf0000023ffffff8ad0000015ffffffda5fffffac1fffffd5cfffff754,
fffff705fffffd56fffff88bfffffca3fffffe0dfffffe300000002fffffff84,
fffff955fffffd09fffffd0bfffffc76fffffce2fffffc24fffffc3efffffb6e,
fffffbabfffffa69fffffc54fffffdd2fffff9dafffffccefffffe86fffffc71,
fffffbeefffffd40fffffe6bfffffde8fffffc62fffffdf4fffffdb4fffffbd1,
fffffe4bfffffe23fffffb3affffff92fffffa01ffffff02fffffb510000000d,
fffff88ffffffeaafffff9defffff97bfffffa45fffffa9bfffffc09fffffd0b,
fffffb19ffffff99fffffe46fffffde9fffffb70fffff890000000f5fffff9fd,
fffffb6cfffffab8fffffbfcfffffc0afffffae1fffff9a6fffffb43ffffffd2,
fffffae3fffffec4fffffd7cfffffeb5fffffb7dfffffd05fffffe18fffffd10,
fffff9f6fffffdaa0000004dfffffe680000003ffffffd4afffffdd3fffffaa5,
fffffe89fffffc50fffffd87fffffc9cfffffa61fffff65800000098fffffd2f,
fffffec0fffffbbe00000080000000e9fffffaeafffffaa9fffff789fffffd46,
fffff87dfffffce4fffffea9ffffff37fffff814fffffe7ffffffc93fffffbf9,
fffffbcbfffffff5fffffd22fffffee2fffffc5bfffffe3a000001a7fffffa9f,
fffffdb1fffff9b9fffffbe0fffffe36fffffc92fffffd76fffff6b1fffff9ca,
fffffd35fffffca9fffff6dffffffca3fffffe39fffff99ffffffa52fffffe6e,
fffffeb5fffff991fffffa6efffffd15fffffb82fffffefffffffedbfffffddf,
fffffc12fffffc03fffffe70fffffe0f00000319fffffe9ffffffb8afffffb2e,
fffffe13fffffc02fffffe2c000000a9fffffee2ffffff16fffffd87fffffe42,
fffffcf2fffff9f3fffffc11fffffd7500000009fffffd5effffff23ffffff75,
fffffe78fffffc23fffff99afffffd22fffffae7fffff835fffffae4fffffd5c,
0000008efffffeccfffffd70ffffef8efffffe59fffff944fffffd58fffffca9,
fffffe8cfffffa9cfffff6d3fffff8bdfffffcb3fffffb24fffff885fffffe10,
fffffd2efffff5f3fffff557fffffd37000000a1fffffc4f00000236fffffbe6,
fffffb08fffffc48fffff8baffffff24fffff929fffffac900000060fffffe1b,
fffffb4afffffef0fffffa13fffff6b1fffffaed0000041afffffefefffffd89,
fffffee0fffffbb6fffffc9efffffa90fffffefcfffff4f8fffffe43fffffabd,
fffffcebfffff9f2fffff428fffffe0bfffffc25fffffd94fffffc12fffffa40,
fffffc77fffffcbafffffc6dfffffacefffff5fefffffebcfffffdc8fffffba4,
000001d0fffff91dfffffb12ffffff6bfffffb09fffffdf5fffffdc7fffffc87,
fffffbb2fffffe8000000175fffffc05ffffffc2fffffa6bfffffd01fffffd9c,
fffffbaafffffb02fffffd8bfffffe07fffffe54fffffcf3fffffdc3fffffd39,
fffffc51fffffc37fffff9b5fffffa53ffffff6afffffd76fffffbedfffff78e,
fef90100fd0701fe02010200ff0400010309ff0103fc090100ff02fe020903fe,
05f8fe0302fe0bfb00f8fd00fc0c0302fe09fc05fef603fc020a0106f8ef06fb,
fe0301ff00fcfffeff04ffff01f8fb00ff02feff01fbfafb01f9fffafd0801f8,
0afdfb020509f8fcfe010000070202fc0104ff0104fd05fd00fffd0105fefcfb,
ff00fd03000001fb03fdfefefe0302fd06fdfcfdff0c03f606fafcfc0206fcf6,
03fd020204ff04fdfefa010a01fffdf905fb0103030204fb02fcfb01000003ff,
01fffbfafdeffd03fffd03fc04010000fdfb0201040002ff01fb03ff04ff0101,
04ff01f5fe0605ff01fbfbfafef600fe0200fbf9fdf9fffe02f6fffafff6f7ff,
00f905ff01fdfb0500fb000101f90200fdfcfffb01f2fefc00fbfff800000003,
03fdfcfc06f7ffff0604fef4fcfa0003030000f8faf6010305fffcf903f8fdfd,
fffe03fdf6f7fff9fd0203fdfcfaff000500fd0ef6f6fefd0401fffefcfbf7f5,
fb0402faf9f9fdf9ff08fcfaebfc05fb000800f7f8fcf90602f80603fefc07f7,
020b09f804fbff05fa0009fcfeff03ff03faf8f7f6f9f901000d00fd0401fe09,
fe00fe01fff9fffa02ff00fe01f801fafd0506eff7fe07fc020808f2fbed0cf8,
0501fe0407f801fc0301fbff02fd01fc02fefd0100fe00000402000905f20012,
04f8f8080003ff0001fefd0006f9ff0603fffd00fefbfb0101fffe03fffefd00,
fdfe01ff03f907fefcfdfe0402fdfc07fffe06fefbfd01050400020500fc0301,
fb010001fffefffcfd00ff0200fc05fffeff020200fe01fe00fffffb0006fa04,
fc010001fdff00fbfd06fcfffc07f803f6fffa01ff07f9040200fa05fffbfe01,
05fb07fefbfe00f905fdfdfafff901fefe060cfffc07ff01ecfe11fdfa0b01fd,
0302fdfe050200ff020001fe0200ffff0001faff03fdfb0407fd03ff020304fe,
fdf9fc00fd0203fe00000000fefe0303030704fffe01000204ff00ff00ff0208,
fffdff03fffeffff0003fe0100fcfd0100fdfaff01000104fffbfcfffcfe0302,
02fffd0302fcfaff01fa000100fbfcfd0000fe0302fbf900ffff0002fefffbff,
fafc0df800ffff02fefa0104fdff00fffffcff05fcfd00feff00fe05fbfc01fe,
0004010700fc01fc00fd05000001fe0004020cfcfffcfd0afcfa09f50000fd02,
fdfd040103f9fafefa02fe010101fa04fd0104fefe03f8040207050500f80000,
fc0206f4080805fdfe01fbfffff5fbfffdfc0afd01f5fdfdfe0307fffd080bf5,
07fffcf90a06fc0f02ff02f70801fe09fd02fbf912fef30902fe02f111f5fc0f,
04fcf7f9fc0103fb04fcf1f7fc0405fa01f5f6fafc090504000504030701f706,
01030303fafe10fc08fffaf9fdfc03030606e0e7f5f2fbf1fe00f9fbfc0102fd,
ff0309fdfcfdfef2fefc0705fbfa02f803fdfb04fbf909040612fafcf4ea0ff8,
030303fd00fb00010103f9fdfd04fdfcfefffcfdfc0000fd0108050202f6f8fe,
f6ff00fcfb0cf7f5fe04fefd02fc0300ff01fc01fcff01fefe02fcfffefe03ff,
01030203fa02fa0400fe03fff70cf7f9fefa050005ff00ff01ff0003fe08fc02,
01fd000102fb000500fb0200fe03fbfbfb0309fdfb0ffaf4fe030203fff7fd05,
fefc06fdfaff020202ff04fb05fbfdfbfdfd04ff03fafcff00fd09ff090009fc,
fdfdfbfbfffc01fdfcfe0afafdfd010101fef5fe01f9fd00f4fbedf5fdf4fcf9,
fe0000ffff00fffd0102fefdfdfcfe00fefe00fcfcfd00fffefb01fd02ffff01,
03030101fe0000fdff0100fefe0003ff010200ff01fdfd010203ffff00fe0000,
f9ff04fd03fe00fdfeff06fd070201fefefc00ff0300fffd01020000020403fe,
04fb03ff03fa010005f901fa03f8ff0004fd04fe04fd0003ffff09fd020201ff,
0702f501f6eefff90100030101ff02ff03fd0300ff01020002ff04fffd0101ff,
020400fa00ff04fd0504feff00f108fc05fafb02f9f9fdf803f9fafcfcfb01f8,
0204fdfb02020a01fd02fbfefcfd010804fff9fd00f60a0007ff01fffefc09fe,
fff904ff0803fcfc020d08fffe0100f903090400fdfd00f70505060203fdfeff,
fd07f6fbfef80200fb0204fcfdfffd020007fcf5fafcfcfaf801fbf603f902f7,
06fc0004fd0802fd020bf408fff901f107fefb05f90203f0fb02f7fbf6f7ff05,
02fd010109ff050408fc08fffa0405fffe040909f2f4f8f8040105fd01fefcf2,
fefefe0100fbf2fafffd00ff0001f4fdfdf808fd0b0a02040300050c05fffd08,
000100fffffafe0100fe02ff06fefafc01ff02fe03fef9fd0404fc03fefbfc00,
f7fef6fdf808f9fb02fd02fd00fe01fffefe00ffff01fcff00fe00fe0101f9ff,
ffff0200fff90002fc05fefffa00f9f90106050406fd020702fafffefa00fdff,
0201020001020207fdfefc0305fd0100fcfcfb01ff00fcf80007050104ff0304,
f8fffd00ff05fc03050102fffa0400f7ff01fc01f60202fbfe040002fb08fbfe,
02f9fc05ff020b00fcfbf9000109ff0306ff020200fbfffe00ff0006fffb07ff,
fe000001fefe000407f70004fd02fe0105fdff00fd00fe040402fe0303040701,
ea01fc0104010200ff02ff020202030205fc0002ff01000001fc0000fe030002,
05fb01fdfa020000fffffe02ff02fe02f1010006080300ffdf03f80103030404,
fcff000201000204fd01fbfffffe04fffafefd0201ff030101fe00fff9020004,
030009f704fafbfafcff03fd0201fe05fbfe00fd0002ff08fbff00fd0400fc04,
05fd04ff0000fcfb020103feff00f9fa020007fe05faf9fefe0701fc05f9fdfa,
fd020106fb0003fe0300000001fcfeff0101ff01fafffdfe010204ff0500fcfd,
030cfc00000201fefa00f705fdfc02f8fe01ff0cfffc01f6fefe05fc060202fb,
f9fdfefef7f6f4f7fffffcfd0301fbfc07faf9fff2050303ff00fa05fa01fff8,
08fe0804fcfafd0a01ee0413faf7f20004f605fff8f6ee04fffc01f8f7effefb,
fc0504f404ff01fdfe09000307fd1202000303150afb21fcfd08030bfef911f3,
f400fafd06ff03f7fdfefeff060101fbfe0304fe09ff0200fe06f5f908082103,
01fc00ffffff02fdfbfbfe05ff0102fe00ff0102000004010b01fcf9fc0304f7,
0404f8ff06fa0204ff00fcfdfefefffc01fdfd0000fe00fbfffeff0100fb01fd,
ff000205fc0100030409fd0303fefdfefc0300ff040104fcfc03fffeff0303ff,
03020300040100fdfe05fe020103fe01ff04feff05fffbfe02ff020101010402,
fa0000060e00ff0501fbfe010401fbff00fafefa0300f702ff0102000af9faff,
fa00fffc0600fa01fdfefb000503fe03fef9fdfd0303020302fafcff0103fa04,
ff0202000202fd000002f9020000f7ff0302fd05ff05f6fdf8fc02fa0303fb05,
f9fff4000102f702feff00040203fc0301fff8020104fe0500fff705ff00fe02,
fd00fcfffefe0206fdfcfd01fb000503fe00fffbff01fdfffa00fefefe03f903,
0301fcfa010001fe0600f901040105fd03fffa06000005fafe0101fcff0204ff,
fd01030803ffff020200fdfdfffeff000000fcfe00f9020000fffdfd01fc03ff,
f804fc0605fcfb02f905070702fef9080103fef800fe0405fa02fc02feff0201,
fefe000401fe04020104ff0505fbff0300030600fffc0004fb06fd0201fdfe04,
0308fcfcfc020800fe000505ff03fefcfefa02fafb03fb04010a00fdff040300,
06f4fff8fe0308f70507fff8fafe0cfb0300ff050a0606f503fc02f9000702f9,
07f401fefd0efefa06f5f8fbf008fb0003f8f7fef50bffff03f8fefe0405fef7,
fbfdfbf9f70904fbfc0400f1fa0803ff010cffffe809fe010309fffef8110903,
ff0300fbfefe00fe0303fefe00ff01fdf6fb02f8020101fcf6040404e800fcf2,
03fffc0005020201ffff06fe010401fd010004fdff0002ff00fef90902020604,
fa01fc05fa06f9fa0101fe01050201fefeff0102020103fc00ff010200ff02fd,
02fefdfe03fcfd01fd05fb03fdfe0001fdf800fefe00fdfefbfcfd04ff03fe00,
02f5020501fefc0006fb0302fefc010105010300fcfb030101f7ff030302f502,
0803fa020204ffff000102fd0402fcfb0e0405fd0303fa00080304fa0104fefc,
04f80200fd0001060001fd00fc00040305fbfb06040500fb1c00fdfffe0102fc,
0104fd00fffe03000000f501fe020300fefff8feff0103fffefd00fcfb0103ff,
0100fbfe02fb02000003fd00fd0000fd0002f802fc0001fd00fff600ff0205fe,
fdff0104fefe01fcfd02ff0400ff02fb0002fefc010003010104fefdfffb00fe,
fefefcfd030300fbfdfafafe050201fbfcfdfd000600fffcff00fdff000001fd,
03fcff01f504fc08fe0102fbff00fd01feff03feff00fc02ff0100fcfffffc02,
03fe0102fe01fbfa03ff03faf700fc00ff010200f902fd0400fbfa06fb0803ff,
fe0300030203fcfefdff05030203fcffff03030400fef8fffffc0509fc00fd03,
fc0aff0cfa0200f9010409030600fcfe02060a07020403fcfe010206fb0603f8,
fcf6f800f3f8fd10f800fa07f5f900030103fcf5fff60416fe08f70003f8031d,
fffe02f6fafe0201fa0109fdf6f60202fc0503fffafe01fff9fcfdf7f7f9f80c,
00fafb00fd0703080404fb0101f60013050100fef6e1f92dfe060200fbf50112,
f9050206fc00ff02fefeff0500fb0000fa0702fc010d090402fcfdfbf90af92b,
00ff020600fd0105fefb0306fe00ff03fffcfffe05fffd040002040500fd0403,
f5f9fe03fcf8fa02ff00000201fdff040102030401fcfe0200ffff0100fdfd03,
0200ff03ff010306f808020500f7ff0002fe05ffffff04010003fffcf900fd04,
02f802000203030002020103000503feff05040afefd0202fffe04fd03010502,
040602000203fdfe04fd060601fc00fb02f704fdfdff05fc000404fe0500fefe,
03fc00040800fd000505fb0305020002fe03070404fcfbfa01fa070204fcfcfd,
010201feff0102fd030101fffb0202fefe030300fe00000003fdfd0309fff8ff,
02f902030707faff02030402fc0002fd060607fdfc020500050104fefb01ff00,
fef902fef90303fe02fbfc00fd05fe01020002070204fdff040502010905fe08,
fff50301fe0505fdfbf604fbfb05fdfcfdfb06fffd03fbfe05f300fefc0506fc,
f7fa05f9f802fd03fefdff010203ff03fefe00fdfefdff01fefffd01fe00fb03,
ff0407fcfef404f9f9fd05fbfbfc0102f9fe05fcf600ff04f7f603fbfdfcfe04,
05000205fdff0b0102030602fd0706fcfb000402ff030302000602fbf9ff0005,
fd09f8fffafdfffefff6fe03fd00fd02ff00fafc00010304fe00f40400fdfdff,
00fbfb05fb020605fb07fc01f9fc03faf8ed07fcf6020b0afa0205f7f804fd09,
f9f5f9fb05fdfd02f3f8fe0605fdfefafd05fcfffffa04f80001fa00fb05fffe,
fc0007fb02f6fe07f7fafff903f90e05f7f0fae4f6e914fa0005fcf102f80903,
0bfefdf9f8fafbf8090200f7fcfbfffb0005ff0704f8ff03f6fd04f8fcecfd01,
030700fbfd0100fff80002fffdfffefbff000300fcff01fe09fdfef3fefe05fe,
f402020804f902fa010303fcfd000201fc010500fe00000003fe0301fe0200fe,
04fcfe0304feff01f9f1060505f805fbfe0802fffc030001fd0aff0503fffeff,
fb020203fcfc0202fdfe010204ff02fdf6fb080408fc03fb02fffefdf603fefd,
04fcfd03fdfc010101f600fefc020805fef90704fb03060302fefd0101070403,
ff0008fef900faf803fe02fffffffcf804f902fff5fc0203fef90b02f4fa03fb,
00fefbfe02020301fffe02fcff0206ff03010003fe0302fe06fc0406fdfdf6f9,
fb0003fd00faf30200fffb000302fffd00ff00fffffd03fe02feff01fd0203fd,
00fd020100fb0100ff0003f903fffeff010000ff03fcfb08fffbfe0505fdf604,
00fdfd00ff0002ff01fc04fcf90203fc01fcfdfbfc02fffc0002000002fe0101,
fc0100f3fb0508f8fd0005fbff010200fe0002fcff03fefffefd01f8fe01fefd,
fe0404f8fdfb07fbf9040bf7fb0102fbfffbfefc020004fbfb00fcfafefd08fb,
ff0204fbfffe00fefefefffbfdfd00f5feff0200fd0101fb01020bfdfb0103fe,
08fdfd07f9fefc02fc020107fe0afdfd05ff0a070506fc030704fd0106fb0300,
0af8070501fe030702f9fc03ff02000df9f80bfdfd02ebf80efb100902fce802,
010404fef90802fdfefc0bf00500eff504fe0001fc0e00fafef70600f7fdff05,
fcfc080cfcfa00ec00f6fc02feff04fbfdf307000301fbe801fb0304fd0f08f3,
040103fe00fa05fb0500ff0101fa01fe04fd020105f503f200f9020d08f504f0,
00fc070101ff09ffff060402ff0005ff0303fffcfdff020001f705feffff0200,
00f903ebf6fdf70600fc030303ff04fffffe040201fe00ff04000202fdff00ff,
fafb02fefcff01fefef902f6f900fc0701fcff060603fc04fefa05fef9fefa00,
ff000201fefefcfcfdfbf906fdfe02fcfefefd03fcfe0202fd0100030202fbff,
0101fff8ff09fe000000fdf8fb05fdfc00fffcfbfc01fcf8fe0006faff040104,
fcfe00ff01050401fb00fff602040301fcfe02fbfcfffcfe000000fefb00fefc,
010201fcfd020002fc0600fc03fff8fffb0200000002fb01fcff010202030201,
fdfdfcfe0301fb0dff00fffe00000000ff03fefd0502ff02fe00fdfb04ff0002,
ff01fe010200fefe060001fffe0001010000fdfff001fe06fffffffdf5fffc0a,
fc01fd02fc02fe00fd00fb05fbfffffd0002fd03fdfcfe030003ff00030002ff,
0608fc0700fd03f8fffb00feff02fe04fffc00020001000001fc01fcfe00fe01,
050003fe02f903fe090205f704fafdfa08050107fff8fafd0506f10301fc08fc,
06fb02fa01fa02ff01ff01f7020103fe020101fafd0002fe08ff01fffdf4fe03,
fbfffcf70500f8040a0701fe0503f9040fff00fcfafffb02070500fafb00fffe,
01fffffdfafafc01fb01fcfe0bfbfcfa01f7fbfef8f9f50505fa01fefdfbf906,
fdfefdfafdf9fdf5fbfc0400f9f105fafc01fb03faf8f3fbf900fdfb01fff9ff,
000203f507fa02fffdf804f3f9fc04fb060a03f3fbf00fe9000100f703fff6f8,
fdfffeff0602fdfffe00f8fd02ff0000050204f3fafcfd0701fefcf100fb00f0,
fffffc030600fdfe04fffd02fcfffe0102fefd00fe010003ff02fc0309fefefb,
f7f2fdf7fa05f706fcfdfe0302fe00ff02feff0703fefc0000ff0003fffb0000,
fe0102fa00fe0105fcf601f404020306fd05fe03fc000000fc01ff01fcfffffe,
0103fe05fe01fe0102fe02ff01ff010102f604f903ff0002fc0600ff00fe0002,
fffdfa030104fcfc00fff9030203fffffffefd00010404fffdfe01030003fd00,
fefff703040001fdfe01fd03010306fffcfafbf904fafdfffffff1fd0bfa01fe,
01030200ff00fefdfe0402020202ff00fd07ff0100fefcfbfe02fc00fffbff00,
0005fefbfbf9fdfbfd030102ffff01fdf9fe03fe0001fefefa010302fdfdfffd,
fef9fdfe01fdff040504fbff04fe05fd0005fbfdfdfefffefe010101fcfb02fb,
000309010000010005030401fbfefe00040ffb02feff00ff0204040005010700,
01fbf70ff402fd0303fd0102ff05fe0301fc000403000100010300010101fffd,
fbfeff03fb06f9fe00f5ff07fa05f8fb02f4080ef704ff01fefc0506f706fefc,
01000108f904fb02fcfffe03fd02f80101ff0a06fc03f90102fc0405f602fe02,
fdfdfa030407010301fb020000ff00f80201f604fb03fafc0103fa01fe0dfefe,
03fb0000fcfe03fdfdfc03fd0401000502fdfffdf6f6fbfcff03f5fdfbf5fa04,
010400fa06020b0502fff8f8f60800110200fdf6fe0aff010100fb04fcfffc05,
fbf0fcff020ef9f7fcffff07f601fbfd0001f70be603e706fffbf601ec0bf4fb,
fe0100fe00fcfe080202fa00fe02ff0304fffdfb02fd00f715edfd0dfd00fd02,
fe0001ffff07010500fbfc0003ffffff00fffe0101000102fe0909fef8090504,
fb180706fd00f503fefcfe03ff0405040000040100000100fe02ffff00ff0100,
02fdfffdfffff8fc010a0002fe01f509fefff6f8fdfefcfbfd09f8fffd03f9fd,
00fd0601030201fe04fa00ff0200f90308070002fa03fb0601fffffa01fc0200,
031501fb0300ff0500f8fefc0503000405ffffff0304fc000105fffe01040004,
ff0703fffcfc03040106fffdfafffe0302f0fffe02fefc00021f01fffc00fbfc,
ffffff000101fd060002fe03fc01fcff01ff0004fe05fe0101f7fd01fbff0403,
01fe0a03fcfe07f7fc010001ff01060102fffd03feff0501fc050600fd020501,
fc02fcfe00070bfefe030103fb0209fc02f8ff03f7ff02fb01fb0302f9fd10f3,
fefeff00fe040101fd02fffefd080702fd030402fd0402fffd00fd0102000afb,
faf7faf505f5ee0400fd000001fe010301feff01fcfe040002fefcfffcfe0100,
fbfffd0003fa0708f800fefa01f9f402f60300f7fdf9f803fd01fefefef8f80d,
fd00ff0001fbff01fe0201fffefbff09fffd06fe07faf703f802fcf4fdfc0001,
010403fefffafb11f90303fd0bfc03f1fefd00fd0bfe00f0020200fb07faff08,
fa00fcfcf5f9fff9fc0104ff05fd010bf50800fa01f3fdfdf6f9f7f9edf2f5f9,
000202fc0103f204f4fe00f91101ee02f9fc06ff0cfdf600fefc04f6fdfc06fa,
01f5f703fd0300ff0006fc0202fefbf8f602060bf8f2060dfbff0a0204000001,
05fe02fbf6fe08fd02ff04f9fa0208fe0201070501ff00f5fe000106fef60200,
fa03ff00f7fefbfe0202fffef7fb01fd010203fefdfe05fdf70dfcf8040405fa,
f5030bf90402fb1a0003fefffd01fcff000000fefb0000000403fffdfdfe04fb,
ff090cfc01000a03fbff06f4ff04f60806fc00020500f7f2fb0504ff03000602,
08fc03fbff0302ff02fc02fdfeff01ff07f901000102f3fc090000fd00fc01f9,
fc04fdfbfd020001fd040300fd00f900fe0402fefdfefc05fa0104fe00faf700,
fe04f7fe05fa01fe0302fdfbfe010100ff0601fcfa0000fe0208ee00fcfe0302,
0104fcf9fd00060108fb06f0000606fc02fefef2000202f9ff0202fefb06fef8,
f40301fcfcfaf8fefe03ffffff0102fe04010bfb010505feff04fefa01030000,
00030101fb00fa010202fd03fdfff6050003fffdfefb0108fcfff4fafbf200fc,
02fc0102040002fffbfffdfbfefdfcfefcfffefefa04f700ff0004010503fdfd,
fe04f7f9f7f50a00010005010103fe03fd0000000002fb00ffff0301ff00f9ff,
040b0501fffb04f9fe020005faf914040601fafafffb0402fb0600f6fefd00fe,
fefbfa0200050700fffffefefc0704ff02f6f703fcfb050503030002fefc0303,
f7f7fe00fe01f808f9fbfe010df5000200fdfb0203f7fafd03fc060303fbfe0d,
0003fe01020bf700f8000300fb00f50bf80602f909fa00f90e06eb0100f8eef0,
f901fc0107fd0101f30003ee0d0305fff8fdfafdfc06fd05fa01090207fe07f8,
f5f9010e04fefb060b02fc051e04fc08ef04f3f51004f9fbebfef70601fff900,
0100f900faf9fefc02fefe00fcf9050109fcfd0f0506ff0dfbf7fa0c0a04fe0e,
fafc0500fdfdfcfdfbfffcff0003fefffffe01fefefe0202fcfe0c00000106fa,
fdfcf7fd02100004faff0101fffffdfbfd02fcfc0304fdf902fefffd0001fffd,
02fffcfafcfc00fa01f7fcfb010b00ff02fffffbfefd00fe0402f8fffe0207ff,
02fafffafcfe000000fff6ff00f701fa0200faff00050500fffb01fcfdf901f9,
fd02f10201fefffcff0007fcfbfb07f804fe000403f703fa0403fa0101fe01f6,
fc0609fcff0004fd01fff3fafdfd010301fd54fbfbff03f6ff0322fcfefe04f1,
01020100ffffff02ff0000fe02fffc0501fffe000700fd00fe000800f90107fa,
fd02fef9f30900f80402fe000103fd0102fe01ff02fb040401fffc030a00fc03,
05fe0201010001fb010202020200fefefe02fcfdfb05fefdfa00ff0302060301,
01fd04fc010502ff01fd04fe01000000fffcfdfd030100ff030204000100fefd,
04f10c02fd05fffdff0000ff0104fe01fe02fc020206fd02fe03feffff07ffff,
f5f902fefd06fc0100fa0400fc01fe0206f80602fd0300fb01f304fffc0201fc,
fa0001fffd02ff04fe010100fd02fe01fffc040806fffd01fdfc0502fc01feff,
04fd04ff0afe0cff0008fffefafb07fc00090201fbff01fd010202fe00070408,
f8fd0afb0202fafefeff05fb05050803fcff06f4fef4feff03fd0702fcf7fefe,
0b040801030b000308fe07f90604f3f903f8fffafe05fbfcfb0606fe0202fcfa,
fbfbfdf80407fe04020200000100ff0608180afa15f6f8fbfc0201fa0a02f203,
000401f5fafe010200fd010302fe0103fffbfb07ff0405fff80100ff04f10bfa,
ff01fefdfbfe0000fe02fffefb02fffbfd02fe010201fffcfe0305fefbfbf9f9,
08f701fb08ff03fafd00fefdf8000203010001ffff0202fcff00fe05ffff00ff,
03fd02fcfe01020306f505f80200fc04fc030007f60405ff0301fff9fd0207fc,
fb0302050303f9fe0002ff010402fc04020403f9fd04ff03fa00fc06f90001fe,
fefc0300fffdfffefe00fb0801f0ff00fffcf90a03fb02040000000a05fbfefe,
09fdfef7000bfd0200fc0206fe06fefefd00fcf7fffbf9fffcfcfbf104f8ff07,
ff01ffff0401fefcfb00000000fff8fffd01ff02fffff800010100fd0105fa02,
06f70402fd0401faffff0202fefefdfff80004fffffffc04fdff030301fffd01,
f503fc030500ff05f9ffff030204ff0102f80301ff00fdfc03f60402fa0602ff,
ffff03010302fe02ffff01020807fe0201ff02010408fefcfb010102ff000002,
fd0307fafef803fffbfe03fdfd020200f7fa04fafcfdfa01f7fefffcfcff0101,
05fb06fefbf9f6f6000102fcfef8faf4fc0401fefcfd02f900fa0700fff502fc,
f8050003fcfcfffdfa02fd03fefdfafcf804fa03faf9fefc04030001fcfbfdf9,
fefdf90101ff03fdff02fffd05fcf50001fefff50204f5f90bfb03010103fd06,
fe07f8fe03f705090300f90202f40002f608f90401f2f209f503020004f8fb0d,
f606feff0afb05f9f311fc0804fa0504f20ff902fdfa09fcff06f70001f20401,
04f70af9fa03f907fefcfe060907fa0004f3ee04130aebf6f7fdfd02fe02f800,
05fef507fd05ff0702fff904fa02fe0402f50304fefd071108f0f403fff7f306,
0304fc0102fdf90400fa020100ff0204fffb00fffd02ff030208f800f701f801,
faf10709f40805fafd03fe000200fc0202fffd0100ff0101fefc0000fefeff03,
f9ffff04fe09fffd00f407ff02070cfb0003fef900010305fdfb0205fd0405ff,
ff01fe00fdfcf70301ff0007fe05000305f802fffc021500fe00fafdfffef9ff,
0200fef60402fd05fc00fffc03fd00fd0502fdfe02fd030305ff01fcfe02fd05,
020202f5fff805fe06ff02f6fdfdfefef90302fb0400fdfefb0102f20a02f900,
ffffff0703ff00fd0300fb0403030104fdfefa0804010201000202f9fcfc02fc,
0003feea020808fafefcfd020103ff02fafbf8080501f400fefcfd05ff07fb03,
fefe000403f9fe00fe0201fd03f400fe0001fcf804ffff000102fceb010209fe,
01fe01fffffd05000100ff00fcf507fc010400fcfcf107f8000102ff04ff00fe,
00fb02f807fb00f2ff0003fefefd00fffefd04fcfcfd03fdfefc01f9fcfb03ff,
04fcfdfef804f9fe01fdfafe0608fffffefb02fb030403fdfefbfffc02fb05f7,
fffd04ff04fbfcfc0100f804fe01fcfb02fffd0404ff0003fdfbfdfe01f9ff00,
02fd04fbfbef03ff000103fdfa0104f8f5fb03f9f9fe00f8fdff06fcf5fffefc,
02fefe02fe08fc02010300fdf90304fd11fff7fe07fbfaff0a01f90307f4f805,
fd040107fbf6ff0500f202fef3fbfffb04feff010300fd0502fdfe0201000504,
04fe0b08000703fcf708f2020004fcfbde09cf05f6fbfcf3f800f809fd0005f8,
0afcf1fafffd03fe05fefbfe010103020707fdfc050506fdf919f207f8fe11fa,
fffffc00fdfd00fffcfeff03ff01fefffd0005000103010309fcfc01fbffff05,
ef00fc0f0100f80800020001fd00ff02fffffe0200fe0002fe0201ffff02fe01,
fc000302ff020005fb05050aff02fe010700fbf602fffefc00fe01fefff8fc06,
fc0201fb02060001fc0503ff0707fe0700ff02000afefe030000fdfafe0102ff,
fc05060603fefc0201f703fa03fdf3ff04fe01090403fafff9fe010004fffb02,
fc07fe01fefbfdf90106ff0200fdfd0000fdfdfb000001ff0101070efefb01fc,
01ff0201ff00feff0403fafa02fe01fd04fe0404fe02fffcff07ff010100fdfb,
02fef80404ff040103ff00fffdfffefd06020002ff03fd0405000105fc00fe04,
04fcff0001fdfc02fd0105fefd01fe070200fd02fff9fd07fa02fe0103030801,
ff01fdff00fb0303ff01fdfd00fa0702ffff01fdfbfb070400fdfd060406fe02,
1204f90105fffa080705fbfd01ff01000a04fffe02fcfaff0a0301fe02fdfbff,
140000fd0607fb010efffd05ff03fa05090300fd0100f8ff16fffefe0bfcf905,
fcfe04030105fc030203fd0202030000fd020001fb03fc0209fd00fb0106f9ff,
fcfc0601fd050502f3000200f1ff0203f4060704f702040003fdfaf903010303,
00f6fc030010fef204fb0506f701fdfafdf5f302060afef5fffa0304f90f02fc,
faf904fb0502fafcf90705f707f8f003030002fe020501fdfbf3fa00fd08fdf6,
fb00000107f2020bf4f803f104fe000df60bf90807f2f605f501fe0309fd0208,
fefff6fdf900fd00fafe00fefb01fefdf9f7ff0100f6070bf900fc1302ef1006,
feff01ff010100fc00ff03fefe0101fe00fffdfdfe0101fdfef9f8f1090201f7,
0bf800fc00fef7f6010102ff000002fd01fe0100000002fc0000fefc000005fc,
fefdfbf500fcfb01fefd04f2fefdf7f4ff000001fdfafe07fffeff000201fb02,
020003ff05f9fc04f8fb02fcfefefa01fa0104fa0201f8fc000002fe08fdff0a,
fcf9fe04fcff0101fe020303fd0002fcfeff070401fe04fd00fc040500fcfd03,
00fff9fa05f902000008fdfd00fbff040602fefd0600ff01fcfb07f8040100ff,
01ff000200fd000100fcfd000200fdf404fdff0100ff00fa00fff90101fa0601,
0202fd0109fd0200ff0001fefe02fffe02fe00ff010200fe00fd01fe020102fe,
faff0002ff05fe00fd0006fe0000fd0506fcfe0102fd040307fdf90305030302,
00fdfd0105fdfd0300fd010004fffb06fffb020006fdfc04fafdffff03fffd03,
fefbf600fc01ff00fefffd0102fd01ff0100ff000101000204fafdfe04ffff00,
fb06fd01fb06fdfffefdf800f90200fbfc05fcffff02fefffd09fefcf9fafa04,
020200fafe00fa02050703000102f604fe0505fa0400fb03fc03fdfdfefd04ff,
fb00060605100701fc000406f9ff00f904010600f406fdfa03fc0403f303f900,
01ff02fdfd060a03fcfdfe04fd0c080100fc00fef7fa00fbfdfd03fffd0401f9,
060af90400000602020dfbf60a1bfb04fbfa01fefe0908fe03f8040000000801,
fcfef8f4fcfc00031113f903fbf7fefa0a15ff0105fe03faf4f20103f8fd0dfc,
fbfdff05ff09fcff050502010304fc01070001f502fefd0705fcf9f4fbf9f608,
060300fdfc0000fa02ff0204ffffffff05050104fefe00ff0402fd02040303f6,
03fff602f5f5f3fc010501fbfefffefd0000fe010101000002030004fd01fbfd,
fcfcfbff080305000401fa0603fc010bfffefefbfa0206fcfefdfefdfc03fffa,
0000fcfafd02fd01fdfefbfe0001fe00fe00f80a01fdfe01fd05fef7fe0803fa,
fc03f8ff0201fcff00fa0105fdfcfe04fafbff04fefef902fffe020201fe0000,
f9fcfa05ff0009ff00fb0408fa0100fcfc01fc0402f80000f9fdf90004fd02fe,
fefefffc00010401ff0102fff702080503000200fafe050000fdfe06ff0003fd,
ffff000401fbfafdff0001fc01010102fe0202ff0304020401ff020102fdfffd,
fbfffdfe0200fdfe0003fefe030302ff04fe000301fdffff0101fd0400fbfd00,
ffff03fd02ffff01fcfefefd03fdfefdfc02fffb01ff01f9000101fe00020005,
fb01fb1306fd07f9ffff060401fefdfc0400060201fefafffe0105040000fcff,
0102030202fd06fef900fc0705fffdfaff03f90c04fd07ff03fd000ffe050df8,
fafffefb0b05f705fcfcfff803030903fcfafffa0afdfbfafc0700070703f903,
fcfcfaf900f804fbfdfbf9fd01f5f8fef9fffff901f9ff0402fdff00fbf90802,
0403ff0606f6fd0703fdfdfcfdf6fc04fbfbff0409f3fc05f5f8fd0503f2fafa,
05010702fb0006010103fffefef506000801f8f3fffd04fdfc00fa0507f5f801,
faf6fd090406ff03fa0507fc01ff0406e707f802fef7fcfd1005f405fff6fffa,
fd07fd08fc00fd01fd03ff06fefdff0200ff07fd0502f9fceefb00050800e4fe,
fd00ff01fef802060203040000fc01000302030102fcfc02fb01fafefefbfc0e,
fbf5fbf4fcf8fd02fc00ff01fffd0203fd000102ffff0202fc02030301fcfd03,
fdfe0302ff02000502fefff102fffdfef6fefd0dfe0101fef7fa0103fffefe01,
0102fe05fe03000302ffff04fd02fe02010104fbff03fbfcf900fe0efefd0300,
0100fdfa0102000d020202fa040401fb0002fdf907010002020301fb04020102,
ff02ff0001faf70200030500060102ff00fc00020201fbf80200fb010604f6ff,
fffdfbfd01fe030208f9f100fdfeff0301fbfa0103fd030200ff060506fbfffe,
fcfa080a07fffbfbfeff01fe00ffff000700fbfefffff9fe00fdff0100fffc02,
01f9fcfbfafffa01fdfdfb020403000401ff0500060000fe02fc06060100f804,
fef80103fd0500fcfdfa0500fa01fb00fcfb04ffff05fd0101fbfbff0100ff02,
04fef705fa0df9faffff02fffe01fcfd00fe0203fe01f9ff020002000001fafd,
02020001fefef4fd0402fa01ff05f80001fcf804fd08fcfff9fff2fffb050000,
05ffff040200f9010bfaff00fefff90302f9fd0302fdf8030504fa05fd02fb00,
fbfdfffdf801fefef204fa0105f5f6fcf50101fdfbfcf800010a06ff04fdf7fe,
0109f8fafc0205fafd05fcfdf60101f90504eafffc02fc02f801f8fbf601f501,
02ff00f7fffb0600fff7fcfbfef7fcfffffef902fd0004ff0a04f8fd09fe0400,
08f6fef80400f6fc01010502fd010500f4fc03fe01f9f60203f8fe0201fa0700,
fe0002fffffd0300fd01040203fefffd01f9fc050204f800010a05080e00e8fe,
fd00f803fdfcfe00fbfe02fffcffff01fa010300fcff00fe05fdf205fdfe01fb,
ff07f80401f70308ff01ff01fcfefffffe03fcfffffeff01fd02fd04fefd00fe,
f9fbfcf4fd01fefe0206f9fefb020700fdfe0a02060401fbfbfefa0004fd02fe,
fcfefffeff02ff00fefd07f9fb03fbfd0000fdfdfb06ff0200ff04fdfd01fffc,
01fbfc02f9f9fc03f80206fcf2faff07fa0203fceff70107fefe01fdf301fc03,
fffc020e0804fc0103fe0403ff00fafefbfe010901000106f8fdfc0efe02ff07,
0202fffffffd01fe02fefcfff902f804ff00fdfffb01fc040301010e0804fb01,
03fc0000020602fd02feff02fffefc02fffffbfffefe030200fe0100fd00ff02,
faff01fefe03fffd01fd0102fdfef90101fcfffe040402020502010000020500,
fcfffbfefe0000fbf503fcfbfe04fdfafe01fb01fbfffffb01ff00030003ff01,
07fafdfffcfe0cf50102fbfd03f906fffcfffefc03fb01fbfdfffbfd01f901fe,
08fcfc02ff10fbfd0700f5fffa0803f706fffdfdfbff07fc08fe0000fe070b02,
02ff0107020101fb0000060108ff02fc02030001fefefef80b02f901ff0b05fc,
000409fe00fe05011001fa05fc0003040903fe07fa0202090800060404ff0008,
f902fb040005f709fa0407030405fbfe02fff4f8f905f506fc03f903fc00f807,
0407fdf7fdf2fef4fbf70500fef2fefb03fd01f7fdeefef90405f907fa02f602,
01010303020405fdfa020002fd05fcfbde0705fafd14e2e3fb0101ffff03f9f5,
05fc0001fa08feff07ff010101070101ff04fffb04020304fe00fff2fc27f7f4,
ff01ff02fd0100fe0102fdfffe0201fd0502ffff010100feff010102fafe0000,
02fd0301f9f6f9f90002010000fe00000000fffe010000ff0300fdff00fcfffe,
0302010603fdfe0302020000fffcfafdfcfd010004000205fdfa000101fd0204,
000203fa0603ff020101fd0005fe03000502fcfc02fc02040002020104fb0004,
05fffb030204fffbfe03ffedff0905f7fd04fbeffd0804fa020000f9020804fd,
07fdfd2604fdfbfc02fffe010000fbfb06fdf810000303030cfcfa1e000404ff,
ff01fdfd040402fefafb01fb01fffdfefc0301fe03fefd01fffcfd17fffbf804,
fe02030008000301fe0004fd02fffc0200fc00fcfcfe04fefffe01fd00fbfb02,
06fefa01fe0506ff0500fd02000605fcff00ff0305fe0401fdff05fe05fe0702,
fe030101fb010304fefdfffefdfe0804fefc0200fdfe050003010102fd040400,
fcf9f4fa0206ff04fb0200feff0204fefc0203feffffff02fdff05fafc000101,
0304fd00fcfffeff0403f6fefc0201010006fb0000070200f9f9fcf30201fe05,
06060500ff0301010503000100060000030301fcfd07fbfd000704fffd03fe04,
00fd000106000404040c02fc02fdfcf7000a0bff02fd000306ff08fc03fa0509,
041002fdfffefcfc020301fdfffe0402060e05f90501000105220901fbfdfef8,
080504060a0007000502fd0200000b0902fcef0302050102fd0efdfeff00fdfc,
fc05fe090a020503ff0afc07080506f9fbf2fd0a0ff20afefdf5040609020304,
03f701fefffefcfd03fbfefffe01ff00f908fd08fffb00fafaf6fefa0f0009fc,
fffeff0103fcfffc02fa0600fbfefffe04ff0200fcfe0001fffef905fc06fef8,
01fd18fa03fe02080301fe01fffcfd0003010301fefefcff040003feff00fcfe,
08060305fcf603040cfe0dfd00fd04000602fe05fdf500fe05040902fffc03fe,
fefb02fdfbfc05fefbff04fefbf9fe0203020700fdfefc000001fe00fdf8fd02,
fe00fd0204fffc0004fc08faf7050103050004fafa080bfe01ff01010006ff02,
01ff01fd05fefd0402fefe000105fbff03fe02fa00fcfcfdff02fef702f002fe,
0106fcfffe00fff90103fffefcfc01f40302fdfefe00fef4fefd04fe0401fc02,
02f501fa0005f8fcff0401fc0001fdff000401fdfdff03fa010103fdfe01fcfc,
fefcfefdf704faff0302fc04030001ff0202fffe0502fefd03f800fc0000fefc,
03000301fa05010405fa01fff101fe0003fffe01fa0201ff04fffe05fe0100ff,
f702fdfef8f3ff0400000403fd0300ff00fe0202ff07000201010100fe07fffc,
f806050106fbfefcfc0cf9fe02f9fdfbfa05fefcfaf4fd00fa070300f9f6fe01,
03fc0005fffef9fd0201fe0300fffefc0406f50100fbf8fcffff0400fffdfcfb,
f90000fefb0403fe02fefd02fcfef905ff05f3fef8000604fc0504fb02040005,
fe04f8ff01fcfcfaf80906fe030203fe02fdf506effe00060806e603faf9f9fb,
030504ffff03fcfc07faf1fd02f8f80406fbff03020301010107050104fdf9f6,
f6f607fe0505fe04030501030502faf90307e706ffeaf2f107fdf60203fdfa03,
07fd07fdf904040606020801fb040201f6f305fb0f070302eaf9fb03fbf6f607,
00fefe00f5ff06000503fb0300ff05030501fe0305ff0101fff705fbf2fe01ff,
05ff0f040eef000f02fdff02fc01030100000002fdff01020101010103fd0101,
05fdf70300fa02fd05fc030bfff6fcfef9fefc01f900040007040004ffef0009,
f90108fdff02010002fdfe04fdfd0401fffd0207fffbfa01f9fe0001fe000502,
f800010004fb02fcfafe0106fffc0103ff030105fafb00fffc0601fefeff0001,
ff030100fefcfe00f800ffff01fd0404fcfc0005f9ff01fdfdfefe07f9fdfcfa,
ffff00ff0000fdfffcff00ff00ff08fffdfd020101ff01fffefe00fa01020101,
0201fdfafbff00fffd030001ff01ff0000010002020004ff000103ff06040101,
04fefaffff0102ff04ff00ff07ff000102ffff00fffffe010104fdfff8000100,
0404fe02fdffff0200fffefbfa04fe00020400fdfe00f80005fffe03fd020606,
09fb050803fe00f90205ff04fe06020003080002ff05fffdfe02fcfb0406fefe,
00f603000204fff900fd020a06fbfcf802f903fd0102fcfc06f905040106fbf8,
fdfbfe05fe0502fdffff07050405fdfff9fc02030303f8f902f7fffefe0300fe,
fafafbf8fe0402fef6fd0a0001fffefef7f9fefeff0000fcfaf7fffbfa01fffc,
fffe03f60102fe0af7f8fdf800060af50a001007f8f6020403fd09fbf9f7fb05,
f80000030400f9fbfd01070bfef9fff9fdfe0104f901fef9050106040001080d,
ff0cfeff000efd020419f80a0403f7fc0103f610fc03f807030bf509f809fc02,
01ff02f9fcfa0005fbfd000001fcfa03fd0efef5000502080109f6ff050cfb14,
fefd01fd00fd0001010303fb00fff804feffff00fd00ff02fffaff00feff03ff,
fd00f9f3fffa05f8030101fe01ff02020000fffe02fffefffd00fdfe0402ff00,
fbfefa03fe000afb0000fcfcfefa0af7010101030205fe05fcfeff0400fe04fe,
0102feff020001fcfffffe0300fd01fd00fffe0201fb0cff03fe0001030801fc,
fcfd02fcfdfefeff02fc03f9fffdfe06ff0104f6fefefbfa00f904fd02fdfbfc,
0304fe01fdff0800070602fefc020202fefb05fcfffd0001ffff0afcfbfd03fd,
02fdfa01ff000203f604fafe00ff03fef902fdfffffffdfe0000fbfdfefd0302,
08fc010005020004fdfffe01fdfffefe070300030200020103060402fefefeff,
0001fdff02fdfbff02fffa060200fd0706fafc00020009000ffb010303060802,
0a00feff000001fa0c0300ff0000fafe1004ffffff01fa0101fefe0302ff03f9,
ff030603f7f803fa02ff0002ff0001f8fcff00fffe0100fefcfe03ff0000fd02,
02020003ffff01fb0b050300fafe02fd0101ff03fdf905f8000203fffbf300f6,
03fffe00fbfa06010602fe00fafe06fc0401ff02fffe04ff0d010000f90003f7,
fbfe03fe05fffaf9f8fdfd010904ff0afef4fd00050303f9f7f8fdf905ff02fb,
fdfd0800faf907fcfffb02fefaff05f5f8fe0501fc0102faf7f502fcfffafef9,
feff0afdfd0100fcf8030b0ff5fffdf2fafa0103f8f9f6fa00ff08fffef801fc,
f3fc000208ff01fffdff0700fe0ff80cfd0410080b040bfb01000d0a040007ff,
ff070100000402ffff06fe00ff050205fc01fbfdfe110013effefb0105fc190c,
0707020300fd00fdfe030402ff0203fe01000101fc030105fc1104fb0503fc08,
ff0107fb02f405f30203070102fffd0800ff05ffff02ff04feff04fffd01fe01,
05fc00fbff04fa01f8fb01fb00fffdf60503fa050605040804ff06040402ffff,
04fbff04fffd000101ff0100fefffcfcfafa02fffb07fefe0807fd080503000b,
f600fefef9fefff6f501fb02050002fdf800020207fd00fff8fa02fefb040802,
fffffeff010101fdfbfd01fafa0100fffd0105012e00fdf501fc01ff1300fef0,
fe020500fffefdff0301ffff03fafffd0100f80201fcfdfffcfffffd0501feff,
00fffb0002f403020300ff020001ff04010101fe040202020000fafe01ff0002,
feffffff02f501fc010305ff01fa02ff03000202fdf903fffe070203fef60300,
fe06ff0001fe02fbfd06fefd03ff00f8ff06fafdfefdfffa01020001fefc0501,
fa070701fbfb07f1ffff0103ffff00fd01fe0201fefe03fe03ff00fffcfefe01,
00f4040900fa0100fefe0c06fdfe01fdfa00010203ff04f9f801020600f804f5,
fefc0200fcfc030400f509fbfbfdff04fffbff0004fa0605fdfefd0602ff01fe,
ff010003f70903fcfe05f8fd03060107fe0908fdf9fd0005fdf9fd02f7fe0000,
fdfa0002f701f9fefa000102fa04fe00f4fe00fa02fbfcf8f4000601f604fbf5,
090505fcfd0007020405fdfd000001f7020900f9030604fdfd02f9020100fd04,
0603fdfdff0405040c0709fcf803fcfb0611fffef902edfb0605fefb0207fe03,
06010501ff0603fe010702fefb08fffe0600010302fc01f909fbf8f6fd01fcf9,
fefffe010100fcfc07fb0403fa01fdfc04fc0102fc02fffbf80400fe0bfdfafa,
03f504f9fe060706fefcfcfd0102fffd04ff0000030301fe01fc02000104fffe,
00f901fc01fe00ff00f500fffd03fffc02fcff070003fb0008fb00fdfe02fb03,
fd04fe0103fa02fe01fbfffffffcfeff00f40104fb00fafc02fdfe03000200ff,
fefdfc0409fe040200fb04fe060201fffffaf8ff040103ff00feff0608010001,
000209fd03feff09ffffff040a02020203fa0afcfcfd0602fdfd0003f8010401,
fe02010101020101fd0301050403fd05ff02fe030401ff0302fe03fd08020500,
000104fdfe02f9fe0001ffff0000fb00000407000000fefc050602ff00fe00fe,
f9050200ff01ff04faff050100fd0105ff040301fefffb0205fb0001ff01faff,
fbfffbfdfffefd04fe00fcfffcfefd01fbff02fefdfefe04fdffffff01fd0206,
0005f90005f90107fefffff902fe010100fffffcfd0200fffefefefc00010000,
020006fcfcfdfe040002fcfffdfd0000fc0a0203fefe0103ff0a00ff06f6040e,
03fdfefcff0202fe02fb0600ff00ff000202fdfffa000201020303fdfd0002ff,
fd0400030602fbfefa020206fdfcf4fefb04060203fef5fff401fb060700fc04,
0005fc03fcff0600010afa0103faf9fa0903000d00fbf9090604010e02fffe05,
06fbf7fd03fffefced02f30cfffe010cfe03f7f9fcff00fd000c04ff0305fe04,
0808f8ef03f308040afd0cfb08fb08f917fff3260ae810f209fff30601f003fd,
01fc06fcfcfc04ff00ff0401fc0100ff0b0f0af904fafcfe270efffc0dea0bf9,
00fa05fe02fefffefefefefdfd00000100000300ff05ff00fef40ffb0000fe02,
f80efefcfb04f9fd01fe050502fefe0000000002fefefd00fdfe0102fd020000,
0101f9feff0600fe0005f101fbfff8fdfffa060101020801fe05010204fffe00,
fe02fdfdfe01fe010002fbfdfb07fe030203f600f7fff80003f802fc0103ffff,
06fdfbfe0400f90015fc010306ff03f92afa02ff07fc03fb0c01ff05fffdfbfb,
ef06fffd0101fcfbf5fd020202fdffff0afbfdfa050208fa1efbfaf70302fafe,
ff0004fffeff00fdfa0007fc02040105fafe07fb010005ffef01fdfd000201f9,
fcf8f400ff0106f902010300fffe00fc02fd06fe03fefe01fdfb09feff0009fc,
fdfd000100fe010601ff04ff0202fc02fffbf806fefefcfffff9f9fefe02fdf8,
fffdfefe03ff0202fffafd010300030bfdfcfd0304fe0006fefefffe0000fc01,
00f9f8f6f902fd05fc0300fe00fe0202fc0201ff00fc0201fc05fefe02fe0000,
fe02fe02f701fff70002fcfcfcfffdfbfff9faf60003fa0802fbfafcf905050a,
0306fefaff04ff02fe04fffcfa03fffb0203fdfafafd01f9fe0200fefcfe0201,
00000602020101fdfd01ff06fd06fb020602fcfefc01fdfffe0a0107fb030000,
06fefffe0aff04fbfffdfffe00ff00fcfafb05070807fe0503f803040905fa00,
f802fc0701f908fdf7f3fd1607f30107fcfd0010fbfcfe05010204ff0bfe0200,
00fb04f80102020405fdfa0306fefdf503e0ee0a0d06fe020bf20814fe03fe01,
ff01f80002010004fe07fe020001f806000503f8fd06fcff10f404eaff1bfef7,
0200fe03000204fc02ffff0102010102fe03000000fdfc030001fffd010007fe,
f6140708fcf5081000fdfc0000ff03fe01fbfd02010102ff02fefffffe00feff,
fffefa03fff80601060a0700fcf0070800f5f701fe07fb02fffcf90a00fd060a,
fef901fc020500fcfdfd030303f7ff01ff08010701f60303fcf7fa010007fcfc,
01f6fffa0202fb0601fe04fdfafff6fe07fb04fefef9f9fffc0302fffffef700,
fdfe01fcfffd04fdff010104fe02fdfa01fdfdfa0102fcfd03fbfefa03fffaff,
fe02fffe00ff01ff01070000010002f80303fd01020001fdfe01fefefffe02fa,
ffff07ff0103fdfd00020204ff01fffe00020103000404f8050102fbff0003fb,
fefd01fe06fefd0901fe00000601ff0503fe03ff030400fd020309ff040303ff,
000402fc08000202010a00fb05000206fe0800f905060203fdff02fc07fe0003,
f6fc07f40107fb10fb0101fb06ff02fefd0301fe0802fffcfdff03000401fffb,
fe04fffbfbfcfbfdf9ff03faf5fefd0cfcff03ff0306fd0af40206fe0305fd09,
ff00fff9fefb0107fe0203fffffe0100fcff01fbfc04fb08fb01fff6fb00fc06,
05fffd03fb0101f9fb06040602020404ff04090f04fa02fffdfbfc0701ff01f9,
fefcfc05fffd010203fcff00fdfefef9ff07040b00fafe09fe07040000fafffd,
030504fa010606fcfff702fbff02031303fe02fe04010404fa03fd03fefbf807,
fff7f7f905fdfe02fa02fbf7f500f9f1fbf503fded05f6f30100fdf9f6fffd01,
00030200f90101ff0402fefff8030402fdf8f9fa0303fdf8fff6fbfaf3f902f5,
00000001f9fb0103ff0501ff03ff0000ff0101fd0200020104ff01fff2fafe00,
0401fb050405fcf401fefffefefc00020001ffff01ff010301ffff0000000103,
fefdfd09000104fdfefdff030a0400fbfafefe01f900000004fefb0bf903fefb,
02fffbff030400fefbfffe07ff000203fffefb060102fc04fd01ff04feff02fc,
fffbfbf90500fafbfd00f9f9020101fa0502fdfd0507fcff0600fa00020001f8,
fefdf8fc0201fa03ff00fffe0104fffefa00f6f8ff01f7f9fffdf4f70407f7ff,
010000fe01fe00ff02ff010104faf9fefbfe010003fafdfffbfbfbff01040100,
00fffbfd0303ffff00fefefe02fcfcfe04feff0303fdfd0204fe00ff00fffe00,
fd020304fc0201040100030205020201fd00fcff03020002fd00fd0102fffffd,
02ff0102fb0200fe0401fe03fb0103fafefefd02030101fe00030404fd0301ff,
01fc02faf6030404ff0102fe000302fdfcff04fa030002fcfefc02fd010000fe,
04ff03f8fdfdfdfcff0200fc0006fdfdfff802fa000e070204fafefe00f9ff03,
fd000404080200fb020106fe0604fafb000202fe0706fbff000002fffb050100,
f706fdfc0502fb0204f7fbf80100060100fefaf90302ffff00fdfc0007050808,
fb03fefe010afe010200faf20600fe03fffa00f7f906f9fbf9fefffcff04fef8,
f90702f9fc05f9f70500ff0dfb02f6fbfe05000600fefcf6f7fe02fb000c0005,
08020307ff0305f6f8fffffd0603fff4fefcf5240812f8090802f711090501f9,
0204fefaf9fd04ff0106feff00fc0402060105fc0200fcf90004f408f804f4ff,
fb0401000002fdfdfa0002fbfcff0200020204ffffff02020607fd0003fe04fe,
01f808fe07040602ff0005ff0002fdfe02fe06feff01020102fe0300ff0004ff,
030302000602f802030305fc0f04fdfcff0403010401fcfd000202fd02010203,
020101fffffafe020100fd00fffefdfef9020101070301fc0302fe0101fefb03,
fdf803050306fcfefbf102ff03050100faf1f700050a0001f8f20a00fe060000,
0504f8fc01fdffff03fbfefefb0000fd01f801fd0703fd03ff00f8fa0d05fe02,
ffff00fd01fd030000ffffff05ff0106fdfb00fe0103fe0402fdfeffff0002fe,
fdf801fefeff01f8000002fe01000003fdffff040601010601fefe0204feff03,
000108fe01feff06ff0307fffdff030201f801fefd010200fdfafefdfffffffa,
fdfd0800fefd040200ff0dfefbfd0002ffff0cfdfafa0202fd02080101ff0401,
020001f8fbfaf5fdfbfeff0205ff02fcfcff010206fc02fbfcfe00ff07fc02fd,
0ef9fefaf905fefd0bfbfffbfcfafb0302fe01f6fd01f8fffe0301f6f8fef5fe,
06fdfcf8fa0501ff03fefcfdfa05fdfd09f8f8fcfdfd000406fbfef7fa03fcfa,
01040303f2fcfc070b0203fc03fafe0301fb05fd00f9f908fd050000fc010002,
00f0f9fd0606fff6fd02ff01f8fdfc0206f7050119f506fd0cf10a0318020203,
ff000506fdfe020001050f06f20af300060400fffb04fdfdfaf5fefc05fc00ff,
fb03fa0405fc05f9feff0a03fffb0aff06f9230bf8040805fb020f00fa000cfe,
fffcfe03fefb00f6fdfc0102fdfb02020304f40503f906f9feff020905f50101,
02fffffffffa00fe01ff01fe02fe02fc000103fcfefd020001fafe04fcf5fd06,
f6f603f6010c00f903fd00010100ff0301fd02000103fefe01fc01ff02fd0101,
01fffe0104fb02f4f7fb02fa0204fcff01ff000c00f6fdf9fefc0202fe0104ee,
0600000601fa020302fdfbff02fc02fbf6ff01040409fbfd06fefe0703fb00fe,
00fd0103ff02fefe01fefffffb09fffbfbfb01fffb07fff6ff010100fb07fffa,
00fc03fd00fefc00ff02ff00fefc020405fff7fb0404fff701fffdfdf80002f9,
fdfb00fb0103fc01fb0005fe02fcf900fcfd04f903ff00feffff02fefdfbfe00,
000307f100ff01fd01ff000301fffc0207fcfbfc05f7fe0100fe00f501fb00ff,
060009fcfffa02fd060204fe0204fffe02030604f200fcff000506fef701fe00,
000004010003fdfe03ff00fffa01fefbfefefe02fd0102fc06010302feff01ff,
fcf8f902fbfe02fc00020103fd0100fefe0104ffff0104fe00fe02fbff0001ff,
fffef8fc020101fbfcfcf5fd0302fc01fdfdf9ff0fff010200f9fefe080402fb,
f906010104010301fe02040407000301fc0502fe0a0001010001f7000aff0403,
07f90304fe0df9030500f304f50706fbfc03f5fb030ef9fa0003fdf404fefdfb,
000101040af0f50301ff0208fbfdf8fc0ffffbfb020d010a0afffe0c0215fb07,
fe0905fdfdf9fa020bfa03fe0afb050301f802fe0cfe0005010306fd05f6fffe,
f9fefa02fb01fd02fbfcf9fdfcfdfc0712fffcf0fdeef6fbf9f8fb000c010407,
fffbff01fefc000103fa0008fb02000100fffdf8fc040305f406fffafbfb00fc,
01f8f5060501fc00fdff0004fffbfeff0101ff00fbff000202f6f1fd11040305,
ff0811f9fdf9ff0a0001f8feffff00ffff01fb01ffff0101fe01fc00fefdfc02,
03fc05fa0902fefffe0309f9fb01050500f7fa00f904ff0500f7feff06ff0109,
00ff040500fe01fffd01fb04020401fefcfdf90700050901fffefd01fd02ff00,
03fb02fe040001010c00fc02fe0103fd0b04fe0003fc040007f8010108fffefe,
f3fd00ffff0bfb00fef904fb0204fe0103f9f8fb070202fffafffe020503fe01,
040300ff000002fd0201fffe020101f803fafefe040001f9fdf400fe0507ffff,
01fbfd01fd08f4ff0204010401feff03fefe000105ff02ff03feff030500fdff,
03fe0000fefd040107ff0004fc0104010100fb02fa02fbfffd010103fb03f706,
0101fe01fd030203fa010004ffff030700fdff02fdff020409000103ff010201,
03feff08fef7f30b010004fefb010101fdfd030101fe0000fefe030000fe0000,
05fcff06fd00fc0708fd0006fbfcf805fdf6010403f9ff0505f6f614fefbfb0b,
01050004000101fefe0101fa03ff0001ff0301fdfffd010203fd00070001fa06,
07fcf502ff08fefefffcfd04fbff00ff00faff05f101fa0a0efe0302f70b0001,
fcf9fbfdf8f5fb0604f2f30000050102f805fff5faf500fef5fffcf3fdfa00ff,
f60605fffa05fc020506f9f504fe0302fe0702fefe0004fb010bfa05f7fdf90a,
f7000904eefa0608f6f902fffa03fef900f7f9f6f9f9030001fa00f9fafb04fb,
fbfc00fefc00fd0afe01fef900000109f8f4ff05f8ff01f9f1f7fb0aeb00fb00,
fb01ffff030402fefcfefd0102000302fffffe0100010103fa0003fbff050200,
0209f4fd0006faf1fbfefe01fe040402fb03fe0101010202fb01ff00fe03fe01,
03fbfa04f703fcfc0ffffa01fe0206f0f2f802fe04fb0207fdfdfb02fd020003,
f8f8fb0100f5020104fcfc02fc0108fe0b02fe0201010cfbf4ff00fe01f8fa04,
0209010903f8000400fcfcfd0705fd0100f9fefe03fe0001ff00fffc07ff0000,
0509ff0907f3fd05080efe0a01f50207fdf900fc0400ff07ff0403fb08f4ff06,
01ff05f807f8ff01000400f80bf4f7fa00ff02ff060500fd03fffc0b07fd060b,
fc010305fafffefdfd0105fc03f0fe060401fef20bf604f805ff05fd01f5fffd,
0107fa0006f802fd06fdfefe04ff0001fc0504ff00faf900fa0703fcfaf3ffff,
ff02040e02f9fd03fe05000106f30200fdf7ff0302faffff0500fc0300fd0200,
050208010704fb02fb02fdff030100fefc01ff0605fc00fffefef907070000f8,
03000cfa0900f4fe080200060906fb06020602fefc0aff0404f710fafdfef0fa,
05fef700000bfe030000f80303ff040205fef903fe0305060502f900030af502,
ff01f206fb0500fefd060ffdfcfdf708fffe08fdf70101fbfdfdf502fb0f01fa,
feff030200fffefd0202f8ff01010200f6f907feffff0103fcff0103fefc00fc,
fbfbff0a0006fafef904fe09fcfdff03f7000405fd04feff01fd0503ff01fff8,
04f8fbf80702070cfd00fc060504fefaf2ff020b0dfa03fcf7fbfefe0701feff,
fffcf0010401f9f9fdfd0bfa0109fffb05fefe04080607f706fef90403fc0bf6,
02fdfbfa04fc01fafb01fb0409fbff09ec0219fff6edf2060205f100fefffbfe,
fc0701ff0403fb03fdfafeff01fa0210fefafa04f9f90107f6fffc05fafcf701,
fe0100fafef403010001fef6fdfc0203fd03020100fffb01fc0603fc02fdf905,
fd02fe00fffefc04fe05fffdfff80300fd01fff901fe0203fb0401fdfdfcfd02,
0205030803f80100ffff02f6fe04fffffd02fff4fcfdfcfefd050402f903fe06,
0702f80902f9f7040e0a001610f8fff8fcfe00effb0203ff01fd00f2f9f9fd03,
0103fffd03fe010102fafceff702faf3fefbfbfb00fdfd0107fefb01fdfcfd00,
00f5ff0007ff04fd000500ff03fe090002fefaeefefefcf6fefefa0002000a02,
f700100c0affff0201fdff04fefff2030007000005fd0300fef5fefb00fcfaf9,
00fbfbfff9fcfb0104ff01fa00fff90d04fcf7fbef01f503ff04060904fbfefa,
03faf700f8fb07fb05f7f205fefc020207f9f702f30002060afff5fdf3fd00fb,
0200faf6fcff1504fefff901fc05f8020703fa0b00fff80102f6e7e3e5012efe,
01090009fefcf908ff04020905fefefdfdff02080205f6000109fe05fd01f006,
03020704fb0bfdeafe0006fc02f10813fbfc0004fef6f81702030303f907f7f7,
0300020400fbf80002060406fb06fae9ff0002fb07f40317010100fd02fcf909,
fa0a0afafd0001fbfc0809effcfd05f8fb0109f4faf904f80101fd03fefafc0a,
fefff901fafdf7fefd0300fcfffa00f9fa00fff907fa00fffef900fb00020500,
f6fdfef5fe0102fb02fcfa03010301f8fe00f9fdfcff01fafefff6fdf7f7f6fe,
f9fb02f7f8fefafaf6fe02fef7fff6fb01fc021b08f5f10efcfc02f7fb0001fb,
f804f90e0b0301fcfbfa0001fbfaf2f8fcff0202fdfff0fe01f6040c04f9f009,
f805fafa01fff9fdf805fc01ff03fcfffdfe00fefffc01fef809fc020601fdfe,
fcff00fdff01ff05fb0101fb01fcff02fc06fe01050100fcfbfcfef90000fe03,
0303f501faf308fefa010401fd01fffefb0002010101ff010203fcfafbfffefc,
04fff306fefa00fc07fce70c01fd04f7fc050afbf802fdfc0206fff5f9f8fc02,
02fb0506fefbfafdff060301fffa01ff010106000201fcfffc0300fffe00fcfb,
01fb02fdff0002090409ff00ff02fbfd0506f50703fbfa0402fb02fcfe04fafd,
01fd050702f4f50303fe0105fd08ff0201030002fc000005fbf9fc01faf80507,
fef8fa04fcfa06fa0404f709faf804ff0007fc01fefdfffc0202070100fdf700,
0000f2010405f80500fb01fd02060702040302fb010504fe040307ff040203ff,
f903f60201fef7f9fefff303ff01f9fe0608f4050003f7fe02fef0f905f4f013,
fb05fefafe0301fffb0002000302fcf80200fcfdfc0500fefc08f506ff01f9fe,
fe04000503fbfffe08fdfe08fffcfdfb05fef90101fb01fe000bffff060203f7,
02fdfcfefffbfb00fe02f90103ff0201050001fefaff0104fefffe00fdfafd03,
0302fb03fbfdfffd0206f7ff0afc05f6fcf7fafdfeff01f803fe00fb00fffeff,
ff0e0901070502fbfc05f8ff00f7fc030effeffe11ff06f8050efafd0ffb01fd,
0501fe01ffff00fb0802020c0800fff7fe0100f801000701fd010604050508ff,
0005020107f902fa0707fd0003fc02f902fcfff7020000f6fe03ff03fdfffd00,
04fd050801ff02fd000afb03fdf6fa00fe07f90304fbf7fe04fdfffbff0101fd,
03fb0202fffffaf803fd05010006fafd02fe01fe000002ff03fa0301fffc01fa,
00fe0200fefffcfd00ff02fffafefffbfd000402fc01fefcfe000102ff01fcfc,
0404ff00f4fcfcf60300fe0109fe0402fcfffc0404ff0300fd01fefe000104fa,
0302fafaf7fb02f40404f8f9f00201f202fb000007fb03fffaffffff00f904ff,
feff0200000505ff08ff05fc060709f3fe0204fffa0600010003fcfbfdff05f7,
030000faff0300ff0202fcf40000fffc19fefefc04fefdf70100fff70102fe00,
f8030102fffcfff9fffdff00fbfafefe040002f6010001000f060203fb0406fe,
00fe01fefdfafffafcfa01fd01faf9fefdfa02fdf7fff9fb0100fb03fffa04fa,
fffb02fcf7fdfcfbfefd01fcfb03050000f901fefe0000fefef8fffc02070600,
03fcfcff09fff50504fe04ff00faff04f9fc05fff90505fbf9fa01eaf6f1e903,
fcfc0201fafd08fe02f7fa0102fa03f7fef9fe04fdfd08fbfefc00fc01050200,
f60103ff03fe06000209fdf4000dfbfe0300f9feff04fafefbfe00fd03fb0100,
0301fcfe00000104fa02ff0200fe010204f9fffc0201fa010003ff0204fdf901,
0afe00fd00fc03ff0005fe0201f302040001fe040400030001fffd0304ff0001,
0800ff01010503fc0501fefc00ff02040507ff04f800f50005fffd03fd03f500,
f8040a04fdff04fdef0c090cf50002f705ff02ff0602010305fe01fffbfd05fb,
010701020505ff03f703f5000703020001070304f1ff05f302060c030401fffb,
0203fdfd0501ff00fe03ff070501fd04fafdf9ff030001fefc0212fbf6fc01fc,
0202fe04070100fe0104fd000600ff0202060001fdff03fe0204fc040705fcfa,
ff02ff0101000201fe05fe01020503fdfd04fdfe0304ff010303ff0102fd0000,
ffef020903fb0e040104fd0401fefbff0507faf90203fdfffefb0205fd0002fd,
fef50514fefb0602faea051605fd0f05000403000202fcff0301f606fdfef9fd,
00f8feffff02fdfefe09fdf8f9fdfbfc01ff03fc020200000504010afefd07fb,
090202fe06fb030209fbf900090503010603f7f0fafc00fa08ff0bfa04020204,
fd0201f7060006f4050703f1fefc0bfd0202fcfd030203000207fef8f90003f8,
fdf8020203010103f9fefdf5030306fcf90000f8f9ffff03fffe03f8fd000af4,
fcfbfe180300ff15fefffcfdfd020408fafcfdfafd010203000303fdfefc0104,
fc00fd010004010dfdfcff0501070507fe0108fd0407080dfc09fc11fffaf60f,
05fe08f50a0007fa0300fd01000206ff000102fd060407f4fbfc01fb02030700,
ff01fbf8fdfd02fa030807000b030605060304020bff0904fb01fcf8f80003fb,
010100ff0702fdfe00fffefbfefa00fb030601fd0b0201000201faff08ffff00,
00030700fefd0304fd000800f7fe04fe01010602f9fd0202020602fb070400f8,
fe01f9fa08f70403fefffd03fe02080f020200020efc05120200040b04fe0710,
ff0601fe0103fa06fe0008fd07fa0702fdfb05fdfc020503fe01fc010bfe0506,
010802030405ff050201f6020601fd0406edf7fe0af32401010004f9fc00f904,
030407fc00fb07000203000302010403fffa040402fefdf701f7000b04f803f1,
00fe0600fefc05fc020002fdf8fc05f904fb0102ffff010103ff070600fc0701,
03000004fffc00ff0201020100fa06ff03ff0500fdfb08fe03fa0102fdfd03ff,
09070c01ff0705fbf9fbff0100ff0207fa05000203030404fd0304fe000200fd,
fffb0601fe020400010102040203ff0af9feff00ff03ff03fd0309fefc0502ff,
f900fdfc03fb0200fdfdf900fff904fffe04fd0101fe00ff00fd04fdf80303fd,
07ff00fffe0000000202f7fd00fd00040009e9fefd0208f90008fdfaf9f902fe,
03020004f809f403050105f8f90205fa02fe05fe030104030004f80001ff06fd,
0403010202fe030305050703f50206060bff010301fe02fb02040205f806fd02,
fffefe02fefd0cf3010001f7030000fc000004fd03fefdfbfbfa01ff050300fd,
fc0803f9fb000701fb05fc07fef903fc0004fcfbfefd06fcff01fef705020eed,
fd01ff0101fffefcfd05fd04fc010103fc040102fc010505fc000704f7ff0001,
01030208fd0100fffd0cf6f804f703030505fdfefefb030605020404fb02fcfb,
ff01fe01fe05fffb03ff0103fdff0100fafe00fa02fbfe05fffeff05fd03fffe,
0005ff0102fc02fcff03f8fc0503fbf00101fe040bf800fafcfdfdfb0200fbff,
01ff0100fbf1fc01fd03ff0405f6f9fb01fd05fc0104fcf701fe000104f7fef8,
00f90102fe0202fffbfefc02fbfa01f901fcfffe03fafcfe010304fbf9f2fd02,
0102fc0403fa0301fffc020cfbfd02010108fe09f7f610fa01fbfd0202040503,
ff01fc040001fefdff05000300ff01fd02060402f60203fdff07fc03fdf807fa,
fd04fe05fcffff01f803fa08fd00fdfe0100ff0001fcfd01fe020207fffefe00,
0300fdfefefefffffefffc00fdf9fc04fcfbf907fefdff0102ffff02ffff00fe,
ff06fef400ff0cfc04ff0602fc01fbf90400fd040400f7fe05fcff0000fc00fd,
00f700faf4fd0500f80b04f2fffa0e0300f80304fc07f70203f20202fd06f9fd,
04fefc02f8fe0203fdf50203fd02f0fd05fd0000f9fefeff01f604fefafffb03,
040401fbfe02030100fc02fafd01fb05f9f803fdf2fef40200f902fafefd0202,
fc01f305ff03fffd0205fafbf902020100f901faff05fd03fdfa01fbfdfdf905,
ff0901fd0003050ef9fef800020dfd0ffcfcfdfcfbfefe070107fc01000000fe,
fff908060201060204060bfe0400ff0703ff07010200fd0905fc050701fc0000,
09f70506100406fcfdfc040305030703fcfa07fc04ff08050df80c17100104fb,
fff9fefdfe050105fbfa05fbff05050201ff01fd0201ff03fffbfd0308040707,
fa07030a0afd000101f8fdf1f40402fcfa00fcfb000402fefe0f04150203fe00,
00fffcfcfe0000fbfb03000705fafbff04fafdf8fa080201fcfbfef8fe050703,
01f4030402fefcfd06f8061001fefcf9fe05fe0503fefefd01fbfbf6fa06fafd,
06f30300fb04fe09fc050003f504060001f50310fdfbff0400f5010cfcfcf508,
f9fefd06fa0101fff3f70408000003fc0104fffff807030104f902f9fc07030e,
0305fe010001fffa0500fffb05fd07fd06f405f5fcfb070bfe00fc01fbfe01fc,
f90102faf8f8fffe0a02000107fafdf80f00060102f802fb13ea04f800020409,
04fc01fffdfcfffb02fc01fafef7fefdfb020201fafd0000000102fff8f9fdff,
00ff02fffc01010102fd01fdfa000205fffe03fcf9fdfd0500fc0101fffbfffe,
f9f704fa04f8fc00fe05fb01fe0504030205fb0000010502f903fcf705f801f9,
05f201f501fe0102f5ec01fc02f8f20d010005fdfe0508fe09f601f8fe0206fe,
02fffbfffbfe0102f5f801eefe01f8fcfbfd01fefafb010200fa0305ff030502,
03fe000602030003fe0304f9ff000201ecfc0de5faf900fdfbfe060301fb0301,
02fe06fcf6fff9fd02fbfa040403fffcfcfdfcfe01020307fafc02f0f703f3fa,
fdfbfffd040501f5fafb0800ff03fcf905fbff00070503f9fffefefcf90003fc,
0ffafefc0ffdf3f6fe0101fc0401ff0403fa0b010203020102030108fffd00fe,
0c0915f60df1f8fe070206030af9fcf511fe09080a01f1f81a040afd270df4f7,
03060208fc0001f8f9090601f9fefcf7ef0300ffff01fff5060204fdfefbfcf5,
fdfe02f901fd03ff0dfa060afbffedff00f607fc01fff6fffc07fef307fe0401,
fcfc01fefcfdfefefcfffbfbfffbfffd09ff0605fb04f4fb01fa060200fff8fa,
0005fbfe0108040607ff05fb06000d090703fc090109090505fef900fffffafd,
fdf403fb01fafa0cfd0400fc0704fc03feff0706fd00f71b0105ff01fc07f815,
fc02f5fc04fafd02f7fafffcfd00f2ff01fd04fd00fc000300f305fb01fbf808,
fd00ff0902f8feff0100fbfd0101fa0602f20efcfb08f4f900fc02fc04f9f7fc,
fd02ff0cfd01fdfbff040903fc05fefb04fef904fb0907fe02fefe09fe0a19ff,
fcfa0004fa01fe0100fcfe01f900fffffdfd01fefe0300fffc010201fb0000ff,
ff0202000000fefbfd04fe0700feff0300ff0004fffd0004fe000300fb0401ff,
00fb02fafb0b0500fefdfe0400ff03fefa05fdfffdff0003f9fefffe0702030a,
fefafdfe070304fffef40300fa0c09060107fffdfd0208ff000700f901070607,
000afe04fafb01f90504fd02f7fd0705ff05fe0303fc00fffd02fb040f000f02,
090004f702fcfd00000c01fb0204fcffff02fefbfe05fbfa050afcfcfc0500ff,
03f8ff04fbfc05fe04fcf9fef702080903fd02fb07fefc0009fffef704fffafe,
02f6fffbffffff0906f3fffdfd03fd0302f8fdf7fcfdff1303f6fb04f5fe0502,
010502fd06040208ff0204fafafdfa09ff0004fdf7fcfc12fc03fcfafcfcfd0c,
faf8fef1fcfdfff0fa0100fdfe0106f804fd00000801fffcfb03fef9f917070c,
fdfffdfe0004fd07fdfc05fb0007ff01fcf5fefef9060204020402f809070500,
010003fcfafafe03fffdf8030300050004fcfb06fc01fafbfe000bfefc04f100,
fc000102fbfd01ff00fafcfff9fc0506fef9fa000a0102f8fe020308fefafcfc,
fdfffd0101feff05fb04f9fd05fc0b0cfa02fe0003f80207fefd0007ff03ff00,
fdfa00fcfd030203fcfafffffb010500f7fbfff5fdfd0901faf80203fdfc0006,
0603ed020bfefe0c0804ec0dfffb010401f9fd00fe050504fef7fdfcf90a0103,
fcfff80308f900fdf608f6060800fdfd0f020901faf908f506fffe01fcff02fd,
fc01fc03f80105fdfbf8f9fefdfe01fef504eeffff090106000606fefa0a0601,
fefdfef7fc0003fefe00fbfbf80008fd0100ff0208ff0203fdf9fe01ff020000,
fffd01fd0403ff0300fbfefd01fe020201fefffeff0106ff000000fb04020402,
03faf900fefb04fb0302f606fe0000fe03fa0009fe07000104f4fd0800000601,
fefff9ff00fa05f900fdf4f3f3fbfaf601f9fb03020305ff03fefa09030106ff,
fd02fff8ff00fd00fff7f4f7f801faf5fb0000fbfc02000200fbf30203fa0bf9,
02f60702fe01030afd01fdfbfd00010106f0f403fdfbfaf3fffefefdfd0103fd,
02fd0502f3f9f506fffe0503fc02030706050101010104fe04f7fb01fc0100fb,
00fbf8fff9fffd0404010200f500f8fbfd080305fffd05fa04fffdfdf6fef900,
fafbf3f9f8fcfef8fc02fb02fc0101fdfb03f802fd0204fdfe03f907010806fa,
f7f80b02f10b0dfb01fe00000205f70afffaff03fcfaf606f6fafc0ee8ff4af9,
04fefffefe0100feff00040201fbe9000b02faf6fbfff60007fe01fefc03fd00,
fffafd03ff0305010007fafffef5fbfc040303ff02fd05fdfd00fd07f9010700,
ff000401ff04ff08fffe0403fe040301050207fffe04fb0102fc0bff0003010e,
060209fdf9fc0503f9fe0903fff4fffafd050602fdfafbfb010407020300fe00,
05ff090104020401fffa090000fb0402fd0208fbfffdfffcfc120100fcf501f4,
0500ff03f7faf6fafa00fc07fcfef6f7ffff0100030204000300fdf8010300ff,
010002fff9fefefffefbfafc00fbfcfffbfcfbf7fff70cf500f90001f5f6f9fe,
01fefef90602fafc03fdfb01fb02020105fc02fcfb010005ff04fffd030106f7,
05fbfc01fffefbfffffcfcfdfffff8ff0100f90104fffbfa03fefafdff05f9fb,
fe00feff02fefffd00fbfc0000fd0102fffcfcfd00ff00fefffefd000101fefd,
02fef9fb0705f40608000104fc03040105fc0a01fa0104fc0d0201040306fb04,
f6fffbfb0c000009fbfaf4f9fffafb060a020205fe01f6fcfefc040004fcf6f8,
fefefefc060603fbfa000005fc02f305fd0608fa000208fdfc0307ff0bff0004,
050900f808fa01fefdfef9fd0603fbfcf9f7f80efd01edfbffff02fe0305fcfa,
fb0303fef801030d03ff01fe0001fb0a04fdfef80400020002fdfefb0205f20d,
0201fafbfb01fb01fd0005f8fefdf8fe000303fc06fff406fc01fdfef6fe0508,
fffc03edfeffff010e010001020500fc0cfbfc010004fefe09fb02fc0305fe01,
2703fbfdfa0c04f105fd05f9fc0601f8f907f8f205fffffe340300e605fcfbfb,
0508fcff070003080504ff050106000603f9fe04fe00feff0004fdfefe0309fa,
fcf9ff0003fefe02f9fb01fdfcfb00fcfcf90401fafbfefcfdfd030406fff700,
fef902ff00ffff0600f3fb0303fcfa0300f901fff9fc0600fdfc07fffb020102,
f901f9010602fdfef9fefdf9fe1b01f4fc0502f8fa0bfef8fef80401fffa01fc,
01f8ff0300f9fdfffc020300ff09fbfefdfdfaf3fc0ffff6fb010af90407fcfc,
03f80702f206f802fff800fe090ffaf702010001faf901030401fbfefbf802fa,
010201000807040602fdfb001103f504fb0601ef0e02f7f80401fdff0000ff04,
fc04fdf803f8060304fd01ff040806ff03fefe030604fcf50106f6fc03fcf8ee,
fd02fffaf9fe03fcfd0003fcfffdfdfcfe00fdfa04fb0100fbfefcf701fc0504,
0000fdfd00fe00fcff04fdfd0003ff01ff0001010002fe00fd0200ff00fefefc,
fd07020403f701f9fe0001fd05fbff04fd0400fa01fcfc04010102fb03f90201,
f503fef90203f803fa0afb02faf8fdfefb0601fb03fefd03f20002fd0400f804,
fd01fffe0003ff03030301fdfb03fe11fb0405fdf9f8fa05fa0304fa0701f701,
0003fd01fffaf9010107f802f90ffb01040006f0ef15ff0b0304fb03f8f3f804,
0000020cfa00f701fe02ff01ff05fb02ff020103060afffb010705fef7060204,
fc0600fcfdff03feff060102f904fd00ff07fff50101fefd06fffe0600fe00fc,
04fcfbf7ff00fffdfd03fefefe02fbfdfd08fffe00fdfbfdff0302fc0604fffd,
fcfa03f507fa02f9fefbfaf701fbfcff0301f6f9160602fcf3f1fffb26f800f3,
fd00f900f804ff00fb0901fdfb04ff02fe0402f7fafe020405fd00fcfb0302fd,
fe040108fe04030108fdfafc00f8fafff601f0fafcfefd00fc020400fc06ff04,
0700fafefbfeffff0507fe02020302fff5faf9fe04fafe02fafffd01f9ffff02,
fe000702030402f5ff02fe0b0203f9f2f906f609fc12f9f6fa0200ff02010107,
fe0305fafe02f6ff03000b01fffd0bf300f60301fdfd06f4fcfdfefefb06f2ef,
f7fef9fd0108fd06f902f40002f8f707010a0301ff01fb0000020002f9050604,
fa0400fbfb01ff01f50cf8ff03fd01fcf906fdfb0700ff05f70501fb0202fa01,
00fc00fefc0204fe00fdfffcfcfaf8fefa030d01fdfff700f3fa0704fc01fe09,
fa03fffdf9ff0700fafefffdfc0100030301fbfafc00ffffff030001fb0404ff,
0400fffd020004fd000001fe00ff09fdfdfcfdfb0101ffff0200fdf9fe01fefd,
01fefcfa04f903fa0502fd02030101fefc01ff0606ffff000002fc06fcf802fe,
0103fafdfd05fffe01fdf601080ef9f105fe020002fd060500080105fcf80409,
03fcfe00fb0502ff02fffbf00efd0002fc01fcff0a020300020601fffd020206,
fc00fd051001ff02fc00fdfef9ffff01f6fbf9f520f5f4fcf3fdfafd17fefd05,
fefefd010401fe0cfbff020a05fefcfbff0102feffff00fe0602fbf10ff6fefa,
ff04f60703fffbfaf9fdfa0006f800fefd0100f600fefff503fefd0003030104,
fb0efdfb04ff03edf903fd09030402fafa05fd0403fd02fafd0300f8fd0203f3,
f5020102fefaf9f1f8f600fb06fdfcf600f6f800ff0100f30043fe03fdee01e6,
fafc03030505fe0bfff207fc010a0108f9f601fb0102fe07fcf6fcff0003fdfc,
060205fefd00ffe6fffefc00fff5030d05fe0006f9f604f8040900ff01fdf4d9,
02010401040001fc050401fcfcfffae7fb02040300fefc0e02fd0502fdfd05fe,
0206fcfd0b00ff00ff01fc020af3f70102fd020500fefb06010104020401000b,
0205fcfd04f9f9f6ff04fb020601fffb0306f90809f9f1040502fb0403fef506,
07f703030905fa0905fffefa0505fb00fd04fa0204fafff00405fb0303f6f3f6,
04f808ff07050805f9f807ff04020207020602f7ffedfc0104fbfd000afe0303,
0005020a0101fe0a03ff0c02fa050402fe000900fefffdfc04030305fdf0fcfc,
0200010303ff00040101fdff0200ff01020100020004fd00ff04040203ffff0a,
ff0103fdff04ff05ff0000ff00030106ff00fd020000ff040101010102020001,
f801fef8f90801f607f9fcfd0308f60109fcfffbfc08000201fefcf3fb03f9fa,
f604f4000001fbfbfa07fa0805fefdf800fdfafc00060106fbfefbf8f90d02fe,
01030000fafef8fcfef0fafefbfffaff01fbfe02fbfef9fdf9fef4ffff0000ff,
0503010104040004040101010104f702f8f6f3faff04eb0204fcfd000702feff,
ff02050901fc05fdfe020205f7fd05ff030906ffff00fdfef901fb00fe030108,
0203fe08fef90203fd02020efdf500060000fc0ef8f8fdffff06010400fa05fc,
f8fefa01fafb0408fffff90300fb020601fbf60a03fa0304fffefa05fefafefd,
05ed0500070bfb1709f805faff02f804fbfffe00faf806f7f6edf5fbf7050a3a,
00040202f7fe010006fd0503fdff02010e000401fffe00fb06f70104fdfbfcfe,
06fdfffbfe01fffbf402f30a0400fe0bf603f806fffafc0105fbfd00fbfffefb,
01fffafcfe030200050003ff00ff0000fe00fc090106fc070300fffefb04feff,
fc02f70a0905fa01fa0102fefe0a00fffcfffe00010302ff01fe03fafd020102,
00fe01090805fafdfefaf7040505f9fffbfb08fe0309f4fcfef702fa0306f6fc,
03fc05fff5ff04fa01ff0a0007fa0bf2fb0001050308fbfefffe050e070afffe,
fdfa0bfefd00fcfcfcfb01fd010407f7f70eeef624fdfdf507fb0efff7f903fb,
00fe020108fef9fb07fa0702f9fbfe090602030600f7fd04001202fb0efbf905,
03feffff04fd020107fd020005fd01fdfeff02040301fbfefeffffff0900fbfd,
04fc010100fdffff0500ff0200ffff0106feff00ff00fa0004fc02fe0101feff,
fb0401fd01ff09f9000401f9fafa0202fe02fffafbf80105f301fcfcfdfe0a03,
02f8fc03fe0001fef9fbfb0c00fcfff7040502f9fafdff01ff07fafbf9060903,
02fffe0002f900fcfb05fd00fff9fcf2fffffcfd02f7fd03060400fdfa010304,
fd0100010200fff9fefe00fe07fc07fdfcfaf902fdfd04ee020001f909fe06fb,
0304f603fb04ff08fefffffa03fd0013fcfa010503010000fef5020504fcf9f8,
fb0503ff0200fcfefb08ff040309f8ff04fb05fafe05f60efb09f6fc04fe05fb,
f9fffafcf5f703ff010306f8fdfaffff04fb09f8fc06fe0601f206f4fd05f800,
f9fdf505fbf8f500f904ff0700f8ff00f80100fafd06050400faed00eafdf806,
fd03ff000afd03ff0a07fefd09fafefd000501fd0cfa0005f800fd0100fcfd00,
010104fd00fd05fd0df8f40504f5fb00fefff803fcf7f8fff3ff0afefe070800,
ff07f701f903fd0101fc02fdfd0302030401f40c04fe01fe0101fa01fc03fd00,
02fc03030405fb0108f9f7070504f002ff02fc0300f5eff80205fb05fffcfe03,
0701fffdfe0207fd05000004fefa09050201f60608f510020204fd0704f90af8,
fafe0001010104f8f7fb0cfc09f900fd04fffbf800fd0002fffefcf905f603fc,
fbf900fbfcf902ff030505f6fc0006030bfaeaf701f6fe0af6f900fffffffdf9,
030900f901fd0100f5f903faf9fffc00feff01f3f8f502070408f7ffff0306fe,
ff0c02fc02fa0503010efefe02fc070100fe030102030200fe0404fcffff03fd,
010304fd00fcff06050303f9fefa050406fffcfcfe010305fe04010001fe0101,
f6fcfbf203f8f7f80200fa04f90800f70504fb04fd0704fffe07fbfdff04fefe,
03fbfaf8fbff00fafcfbfaf903f7f6fb000104f8f90a04f8fafefdfdfa06fef7,
01fffd0108fa010a0301fb030400001dfdff070006fcfc0906f7fcfcf60504fa,
f409060306ff0003fffd00fd05ff0208f703fefff5f60540f9fb05fe00fcfe0a,
fffcfafefdf9fdfffdfc00ff07f9fdfdf90509fd05fb02fffa0c00fbfaffff14,
fdf7ffff0000f7fdfaf7fdfcfaf9f2fa00f700030008fff8fefafbff01fbfc01,
0d00fff6fefcfbfafdfe0200fa0803fefeff0106030cfaf90400ff0f020907fa,
00f1f7fcf30405fd07020400fd0302fa0afe04ff02ff02f801f500f2feff04f8,
fd0101fe08ff01f902fbfe0408ff0100f90104fc03fd01000300fef901fffefc,
ff05fcff050101fefff90406ff0107f9fdfe0a000306fefe0505fbff050001ff,
04fb05ff03ff0703ffff0a030401fdfcfef9fa01fc0004fbfc0009fd020003ff,
fdfcfa01fafb01fefb02f801fb08f801f8040503fc04f90203fc00fd03fb07fc,
02ff0009faf40401fdfe0207fcf304fbf005fd0e00ef0201f601050cfcf1fdfa,
0909f80afe04fef9ff0501020203f90706000106f8f80303fffffe05f9f30702,
04050102fdf903070afcfb0301fffd06f8fb09f80ef6ef010a08fafefbfb00fe,
fd000003fefd01fffdf803fd000101fdfefa02fe05fe0002f4f408fd03f7f8fb,
fbfdfb00fe03fdfefafdfc010201fcff040405fcfffe00fefcfd02fdfdff04ff,
0100fd0703ff02fe0100fdfe02ff03fdfd0200fe01fe00fe03ff010203030002,
fd0903fdfbfc07ff000005fef9feff03ff020afbfbfefafefc0707fefafe0103,
ffff04fff5ff02ff00fefb09fdfc05fbf90302f6fe010102fc0905f501fffcfe,
080601fd050703fdfafd04fd09040300fcfc07fc030804fffd0a03f900fdfc00,
010203fc0003feff0305feff030302fff0fcfcfe1606fdfdf8f8000201080002,
fafffafffe03f900fe04fef2000004feff0402fa0302fe01fc0101fb08fbfa01,
070301fefd01f5fdfefdf9fa0501f4feff01fffd03fdfcfb00fdffffff04fdff,
fbfe000103fd07fdfcfe0103fc02ff02fffbfeff0502fe0004fcfe00fffdfd00,
fefcff020a0a01fff8020003080507000902ff00030200fcf5f801fb01110404,
02fd010205fd0501ff00fdff05fb0300ff03ff0207fc07ff0b00fe0402ff0000,
01fc00fa0202f9030203fe06ff0800f8fff7020503fdfdfffffcfdfb01f9fcfa,
000001fa01fc010000fffdfef8fefb0301fdfffbfc0407fdfffd04ff03fb02fe,
fe07fbfd03fa0403ff0afefdfe07fd030406fffc02fdfd0001fe00fc02ff02fe,
0103fff705fb0605020001fe0000ff02fbfffbfa00fefa02fdfbfcf500fafa04,
010009fdfa0605fc01fe0108ff0b070f01ff00fd00fa0307f8fdfefd02fa0c08,
06f6fe0502fc00fd0501fafffdf6050903fbfc0f01f5fb1101f802fefa03fef3,
020501fffcfc0800fffd07000bf9fcfff3000901fdf90001f6030906f9fafa06,
0103fd03fcfe0700010aff0300fe06fe01010306fdfb040203050100fcfd0703,
00040103fcfe000200020100fefa050202030200fdfd03ff0401020500fb0401,
fe04fff409fbf80303fffd01fd02040204fffb00fcfe00050402fbfd0101fe04,
0003010205f4fdfd0305000603f2f507fefefdfefc0100fc00fffffe02fbfc00,
fe01fff8fb030a05ffff0405fc0108f6010106f8010507ff01fefefa04fcfafe,
050000040100fbfdff00fcff02020303fefc0302fe0400f8fc0100fb050100fe,
eafbfd05fffcf3fc00f9f9ff0204f700fefbfd06ff04fd040201fb0c020202f8,
f700faff01fcf5fcf0fdf8fc00fbf7fc06f9fa00fefdfa06f800ff04fdfcf402,
f4fcfe040bf7faf50800fffe0300f6070afbfdfc03fff8060ffefe00fefff806,
f4fdfffe03020302f7f701fffdf807f9fe0300fe0202fb01def801f70207fa01,
00fafdfcfe0101fe01fbfef10101fcfb00fe01f801fd0200f9ff01fc01030100,
0103fd01fd00ff02f4fcf90005f8f901f7faf90103f8fd0404ffff0000fb0405,
0101020101feff0503020000fffffd04f6fe040201f7fafffeff02fefffdfe05,
02fc02fa07fdfdfe03ff01f2fdff05fffdfffcf7ffffff08fe02040501fafc01,
0504fa0d0401000804030201fffc03f9fefff6f5fefd04fbfa01fafbfcfb000d,
05050506fc070ef503fd00fb0603f4f8fc06fd09020102fe03fff5070204fc01,
0500fdfcf7fc0a030703ff020702fbfc01f9eff827fceffc08000602fe0805f9,
040301f8fefafa06fb00fbf5fdfefcfefb07fcf8fc01f9fefe02f4f009ff05fe,
fe01ff04fdf8fc02fdfefd00fdf6fc0709040101fffbfd01fe0402fdfdf9f905,
03fffcfefffdfcff00fffdfdfdfbfe01fefe00f8fdf9fc0602030102fefafefc,
fe0405fcf9fffefd000b010200fefcfef90003fd08030201f30305fcfd0000fd,
08fcfb00fcfb06fdfe01fd0001fe07ff020700010402fbfbff0102ff02ff02ff,
ff0001fffcfffdfb02fdfe03fc0803f30303fcfdfe0200fefc09fbf8fefef8fc,
0502ff00ff02fcfc0000ff00faff00fff9faebf9fa09f7f1050501f9f70200f8,
fb0104fb05010106fa00f40001ff000e000104fcfe01fdfffb00f904ff05f9f4,
05fa010101080a03fcfbfcfbfc060e04fd02f4fcfa05080cfd0400f803040200,
f909ff02fefffffb08030804020101ff0203fdfffafeff06010103020002fdff,
f70908fcfffc0003080803fbfdfe08fefcfc02fefdf9fd07fb09f8fff903fe02,
00fd05010102fafa02f60903fe05f8f708fb0400fd06fdf6000101fffffd040d,
faff0200060105ff030201fb02fefdfefcfef70900010207fb00fd04fffe02ff,
f70002040b020500faff050003ff0406ffff040301fffefff6fdf90507030007,
fc08ff01fafc0205f60505fef700f6fffb0206fbf700fcfdfb0200010001ff00,
0107040601fb08f8fffcfb03fefa04fffffd0704f7fc02f8fb050404fcfd07f8,
ebf9fffefd04fa03f1fd0dfafe06ffff07fe0205fdfe05050efe0206fffd0c01,
f7f70ffefafcff0006f903fdfffefaff16feeff6f7050205f6fd06ff0004fbfc,
fc03ff0501fd05fcf6fc0b0004ff02ff04fb03f808fa02061005fdfa00030604,
fbfdfa00fdfafffefb02ff0501fe02fcff0200fcff0001feffffff0201fb02ff,
01030104fe000100fe000102ff0202fdff030002fe0702fdff01fffbfefefe02,
f807fc020101fbfc05fe0001000300ff02020600fe0102fc09030602040402fa,
f8ff030003fb00fbe9f9fafa03fc00f601020305fb040503010603fdfffcfe00,
0606ff0204fe0001ff07fb03f4fdf8020506fffe08fbfc0002040206030404f9,
000100ff03fdfd030201fffc02fdfdfefe0af8f5f9fbf8f8040102ff070300fe,
fffaf3fcfdf800fb0000fffdfdfefef90101030101f9fbfef9fffdf8f6f804fe,
fd01fbf8fef4fcfdf705f5fafaf802fafc0704020201fcfffefef9fafcf4fffb,
0305fefe04fe03f5090806fe03fffffc010604010000fafa0a060804030400fb,
fdfc08f7f80803ff0bfffefaff06fe020506fcfd04fe00f6e00006fe04fcf3f3,
04f9fffeffff02ff08fb00fff6f900ff05f9fcfefdfbfff70701f9fc06fe02fe,
030302040005f8fdfcfdfff6fefb0308fdfef9fdfcfbff0001000108fd08fffa,
01fc0102fefefdfeff030102fb07f604fdff02fc00fb020301fc0204fcfe0004,
fe01fdf80704f9fcfafff9fd0302f8fcfb01f9f801fe00fffffbfb0001feffff,
01fefff8fcfc04fbfb0400f80002fc00fefbfc01fc0cfefdfd05fcf7fe0502fc,
05fc05fd0302fefdfd01050109000cfffc0204fdfef9fffa030201f9fbf801f9,
0001fc03080304fefc07fb06fdff01fbfbf9f500fee8f9080bfc02fa0c010103,
f5fd0afcf907fffdff0000fffb05fafff7000400f9fb0001fc020100f9ee0601,
fafcf900faf900fdf6fafffef9fd01fcf7fe01fcfa04fefef9ff0501fa03feff,
fb010700fefffefefc00fffdfdfbfefef90005fffd00fefef8fc0302fdfdfefd,
0a01f709fffdfefdf80103fdfbfdfb02fb0107fb00f7fa05fcfbfffb00fe0402,
03fefb07fbfffcf60cffec06f500fcfdf9fffe0000f5f900fefd010203f6fbff,
fd030102fbff080200fef90102fd030502fe0405fb0107fdfcfdfe0105f7faf8,
00ff0606f6fffc03fc0200ffff030705fcf6f001fbfc000302fdfe03fc000402,
fd02fc010801f200fd0607fc0405f8010005fd00fb03030600fdff07f5060305,
ff0202000700faf90206fffe0603f9f8000204fa0108fcfcfdfbfa010304f5fe,
f8000dfffffe04fffe01040104fe04f9ff03fe04070401fcfc01fa03000205fc,
03ff06fc00f70000000104f8fffcfdfdfc08fc01fcff03fef7fe050a06fcfefc,
00fefc0008010006fb050404fd04fd03ff06ffff04000401ff0100fb01fd02fd,
0a0203ff0401fd05f904fe10f8fefdf70011f60afa04fafd0a0e06ff03fdff01,
fefdfcfe0203fd02070302ff0403ff05ff00fcfafefd02ff0008fdfd0002fc05,
fb040005fefffb09fffc0404f8f9fb02fff60c02fcfbf9fdfafdfffc00ffff00,
0700fd0205ff00fd0605fb02f8fafc030108f802fdf202fe0405fffef9f8fbf7,
00f302ff08fb07f90bf301070cf706f70500f90006fffcfd08faf6fd05fe03fa,
00f5ff04fefb000606eafdff0400fe01080e0403fa0700f8fbf903fffd0006fd,
fefdfa02fffe01f901fbfe03fc00000701ef0600fc03fd01040401fdf5fc03fb,
00000002fefb02020101fc0502fbfeff0300ff03010101fdfd00fd03fffd01fe,
fd00fffdfd0001fdfcff01fefefd0201fb0102fefcfb01fffd0002ff0001fffd,
f5f8f109f8fe0406ff000afefd0301fe01fd0200fdfefcfa00fa000404f50007,
f9fcfa05f7ff0301f902f806f7fbf90fff0605000106fdfffdf7fa01f803fdfc,
fa06fa01fbff0301fc05fb00fafb0705f7fafb05fb000001ff000b0102ff00fe,
f909fcff000bfe02fe01f9fcf7fffcfef60ff7fb05fcfffef904f9fdfb030102,
ff05f901f9fe00fafcfb00fbfd01fcfdfefefcfd0006fefdfc00fd0000fe03f7,
fb02f903f80401fe0003e802f6030000fffcfd01f5ff00f6fa000403f90204fb,
0000effa000a020000fdfcff0700fb02fe00f7fff501f80604fcfdff06fbfbfe,
0c03eaf4e8f300ff0404fa01fb03ff00f803f9fb03050308fbfbd8e3f1fafd12,
03010703030401fe0101050b0705040000ff01040105fcfe00ff04050603fd00,
ff0200fa05fdf905fc030808fc02fd00fcfff906fefeff04fb0402000df9fcfd,
0205fffdffff00feff04fcff05fbf9fe0000fffbfc0801f9fc07faf9fe0303ff,
00fb05000401fefaf8f5f804fffff702f70509fefd02f7fffb0209fcfbfe0201,
06fe0407feff0300f801040205fc00fffbffee03fbfbfafcfb01fb01fcfdfbfe,
fe04fd0204fd0303fafdfaff01fefc09fe0d050305fe02010703fc09f80200fc,
ff09fafc0502020502f9fcfafd00ff01fbfef9fdf7fafef9fd08fa0105f90003,
0103070000ff0000fa0201ff00fff805f8fffb00f8fb0306fafdf8fef8fbfefc,
0003fa01fff90703fffffe0000fd0902000205fffe00fcfd00020403fc010003,
fdff0301fdff0205fd010403fefc0206fc00010101fd0206ff01fefffeff0104,
fcfd0408fe0500fb00ff01000000fdfe0402010306fffeff03fe02fffc02faff,
fdfc0709030000fffdf4030bf70601f7010805fe0102ff03fb0104060400f800,
03fa0103fe06fb02f8ff030304030302fdfdff000703fcff00fe08030901ff03,
fe0202fcfe09fe01030704fef708fc01fd0400ff0504f9fdfd09fffdfa03fefc,
fafd030803fffeff01fd000bfdfef900010103fdfb090304f904fefd02fefb06,
fdf900070104f7fffef90209ff06fefe00fd030400020901fbff02020700faff,
fe040309fdfefafc02f90502fa03fe0505f809fffb01010503fe07fb01faff01,
fc06fbf902f8f70301030104f8fdf704fa06fffc0202fc08ec03f5f7f6fef702,
04070100000100fd040304000100fff30200fe01f900fdf7ff0506fb06fd0000,
ffff05fd04fcff04ff000400fbfc0605fefa06040604ff06fefa0602fe040204,
fd01f90003fbff03ff0002fdfffafc02fcfefdfc0104fe03fffefc020002fa06,
020a0003fd060202020c03f8f8fcf7fffe0803fb0507f701f703f7fd0601fc02,
0001fbfb0a00000003ff0103fd05fdfd03040302fdfbf900030304060c03f802,
ffff02fc08fcfaf904fffd0404fef2f802fcfb07ff03f9060302f703f9faf802,
fcfd05fd0002f7fb0206fc04fdfc02fb110e070a0703fe06fe02080501fa01fb,
00fe00fefd00fd02fef7fcfffa09fffdfb01fff8fa0202050108fc020603080a,
06fb01fdfefffeff04fdfdfdf701fafe0200fcfa03ffffff06fafffdfdfe0404,
ff01fdfa02fd0102010100fefdfbfc05ff01fdfcfefefb06000001fa01fe0403,
03f2fdfc0304f9030402fbfcfc0202fc04f800fdfffefe0204f903f802030403,
fbfc01000204f50208f6060201fef904030001fefe01fdfd03fd03f9030bfb02,
0000fcfa06fafe01fafcff0006f1ffe9020400f704f606fff90501020402fb00,
01fd08fcfefb0300010302fd01fdf800ecf900fa04f2fde101ff02fc03fc09f9,
05f708f802fef6f8fafa03fffe00faf80000fffc01fcfe0501f6fa0002fd04eb,
030001fa01faf9fd0af805fa00fdfefafbfd01fb01fc09f802ff02fa03fffbfd,
f821fd00fd080705000301fd06fb020404fa04fa05fb0101fdfaff0008fe06fe,
fb0503f9fc02fbfcfc0803fef8010201faff07f9ff0903f8f71a04fcf60204f6,
01f8ff00fbff03faf8ef04fcfe0d06f9ffff03fd00000203fcfefcfbfcfc0002,
f707ffff0afc03fffbfe000503090002fdfefd0300050605fe07fffd07fb0601,
fffcfb0400ffff03f8feff0203feff0002040300fefeff00ff03f903fdfbff07,
01ff03f8fe07fa0a010206f6fe060003010501f7fc0b0400fefb0200fd01fe04,
04fffe08fdf8feff050000fefafdfcfc03fd08fafafdfc0a08fd05fffff70805,
01feff00f9fdfef906fb0204ff05f6fafa04ff0401f4fc02ffff0200fdf7fd00,
fb04060202fd0300fc0400fdff02fe08050401f9fc0efe0902fa0300f8f407fd,
fcfb0501fe090405fdfe01fcfcf7fbfefc05fefc01ff04010cfc0001fe050509,
f8020000fe040704f7fd0201ff030704ff0004fdff01fe01fd0003fffe050006,
fc040402fbfc0400fb010304fc060203fdfd0302fc04020afc0001fefffeff02,
00f6fdfb0a01f4fa07fffffffb0000fdfdfcf700fffd06fdfdfcfafd0b01fffe,
f6f9fbfe0605fcf6e6fb09fb09fcf3ea07fd0100fe02f7fe01fcf6fd0204fdfd,
060afafc0003f601010efc03f806f70203090101fb00f800fefcfc000609f9f8,
ff0403fe0009fff8050dfc020007f9fbf910fafcf200f5f6040efe01f806fef8,
0105fefe0202f4f905ff00fffffb0703ff0301fd03050301fef902000200f9f8,
ff00000204fd02fbff0301fc05fbfff400faff0402f90808040401030101f9f8,
fd05080209ff01fffcfe020201fb0703fdfffc0600f403fe01fafa0501f80704,
fdfdf601fa0bfaff03fdfa010106fd05fb040604fa05fdf7fa0308f9f70efd07,
06fa0502fcf9fd0205fbfb070304fa0704fffd0509fdfbfc01f900fefdfffe00,
04fb05060701060af9fefdf4fffeede9f900fcfb07fffafd02fc000805010b0d,
fdfe06fd0703fc0203fc02ff0afdfe0cfbfeffff0307f4f3fb0301fe0b00fafe,
0800ff0405fbfb000f00fbfd00ff02010ffefb01f9fdff01fbfc02feff01ffff,
f6f904ff0306f9fcf7f0fd0507fffdfc02f8ff0202fffbf6fdfdff06fa02fafe,
fa0300fbf502fe0604f8f2f8f7080007f4f801fe0101f701f7f4fb020006f2fa,
ff0500fbfe0204fff902fefb000a02f7fd0cfafe0102f7f4fd00fdfefb02fc07,
f9f6fafd0509fdfafe0604fefbff01fafcff01fa010104fafc01fdfa02fdfd01,
fffef9fcfd03f8f0fdfefbfc0309f9f4fdf8fefeff0103fffcf5fefdfd03faf6,
fbfd00fefd000001fafffcfcfd02faf8f8ff01fc090af8f800fd00fefd01fffc,
00fbfd04fcff06fefd01ff0003040900fefdfcff07000301fb03ffff05fb02fe,
020e0a04ff0004f603040605fffafdf9fcfefbfe0301070400fffd0302fc0301,
010e00fafa05fc04fd1900f1fe05fb12000ffefafb05fd02fb0e0608fa04fcff,
0b05fb01f9ff0008060e01f4ff0202fff931feef0003fd060506faf6fc000303,
fef401fdfa0afd020000ffff040203ff0d0605fdfcfdfe08040bf9fff903fb09,
03fcfffeff0304fb03f5f9fbfd0303fa0809fb04050200fc00fafdff04ff06fe,
08fe030702fcfdf7080509fb000100fc0902fbfc0303fbfb0d0b04fe00fffdff,
07fffe2900f9fdfc07fefefd04fe020006fbfd0b03fcfdfd0901ef37f7f7f8f6,
f906f5f40a010300f902ffe407030002fc07fafa0204fd0306fffa0001fe0603,
f90806030403030506f6fef3fcfe0afa01fefff9fdff0000f20c03010101fd05,
00f8fe0300ff02fbfe040406010403fe03fbfafa04fbfbfefefc030006fe02fd,
02080703f9000305000902fef504ff01060bfc05f7fd03fe04fdfefcff0200fd,
040400fd03fffefe0b0e050000fc02010d1408fdff00f6190a1105fffdfef90d,
fd06fcfd01fefefc090cfbfe0407fbf9030908fd070101fe020604fc0605fd02,
fff803f701f801fa02fa0aff03fc01040703fc010809fc03fb06fefafffdfafe,
fd0300f802fef801ff020801fc01fbfe06fc070200fffc050e00fbfc0202fb04,
02fcfef601fafb0100fffff900fbfcff010102f9fffdfd0600ff03f500fff801,
000202fd0300fb01fefdfdf80204fa03fefa04f90305fc04020402f9fffbfe02,
020209fe04fe07f9fa0004fc00060807fbff000200020405f70a0201fd020602,
01f703fe02f7fff607f00bff03fd02eefcfefb00050c030301fb00010407ff00,
0701fbfc02f90503080104fffffffe020805fffe02000202fdfe030101030101,
03fd01fbfd03fff905fffff80203fdff010204f802f6f8fc05fef9fc07ff0403,
f4fffef704fdfb02f700010303050706010000fbfdfd080201fd0001f803fefa,
fcf903ff02fffbf900f8fef9fe05fefbf7fcff0301fd0cfbf70500fc08020004,
feff06faf7fef9f9fe01010701fafbfa00fefe0604fc05f801fe020800fe00fb,
02edf9f3f7ff0102fcf90400fcfdfffb0102f402f9fe00fa00def7e3f6f6fffa,
fe1005010202fa01fe1bff0102faf807fa11fc0001fffd02ff020101ff0500fc,
00fe0102000005fc030200f5fdfc0c04fdfff701fd010ffcff07010401000700,
00fffc00fffd0200fc01070700fc0afe030201f807f80e0000f8fffd02f805f8,
01fe060100000703040105fd00fc0a12ff01000104fcf905020202ff01fe1003,
f7faff00fd0205f1fcfe0101fc05fcf8f40704f501faff01f207fdfa030805fe,
0501ff03fefa050705fb07f5fef9010201faff000002fcf3fcf801fdfcffffea,
fb04fffa02fa0d070106fcfb02fa07ff01f4faf30eef06f6fbfdfcfefffd0004,
03f7fdfffbfafffdff04fbf304f80408fcfffafa0aff000700f8fdfe05f80105,
f804fdfef7ff02fef901fe01fafc00fd0000ff08fbfe03fb01fffbfcfafe01fe,
fd00fe03fbfb02fcff010302fafd03fb00fd0205fbf9fff9fc02fe04f9fd02fe,
fd030209fbfcf80006020107fb0102f80303ff07040701fb0106000afe00fbfa,
fffaff09f9fa0004fdf5ff07f80003080102050701fe02ff0404ff0400fef8fc,
feffff0a00ff0500fafff303010406f40001fb02fc0302fefe010209f9f9f9fb,
02ff0002fb01030300030205fe00fcfff502f60d030400f7ff030308f504fe03,
fbfd00fffdff05fa03fafe02fc0204fe02fafc04f801ff01fafff80600020001,
fbff0202fefa03fefafc04fb020209fffcff0001fd03fdfc02fd0200fb0107fd,
05f60601f80c02f800fcff09f90200fffc02ff08fbfe04fefffcff01fa03fcf8,
09f603f4f30100f700fcfdfefb01fcfbf5f10500f70105fc22ec27f8f005fcf1,
05fcfd000300fdfd03fbfaff0100fdfdfdfcfb00070500fafbfa0002fb00faff,
03fffc000100fe04f7041100f4fb00f5f7ff0afffc03040000fd00f903010502,
05fefffffd02fffe0003fc00fd00fd02fb0401fffd00fdfc00fff804fe020302,
feff09fefe0200fbfefe00fcfd0107fcfcff05fe060200fafd02fcfc00ff02fc,
05fefd04fc00ff0102f90a07f8fafafffafd0f03fdf5070100fc09fefdfd0004,
f8f903ff080bfafd000206fe0a01fbfd02fdfffdffff02fc01fefe00fbffff05,
01f9fcfb09ff0002fcfc02fe00fefe06fb1200f2f0fbfb01ff00fffc00fafeff,
00fa00fcfef9fff9fcfcfc050203fb05faf9f503fa030201f3fdf6faf4f1fbfb,
fdfffd00f7fd05f7fcfdfefef8fc09fa0000fffe01fdfff901f900fdfdfa00f5,
02020000020103f9fe00fe03fc0003f9fc00fd02faff03fcfd01fffcfffe02f7,
fb01fdfe02fef4f700fe0305fffe05ff06fb040404fef9f6fdf8fffd07fbfdf4,
04fc01fdffffee02000a03fa0005f50002ff0406fffffdfdfcfa010204ffeef9,
03ff01fd0101ff00ff00fffdfbfcf9f6050102fe04ff03ff04fdfe0102fefd01,
fc010300020103fcfefd01faf902fe000c01fdf0fb02fafa09fd02fc01000000,
fd0506fffffff806fefb00fd05fefd0300050103ff03ff0008fd00010002fd01,
fd0306fb0200f8fafeff010003fcf6ff0300fcfe0005fdfc010507fe05fffe06,
f8ff08090601fdf70503fefd040200fc0404fafe040301fc0001f4fafb0500f7,
00fe070b0500fcfefe030400120100fb02fe07fb0100f9f303fcfc22fc00eef7,
010602fdfc02fffd0a0c03f8ff0a04fd000800fc0803fffffd0407f90606feff,
fef700fafb040901fb0a05ff01f6faf704fd01fbfef905f902f2fffc020b0afd,
020105fd05fe0403fafcfffc03040700fc0a00f8fffbfefe00fe02fa05000202,
051102020302fefcff11fdfe0102f2fefc0d00fe0708fefb000805ff00fe0002,
00f80203ff04fd0201040707fd010200fd190503fcfefcf6fe0d0801feff01fb,
f9fefb08fbfd0002fc02fe06fe010a03fcf80302fd01fe0702f805030406fb00,
0302f90506fbf2fff8010304fff9f6f7001308f40a0efff302fafe06fe040101,
040700ff03fb08fe00fefdf900fdf8f80005000203f5f7f9fa040aff0b09fffe,
030c08f901fbf7fdff0e05fc02f901fb0402fe010000fe00010104fdfffdfdfe,
0407feff00fbff01050604fbfff8fffe020804fc01f702fd0103ff00fffcfd01,
0b05fc07fefdf9fdfffa02fcfdf7fffffafc04fe00fefe03fb03ff02fefeffff,
0004f80100fffa03fe0ffb27010201fdfbf804f1fff7fc00020103effefdf802,
04ff0000fc000103fff7fefdfd0b0bfd05fa00fffbfc02ff020002f3ff02f702,
00fc040001fe020708fe00020001fdff02fcfafb05091b0009fe0400fb01fc08,
f5f7fe0905fffafa02fbf80201f7fa040101ff000203fc03fa02fd0100fd09ff,
fb03ff0706fd05fef901fc0b03fa03fc03fc01f7fff1ff05fa01fa0608fefafb,
09f606f906fcf1fe03fa060304ff0200040000fbfffa05fe07f800f500fcfd02,
04f507f2f706fb01080106fe0005ffff03f2fffd0af5f8f405db0de2f304f6f2,
fa05ff03fb070401ff07020303010806fc0a0106030603010103ff0707fefdfe,
fc05f8f5ff06fff7fbea030609f50104fffdf90406fa00fc0005f6f2fa0d01f8,
fefffefffdfdfcfbfe00fdfefa04faf9fcf9010803f4fe00ff02fafe03fafffb,
fcfbfaf8fffafdfc04ef01f8f4ff020101f4fbfafc030203fefffd02fefbfe02,
fbfdf80102fcfbfffffcf4f903fa060601f2fbfdfeff040303f5f5f8fcfd0afd,
01f905fefb04fff5fefa0701faf7f9fdfc00f8fffe020102f6fff9070201fdfe,
fff8f201030301f7fb03010001f9fdfbf706130cf9f1f702fbfc0301fb0303f7,
ff0201fd03fc0103fbf9f101fbfa00fdfefef900f7f9fdfafd030407fafd0401,
fafffef900ff04fdfc0104ff01f80201020008f8ff020200fe0001f702010103,
fffe04f6fe010202fc0000f9fbff01fefd0205fffafc0003fd0003f801040001,
fb0104fb06050efd04fdf8ffff01fb00fd00faff02fffc02030406fd06030601,
0202f7fd000509f90503fb03fe0b01f201f900fcfdfc01fffbfbf9fcfefb0502,
0102fe08030000030dfd0d03ff000301fdff0403060401fe0402f5fafb0209ff,
f001fcfdfcff01fd02f9ff08fdfffe0713f22105fbf5f703fcfb0202fcff0101,
f7f2fd0703fd03f9fb0000ff07fa01fafc01f9fe010104fe0b011902fdf600fb,
03f7fc0600f9fbff00fafa00fdfd01fdff02fbfc010002fffef7fffa07fd03fa,
08fefa02fc0200f205030006f8fd02000103fc06fdff0002010500f9ff020304,
fbfb0400fd01fd04fffdfefa010900fd05f602f9fa0702f70cf2fdf4f8f60d05,
00fffcfffd01fbfcfc06fb04fc03f6fb01fffc03ffff050101fdfe040206fafb,
fcff02f8fffe01fbfbfdf809fc13f80dfefffc03fd0ef809000205f501f5fef8,
03ff020200ff030200fafefdfe02fcfe0102fa03fcf7000800fd000207fe0201,
010702fe00fd04fcfbff00fbff06fffb01fbfe03f900fdf703fefd0102f50504,
0004fff50402ff050200090600fa0404fcf9ff0201080305fffe08fefd02fc01,
fdf20301010203fdfd0502040204fefd00020110fafd010004fffd02fc010205,
04f006f9f302fef707f600f6f307fcff0803f60b040bf527fcf50007fe0302f9,
06fbfd01fefefff904f20002f80402fd00fbfefaff0505fbfc05f90303fcfc04,
fffefcfeff01fdfafefbfafffd01fbfe0202fffcfa0200fd02fefd020202fffc,
0202fffefe010201ff00fd01fe0102010101fd04fe01fe020002fefdf900fffc,
000510fffe0309030004f801ff00fffc09fff2fdf903fdff0103fb07fd04fafc,
050a05050605fdfffbfe1ff902fe0602fe00f0fefa01fe020803f003f408ffff,
01ff02fefd01040403f002f7000301f100fe02fcfe06ff02fa08f40504fff8ff,
fa00020301fc010101fe04fff702050507edfff6f80b02d900fcfffc0101fd05,
fdff05e9000906010208fe0b06fe01f8fffcff01fdfc02fe03f4fefef5fe02ee,
ff02120302ff0101f80511fef6040504ff09fb1107f9fdfdfff60af7020101fc,
060203090701fefc0003fe090405ff0001fffe0afdfff90305fff70c0706f8fe,
0100f905fcfa05060202fe00ff0afe0003fa040706fdfe0405fbf505ffe4feff,
050200fb020400fefd000201f80dfdfaff00fcfd000cfafa000200fdfa040202,
11fcfb0efc03fd03eeff02e0f804fafff90201f401fffefe15fef9130403fe01,
ff00fd030102fd020dfe0009fc04fb05f5fcfcf901030307f8fffbff03010000,
fe02fcfffafa04f8fb02f80afaf90701fe060305f6f204fbf803fdfe0302fb01,
02fe00070503f5f5f60100fcf802fbfdf1fbfc04f505fc0bf5fe010300fffb00,
00f7fe02fbfb000600fbfa00eff4fe0cfcfb0206fc04f8f805fefb04fb09f7f7,
ff08fefffd0a00fefff8fafbfc00fffff7f6fc04ecff05020200fbfa020302fe,
01fffdfcfd04fefc01030304fffeff0502fffbff00fefa01f9faf30bf100f7fd,
05fb00fa010a010103fefd0000060401fefdf9fefc04fdfbfffbfef8fe07fcfe,
fffdfe000001fdff03fafefbfa03fcfffffefcfdfe02fdfefefefdfd000300fb,
fdfb0000ffff0a08ff00fdfffafffd05fdff06fcfef8fc03fffdfbfe01060303,
0707f7fcf7fbfefffd02fa01fc05060403faff00fcff08fd0bf2040200f6fc05,
0004fc0600ffff010607ff0402ecfbfd040402fa0401fffa0505fbfc00020403,
04000200ff07ff06000201ff010406fe04fd02fdfefe01000200040102020603,
f707fffcf7f400fff7fe0007f6fdfafd03ff0500020401fe01ff04fffd06ffff,
02fd01ffff01fffefa0106fefef50605f90308fe01fe06fafb01fc00fefa0007,
fe06f8f701f5fffc0001ff00fc0700fdfefdfd07fdfc040300fefe05ff0701fc,
0105f90af909fdfb0102ff080400faf8ff06f90200f603fe0306fa0300f40dfb,
fcfefe05000101fd00fc0106fdfcfcfd02fffe0700ff04fffb050303020200fb,
0407f8f403f1fafe0403fdfc03fd01ff010702f902ff01fb0305fefc04f9fefc,
00fffef907fa00fe0004fefb03f5fdffff03fbfc03f8fafdff00fdf503f9fcfd,
03fd0100ff0400fb06fff9fffb0400fffefd02fefafefc0bfefffbfd04f8ff03,
0103ff0100fd0404090000fe000402fd0901fe00feff01000a010200fefe0407,
010201f709f8fcfa02fcfdf606faf8f60102fffb01fd0101020202fa04000405,
04fefdf705fdfb01fbfc05f905faf80101fc02fe04fdf9fc0401fc0308faf2fe,
0afc000505fa00fb03fffefd01fdffff02fe0002fff6010707fe0306fdfefe01,
06fbff0001fafffa07fe070405f7f7fffd0307fcfc00fffcffffff07fffd00fe,
fa030100fe03ff01fd0104fffc01fd02fb0406fef900fa06fe040102fcfcfefe,
fb01fe00f905fd05fc0200fd02f6f7fffe0001f303f9f7f4fcfdf901fb07f6ff,
010605fc030105fc02ff0002090500fefd0407fdfdf7f7fffa06ff0103f8f405,
fefef7030000fc000000030200f7f5080105fc0801fcfd0902ff01fb04fe02fe,
fefffcfafc0601f7fb00fd00fefdffff040000fbf80406fafffffd02fb0902f9,
fbfb06f708faf309feef08010af7f412fdfbfcfbfefcff0201fdfbf6f90400f9,
0703010003ff0307060505fd0504ff050400080307ffff0bfdfe05fb05f9fa07,
fcfcff04fc01faff05fd05fd0005010407fd05fdfc08fef905ff0602fc01fbfd,
06fef5f5fbfffaf806f80101fb03fbfc0102f903fd08f90200fff6fb0203f7fb,
fc02fe06fb00fffff9fef9fbf8fe06fefffdff02fafe02fe0002fa03ff00fa03,
06fd04ff010901010205ff040206fffa01ff0203fe0601f605faffffff0afdfc,
01f902fdff05fcfd00fb02fa0108f9ff05ff0101ff06fffe04fd03010205fffc,
ff00fd03ff08fd0001fefbfd0008fff900f9fffd0009f9f900fb00fc0202fc04,
010008fbfb0200fd00fd00fcfc08ff04fefefaf6ff0807fd00fe05fafd03fcfc,
fa00fff0fe0100f501fd02fefe04fbfc00fe04fdfc050002000000f9fd030501,
ff0103fc04fefdf5fb0402f7080303fbfc0407ff030a00f8030005f7fefbfff8,
0700f9fafefe12fd0204fe03fdfafefaf902fdfffdfdf803fbfeff00010dfd01,
06f7fdf8020707fa02fdf6f5fe0838f8010204fefffeeefe02fb00f80001f8ff,
fe020101fffeff00fffafd040501fefef9fffc04feff0dfc06020200fc00ef01,
fd0cfa01fe0007fe01fefe09fd01fa020000fa0401fffb110108fdfe0505ffff,
0802fc01fbfc0307ff060002fb00f8fbfafe00fefaf9ff06ff05fb05f9f4010a,
fe00fefefd01fc0203fcf902f800fc0402fdfb00fcfdfa0702010102fdfdfe03,
010306ff01010203fe00040102ffff01050500fafe070302000501fc04000001,
0300fb0cfef9fd04fefef90afe01020a010307000003fd00010406fdfe010100,
00fdfc0100fe010201fdff06fafbfb0400fffb04fc00ff080000f90401fe0005,
fefafdfaf701f9ff02fbfafd00fc040102fdfefd04fd0001fd00fff901010300,
feffff0401f7fc0604f500ff0000ff0700fffefcfafeffffff05fefafbf70007,
03fffe0201fe0200fb0001fd00f901fd02f70101fdfe05020202ff0202ff0003,
fc00fdfdf8fc0204fef902ff00ff08fefdf903fdfffd0afc02fb02fffcfc0afb,
fd00fffefc0102fe01fcff00fa01fe02fef800fefa000101faf8fffdfbff02fe,
fffd020201fffcfd03010403040005fe0302010300fef8fe02fefe03fe0002ff,
01010406fc0100fffbff0002fbfcfcf8fcff01fff9fd0af8fb01ff04f8fefcfb,
02fc010502fb02f205f70107070100f802ff0304000001fd02030206020505fe,
06fc060702010b00fafe030604f60401fc01050600040aff07fc010501ff00fa,
01ff00ffffff051104fe03fafafd03ff09fe040306fc040602fc04fefc00fffe,
02000400fcfafe00fcfe03fcfaf8090aff04fe04fb05fef9fffefd01fb01fd02,
0804060404fa00f8ff05040102fd02fb03040302fefe0af803000304fcfe03fb,
fefe00fffafaff00fe04fe05fa030502fe02ff06ff0c09fcfbfffefffbfe0303,
08ff02fef1fdfefc03fb0602fbfc03fd00fb0705fa020200fffb0605f40e1200,
fe02fffcfcfffb000300fffdf8fffefafe00fefb00f9fd02030007fff40200fd,
0402ff03fbff010402fd02fbfb01fe01ff020301fafdfcfe03fc0200fc00fb03,
fe02fbf5fe03f6020804fbfb0002f8ff030201fffc00fd0304040202ff000203,
fd03fefe04fa0005fa07fc0200f6fe020005fcfc00fa01020203fdfafd01fb03,
090602fdfcfdf9fefefffffe00fb04050300ff04fbf90401fdfdfdfb00fa08fd,
00f6fafffff700fa01feff04040001fdff0502f8fafdfd03f4f8fdf6faf9faf8,
fffd040103ff05fefcfe05fdfaf6fffefefd050506ff05fefdfffeff050004ff,
06040500fefefbfcfc0000ff00fefefefc00fc0302fff801fc04010400fbfdfc,
ff0001ffff0001ff00020502fe010001060304fffeff01fd03010100fe01fefe,
00fffe00030201ff00fefcff0501040602feff0001020400ff02040103fffeff,
010301fcfc0203fcfe02fcfefcfd020100fefd01fbff01070203fe01f9fd0600,
fa02fc06f9fd08f70002ff00f6fb04f9fe02fcfefdfffeff0403fe0201010001,
0603fbfefb01fefe02fdf90205040bf90300fcfbfd0404000402fe00f7f906fb,
ff00f7fbf7f4fd01010101f7fb020604ff00fffefd050405000004fafd040502,
fd06ffff05f500fbfa0201ee08f4f608fd00ff00040004f4fffffc02f9f903f7,
010501fefb0202fafdff01fdfefe03fc000000fc06fcfe04ff02fe0102ff03f6,
02fd05f6fe0006feff020203f904fffafffe10f9f903fafe01fc05f4fe05fef6,
04ff0300fcfc00ff00fe04fcfbff08fcfefffe0dfdfd0600fcf706fdfefefe07,
fffbfd0903fe0504f801f70b01fe0202fdfefe010201010201050103fc0003fc,
00ff03000100fdfd030000fd000000fb0401f9fc00fafbfb03fefdfd00fffcfd,
060f00031dfbfef60b08fffd10faff00fefcffff00ff00fb03fe01fd01fcfefe,
02ff000002fb00030aff040300faf9020403fd080300fc040709feff0cfcff06,
08f8fe070100fcf904f60100fdff050303f5fffbf901ff0a03f5fcfdfd010301,
04fffafef6fcf60401ff090101fef9fd09f8fefcff0402fc0a0300fffbfdfe05,
f9fdfefd020000040201fe00ff07f800fafa0b0403020102fffdfcfbfd01fe03,
0608fdedff0401fb0101fb0201fffbfcfd01fcf7000000f80102fdf5ff05fcf6,
020701fcff0603010207fe0001ff0102030601fd010203ff050701eeff0304fe,
fa01000200fffd06fa00fd04fcfcfd08fb02fa01fd00fe060107fdfcfe020102,
000402fefc0201fe03fbfffbfc01fc0404fbfefff905fa0b05fefafbfd02ff03,
fefafdfbf5fe0100fe0204fcfc030700020201fdfcfe030304ff06fcfefd0101,
0202060501feff04fe0102fdfaffff06020207faff0002000002010bfb010303,
fcfbfffbfafaf7fb020107f900fefffcff0201fdfefd01f80200ff0202fa02fa,
020202010101fff706fdfbfe00feeef8fcff08ffff0306faff020301fe02fefb,
fa0302ff020505fdfa020200020100fffb00030903fffcfff8050101030107fa,
05ffff0104fffcfffbfcfe08fcf8fe01fa070002fafafb0400f4020402000004,
0603fd000105ffff06fd0305fe01feff06ff020e030004fefefffd0700fd00fb,
ff0106090100fffd01ff010bfcfa0ffb02060504fdfc02fa0bfd01f702050000,
0202fe0300ff02fe0101fefeff02f9fa020102f9fcfef6000201ff00fd00f700,
f5fe04fffbf1050cf70201fefef4020c01fcfe02fffdfffd0003fcff03fcfe00,
02fc01fffbfdfdfbfc080c00fdff060302040204fbf703010107ffff00f70202,
ffff00f90103000005fffffff8fe0b00fe060100fa0106fe0200fe01f8fc08ff,
fc020601fc040603f9fe02fffb0502040001fffefc00ff0302fe0b00ffff060a,
fffefafefefe0001fdfefb0600fffe00fc01f80400010306fdff02f8f9070301,
0108fffdf60402020000fcfcfafdfd0002fffcfffbfcff000103fbfbf7fcf9ff,
0101fafcfcfbfe010105fd05fb01fc05000101fcfa000302fe0500fdf8030001,
fffe0000fdfffffe01fd0101faff01fa00030306f9fdfefa05fdfbff0100fe03,
0406fdfcfefa00000004fe0000f9fe0a0300fdfcf9f6fe100005fd01fafafc04,
ff12fd02020402fd060cfe020402fe01ff0500ff03fffc0302fdfffbfdfdfc04,
0109fe06fa00fe01fb16ff04fffd04020205feff0101ffff050b0306ff01ff01,
f9fb0605fdfffa0300ff01020102fffe00fc0605fefd0001000000040600fdff,
0001030100fb020706fd01f9fafbfb0dfb040003f800fffefd010306f8fffefe,
0200ff01fdfd00fd0400ff02fefb01fe01fefefbf802fbfdfffe02fff7ff00fc,
f8fc0407f9fc0500f9f8f903fafafffefaf9fb01f8fcfe00ff01fd03f7fa0401,
fd03fe0403fe03fff707060705ff0a01f6faff03fafef5fff4f6fcfef9f403fc,
00fa03fd0104040006f8fff40306040603f802fa02010801f90107fe07ff04fe,
fb05ff05fcfefffffe00fe03fffdfbfff8010007fafaf906fb000008fff9ff01,
0402faf4f708f902fc02fdf3f70b0b01ff07fe00fffefffef903fd0800000203,
fc07fdfb02050105fe00fef8fe08050300fcfdfcfe12040500fdf9f9fb05fe06,
06f905f8fbfc0008fc06fe00050cfd02ff020103000b0204020102030312fe03,
faf90102fafa03f907f805f90504fdff02ff04fcfafc0005fc0008faf7f80108,
fa0006fd01060200f8000301f70602fc00020500fdfefefcfffa06fc04060300,
07fb0303fc06e90405010201ff04f80105fffe02fe01f50102000201fe04f800,
0207fefeff02fffd01010202fe02fefc0603ff00ff02f40009fd0001fc05ebff,
00010103fa00fffd01070207feffff0206030301fb00ffff0108fffd0104fdfa,
07fffe00fafe020101f90203fc030200f6fb0608ff01fd0805f80203f7fffbfc,
f9f6f9fe0403ff05fcf6fdf402fe09010403010000fdff05ffff000006fe000c,
02f903fbfdf6fdfc05000201fefbfcfb02fc01f9fdfa07fe00f3fdf8040107ff,
f513fc01fafffffffa0003fafafdfafdfafd01ff03fef8fdfafc00fef8fe01fc,
fd06050104fd07fff90e07040efc0009fffe070400fffd02fc04ff03fcff00ff,
04fe0302fd0002fb03030001fffb02feff02fe060cfdfe0800fd0400fe0100fc,
f7fcfe050800fef8010000f90301fffa08f50407000701fafff7fc0806ff00fe,
f7fd0504fd00f7fefdfcfffe04fdfbf8fc01fefa0801fefafff7050d010df602,
fdfdfb0502fcfffa02f20b03fff4fe0204fd00fa00f500fcfa01ff0402fffdf7,
020002040203fafffc04fc01060002fff60501fa0203fcff0103fffb0402fef9,
08f712fdfefae9fe08fa08000000ecf901fd00ff00fefd01fc0006ff0003fa01,
fefb01fffe00fffbfcfb0bfbff02fdfefdfa01f5fc02f8fb04f907fcfefbf5fe,
fefefdfd060204050103fefbff0105fffa0405fe02020900f70100fc00040300,
fc040b03070000fd00000304fdfd0703fcfbfe070a05ff07f4f807021a00fc0b,
fc0001020002ff06010209ffff07f901fcff01060103000bfc09040200020304,
f9fc040502fd00fef904ff0300000102f9fc0402fcfdfc00f904050200fffe04,
fafbfa0201fe0201fefff8ff00ff01fffbfefe0401020001f8f90305fefa00fd,
fefe0100fdf9f901fffe06ff04fbf700fffcfffcfef9fc01fdfdfa020103fe00,
ffff0203fbfc02fefcfb01fffef60201f9fe05fc04f7f505fffcfffffdf903ff,
0100060305fdf9fbfbfd020403fafa01fcfa0103fffd0205fcfe05030201f800,
fd0406fd00fefb01030606f9fb01ffff06ff00f9fe0200fef80201f802f7ff04,
00f7fe03f9fbfb07fc0101fdf401fafffd010400fcfdfcfefcfafefdf60102fa,
fbfd0602f90b020407fa03fbf109eef900f90202010406fdfdfb03fefa0003ff,
fffd02fe06f90900f9fd02ff0100060006fa0403fa01fcf9fffd02fe07010a01,
0004fef9040402060201fcfffafd0605fcfcf700f5020109ff050201fd00fe08,
fe03faf9fc10fffe00fc02fcfc070101040400fbfd09fb07001ffcfdfb04fafe,
fffdfcfdfd0106fd00ee07fbf7f505fcfff5fd0403fe020001ff02f9fc090004,
030101fe010101ff0202fff9000303ff04ff02fdfbff04040301fffc04060104,
fef404fbfc05fe02fbf2fefc0102010300ff04fc0102040103fc02fe00000403,
ff0001feff01020101fafefd020206fbfdfeff02010002fbfcfc06fcfa050206,
fc03fefb00fff9fafefd02fd00ff000000feff00fefe02fafbfeff02040001fe,
fe0306f8f9fbf704fefc02fe040303fcfe03fb04f8fffb01fb02f905fbfaf80a,
fbf904ffff030607ff0207fefd000604fffc030000020805fcfe02fafcfffb03,
05fbfb0003fefb030000ff0401fcf60201ffff00fefcf80304ff010203fff308,
050200fd030500050301fffe0005fc00fffffb0100fdff0402fbfc0104fdf807,
fb020300ff00fffbfc03fc01fffe02fafd060002fd00feff0102ffffff010001,
fe0200030203fffdfc0404ff050103fb000000fffd04fffe01060506000203fc,
fe0107f8fbff0005fb05fdfff6020201ff05000003ff00fffe01030101030400,
fefdfe03fb04fffefd000000f608fefefdfdff01fa05fefbff07fcfdf9ff0103,
000402fc020604fb00fcfe02fc0404fc02ff0302f90a06fc00fdff00ff0501fd,
0502fffd040500fa0500fe000004fcf902fa03010101feff000502f906fc03fb,
f6fffcfefd000007fcfe0100fe02fe03feff04040202010502feff02fd030505,
040103fa00f701000201fdfb07fdfeff000304fbfffefafe0606fffa01fef701,
fffdfc03f8ff06fd03fcfffd03fdfb000401f6f9fffdfcf80600fbfd02fafafe,
fefc00ff01090105fcfffff40104fdffff0b03fcfe010206ff04fbf900fd0005,
00fcfc0402fa00fffffcff03fe00000101fcfe0302f9fefb01fcff0300f9fcfe,
0301f7fcf5eff40104fefffff7effafcfffcfe03ffff00fe0100fc0403f500fd,
feffff0000fe020301fd0000faf80204fffbff00f8f90105ff06fbfefdfdf904,
0702fcfc00fc07ffffff000dfc0104040002010afc01070000fb0709fa020303,
04fafef8fa07f80804040003f807ffff0afa02f7fc0000051efe00f6fafbf203,
fd06ff07fd02fefc0105ff06fc01fd06000cfe06fc02feff02ff08fdfa060105,
05ebf5fc060104f5fd00fdfe030503fc05f6f6ff010200f804f4f8fffd0500f7,
fef6fd030400fef903f5fa0304fefbf704f4fdfc020001fe03ebf8ff030003fc,
fdfe04fd020103fdfb0001fffffc04feff03070000fe000600fbf90101fffdff,
fffcfe01ffffff04fefe01fdfffefbfffe08fdfcfdfbf700ff0203000103fb07,
fafa000807fdfdfb0003fdffff01fe00fefffe000000ff03fd02fdfffbfefeff,
fe03fd050202fafa04f9ff0f0302fff2fef90506ff05fcfefefc0702fefd0401,
ff0afff5fc01040004ff0103040203fd0afefd04030001000500ff0002010006,
020501fefa01f5050004fff1f7ff0404feff0301fdfaf9ff040301fbff02fb01,
0108ffffff010103fffd02060000fffe0101fe0902fdff0003040304fefdfa01,
f914fc090c00f7010bfb0b04ff0200051b02fbf506feff01ff0bfb0b03fe0002,
fdfffb060005fdf600000907fd0200fdfbfa03090305fafe050efc000b0afbf7,
f9fe00fd010400fdfcfefaf5ed010cf1fe0303faf60702f6fcfffa08030401fd,
0302ff0004fffa00ffff050502fefe010302020b01fd05f304fdff0504fbf8fc,
f901fef9ef01f9f9f7f301fc0104fd0303fc020402fefb010303040705030402,
fefefefdf90607fefdfa02f9fc0305fbfdf506fd01040306fa0400fb0604fa05,
04fe08fe0702fd0403fb0003fe01ff0400fdff04fd02fd0505f703080102fd06,
f304fb01faf900fcfe00fc04fc02fcfa0805fffcf604fd05010005ff030600f6,
0000fa03020001fffa07fcfd02fd05080102fd0201ff0102fe01fb05ff01fcfc,
0bfafffdfffff801fe00fc0002fc01fdfff8fcfbfdfa00fcfcfffffa01f8fefe,
00fa01fdfe03fe03fef902fdfd02fd0009fe03fcf900fd0106f302fef8fefc02,
02ff0203fbfd04030001ff01fffa09f904fe00fefefe0400fefd0401fd000202,
fffdfffcfdfcfe06fb030101fcff0206f5040203fafc0501fafd02fc00fe0106,
fdfcf7fefc00f4f2f8fcfefef5fa01f701030301fffdfe04f9030003fdfc0003,
fa06f8fcfefcf8020303fffafefaf407fa0304fdfafcfd04fb07fbfb06f9f9fa,
04fe0404fa05fdef01040004f8fbfb01fc0000000100f604fffc040201ffff04,
ff01fd05fffff9041101040ffe05f7fffafb00f60001ff00fefcfe000203fcff,
fefffff9fffe01030304fcffff0302fe09fffe070102fdf7f200fdf50301fe02,
fc02fbfe06f801fffbfdff04fcff0301f7fafd04020406fafa02ff00030307fa,
fcfd0501fffd0106ff06fe00f8fbff04fdfc01ff03f8f9fefaf9010205fcfdfe,
fbfcfe01fd0502fefbfbfcf9f90207f902fbf8fefffefffefefcfcffff03fe08,
fb07020204ff02fd04fdfd020203ff01fd01fbfaff04fa03fe0304fb0206fdfc,
ff03f8f9fdfef500fafbf300ff070b070401ff0104ff04010006ff0001000400,
010002fe01fffffe0102fefb0202fbfafffbf803f903000100fafc01fffa00ff,
f802f9fefa07fefb0006000003fdfffbff020301030603f5fe0202060201fdf9,
000e05f3f8fef8fa010506fcfbf8f8fd06fff6fefcf902fdfa0cf7fbf9fafd01,
010103fd0702fdffffff04fa0401fafa0401fd0000fcf601010306f60603fcf9,
050efc05f4f0f1fe05fbfe01fdfbf7fd0300fb05f9f6f3fc0701fb03f5fdfcfc,
02020001fceff4fd0304fd00fef5fa00fe070206fbf2f3fc0509f805f1ebe7f9,
02fefd0000fdfefa03fdfdfffffd00fb020000fffbfefbfd01ff03fd00f5f9fe,
fffd0602fdfefcfd0104fe02fefe0200fd07f900fafffcfc05040002f802f8fd,
f6fefffcfefa03fff903fa07f5fb14060300f803fdfbfe0302fe0103fdfdfefe,
00000101000cfbfcfa0300fefef907f90103fe01fcf31001fb020004fbfff800,
ff0301fa01fe00fa0001fa03040304fffffff901fefc0101fe00f804ff030903,
0305fcfa07080302fe07fcf7fdfe06fb020604fd0604fc04ff06060007fffefd,
0001fdff020404fc09fefafe010101fe03010200fe020200fc04ff0104040202,
fe07fbfffc02fb05fefdf902fc02020d0206f805fdfc0310f6fef9060505fd06,
0cfafefb0601fb060300fcf9f705fffffc05fffdf600020f060afe02f8fbfb14,
f9fc03000101fffdfffefe0505f60003fcfd000100fe000200fffdfaff060205,
fe0101fc0200fbfd00fb01fe02060204fefbfffd060dff03fbfb00f802090303,
fc0000f803050410f903fef6fef80b0ffffd010000fffcfe01fdfffc0301fefe,
0505ff0003f900faff04ff0001fffffafe0600fe00f90602000704ff04f30b0a,
04040703f9fa01fd0402fe02fcf900f2ff03010200f701ec0109000300f603ea,
0506ff0201fdfdfbfd09fe0400f9fe05030303fe05fefefa00fb01fbfefbfdf6,
0201050101ff0701100105fb02fb0003fe0300ff06000204ff040300fcfc03ff,
0107fe01ebfc06fffe0300ffff010400fffffafaf70404fffb03f9fbf50503ff,
01fffdfff50102fcfffffd01f1fefffb0206fd01fffd06ff0104fbfceefe06fd,
ff00fc0100fc01fbfe00fefcfffc02f9fcfefdfffffbfd01fefe00fffb0202fb,
0000fdfffc010102fefefefe02ff02fefe00fbfc0203fefafcfffb0301fe0004,
fb01fffef800fbfd03ff000902fff6fa0200fefe0000fefd0202fdfffd0300fa,
00fef6fefb0205010601f906fa0203000100f90d0a0402fe0002fefdf7fff7fd,
fd07fb02020601fefefffe03000101fef803fc0001fd06fdfafdf9fb06fffbfd,
040301fd01ff06fe080904fefa0a0ef8fefdfdfe02ffff02fe00fb0101010002,
fcfffa02fbf9fdfe0401fbff02fdff000400fdfffffb0100fcfe0001fefafd01,
04010208ff0201fc0702f6fef5f609f80ef8f9f908f307f4fbfefc07fafa02fd,
fafffd0bf907fafeff02040cfc03fd040000fc0403fefef8fff7f604fdfcfff7,
0402fb01fe00fefb090700100304f6f60307fe0b0405fefefe03ff03fe01fd00,
010108fffdfcff00fafd02fe00ff0301f4f80705fc01fcfdf7fd04fffd01fe02,
fcfbfc0f0000fc02f9fdfd10f8fdfc030201050303fefffffc000afbfcfdfdff,
03ffff03fefefe0207fe030c020803fd09000208000200fefcfcff0dfdfdfb01,
fd010409040208f508050004fcf8fe010d07020601fffdfe0707fe0301fa02fb,
f1f8fc05fe00f9f2fafa00050f04fefd0200020903fb00f4fc030708f9fd00fb,
ff0605080502ff0102fa02010c07fbfa0302040505000208f8fd0506070000fc,
fc0101ff0c06fd0102fe04ff080605fa01fa0003020605fd02ff03fd060607fc,
fd00fe0107fe010103ff02fe0402ff00fe0300ff0806fbfcfc01ffff0a07fd01,
fefcff0100fdfbfcfffc0704fbfefcf9fdfc0102fdfafefc000300fe040101ff,
020202fdfe020102fefefc0004fcfcfdfcfc02ff00f8fcfffbfffdfffff901fa,
07fc09f900fd03fa07fe08fc07f80af8040300feff000203010105fc03020309,
0005fbff0100fcfd0303060205f8fbfe0204fb0002fc01f909fb060002fd03ff,
09f5fdfcf80604f1fc07f6ff0100ff00fc040408fdfdfd000107fc00fd00fd00,
fbfb0600010500fc02f7fbf60007fff305040107faf9050403fdfe00ffff02fa,
0403fcfdff010004ff02ff0001020604fbfc02f903f6090000ff030301010102,
0300fcfffcfa08fbfd05fffdfcfd0802fe00fdfbfcf5070106fff8fefcfb0200,
02fdfb060002fb0000fdf901020200ff07fdfb02fb020405030401fbf7f9fc03,
0206ff0402fa0408ff07f20403f60a09fe01fc0201f9080003feff070308ff02,
01fa02ff0503fb00010000020101fcfcf8f4fafd030606f901fa03fd0407fcfd,
0cf5e8010202fa010ef8ec02f600fb0401ffff02020101fdfbf701010006f8fd,
fb0001fffdfe01fefb01ff02ff0508fdfeff0007fb09040001fffaff0202fefe,
fbfffd030200fc06fc02fbfbfffd02f9fcfe02fcff010afcfc0000fcfc0008f9,
fffafe0003fdf600f802fafc01fefe070304fcfb06fd00fd01fcfbf807fcff01,
000302fdfc05fefd04ff08fff9fdfffffe08f7fbf6fc02fdfcfefefd02fc0002,
f902f608030206ebfe040000fffffefcff04fb00ff0101f1ff01fc03fdfefef4,
0103fe020506fffefefdfd04060c02fdfd00fb0204fc06f7fe03fb0402fd02ea,
fcf901fffd07fdfef8fcfefe0405fc0101000501fefbff03ff02010305000101,
0400fcfefefefd03fdfaff0007fefdfff8fcfd020dfbf8000101010003fefb03,
06fcf8fc00f9fa00fe00f50204f3fafb0200fd0101fb00fffdfd00050500fe04,
00fffa0002ff04030708fe070302fa050400f60600f40300fdfff90102f2fe00,
04fcfbfd050301fc01fbf903fef90a03fd0efd0800fe0c020209fa05fdfd0801,
fcfd07ff02ff04fcf8020002110cfff706fd010004fa04fd08fd02fd0000fffd,
fffefdfffdf703f903fc0000fefe0204000101030706ff02fefc01fc00f801f9,
04fe030400fbfc00fc010b0002fe0800f9ff090b06fa01f402fefb050102fcfc,
040a04fef605f708ff0804f001f9fbfefc060f0202fffa04f6010c0b00fbf503,
fefefbff0303fdfdf7faf103060201f7fbfefe020300fbf70108020500fffc03,
000601fc03ff010703030205fd01fc0403050200fefdfd09040501fefffffc07,
fe00f6f8010001fffa00020106fc04fc020501fefe00ff050205050003fc0009,
fc020101030002f8f8fffa0100fcfbfefbfff70101fcfefafa02fafb06ff03ff,
fcfef5f8010100f9020101030505fcfdfeff00040803fd01fe03fe010301fb00,
050ffdfbfffbf70afefdfffafbfb0503fcff01ff010201faf50afdf800fdf807,
00fd00fa00fe0202f90c04fe00f800f6fafa05000101010602fffbfffcf900ff,
f8fdf600f8f90a0bfb000401fcfb0403f90102fff9ff0307fdff02fefcff0407,
000401fefc010109fe02fffbfb020106f7fe0006fdff0908f9fdfd01fafc0a0f,
01fbfe070201fffcff00fe00ff04fffd00fcfdf90102fffdfe05fe03fc020204,
fefefc000202fffdff00000202fdfefefb00fffe0200fbfefbfefc0105fe0000,
fd07fbfcfb0c02fff90301ff000a0afafffffeff0204fcfbfafdfefe0506fdfb,
fdfffafc0606fef80804fe01fdfe03fafb0101fc030501fcfbfef7fb020d08f7,
0002030001fffcf7f9fc02fe0603fd03fb00ff0002050204fbfffbff0309fb00,
f6ffff03fdfa0407fbfefe04f9f2010003fd0105fd0500fb00000107fd0201fa,
fcffff03040404fefb00010404fd0102fdfdfe0203f9fdfefffe00ff0203fffe,
04fa080100ff01ff01070afffcfffefb04fe08fbfe03fdfc05fb0ffdfb0004fc,
f605fd04fbfefefbfe08fdfff8fc05fdf700060805fcfe01f8fc050f04f9fafd,
0306fcff0105ff05f9fcfe0504fd08fdfcfefcfe040406fffa050003fc01fafa,
04fffcfeff01ff01fdfe00f9fb01fb03fcfdfffe0001040103fffffb0202fc01,
f7f9fdfc050006fb0503fefb04fd05fd0101fdfaff03fc0003fd0200fd03f900,
fefe01ff01060000040803fd00080a05040204fe00020804fbfa02fe04060204,
fdfe030304fe0806ff050200ff0004ff040506fd00020406010106fe01070b05,
f7fe05f7f914f9f7fdfb0202fe020107feff00fe05040603f9ff08f3030b0505,
fc06fe00ff0105fcfa000501ff0d04fffbfdfefdfe060902fd09ffff0002fe01,
fc01fe020b03030a0202fe030904fe03fdff01060a06020bfb00040207080008,
