memory_initialization_radix = 16;
memory_initialization_vector=
000009ca000002e1ffffffdb0000066a00000236000010a900000572fffffde0,
00000268fffffd400000046b00000ca30000083700000cae00000259fffffbaa,
00000b6a0000008000000318000005c7000004250000043a00000358000009fd,
fffffc74000001ecffffff5f000003d8000009510000093500000a05000002da,
000006f500000ac9ffffffc70000041b000007a900000369000004b4000005f8,
000001d3fffffdf8000004030000083efffffd850000066600000031000006d1,
000005d7000004e3000007950000036affffff9f000009270000065d00000a11,
00000857fffffff70000005f0000041d00000354000005c8000004ba000010af,
00000c88000006ee00000c4dfffff73b00000227ffffffbdfffffe8c00000877,
00000560000001510000012c000009820000071e000006340000056c0000057a,
0000004e000003520000086a000002ec000005f5000003180000075100000b7e,
00000b6200000432fffff22600000464ffffff12000008bcfffff47b000005d7,
0000034f00000ad0000003d00000094c00000195000005af000003de000007a9,
000003f800000440000008930000085800000ea30000066d00000aa60000067c,
000003280000053500000d0500000e67000001fbfffffcb3000006680000084d,
000009bc0000025f0000032a0000078b00000972000001c00000066a000003ec,
000007bc00000cb1000009b100000132000001edfffff92700000aad00000687,
000003b1000001a800000a2dfffffed60000063900000ab1000006f1000010a6,
00000469000006a8000004dbfffffd800000033100000956000003470000043c,
000001dd00000f0a000002da0000014400000215000007ab000004e300000bda,
0000070bfffff82e0000095c00000817000006df000006b50000060400000ca5,
000006e8ffffff5400000586fffffd96000002380000034d000003e80000043d,
000006a400000ae6000006470000000b000000cb000003a1000000dd00000216,
fffffe86fffffc7900000204fffffa8f00001013000004d300000eca00000380,
fffffdf1000002ab00000c430000059400000829000007ba00000046000007dd,
0000058d00000d7f000001d40000069f0000064c0000044fffffffb9ffffffe5,
0000034e0000095b00000c18000003de00000997000003bf0000079400000655,
000006be000005fb00000fe300000444000007bd000006ca0000024100000797,
0000039700000726000008d500000ae600000adb00000a92000005d000000832,
ffffffec000002f3ffffffe4fffff8a4000007dd0000073c00000982ffffff40,
000009a90000012c00000c8200000aedffffffd5000000060000026c00000ae4,
000004a00000077700000b84000012350000007f000004b4000007df00000c78,
0000033400000606000008b5fffffaa400000d0b0000019b000006db00000961,
000002bf000008710000009e000003b0000006cefffffe9d0000022d00000194,
fffffe3d000007390000073f0000059700000ce000000a01000005cdfffffd01,
00000b81ffffff47000007c3000007f0000008c4ffffff2b000004ee00000027,
0000009c0000083500000712000007a70000027800000c8800000def000005b5,
00000059fffffa17000008f2fffffe6e000005f70000082c00000209000007d2,
000004d000000e67000007ea000007a30000048400000796000003aa000002d4,
000004a400000d3200000c90fffffc6a00000a3200000000000005c800000ce6,
00000b51fffffef2000012c90000001e000002e1000006ee0000076e00000bc1,
0000090200000b0f000009cc00000e630000011700000287000004f6000000df,
000001ac000000ac00000b71000002feffffff47000002c000000302000009e6,
000005d200000966fffffe13000007e60000043c00000e870000075dfffffbd5,
000003cb0000126300000af2000005bc00000b65fffff855000001c200000bd2,
0000081a0000037e000004a4000005e70000079b000009c3ffffffc7000001ee,
0000023d000004670000071000000d59000006b0000007540000060500000915,
000000bbfffffbf7fffffceb000005d500000845000001e4000010d5fffffdc3,
000007f5000015d60000044afffffe2b000004b2000004b6000003a3ffffff39,
fffffd56ffffffc30000073e00000506000009a2000004300000038300000277,
00000fd7000002550000059d00000e4000000444000004ab000006ca0000086a,
000005c2000006a70000097400000a2300000c520000057d000004f200000453,
000004e600000c1c000006e200000384000003e0fffff5bd00000376000006a5,
00000281000010c7000004300000096600000f4a00000d4c000009bf00000e33,
000006180000073100000420000009af000003aa000006530000069b0000070a,
000000e70000054600000fc80000094b00000b3d0000044a00000bcafffff868,
000002c900000af2000005bb000005ca000004f700000694000006ff00000a5a,
ffffff070000087f000007b400000dd3000001ce00000116000003ff000002fb,
fffffad30000063700000075fffff42d0000003700000a36000003b8ffffff76,
00000f98000006ba00000492000005d2fffffe4900000782000008170000084b,
00000256fffff9c5000009ae0000021100000ad00000001afffff685000000ee,
00000df900000687000000eb0000065d000002dc0000064400000004000008b7,
fffffdae000001dc000007d2000005fa00000d24fffff9da0000010cfffffc04,
0000029900000bec000013f0ffffff6d00000cecfffffce90000070400000320,
ff05010c0001fc00f90afc0901fefcf40007020806ffff00fd0b020608fdfc03,
fb07fcfd0501fdfbfc07fafd0403fa02f904fb1002ff02fcfb03010d04030203,
fceceb0bfee704ff16f9d6030ef50aeb08efe80d05ea0adbfc04fbfc04fbfcfa,
e3fcee03f4f50310020dfe0d06effef3f412fb071a0c03df0718f7070d07f9e1,
06fe02fc0fffff050203fbfb1104fc03eff6f609fded04fae408ef0404fd0204,
00fdfd021206fa03060205011107fc0b0a00fb031307fbfdfbff04fd0e02fd04,
09fd0204fe02fef7fdfdfafdfbf9f4f8f6fafd00f5f7fc02fef9f6fefafbf8f8,
ec0104100c0712011a0c0501121a01d20700fd01f8fffffc04fd0106f604fe08,
fbfefcfdf805f8030804ff070ef70100fb07f8010106fcf017110500140dfd26,
200a04fef50409b9f7f6ff01fdfe02fb20f408f7fe05100e05fa0903f7fa0cd0,
0b0800010104f505fcff01fffafff5fcfdf7fff9f20608fe2e0200f9ff0a1517,
fffffefcfbfc0304fefbfbfcfefb04fffdfffef6fcf8000cfefe01fefd05f9ef,
02ff000202f901100600fc0afcf702fe01fc0005fafcfe0601f80301fbf9fd12,
0df917f5fbf5fefd0ffb20de060ce804fe04fc01fcf704fefe08020204fa0005,
f7fb04ec09f2f2fe11fff2f70de603f6fff40be50ff9f0fe02f724e1040ef6fa,
f9fcfdfd03fdfef8eef90af8f802fe0bf2ff070001f4fbf5f6f804f5fc06f40c,
f0fb0200f6f500fdfbfcfafef6f8f6f2f8fc00f802f9fc0501fe030105f80509,
f9f8fbf6f6f6fbfdfffc00fff3fa00fffdf9fbfcf8f9f4fdf3f704f8f3f2f9f8,
faf203fc03fd00fefef708ff0300090306fe0b05fd06080604fd030301ff0502,
fffe01fa00050100fefe03fd00ff06fafffefffe0201fc06f9fe00f9fd02f900,
fcfbf61d01040af7ef1a042309ecf2f7fdfb0109fd0103effeff06ff03ff05ff,
0007ee0c05fe1af4000a01230cf307fedc1307f504d7fe0005130422faf10e0a,
fefb0201060102f8f602fe0004ff00f90202f3150704fdeff902f40908f0f8eb,
fb10fcfd05fffe00fd0c01010300fc05f604f8fc01010601fe09fefe05fa00fc,
010701000d01000af103fdf9fffffcfdf5fafafc000102fff3f6faf9010302fb,
01e8fcc203eb00f81109feff0af80111060601fd10fc0008fceff6ff0bf60205,
05fa0bfd0d04ff020d0500f907fff907090102ff0d0600010f0106000cfbf813,
0df6f90109fb02fe0309020103020a05100af4f904fe020c0403f5ff01060c0a,
fbfafaff08fe0d01fb01fd010b030203fdf90f020cfc05f219e9fad608f40d00,
fe06050203fdfd03080e080c08080007fc02030408fffd04fc0805fd0e00ff00,
f9ff00020903fd00ff000302060003000607050706110901fbfe040107010202,
0215090d04fdf9ff0e0c090205f9f6eafc05fe000501fd0501f6000d07080101,
01faf6fff90bf4f3fc0be6fe0115fb0d0502ef05fa0aecf80b060d0c04fdf8e5,
f8fdfd010104f8fd02090a0e0107ebee0705fb04010deffc0b0a0622fd05e8ef,
fe050512040701f3f705020a030303f8fbfcfa030003fafbfcf6fffd000afa01,
fd06fbfe04fdfefdfefe01ff0701fbfcfc06fd0009ff01f5f705fffc0103fdfa,
fd050303fbfbfa04fe0bfdfefffffb06ff07fe020304f901fd0cfffd06fcfe06,
fd00f901fefc02feff00f9fc03fefb01fa08020503fd0409ff070606f5fefc03,
06f8fc0204ffedf116f71306ec04f0f21bf702fbff02eeebfb03fbfd03fe0403,
050302030107fff5000312feedfafdf7eb011c1abcfbece801fb0e0ceefbdfeb,
fffef9020a07fd04fb00fb040305fd0618130603fe01fff0020d0f0fedfc0ef7,
f801fbf9fe05fa00fffcfffd06070200fbfd01fff909fd03fd06f6050403f6ff,
fdff06000300f5ee0202f903f903fe04fdfff802030105070200f801fc030003,
060e03ffeff4faf7ff0e04010cff03edf902020207fafbf90706080100fcfbf6,
f10202ff00060a01050408fff8010703f9ff0100f90001f9fc0604fc0ffe0bf9,
f3ff09fa04030df80406fdfbf60405f8f7020af6fd0afdfcf80104fef90b11f5,
f7fbf903f503fff6f7fff807fb04fef7ff04fbff01fd02f4f7010af50b00eefa,
fd01020708fb07ff060103071000fffe00fd07050900fffa05fff005f9ff0af9,
02030605040506fcff06040a050104ff00010105110ffefd000306050405fefd,
fefaf807fd101509f1ebeffded0b1ceffc05020504ff07fa0701ff06130d05f9,
f6f0eef6f60920fdf2ebe904f2101012ede7edf7f9071606fbedf603edfb1cf3,
f7050204fefa0cfffbf3eaecfaff2305f5f9effa00fe1503f2f4e3f701fd1600,
f602f504f2fe0308fbfefa0204f90a07f9fc0303fbfd08fafa05fd05fefb0204,
fcfdff0201fa07fffc03f602fefd0902fa05fe0102fd0d06f8fcfb0501fd0e01,
f400fef7fefeff00fcff00fef907fdf7ff050001f50403fc0303fdfff5070df9,
f8fffd01fdfcf5f9f8ff000bfefc0301fffcfe050104fbfaf3fefc04ff01f4fc,
ee080913eaf304f2d60d1c0f11f317f9f30df107ecf8f8ecfbffff04fdfefffd,
180813fdf608ebf8f5fd0e04fefe01f0c7f70d0144f50cf5e10007011bf5fbf2,
f70703faf7eef500ee08f803fbf2f1fc150610060c11f7f51309f0fe1909eb07,
ef04000dfafbfa06f3ff090bfbf7ff05f506f90efaf7ff01ef0905fafdf3f100,
0707fdff02ff0306f70300fbfaf2f00bf105fffbfcf5f409f306fcf7fdeff40e,
ebf41028f90816effffe19e7100aee050808f7fc01fcfa02ee09fe070403f7fc,
feff02fe0301f2070300fb0703fe09fc000002fb06fdf8050c0333da0dfded09,
fd0e00e50e05e60efa0ce9fcff02f1000601fefbfc05fe02000bd7000304f709,
0906f8fef403fe080d0a03110607fd05f7070ae70a00ef05ef0033faf6ff0a03,
f505010809000501070803f90a01f90af802fd000a0101081109050805060100,
f6fdfe040ffd0602fd050403180100050b08eef81602f60ff702fbfb11010509,
0cfdf50cf5f808020ef1fa0e00e7fd04f9fcfe010fff0400ff06fa0318ff0001,
fbf50511f3f5ff04f5f4040cf5fb0ef504f7050cfaf2f8fa0cf8fc0deeeffe06,
fefd040af5f804fdef07fb07f5e2fefae30a0003e7f7fe02f0010403f7e3f0fa,
f804040401fc01fdfffeff04faf808f8fafefe07f5fc01fafbff0a06f5faff01,
fdfe0106f40108fefcfd0205fe010001ff000204f8fe0600f9ff0104f80003f8,
0403fdfefc00ffff03080501fefbff0605120d00fb0003fd061209fe01000104,
fe03f900fb03030402030101fc04fffa030afffc0703fbfc0305f7f9fcfefe02,
21f7dff301e705e32d6c31e208f116ee2900defc07f303e6031200000004fd00,
03f1f40ef206eaea100af0000c00faf2f73520010df505ec10fff00706fe02ff,
f0fbf902f3fc04f7f5fffdfadffa0bee08f4f810fa0fe3e0fb10001bf509eef0,
0102fbf8f4f7fefdfefdf5f7fefcf4fefcf9fff4f4fcfafef6ff02fde2f405f6,
0d03f90200fbf0fcfefaf6f7e8fafd03f7fbe6f5ee01fe01fbfdfaf3e9040104,
ff05f1f005fcefed0a11fdfe05fc000707fbf8fcfdfffdff030303f800ff01fd,
0308fa0200fb0a0406fa04fa03f8fdf50a01f60600fc0605051d0afa08fb0d02,
fafaeff6f4f6030dfdfd00fa0304fe0104e8fafff8ebf801fff6f303f4f8f7fa,
f3fd00f8fffff2fd05f8fdfc01fb0507f9f600f7f501fe0cfe17eff1fbf9f212,
fe02feff0700fffcfff8fe01020703fffe0102020a0405fd04f508fdfffeff03,
0201060001fefe00020c01f60401fffe01f7f5f7fc04040a05fafdfbfffd0203,
0eecfffbf5050f040ffcfbf9ffff013103080600020603000cfe08fdff020406,
07ec0207fefa0511f5f2fe02fbfb0ce609fefa05fff8feff09ed09fdfdf90d37,
02fe07fb0507fcfe11f11001f501001803f70505050201ff0bfe04fa08f6f516,
faf5fcfd050101fc04fc03fc0303fcf6000204fc0afe03f6010304fe08000405,
fa000ef50302fef8f4000bfa0604fdf9fe0010f60302fbf700fdfdf90a0100f3,
0604030300fb030206fe0904fc06fe090a040a0501fff70607051207fe07fd08,
fe010500fc0003040007020401fc04030601fe05fffd0007030302fd02f9f605,
030bf503f400f9fdeb13f114fe000209fe00f1130307fbfefd00000000fe0404,
0006090af800f6fff602f5010d090b12fffddbee00fb071d09f4f904030a100a,
f902fff901fef2fff80601f90404fcfffe0bfcfd040afa040e13f6feff00f912,
f70100fefd0204fdfefefffbf9fff2fefafe01fffb04f7fefc00fbfc03fa03fc,
020102fff802fb08f702f902fff508f4f9fbfdf7fcf8fdf7f9fefbfcfdfa07fa,
05f4fcfdf607f108fffdff06f8040a04000300fbfcfe0c0803000403f7020207,
fb060105fd0308ff05fd040efa07f405fc040904fcfe0605fa01fb0cfa071600,
02fe0100f9fe1f0209fbfffd00fb12ff03fdfe0bf90b09ff02fafcfb04fa0200,
f1fc0606fb03fff6f303000303fd01fdff000002f5f90e0409050401f0111503,
0504f5fffc020503020af3fffffa0a050802f7fdfd0104fcf2ff0502fdfc00fd,
02fb0203fd00fa00fefafb01fb08040803040103ffff040c05ffff00fc050101,
fcf11304eced06fffdf7f715f2ed03f8fefb0400fd02f705fdfd010a02fef606,
fef6080ff8ff0303f6eefbedf9ec10fcf5f3020201f1fe0003f4041ef3ebfafb,
f4fdff0702f903fd0c080c0b0702eefc0ffef4f5060304fb1002fe030a06fcfe,
f305fff2faf7fefef4fdfffbfbf300fcfd03fc05fefb04faf6040107fefd0dfb,
07fbfafcfefafefc020200fcfdfb00fc06fe00f7fcf701fef5fffbf8f9f702fc,
030207fd030503f703010dfdfc0df9f804fe0bfffd11fdf904fe0cfefc09fefb,
f60300f60008fcfdfefcfef90000f6fc030006fe050201fffd0306f6050d0cf9,
ddfa05e207effcf9e2fff5e0f8fbfcfcc7f825e1f0eff7ecfffd00fcff03f9fc,
f81108fefff503fde002eef306e1fcfdebf1edf6f4e1fd04e0ff0000f6e5f8f2,
f8faf4fafffc0501f2f9f8f8010407fffd0305f80e010b07140107ed0df810f9,
f3ff09f6f60309fef6ff00fbfb00ff00f90102faf9f603fcf6f8f7fcfc0100fe,
f7fd030808f6f312e6fa08f4f7fafd02e8fe01f8f0fbfafee50003f7f3fbf8fc,
0ff8f1fcfbd6f708e503fe000712eb21f103fd010af4fa0c07ffff0407fdf30a,
f0ff000101f8f30202fffa00fbf5fb0af1ff0b05fafaf603ea0defff05fbf21e,
0010fd0d03ffef0dfc0204010df8f404f014f6041005ec11fe0b03fe06f0e705,
0302f3010005f807fc06fafffdfffefdfcfffb0205fffffff215f61f0404e80e,
0506fc0300f0010aff0afb0102fff9090305fc0302fbfe04fb05f600fffb0300,
0202ff0702f8f8040506f70704ef05070b0dfe0f06f607010906f90b03fa0504,
ecf5f903e614fdec08ebf21edc0af1f0fe00fe0606f2fb000403020508fdf6fe,
e5edfb0ef800f8fcdefb04fdfafefcf4e9ed0207f5fe02f8f9e9f11ae01ef1f4,
f9fcf1f5faf809effaedf41cf80aeefbf7f7fb0ff909f702fbe5f823fa06f3f0,
edfcfdedfe05fefff7f9f0f1010004f9f9f6fbf9fbfb02f2f0fafcf9f90108f1,
f9f4f5fa05fa06fff2fefef404030101f7f7f2f707f807f9fbf6faf5f8f6fefd,
0005fffdf502fefe020efefe0004fbfc050c02fb0803fd030118feff01060200,
fefd050103070204fefc06faffff0200f80c06000c0502fc0004010305fd0002,
0cf50a01fb03f5f7fefa1102fe0e06e00af9f7fff300f3f9ff0309ff05060200,
1cf5f905f409ff06f0fb000cf0fdf9eee7ff081f0ae5facbf4f4ec010df200d7,
f2fcfe00f905fe03f0f201fcf7fefc0125f70507e8fbfb00140000040407f2fc,
f7ff0501ff020cfafc06fefc0b0a04fff4f5ffff040302fcf3f7fd09f9fd03fa,
fdf801f305fcfffff5fb0100f2f90bf3f6fef9fcedfa05fff4f202f8edf809f9,
f7f6e9fc35f9f6f1fae802f406150301fbf906f6f8f905fc00fdfdfe1c05fbfe,
000403fef8060efb0308f7050a0700fafef901f4f8060003f8f30b00f51116fe,
08f802f6e40c0101f9f9f3fef8f4090702eb030a0a020f01f8f7f5fefef104ff,
fef603f3fc0101f503000dfbfdfc06f9fafcfbf6e70500fd09f6f0effa0f04f6,
fd06ffff06010003fdfffffff90a0802fd0703ff030409fef8060209fffc03f7,
fc05fefffc000704fa0602fb05fe0505fa05f5f6f90a0b07fe09fdf8fd010a01,
e5fbeffe05fafa09e4d5f7130cfdf1fdfc0303fbfff701fe00fe04fa01070608,
f3fc0ffb06060202ef0afdf60afb0401eefe04011101040debe5f8040702ffff,
fdf7fd09060003fce9f50500fc0905f6f2fe0ff903f60102e6f90d02f9060c09,
fe05f80303fb0ff6fcf70307fbfb0af9fef502ff02fc00fcfa00ff09030703fa,
f9fc03fef8040200f2fd02fdfd0607fef3f60af9fc0303fffaf9fe03fafd05f9,
010209070103fcff01030b060108fefc020a0301020307fe020b070a050001fd,
020205f8020cfefffc0005fd0206fbfb01020807010c0100000803ff010b0402,
e90c05000800f9f0e20f0d08fe0e0c01ea060b17f50a08f5fcff03feff0cffff,
05000509ef11f6e4f90209ff021200fbeef4070f051bf50dfbfc1225fe23f8fd,
010203f9f90a0200ff000dfefc13fbfb08020000ee0611f910f80afaeb10f205,
0100fd01fd0afef7fdfd040a0302f902f6fb070c010efefe020405f1fe1403fb,
f404f50001fbe8fd06f9eef10214fef202f6f3ee020d00fc01fcf1ff031300f0,
efea0afcf807e20df2fbf30200fce4eef801f80bfffff60ae90019f8fe0af00f,
fb00f2fef905fe04f601ff05fa06fe04f300eef8f605f7faf603effafd01e907,
f50af0f9ff00f3fd0109f2080900f60eff0cef0f0af6000cff0deb0d07f7f704,
0902f602050e0d0b0005ef06010e04fcfffcf9fb000cec0aee0002fa0600f60a,
0008fd02fb060503ff0bfbff050700fc0208fc00010605040a06f90b01120312,
0507fbfa060505ff000301f9ff0004ff05040cf405fbfdfd0406010005fe0202,
fb050ff505fe2404f40b0af701f11b170103fafd020a07ff070efef90d0509fb,
f70905000bfc05fcf7080d080a060bf5f10711080cff0812f70c0ded04ed0d0b,
fef9fe03fffe05fbef0506f9fff2f80ffb03fb0bfcfbf301f0fe0904fdedf016,
04fdfa07fc02f6fe02fefdfffbff01fe01fb0007fffd04f703fd0006fef904f9,
fefaf203fffc01f702fdf304fdfefbfb0300f10301fbfaf800fbfb05fffd00f9,
fc05080cf8fefefff90701190402ff00ff0e0113fefbfdfcff0c0623fe030201,
f80608fe0101ff00fb0207faff040101f703031100fa0101fd08fa0500f6fefb,
09080b18ecfcf80921f2f0120209e91c030c0429f4eaf114f808fffeff00fbfc,
f30a101f09fef80bff011803f60ff0150af0e4f0f5e8f816fd02f40502ffe41e,
09f60301fdfb00f303fc05f9ff02faf5edfc0819faffff04f1f5092604f1fdfe,
fef810f700f7fa0003f8080001fa0204fafc0cfe0105ff03fdff02f50108fdf7,
0300fdfd00fdf400fff9feef05fcf407f6f704f904fbf90cf6fb04f20c0df30c,
f4f2e60df4e2fbfffb03fc0602fff50c010305fe03f4f403f8fc0b09f913faf8,
fd020eff01f4fdfc04f6f50003fbfd040002080204fcf8faf9fc0c01030be804,
f3002303fd05fd0d00ff09fef9e604fff904fe0309c6fd07fcfe03fe08d60308,
f8000c0904fb0006fffb030afef80300f9fc0efcf6fe01ffeb03170cfb23030b,
0407fffe0aff08fe0407fdfd0b0404010002000006fe0cfc00ff020b00f502fe,
fe02040208ff07f9010706fd0efd04fb0d090bfd15ec03f6020206ff0c0205f2,
ff1a1227edf60018050e0a5fe7fd08200203fefc07f10af90a0305010a0603fa,
0e0b002bfe0cfe16f807fb02fd08f80b050af81ffef50b0505160550f00afd14,
f4fffef0fa00fd0323070a30f2010a080905fa0efc06130113060128f5ef1a06,
00fdf9fd00fff307fcfcf9f6ff07f908f5fbf9f6fdffff07fcfc00f7f9fdf607,
f9fdf9fc03fa0001fd00ffff0400fb07faff01fafefbfd05f8f9f8f8fd00f90b,
01faf8f4fffb0001fb02f3fefffc05fdfefcf2fa04fb0bfe04faf4f505ff05fa,
fc01000000fd0401fd02fd0402fffd03fbfcf4f102fb060100fef7eefffd0403,
fe090a12f205eb02eb15f713e7250611f805000de721f20300fdfb0103f70300,
fb1df9f60f0be502e0ffe408fcfafa04d1fad80dbb10012ae305f405f3050105,
0601f6020af9000703fcf9ff00fdfb04f411f6fc09feee09f517e9ee0e0df926,
fb0101fc00f5fcff07fff604f6fefd03fff8f204f804fd0507fe03fb03f802f8,
f2fa0604090406fefaef0cf6f6f7fff200eefefbf4fdfefefce90002f201fc04,
dbe9f2fda8080202f009ff0526070a01fd010200050504f9f3fb0b080c0b02fa,
00fb01fefffb010100ff050210fc020100fd0300fc0300fcf707fdf73cff0dfe,
f4f4f6fc19050204ff07fbfbfc03020af502f8fd01030204f7faf7fbff040309,
fc0af5f80705000500fdfdfc01ff0902f6f8f9fd13fffa04e8fee3f9e00800fc,
fefefb00fffdf8f8fffe010008fafc00fdfef8fcfdfaf8fe0009fffb08030203,
f9fefcfc06fefb01fdfff9fc0301000202fe01fdf5fd0d0dfcf8fcfafafdfe06,
fbfe11f9fa13f602faee12f1fb0df019fe02fbfa0301fb04ff0400fd18000105,
05090e06f3f9fbfe04030a0af005f0f8fff70b02fafefbfb001213ebf00cf512,
fb06f9f6fffef7fd01090b03fd0000fcfd00fa09f3fd03fcfbf50d00f6fdfbfd,
fc0f09f8f4f7fefafa0f03f302f9fcfb0001f7f7f8fcf5fdfd02fefbf8fef9fe,
f9fafcf201fbf7fdfdfd03f503fffcfcfafb00f506fdfbfdf902fff2fafafbfa,
fbfafe04ff09fcfc00f70002fa06fffb000302fbff03f8f901fb09fffc09fefb,
00fffc010206fff6fef7fcfff905f7f9f9f90202fe0805fdfd03fffd070b06fb,
1203280d09f1f2143df00115feeee61a23ef1f1cf5fe0217fef5fc010204f9f8,
eefde80509f7f1ff07e71f0af8fefa0d1ee7f613fbf6f6091dd90518f4080b19,
fdfe0104fd010602fefaf502fd070000e40c0ffafdf11603ef12fefbebf50bf9,
ffedfb0207fafe0401f7030306fd080904faf4fd0afef6fffdf7fffdfb04fc04,
0104ff000300f203ffeaf5fdf3fe040202f4fefeff090cfb02f8f6f9f80dfefb,
ee04f50608fbf907fefce5ff0103080b0502fdfe0202ff02f6fefd030bfbfef3,
02fe070609fc0ffbfa0ef0070104f5060802f9041001e5fa03f50efffbfcf40a,
f8fa1109f602160701f20709fc05ff01fe130311fc01ef12fefd0610fd0dfc06,
f6f7fc0606fffe05fcea00fb0502e500f3f10d06f900fffbef0d0106fafaf810,
fff40400f9fd050efff505fefbfc0607fef707fbf200000dfdf50d05f9010e0b,
00f60503fdfd021000f1fc00fbfb061507f5020802fa0507fcf60c03fafcfc0d,
f5eefe06f5fa02faf8e1fb0cfef5f6fd02effc02f9f9020b06f7fe02fafbfd12,
02eef00701f4f50400edf910ffe7f8e2fceffd0201f713f5fce9fdfff3fa0e03,
f2e601f9f80400f40debfc08ff09f60b03f2e40b02fcf9ff0af1f1020b070e00,
f4f204f50600fef8eff308f8fefd00f8f2f305fbf904fef5f3e7fff3f70405f6,
f2f900f6f9fcfffef2f801f70004f802f2fa0cfbfb00ff02f1f805fdfffcfbf9,
03fd01fafd0711fb0609fb0400020f08030a0005fbf50d0b00070109fffc0a02,
00fdfefcfe00060002f9f9fc00fc0bff050002fefc080dfd010104fcfa050c05,
f409f5fe11fa050efbfef2e814082a12f50af80a1a0f0a2001fbfe0302fb09fc,
f8f7f10908060cfff914e3f011f51d080208dae614062814fb15e7ff15f72113,
02f8fc00000bfb0709f7f5f600f90903f3f6e6f70ffd0bfc01eeeef3141d0cff,
fb01fafe00ffff04fc03faf9020c02fffefcf0ffff07030202f9fbfdfbfc060a,
fc03fc090207fe00f9fdfc02fef8fefefdfdf8fefe0105fe04f6f8fffffa0cfd,
00f9e7ecfb08f9f5faff020506feffff01ff020204f6fff8fd0502fefe05fdf9,
fef90203f502030403f9fcfdfe07040300fa0001fcfd010707fc03fe07eb0c00,
04f71601030102f7fdfb050503fa010107f1100a04e6fef3fcfb05050706fefa,
fbf308f9fb02ff05fdf908fcfef00100fcf607fdf908050005ec080101ed03f3,
05fc0001fefff7f504fd0104fefffafc0200fa02fcfbf7f9f9fd0402f60aff0a,
fbfe00fbfffeffff04fd0b06ff0dfef3fffd0502fe15fef602fffc03fe08fef4,
fb0cf1fefb062810fc18ecfbf3f6350efefc04020006fcfcfcfb09fffe06fffe,
f80ceaf4fa041a09f80be4e807fa120bf806e7ebf9f01e0ffa12f004fffc350f,
ff040505fc030003f70af1f2eafd2ffaf20bdff2eafb18fdfb06edf4daf82b02,
f9fe00f9fbf7faf6f8fbfefefcfcfcf7ff02000cfff6fd03ff02000403fcf9fc,
fcfc07fef5fbeffef80008f8fafbf8fbfaf70afdf901effaf9fafd00f9f7f601,
02ff0200fdfbf804fd030301fffcfd02fdfe0204fefc060402010008fbff0402,
0100070301fbf1030600fa0200f9f40002ff0aff03fffffefdfe07fd01f9fbfc,
faf903fc03fd12f5f608fdc4eff41cfdf8f1e6d6fbf21c000102010407fd0200,
0204ebe616eb06fb03fb0d0509040f000f05f9e0fb00280d08f2feeffbfa1d09,
ff0604050e05050cff10ff0212fb010bfa03fffc14f600f40808eaed16ef10ff,
fd0302030cf0ff00fd00fe070df40d07fd05fe050af5fd02010c030313f6000b,
fafaf503040701fcfe02f5fd10f8f90a08fd02010cfcff0aff03f9040ffaf90f,
0206e404fbfef7fbf70f29feeefc1003fc060f00060803fffdffff00fe07f9fe,
03fe0e080fff05ff06fc07060f000509fefd0508f40206fdf5101d030af90cfe,
02fa3c111204060309f4ee010307fd03fa0af408060a0cfc07f9030a1306fd00,
fafdf4ff06f6f601fbfcfafd0cf7f9ffffeff1060002fa0300edf822f5001100,
0308fefe0307fff504010305fd0300f40a02fd03fb06fff2fefe00fa08fdfc06,
08030401f902fafdff020dfa0403faf7fdf9fdfc020702f501fbfc01f704f8f7,
0df4f9fa0ef4f1ff0ef404fe0cebf6e90806fefb0200faf90701fd010009fdfd,
09f804070400eced02eef1090cf2f3020bf7080a14ede9ea0400fe020cf5f2e7,
f709fefc01fffaff05f70a0dfe11eef9fbf9070b150bf2f600fe080f1400e7f4,
fe0702f7fff7f5fc010c09f904fafcfcf908f3f7f700fcfef706fcfaf5fafbfb,
fe0300f706ff01fdf70a06fd00fb0005f80806f60bfe03fe020b00f801fefbfc,
fafb07f90a03fd06f5fe03fe0310fb0afaf505f8fc0bfe0af9fe01f8060ffa0b,
fb0103fc0000fc05fb0205fa07fff503f6fc05fa0b03ff05f8fc05fc05010304,
f20be519f909fffe0206e326fde90414e915ec12f9120204f6fa0300ff00f806,
e6feff0e00fb07f6f20ef91403fffcfdff0eecfbfae80200ed0af02001020701,
0505fb00f6080bf80207f607f1050bfbf20df0010205fff8f008fafff5fe030c,
fffaf704f0fc0b0003f9ff02fb0507f8fffefd04ef0709ff0707f9feef041001,
fdfd0103fd07f909080ef5fbf2f00b02020800f9fdf3ff03060cfd01f6f7fe05,
0205f5f10e0201e8f605ff06060ff80001fc0701fcfe0807fdfdf90206fc0100,
03fbfffdf9fd03f508fdf905fe0208f603fbfefdf501fffcfdf30704e60d0101,
080100fa0813f8fc09fefdfcf7fbfafa03090e01f518f2fffc0d00fbf904fafe,
08f8fc03fbf402fa05f50101f4f202fe09fe02fbf3fefdfa0cfef8ea0e22f8f9,
01feffff0a0309f8ff040900040407ff03fb07fc070108fc0cff03fbfbf903fc,
09fa010208020afc03fb010b0d040cfd05fd030a07000c0d05f3060507010d02,
eef3e709effef403ddf8da04f40ffff405ff0106030211f808f60103ff050bfe,
e801f8f9f7fafd0de80df612f0eaee17dafff0faecf9f306e1fce70bf4180ff7,
f00805fbf9f0f7f4defaf210fb12f7f7e810f011fff6eefee505ee05fc00f4f9,
fd03f7fb01f8fefafc01fdfbf5effbf6fa0803fbf4f1f4f5f406fefe01f6f7f4,
fbfd01f6f0f404eff9fa00fdfafc04f4f6fbfafbf2f202f10005f9f4faf3faf9,
03010502fefc0001060300fefaffff0302090005fa01fd060609020afa00ff0f,
01fe020b0203fdfa00fd050400fffbfe0403050703fcfe03fd00060600fd0207,
f0f80c03f6fff7072af1084dd81ffefbf2f4fa27e60c021a01fd010dfa00f901,
eff3100e0ff10201ffeefa09eaf8f9f62fee002fe305fb14f7f00421f004fb01,
04fc05f51005f8ff07fc05fa0202feed05f9f1fefde8fdfe11fd071a0901f725,
04f305ffff05f6f905f70306090efa0902f50002060901fe07fb02f7fffef5f7,
fc00ff06030100f905f301fbfa0001f4fff20002060305fc04f0fefe010a0ee9,
02fbf4e60afb030bff04fc2bf60cfb01fcfb0007fd0403030700fd0505000708,
0002fd050306fe0001fffafb080afefa0a01fa090403fefcfff6001bee0df8f7,
ff030604fd0ffd07fef9fdf20403f612f402fe0af11cf6ecfafd00fcfa0af30a,
f7fbfff8040df60dfafafcfa0000f70101fe07fb0704fd0cfc0007070316feed,
00f50005f905fb0104fafe04010a010203f4fd03f8040101fc0004f90401f802,
fefefb06f00dfcfa0300fb09fe0afdf80006f9ff0c0cff0000fafc06fe0bfdf6,
0efdededebf00cf220f6f7e0eef0f6dffd00fe04f20afef50503fc07f40bfcfc,
06f6f6ebf0eefcfaf3ffeaf0e5ed17f90bf9f6e3ecf306fc19f907eef9f4f7f2,
07fbfc06fefb0cf91dff0901f9f7f5ee0910fa0cedf603fa1a0608f7fffcfc00,
f7f3f6ee04f801f502f5f9fa05f604f8fff9f6fffbf80901fdf6f7fffe0106fb,
00fdfafbfff20df8fdfefdfb03f407f100f8faf700ef0bf4fcf3f8f803f504f7,
f7fd04fbfcfe0007f1fbff070005f405f5fe0105fd05f908f7fd0205feff0105,
fafa00f501ff0100f4fcfff802fffe05f6fa0104fd04ff05f6fffef9fc05ff05,
eafcf21017ecf3dfcff7fb0c21f60ed1def6021426f0fce1f7f902fc01fd0000,
f2f9faf5fb00ed01fc01f30207f8fae6d4fcd7f91a101fc8f2f5fa0210f905e1,
fc03fcf802fdfb05f3fd07f601fffaff0701fdfffdfbe6fff102dbf0f4fdf4fc,
040102f20708fff90c0403fa08080303050102f50a08fffbf90106ef06fffb00,
0600fbfff902fef801f7fdef0500f7f509f90af70001fef9f9fc00f00402fbf7,
eafef0fcee0202f6f8f9fa07fcf9fffb0201fe03ff06fafa06060902f90504fa,
ff0104fc02fffa04f809fd03f8030102fe0404f4fc00fe06fdfd06fff7fefbfd,
fef70cf806fdfd0704f90a01010a09080cea0502fe050e0204f90cf602090a03,
fefcfb03fdf3f8fffbfefbfb03fafa04fbf809020308fafc00e604fcfbf70009,
f9fc00fc0803fffe0001fbfb0805fa00f5f7fbf9050304f70005fe0bfe04fafd,
fbf604f80603fe05f9fb03ff08010400fd0a000104ff0205f6fb00fd0201fffe,
f1e20c12f41513fbf1e50f11f91802f6fff901fc0700ff01000309fc0afcfd01,
f9e815feea0f0e02f4d61205ef110ff9f2d91004000c0af8eeef170ae51a0e01,
f2fd040304ff00f9ecfd23f0e92317f8edde1cf6f6180ff3edf013e9f0250dfb,
faf6020cfa05fe07f5f80209fbff0003f6fffe0403ff03fbf6fa0208020605fc,
fdf8f8ff04fa00fdfaf6fb0202fefcfef5f7ff0305fefffefcfdff03fafdff01,
fffffe02fbfdfafd030202030800fe0200f904ff0cfbfb0705fc050308fffe04,
fbfcfa05fafcfdfdf9fdfb03fcfdf9fb0606fb01fe02fbfd02fdf6fffbfafbfc,
f11af8f7121518ff090b14ed13072af9f01af7ed17071dfffcfe0101ff04fb00,
030df6fd101616fd291507ecf41718fd3620e9ceeefe29df3313fcd6020e14eb,
030401f808fefb02000202fc03fafbff0010f7ff051a19f90f13fef60a050ff0,
02f9fbfcfefcfaff04fefdfb0301fffdff01090204fffffc02fa02fb05fef507,
070a07070c01fffbf3f7fdfd06f7f2fcf8faf0fa0bfff4fcf5fc030008f7eff9,
fb0ccffbed05f6f80b0aeb050610f3f707070e07090507fdfe060c03fb07fcfe,
06fb06fc090803ff010312040501fe0301fd0b010503fdff0e00fb09071200fd,
11f8fc0d0500f1f600f9effe0100f20723fe0a150903f9f506f2e7010900f0ff,
02111cfc02ef00fff704f6fe0bf807fffcf8f10004ffecfc1df7f51802f8fbf0,
00020103ff07fdfc000302010601fefc02fffc02030202fa0005fbfd09fdfa03,
01fcfe010301fc0004040101fd0e03fd0b0df60505fefe010307f704050205fb,
f9f8f2fe13f4f305fb02f5fa09fcf7fbfffd01fc0209ff0006fe1a000605fe04,
ed010104060d0b00f6fbecfc050aff07f00efc0203140b02f405f6060efffcf8,
ed01030304f7feffdd05fd00060d20fbe20bfa0504050a01e403f403010413f9,
eafedff0f6fd0700ed00fcfefffc07fff2fa040001fbff03eafcfdfbfef80500,
fe07fa02fb050205fb00fefdf803fe05fc09fd02ff04fffff00302fdfcfe0100,
fbff0202050705090103fd0709fd04ffff0bfe030d0401fc0008fcff0c000503,
fb040602fe000408fcfa0202fd07070b0005060605ff0205f808060304050205,
f9fde809eaede9fff4fce314dfddc5f400ffe313d8f8cf0602fd0206fe03030b,
f6faf31106faf009fdf1f524f7efe9fcf003e52bead8bafd05fce81ef1f0bcf8,
0304f902ff0201fd0706fafcfdff05faf6f9f3220de2060fef01f61f15e8f40b,
01f6fa03fafdffff04fbfb02f5fd060308fff8fef70304fb0001fa05f903ff00,
fffefb01f404fffffffefe0bf4ea0209fd00fd08f7efff0007080103f8f4fdf7,
f301f802fe050001fc0bfffd02fafffeff05fd00f5020404f906fe0bf7f402f4,
ff01f602fdf8faf8fc0af4050302ff03fe07f4000305f7fa00080004fc06f903,
02080c050406fb0408fe0afd000e090b0a0d0803f60b070b0d020900fb0f0006,
ff0c0401090303fcfe040606040bfdfb00040301010ffd0305120500f605fa0a,
06fe0101fd07f8f20604020af700f4f803020701f604faf9fb0201090506fff9,
0afe02fff50001fa07fb0300000400f80d01020c02fffcfb08ff0502fb05f9fe,
0805fce7f9fdf90d19fff5d2ff03fe0906fe02fef70201f608000600fdfb01f7,
05fef3ea02fbfc11f401ee02f9fd001504fef4ecfd0bfe1812fdf9cb02f5ff1b,
00fbfb05f302ee081101f2f00a060d0f060cf0fc060a0d181004efeb080c0f1f,
fcfefc01f0faf50cf6fefe01f8fbee0c03fef705f408ee0e00fdf804f001f40d,
010005ff01faf70201fd0200fbf5f7fcfbff0001fbf9fa00fd000101fb00f00b,
01040805fe0a01ff020202feff08fb07fb08fe01f810000601030604010fff06,
0706fe08f80c050705070004f70c0001050204030104000303060001fd09fefd,
13fbdff60f0c04ed06e8def20019042a0bfee1f305140c0605070007f6070507,
09fbe4fc0102fee203f8d6eb0d0703f815e4e3cff30bfe2300ecdfe80c0afc0c,
0503fff908fa02fa0108fffef9fefff90210dc051904f8e80af6ea0115fc01e9,
03f80202f202f6f802fc04f3fc03fffe04fb02fff5fffcfdfffffe010102fef4,
ff01ff000008f7fa06f6fcfbfb0802f8fbf805f1fc080000fffc03fa000bfff9,
00f4fcdeedfc01e8fdfe0409f90503f3f8fbff06fdfdff06fafc0402f503f9f7,
00fa0300fa0304fe0402fbfdff0108f9f9030309fb0606fdebf40802f50406fd,
fd0200ed0a08fa06f603fbf20503fe010004fdfc020cf206ff04fae90303fb07,
fb06f9f803f400fcfefef8f304fe0707fb01fff901fdff02fc0707f2fe10f2f8,
fafa04000c04fbfafc0103090905fffbfd0304030d01fffb080103f807f907ff,
020504ff0201050af9fa03040705fe060100ff0807020210fdfe030405040104,
e80ff7fd0c19fdfee807ebfc241af8fe01fe06fd07000109020304060ffd0814,
e209fa02131d08f4ff0300eff52211f0ff01f8fb0b240afbd906f4011b15fcfb,
07fef30101f8feffe00702fd0621fdf8ea01fef40d23fdf5ee0a01fb1026fbf7,
0afafafff2fc010b0bfbfb02fdfcfd030806ec00fcfbfbfa0503f500f5fbfa05,
0802f40402f7fffa0efefb0704f9fe000ffff70602fafefa09fcf4fcf9fbfbfe,
030d03fcfc0301ff02030503fd01040a010803fef9fc0300fe0d0500f6fe0303,
000b02f904ff02fd030b02fe01fdffff030c0bf7fd03000202080af6fefefefe,
0b02020bfe23f30c080d0215ff14f01d0d0cff0b0907ed0cff04fff8fe00fe01,
050bfaf9e81507f6f500fa02f724f619f8ebfefbf523fa1aee0902fef316ed16,
00fffdf1fffffaff030703f10302ff02080bf6f8e7140d0f06ecfbeeed17fbfa,
04fd06030803020b00f9ff040d010206fffbff0202ff0207020c09ef0407fb03,
04f6040102fd050400fc0bfe03ff0608ff0501040602010402ff0c02fefc070a,
fffa17f7f311041400e7080006f8fd0701fc040703fcf9fffdf409fffd09f708,
01f10703fefdfd0801e50703f80afe07fbf4080b03fe00ff0af5fe090603040a,
faecf30409fbf8fefefa00fbfa00f7fbfee3000c07040d06faeaf9fe03f703fd,
fbe1030eff06070000f5f910fd0706fbf6ebfafa010102fef502fc0906060005,
030801fd0203ff06000cf9fb0907fe000205f7fe0a02fd06fff107fdff030c01,
fefffefe02fffbff02fdfe0103010104fe05fd06040404fe01fff90409020001,
03060cf4fc000600090e1be102ff13f703fc00fe01fdf702fbfafd010000f9f8,
fb0003f7070709fcfbfa0311f603fd00fef901f7fa070dfb0a0d1bdd0f0320fa,
00050f0209fbf9fb0307faf5070a0dfb0001ff05fc10fefd040f05f20c0e0ff9,
f80901fcfffbf6f6fc03070301fdfcf9ff0107fc06ff02f9000301ff01f6fdfd,
fff700fe01fffd0200f9fffdfafe01fb00f00200faf80100fafa07fcfe00fafc,
fe000702f9fc0ffdfd03fcff06011006fcff00ff060018fe02fcfffe02011400,
0007fdfe01fc0cfe0500fcfe02fa09f90003040604000e01fa050503fdfe14fb,
faf4050ef6efeaf10500f3faffdfeafa00f0eafb04e0e8f80204fdfe00fd0701,
01010e12f804e7fffb050c0ff3fbeaf0fa160cf4defde006160507fdf3f8e107,
fe0407fffa08fbf7fa090107f60401f6fefe0f0e0105f2050d020b17e501e701,
f8fffa00050302effff006fa060603f2fefcfb00030407f4f90c0403f80604f7,
0200050a090503f3f00303ff0307ffe6f8fd09fb000603e4fa0604ff000608ed,
fd0406fbf90dfffc090002040505ff0cfc06080408ff00f502030004ff000901,
ff040006fefcfbf506f700020403fe050205ff0d02fcfffc090d050407fdffee,
f7fd04030afb03e00006fffd100308f30501fe080dfb0bf0fb04fffb120102de,
0af80805fbfcfcf9fe010700fef900ed0004040303ff05f8eff903fe0e0008ee,
0304050705fe020a050305080bfd040b0606040b02fe040201f9060401fdfc04,
faff01ff08f802fc00f807010afc000205f010080cfe01fefdfb070505fefdf7,
f3fbf505f5fe0800d8f4080b12fe05fffa0204ff05faff0207ff0d0708fb0405,
f601fc0f0505fafe020ded0ae9f8f3efebfef60c04f4f9fbd7f80c0113050a0b,
fa0bfbfd03fb050de9fef0091c03f511f201e60711fffdfae8f9ee0226fafc0b,
fd07f8f900070af9010df5fa00020608f20cfaf900000905f30bf2f805f60800,
fc0d0302fb04f7fffc11ff0401fd01fd0310ff0300fffc06fd0bfbfbfe090201,
fffc0603fc0003f9feff0508030102fa02fa0403080702fefd000a08070702fc,
04010102fe03fc01fbff0006fb06fcfb00ff02040a04fefe040203fc04010500,
dc05fffa010b1909dd1ff7f4ff2117ffe002f2f4142618f4fefeff020304fcf8,
f7fe05e505fbf1f1db0af9e80705f00ae00edec70216e6efd308f1d80814daf4,
fcf7f6f609030900fbfbfdf703020801f0f705ea0302fcfe070502eefefbfdf2,
fcfeefeffd00010301fff9f009fcfb02f905fcf200f9fc01faf3f8f003feff03,
f805ee040cfff90cfff7f1fafbff0bf80000f1f803fbfefa0101f9f8fdfd05fc,
f1f8faf40814f4e8f10ee7f90d0af411010100fd06ffe710080402f80afce902,
fd0306feff05040df9fe03ff070f1800fb03eefefd010a06f404fdfd0402e71b,
02f1f308fffff6fcf9f1f30d0206fdf5fdf7f5fe100619f6fdf6ed00050508f3,
fbf9f905fb07fcf8fcf6fa01fb01e9fd06f0f80cfffb01fa02f003020a06ff02,
01f8fcfd0504fe0300f9fd0201f6ea05fdf7f5fe0403f30700feff0b05060a03,
fdf4f9000400050501f5fb00020afd07fff70208fd03f8fffdeff8030006f906,
fd070908fbfcf808f6fd0a02f4ff0011fcf3fe020204030601f70206fd030505,
f8121701fb0e01ffeb0d1bfef304f901f10c0ef6f708040403fc0b02f005fc04,
0704f102faff06fa02180deefd12f7fbfc180cdef31ef5fffc15fde5ef17e800,
fdfffa00f9f8effdfcfbfe01fafdf3060e07eefefe030102080af00100f6faf9,
0303f402fbfffd02fe03fbfc010300fd0303f9fff9fdf40300fdf7fefc000104,
fefb06f8fdf804040800fefe00f4070605f803f700f90600fffc01f501f6020a,
fe00fefef9fc03fcfa0101fffef903fe09fafcfbfdf8040208fa01f9f9fa0201,
14ed14100604fa0112f911f8e3e1041109f40809e702080afdfbf9fdfef603fd,
f909f70c0203ff062308fd00eb18050c1e09f802beea032a1a1400fcdf0c0119,
fafa0003f5f90cffff01fb0afcfe0c04040ff80903090c030314fa01e9ee06fb,
0603fbf6fff9040000fd09f7fffc02fc0508fb00fdfc05fefd04f205faf80a02,
080211ff06010cfd060afe02f5fd0003050203fff4fa00f8030afd07f4fc02fe,
0608f006e2f403fc10f50ef4fff90b0c030a06ff040810010627f906fbfc0df6,
08fd08fe00ff05f707000305020006ff0af90206fffd0af808f8f10302021102,
ff0a060000030801fdfe0c08fe0a05f404e505f8fd08010601e81302fc0a02fb,
0c08f906f8f903fe05030209fcfa00f7000a06fdf80706f8010efef7fff90108,
fcff0702fef906fc04fd01fc08020dfcff020b0103fd0bfb0202fc05fbfc05fa,
02fe0ffd01000801010002fe02020901030002fb030b0c0000010a0002000eff,
fcfd0ef4fcf5fd09fc0206fffefcfbed0101080201fb030202fc08ff00040703,
03fc0508fcfc02090a0a0601fc06fb230d04f60dfd03fa0a02fa0304fdf20204,
ff04fc0afcf0030bfaeef40502f706effc00fa0800fa0304fcfaff1003fc00fb,
fc0b040bfefaf806fb0afe0502f9fa07fd03fe08fdf90005fa05fc0dfef50504,
05ff07010101fd0b0202000503fb00110600fc0503fbfe0eff0f0005f900f803,
fff8fd01f90104fdfcf80104f70709fb01f7fafff6090dff01f40307f60a0dfe,
fcfc000bfc020001fdf80308fb04ffff06fa0602fe0406f804fafbfffd0005fd,
030deee5fdf9f429dc0bebdd0409f70bec00fafdfbff022d03fa050bf6090003,
1101f80b040dfb15f70c0de90703fc1de1fcfad3100af7f1f1fe01060c050319,
f904f901f9fbfcfb01fc060bfbfbfbf71d0e13fdfa010f130cfd08eefc1efa14,
0404060101fcfd03ff0006fe03fb0102fffa070303fc03fe01000907fff8fef5,
fefbfc0605fefc05f6fa020604f8fa05f9fafd0000f50600fcf1030603f805fd,
ec14fcfafbed03e6fc02011210f6fa01fefbfefd09fc000bf8ffff05fbfc0100,
ffff060502fd0602020205fd010103fefffdfd0206020206ff00020f02effb07,
07f9f30afef5fa00fb0202f603f9fcf509fe1d070cedf80bfdfd0cfc09f1fef8,
08fbfcf902fdf8fa00fcf9fbff00ff010000f2fffcfafbfc18fbeb08f8e5fefd,
fcf9fefc03fef9fbfe00f4020705f8fa03fff8fd0301fafb00fb05f905020000,
0104fa030003f7fcfffffdfe0300f900fe02ffff0c0dfdfe03fff7000504fafc,
04f203fb0cfbfa09f7f8fff10afc1a15ffff01fffffdf600fc010601fd08f800,
04f401fb07f302050a0afb0603f9edf105f2fd0006f2010402f800f20cf0210c,
fcf6f8fcf802000107fffee510fd0d0d0b0402fc0cfae4080102fbf718fc070b,
00faf60a05fc03fbfffb0002fc0002fdfbf9fb03f7ff0703fef5e701fbfeff03,
f7f9fef7fffc01fffcf7f9fa01f9fefdfbf7fef7fefefdfcfcfb0304fdfe03fa,
f80bfe0501fc05020300f803020500010001f809fb0806080405f808ff070607,
0204feff010afdfefc13fafc0002fc010108ffff04fb030300fdfc0303fd0402,
09f00be3fc08ebfc0c04f9f9f51bd50401e7edf7f3ffdaf20404fdfb0105fdff,
f8f50a06ee00f8f0f5f608ea0102fafc0812fdf3f5f4fbfa08ebede9f50de4f1,
fe020efdfcf9f40908fd09fefc03f400efe71c01f9f7f4f10204150ffef304ec,
f8f80af902f5fbfdfb0108fbffe7fa0001fa07fefef4fa00fff811fa0605f505,
01fdf8fa05f7f9fdf9f618f4ff01effbfef90ff100f9f201fff215f3fa04f400,
fd010dfc1cc902050cecedfcfd1501fffd01fff602fbff0102fd06fa16040301,
0305fcf9f600ff0101f9100109ecf60701fcfa01f600ffff0fe7fafdff0bef03,
fefffd06fcf3fe02f9020dfef2fd05fefa0bfff4f0fafefefb0b09f6e7ebfaf8,
030cfdfe0cfefe02010f0b01090207fef9ffff070101fc03f807edfd05ef020a,
f9fef902f7f700ff02f4f606f50602fefafffe00f6f9fb0100100a0409020201,
0308fd03f9fafbfff805fe04f2f5ff0400f3fa0af1fc0506fc01fc04f5f9fb05,
0c0500fef60705ea010ef5f9f2f506f000020004f5fbfbff0b00fd09f708fe01,
05eefff4f60908ec0dfb0f06fe0d0cef08f50dfcf80613e5fcf9f5f6f30107e3,
fffafdfdf3f809f80dfc0102fafc03f40f0d0e08f101fbff12000a09ee0109f8,
fd00f9fef80305f9fa00f901f7000af604f7f9f7f50005f705fbf9fbf4fc04f5,
fcf8fefdeff802fa0002fbfff2fd04f8fcfc0001f2fa01f700fafafcfbfb07f8,
01f405f8fe02fb01ff02fe03fe01000502fffe02fe05fe090002fefcf903fa07,
fafcff00fdfefdfbf9f7fefcfffcf8fefb0705fd0301fb1504f903ff0308fb06,
f1f40bf1fcf817e3ca0bf3ec06f802f2ecf8fbd90df51cedfb070206f8fffd04,
1c070ced050c0cef0d050e04f2ff2bf5e315fff7f80d1ce7090df4fcf6fc22f4,
ff030bfb07040506f5fd00fcfcfc0c04100607f3ff050f0707fb0de4111d0ded,
ef02f9fbfc0308faf70602fff6060306f603fa00f70309fdf5f3fcfd01fb0a01,
fefffc090705fbfdf8fff8fbfafe1200f3fbf9fdffff0afef9fef5fefdfd09fe,
f21afbfb0f07fe08f801edf8f3fc070c02fc02060103f7faf502040414fdf9fa,
feefff00fa01faf1011507fd1419fafcfc0100fdfc0100f10be0f301eff6fcf5,
0ef303eff7f3fcf5fee90400f7fc0bfc01f4f603ea08000b09e8fe00f9fd02fb,
f911f7fcfcfc02efed00f9f1fefe01f705e908fcf7fa05ed0714f8fef4f4f60e,
fe0afaf80205fe1001f808fafe0303fafb04fef90509ff05f90201fffc070afa,
fa02fc0000fc0605fa1101faff01000c05f812fdff0201ebfc0405fe020202fc,
ed0707f5f2eff6eec0151ff5ecf9f6e5f60701faf7000408fe000501fcfe02fa,
e6fa09f8f8f9fff5f2f8f5010bf909f4da0205fbf9fbfaecd3ff16f1ee01eef2,
f8fcf70002fc0a05ebff08fe0600f8f2ed0610091802ffefe7010efb01fbffe8,
fe00f806f3060c07ff04ff01f7000b04fafdf6fd01000602fdfaecfffffb0903,
f80402010406040009feff03f90805fffd03fffdff0809fcf903fdfcff050e09,
01feff01fdf6fa0400fb0504faf6fcfb02fb0206fef207fa07f50108fcf602fc,
07fe0602fef8ff0502fafd04fffefd0105fd0401f9f803fc06fc050200f600fe,
fbf3fee40bf701faeff4e6f11a120916f3e8f8e91f00fa02ff010303fcfafc02,
06fbfee908e904f9fff8fee80c05050afb02fbee020dec2af6f9fff807030e10,
f5fbf5fafef0fffae90cfefa02f6fafb0afbfde307fefcff090901e10001fb03,
fa03030100fbf8fcf6f6f1020000fcfbf5ff04f806fdfcf7f70903fdfef3f5fd,
02ff070402fe0d01f10d06fcfc00f504f002fcfefd01f4feef0b07f70100f8fb,
f80afff4ff04fff400f9f9060c06fe0a04fdfc0101fe0b01061409fc0108f8fa,
f802fc02ff04fd02fd07f8fd04fe08f9f60cfe010401ff04fef8f1070606060c,
010905f6fd0108000308f801fc0701fcf2ece80003f52bfefaf4eefcfcfe08fe,
e9fbeef001f505faf201f0f3fefb01fa020afafdfd0000fff71714fcfbfd0afb,
0500000aff03fc050601fe040402fa0d0afffe060300fb05fe04f7f8ff0007f9,
01f4fd020206fa0ffefffe0c0402030ef9fffc070afc070dfe00ff0605fe020a,
0cfcf70a01fcfd090a09f50efff8ee0303fafb06ff07fc0d00f4f9020308fc0c,
0f03f20bf3010c0400f2fbf9ff0b000a15fcf7fffd0207000e0bf21000f1fd05,
ed0306fafb07f704f61bf70ff9f301fef20a06fcfff60b000817ff0cfef40600,
fcfdfffbf407f304f30201fcf306f903f20503f8fe07f805f50309fef90af206,
fafd05f700050104f8f802fafa0505fbf4f901fbfd09fd01f80106f7fd03f905,
0208fb00fa05fc00020bf604ff05fcfcfe09f600f704fafd010df604f90afefd,
08fefd00060702000404ff010206ff030801f400ff05f10000f8f7fffa00fb01,
ee03fbec0f0700f70b09fff8ec0205f8ff0cf6ed030804fcfd00fb00ff05ff02,
ed06161e11f70dfbfafdec060eff0bf7fed3df0d0500ebf6e9f4ec0d180b1cf0,
f9f9fe0602f5f607f6feff0b06e8f606f9fb121a03e40402fff3121514030302,
02fb040204ef0701f7fc0104fafc000005fb0806f9f2fb0af0fdfc0a08eafb06,
09060b0407091305f9f8ff0406ef0d08f9fc0200fbf5fe04feff0305fdef0707,
e7f9fef1fa06cff1e3080804fe013b02fe000dfd01fb1c08030304fcf805fcfd,
090001ff00fe120afc0101f6f8fc05fe080cfe0401fe0806f80508fafeff330e,
0f100601010ff8000205000500061408010400fdfef62a071207fc050a0eef0a,
f6fbf4fc0cff1207010901f70dfd0c05030b00fdfd061801f5fc0203f20706ff,
04f700020b05040201ff04ff09060a0609fc03010906fe050103faf90afcff09,
fa03fd060404f6fdfbfaff0206fffffef90002ff09f804fffdfe01ff04ff0304,
f6f902fe13fff81600fb0d0417fc1019f7fafe0608fdfafbf90afd0a0e0207fb,
f9fefb001305f706f9f6e01003f1f4ff05fdf00310f30507f3f916fd1000f91e,
0100f900fefffcfcfd01f8f80e14f800f8fceafc0a06fd02fc03ecf918120802,
faf80105fc0501fb07fffe03ff02fdfffc01fbfe00fd03fdfa03fffcf8fc02fa,
02fffc0107fef901fbf6000305ff01fd07fefb0003f9f9fd03fffdfe0407f600,
f806fe010100fb0d040afefafd0104070409f8fcff040709060ffafc04040308,
ff0100020008fe01fc06fc0401fc01fdfc00fffefb02fc07f8fcfd050201f10f,
fdfefa09f1ed0c1af5f3000111fc0d1be9eaf503eafd0f2504030102fdfe05fb,
fa0d0202eef6021ded0608f7e3f21017dbe402f9f209f41aebef0bf8da030816,
01040ffafdf8fc1f04fd1501f8f30229fe120109ecf9041a020706f3f708ea21,
fbfa0efdfa00012ef805fcf802feff16fc010900fffefb2b00f61d07f400002d,
09f706fa05fbff0c00ef25fffafdfb3600f210fafdf8f92702f521fafdf60031,
eef017f4fefa020d0cf5000509fd0bfa0a0805f905f70010ffef12f803f50d19,
0502040100fc080a02070a03fc01fdfc050a02fffbfc0b0011fa03ed04f80702,
01f6f3f70301f50000f1fefafdff011109eaf4f60006f30604eefc0004fbf703,
f5fbfffbfefff5fdf90204fe0205f003f5f3fffafd0af10affeef2ed030bf001,
fbf6ff000601020c02fbfe000002020df5f701fb0602030af8fa10010105ff08,
fdf6fffa04fefdfd04fb010002fd0a0916fffa01f9fb040c08fafcfa03fd0008,
ff1a0a15f8fafe10000b0602dff90309fbf8010601fb08ff07fcfe0002fe0c03,
000c01faf7fd030a071d06020301ec1a070704fdefff070d04010c03edf70609,
fcfb060f04fbfd00fe03fafef1ee08020a0efe09f506e70d0802fe0df5fe0504,
09f6010c03fce8fd04fb040a01fcf8fffeff060c00f9ff0203f9021105ff01ff,
03060d040401fe0904ff06030402f80701030a040600010a02fd060afef8f6fe,
01fdf9fe02f8f7fffd02f7fc03f8fbfefb0af5fdfbfcf602fd08f8fc02f8f808,
fe04fcfe03fefafefafffb0504fcf9fb030309fc07f9f9fd030408ff02f9f8fc,
fbf1ed0708060236fdf8d8eaf2d4001d0bec17f400e2063afefdfbfe01fffbfb,
10fbf9fd01fd032b00f807f9fbfa0324d3fdf1e6f5c50010f0fc18f4f7ee0a35,
0102f5fff60701f2fe05f1fef603fdf508f3160b01fd0b192404eefdfaf501fe,
fafb02f5f3fdfcf9ee01f8f9f8fd00f6fc04fcf9fd00fcf702f9fbfaf10203f9,
04ff09040005fb0506f900f8f407f9f5f8fbf0f8f50afafa06fff1f4f90df6f5,
f3f50006f2dd06ec00f3240b0a05050afdfc03fffe03fa000104050503ff03f9,
f7fbf3f9fb00fe060103f5fff4fbfcfef2ff04f7f802fb0200fae7020201f907,
fff8fefa0608fa04edfcf2020107f9012104080900080012f500fcfd0607f90a,
ecfffaf205040304e8fcfaf40006f704f0f8dcf5040cfe010cf70cfa04fe0107,
fefc0606fff9f709fdfe0502fd00fa0dfdff0303fafef407fffcfdf6fd09fb02,
ff05faff0804f60700ff0b0704fcfb08ef030604ff050301fa02f302ff03f909,
0219f702f0fe05ec0d1bfb12e8fef0dffbff02ff0906fa0901050102080d0105,
0f0ff601f904f9eb0b0afd00fffa030109070407f4ffffe8111df708e508e6dd,
fc060206f9000607fd0bf8f9f911e9e2fe04fc04f711fbeff00cfd00fa13eed6,
f6fd0401fb0500f7fafe06fff7010cf8f701fe02faf7050501010203f805fd03,
04010b05fef71200ffff0105fafd04f901ff0500f7f911f801fe0805fff706fb,
fcfbff01fe020004f7fc0801fb040000f8fd0102f90602f8f7f909fffc050003,
04fc0100fe09ff0100f60403fc070007fcfc0600fc01ff03ff03fb03fe01fefb,
f905f9f30ce0f60af908eef40aecea190f0ddeed08e8ed05fefb02fffc09fa00,
0306f8010209f6f2f207f2050be0f005e901f80f12eacce3f70cd8f412f0e700,
fefefafcfef800f50700f30000fffafaf301fcfbf5f3fdf3fd0808050afefae4,
fefcfaf9f703fafe00fdfffff504fbf603fdf8fdfa05f7fa020002fdfd01fefe,
fef70201030207ff0200fef3fafd00fc0500fafcf801fdef0902fffffa00fff6,
0200f703f707ebf0fdfafffc07010810fcf806fcfd080604fdfbfa0d01fbf5ee,
01fff4f8fefc02fff6fe00fefa0c0103fbf7f9fffb080101f9fa08ff05ff1014,
05f10503f7ecfaf7f9f708f6fef6fef6f6fb01fbf4f806f6f9f70bfcfff2fcf5,
fcf8f8fef8fffdf8fefd000301f6ffff07ff0300f7ebf6ef05f6f902edf300ea,
f900fb00f701fc02fdf8fe0003050700fbfbf9fcfd06fd02fafefefc07f7f9f7,
fbf6feff01fefe00fafef5fb00fd0301fbf3fe000c0115f2f8fbf9fe04fe03fc,
17f70808f5fd030508fc10fbf7fef9fafdfaf30103fdfa04fef8ff0608fd06ff,
f0fe06ff00edfd03f903f4030207f8fdf7000107fdf8fbfd01040ef601ec0001,
01fffd0c00fef806f90b040402f5fef8fa09fc01000dfef2f610fcfe02fefaf2,
fd000608fe00fb00f7030805f901fcf7fffe030bff01f90102fdfd0802fefb07,
fafb0504f7fffffaf9fc0405faff0004f5000409f6fefefa00000409f902fbf8,
0708fffd0f1909ecfa00f900fd1b08ff060402fefc2108fafa00fa0103230df0,
06f9020708070a02fffbfd0a0c05fef1050401fe0c0c02f8130808fd01140bf9,
0504f106030202f909fef50707fe02040301ed040503050c02fd01090dfb00fd,
fb00f3fb0108f0f80202f2fffefcfff009fef007fef9f70103fef00000fef900,
f60aeff6f7f7f6ccf1f6fe11ff03fd24fc01f6fc0104fefe0601f4fbf80af600,
09f8f9f6faf7fffff2f9f9fcf4fa01e5ecf400fcf1fffb1e0e02fefa02010310,
09e7fc140be002f100fbfcfc02faf8fbe8fbfbf8ec06f4eaf8f4000aef05f73d,
fa0ef5fd12f903fbfcf2fc0d0af50aeb0ee500110ae900e80b00f20d10f601f7,
08f803130dfbf5f9fef9fa030eff00f708effc0f04fb09ec0dfdff0c0cfa0505,
08fe0c07f3f801fdfc06ff0af5fc0cfc110aff0601070cf40d0703f604fe0c0e,
0b0bfe080203f5010410fb0809f7f60bff040413ebfd06fe23f30510faff08f0,
fdf6f7ff04080529f804fa010a00fb0dfc0e0efa0d05000cff09f50d01fdf2fe,
fb0709fd0b00010e00fb00060dfe03fff807ff0804faf900fc0a08ff0bff02fa,
03fe03ff01fcff0002fd040004fcfdfff9f0fb0b0efe081ef803010c09fcfe0e,
fdffff040301fefcfd00fe010204fe04ff0000020402fcff00fc030303fbfffe,
0d0ae6fb042904ddff00ff02080104fd01fffe02030206fe01fffdfc050103fb,
f232f90d040bf4f0f01fe90d1314fcfaf30aedfc0617fe0f041e03091315f4f1,
0602e60a1a07050f121ee0090d061105030ada0d11110ae2f522e409110af5e7,
f801080206f90f11fb05f9fe05f60603f70bfe0802f2050af9fa04f50cf6090b,
000607fcfbfd030cf700fff203fb0512fa0c040607f8040ef80cff0dfcf6100a,
050004fe08fe020201f3090607ff0b02070809fa0af90307040d02f90bfafb12,
fcfa02f808fd040102fb0a030607fd04f7fb0a0407070702fefc080206040109,
feeffff207f6fe03e6f80605fdfa070700fb03fb04000205f8f700fb010504ff,
10f802f40406fdf7f9f9f9ef080401faea0a030d02f6050213f308e7fef8fdff,
e6f20afe111501fffffafcf50d0808fefdf7f9f51802f6fdea0a050a0bfd02f7,
f3effbed0dfc05f8f0f201f60107f9f5e8fd05020d0ffc07e8f20dfb1406fc02,
f6eb02f7fd0e06fcf2f206fe050d0901f9f205f7fa070204fcfcfcf50307fff8,
e6ff02f919f201fae6fa0afa19fa05e5ee01fe0a13f1fce6e8fafff91efb02ea,
000bf0f7150310edf901f7f51afc17f2e8f80afb0efc01f9f410fe0819e600f5,
fc0dfe0606020500fc06040002fc0204fa0402fd02ff0c06f2fdf900130611f0,
f4fef0f100040902fe0af60402fc0301fe02fbfc03fe0303fb02f6f6fffd0908,
00f801fe00ff010201fbfd0202ff0301f702f40705fb0b06f700f8fd040402ff,
fd0102ff03fe0203fc0004fb04fd01ff0001010002000403fffa00ff02fd0402,
ebff3902050004e0010200fc03ff0204020003ff05000104030002fe04000505,
eb0c0efb11ef0807eb060ff406eb01f5e7fd2e0a0900ffe7f0ea27040ff90aeb,
f6f2f405ff00faf4f5f9fff1ffff0b06f9fdf2f2fafdfffbe4fb0d030dedf7f0,
eb0702fe08fffb0afb0c00fa0800fb04050ffb0005f5fb00f115fdff0e03f507,
ff02f8fa0001f00beb03f8f5fd0df415f60f040103fffe070b0e070407f6fd04,
fd0b020a000504fd01070102fb05fcffff050009fa0805fef304f7fbfc0bea0c,
fb0b030b040806f8f70f0505ff0404fffd0affff0c00fd02fa0ffe060701fbff,
f3faf203fdfb13080fff0100f1fdec02fa08020afc0707fcff0b0204060305f8,
11ff00030a04f9fbebf70504f9030e00ff040709f601f70d1101fdff0bfcf402,
fceff90907fff4f10505f8f90404f711ec00f5f8f9091d1613050408f0fbf41a,
ff0ef30d0c00f909faf7fb1305faf903fbecfd030205f7e90406f2071106fbff,
f5ec04080100f5e507fdfc050b03f8f7faebfa0e08fdf5edfcf8fe100407f5fc,
fd0702f00100f704fb0407f6fb000401ee0108f6ed101306ff060ef0f607100e,
f10006f40300fb05ef0807fe07fef10bf40dfafd0900f7fefa05f9f80601f9ff,
0005fbfaff050909f707f9f6f9030208fe05faf703000507f80e0b030801f103,
f0fcf9fa01fd030efb0101fa01000506f1fe01f5fb030302f200fbf903000305,
fe000601fcfffc02fd0203020101fd03f9fe01040100020cef00fefbfb030308,
fc02ff00fe0401fafd010302fb0201fffd000101000300fbfc0404020000fe04,
061403eefc03eee5fe03fb04000405fefe01fb05ff040302ff01fa04020305fe,
e027effae3f2fd0afc27fbfff2fae8fe041d07f6fb04f9f0fb1000ede1fbf8f1,
100f0d070500fff11014070104fd130b090d0909ff0902f8082200fdf3fae2f8,
0305f70d0006faf3140c0303010dfdfd1a08010af901fcff12080203fc08f5f9,
0003030f0417f408ff06fe05f520fdfe0402f2080609fbfe0afc021713fef505,
01050002fc08ff0a0102f9f5fb06fd0efb01fefcff0bf80bfe04fa05ff1dff03,
f800fdff01fa0004ff0bff0800fc030c0306f403fffcfe0ef50bfdfe00000007,
fcff05efff02e6f908030510fd040ffcfe00060000fe040bf4ff030004fc0305,
f600edf51301ebfbfbfbe9e80003f300fdf70706ee051afffa03e9fe0dfbd9f2,
0e05f7eef600f6fc0102f0fd13fb04fe02fef3d902fa08ff04ff0601f50a21ff,
e5fe0efdee0a0c01f10501fdf70afc010a05f1e8f602f8f7fe01fff6ebfc02f8,
e80df5f7f805f3feeb05f5f7f6080700e703f1f7fdfcfdfcf10afefbf6fefefd,
fc0f0804f107fe04f7001402f111fc0af30b0306040605fff50c0e07ea030d09,
0809fdeefaf503fefb0503edf4f4fd0dfb090600fd0cfb02ff130f05fc00fcf4,
0608fcf801f123040307fb00050212000109fafdfb132105fb0603f7f8f60d0f,
0503f805f70c14ff040600fd05f61402040201030201fe020603fd04f9000b04,
fc06fb0301000103fd05fbfb02070100ff00fdf2faf31d0104fffc06fc0409ff,
0106fd0000fe0001ff0601020002ff00020502ff0000fe01fd05fafd030608fe,
07f60104f0e7f20804050205fff5fb040704020700fb03030506ff0601fafc04,
fcf2e8e8f2f8121cf5e90bf8f0f7031504f7070ae9ec010f0b010306efe73202,
dff8fbedeefdef09dbebf5f5e8001613d7f009f0ebfae40af8eff0fbfdf20a18,
ff0a0304fcff06fd0e070405fb030cf0051708fef10409fc03050304f70109f1,
06130a01060506fcff1507ff0a010df6ff03040403fd0df9fa1a1208f5000100,
03fef5fafd04fdf60704f3fefb01fbfdfffaf501f903f6f4030803020f010efd,
fff2f702fe06fef303f5fafb0507fcff020004fa0205fe0505f9f6010003f700,
f6fcd70cf4e8f3f4f0012cebf51a00f8fbfcfcff0206fdf4fbfbff03010a05fa,
0b0100ff03060501f4f8f602fff90eff0cf41efdff090405e907eaf3fb0c03f5,
0c01f9f7fc0804fbfe0de8ecf7f801faeefecaeafaebfdf8fbf92619f3020404,
fe27ebfc0802e8ed080df20004fff5f30101fa03fd05fff50f06ecfe0206fc01,
030bf900fff7f1f1001df6ff0703ecf9060ef60405feedf8fa13f4fd0ef9f1f7,
f4f7fbfbfdfd130b00f70803fe0b01fbf7f2f201fefd10fa00f4fdf9fa050906,
0203fd050001110c02080c06f6001117fefc01fd040e0007fafbf10009030ef9,
0905ee028efd03fd0d020500d0fd01030606fc03eb06000c0b1108070102070e,
0601f4080c00f70c070bfa00aff802ff0d020a02d6fa00020a03050cdefc0004,
03040003fd03fe03ff05040004020305060af7ffb0f502fc07030800e9fffc02,
01fdfefdff00fffffffdff000300fb01010201fe0002fe02010603040302ff01,
090200eb03e900fbff00f8f9f0fd01fefe00fafbf0fffe01fe02f6fce8ff00ff,
ef02ddf602fb000ff7f3f3f1fcfaf50a041a03e700ed01fd035b05dd0cec0ff7,
01050207faffe905edfd061603fbe8100102071301fbe70af8fceff5fdfdf50c,
fafc03fcfd1af40207ed0c11f513f9fbfbf10800021ef80400f30c12fa1df703,
0af70102fb14eefa04f70a0df90dfaf7fbf805ffff12f400fbfbf9eafd25f00b,
fd09f7fe0202fcff00f701f9fefdfa04fd08fefcfef7f6030aea0e07f90cfbf9,
fe0af9f5fdfa04fc0005f9fdfff9030901f5fbf3feef030efe03fc00fef20209,
ed01f40303f60e03f9fff4f7f706ea040207f7faffff0000fb00f5f6fffa0203,
fefa0d08fefd02f8f10101f605f70cfafb09fcfbfbfefcfdf8f70202fcf8f6ff,
150cf7f9061bf9fb02f416ff01f5f9fafe04090e03f90901fc10fef1fb00fafd,
0f01f30cfefe0afa1207f100fe120af70e05fff60a16f7f40ffefd06070700fa,
09fffafc030ffdf403f703fb01fd02f906ff01ff0110f8f50e03f5ffff0b04f2,
07eff305f70608f903f4ee0001180dfb0208fa08f6fc0309fef3f1fe011316f8,
080a07040a00fdfd03f801fe0f1507ef00fbf302fa0502f6130cfd17ebedfe08,
f604060103fdf9faf707010101fc04fcf607fc0301fc05000400fdfc0c0e03f0,
f10dfe00fcfc0b08fe0502ff0302fdf8fe04f7ffff0000fdf905f8fffcfb00ff,
fefefcff010203050200fc0001050700f409fd0203fdf9fef306fafc02fffd05,
01fffd01010102fffdfefdfb0101fb00fe00fc01020202ff0400ff0301010701,
f9140bfc040104f901ff0001020303ff02fd03fe0303fdff02ff01ff02020501,
0cf905f90900ff0cfd10feec07fc030af70e07070bfd17fb06fc1d03020705fe,
0e02f3ed0f0b0d0923f6e9f2050cf2051cffebe302040b03fe0b00f00cfc0205,
f918fe0a0d05f3ff020cf2080c06fe0b041103110b15080cfb11f80a140a0611,
ff1703080e03fd04ef10f6071005f903ff1afa0b0b05f202012010110407ed11,
fd09f8f904fbfd03fc0afa000bfcfdfef309fcfb09fffd01f811fc081004fb02,
fc05fdfd07030302fe0bfa0006f7fefb0a1300090cf502fbf90df9000ffa01ff,
09f8ef0ff9f2f501ea0c07eb000ae8f2fa0501f40b00fb00090701fd03fa01ff,
e306edfa05fee8f7fe03f4f5f7f0e702ff0501f3f60f19f6db00eb04081107f5,
04f70c15e9fdf90ee600ea010915f8ff09fff001e9e7f2100f06fefafa0926f9,
f6ff01eafc02fafff7fc0602f8f9080afff5040df503f80ff8f20a01ee06fa02,
f5f6041af7fd0316fff80309ee05f814faf30716e8f7fd15f4f20100fefd040d,
fdf1f6f4ff0200effcdfe605f6f503e8ebf9ee03f6fb01f8f1edeff7f8fffce7,
f6f3f40b02fefa0103f1eef4fdf6f3e6fefaeff309f903eef4f8f700fafe06f6,
0bfbf9f6fef00f07fefa01fefeffff04f9fe0b04fefa000b03f6eaf50003f5e5,
ff051a0bff0308050d02fc0303f9040901fe0608fd08fcff01010904fc0a0905,
030102010402ff010604050403feedfd10fb0601ffee0506fc030b0700fcff03,
01fe020004faf3fefffd02fe05fefcff00fe01ff06fef4fe0802040503feeefd,
d5dbf408ebf8250b020202fd00fdf702fd0200010301f801ff0202ff0300f404,
00f9f609fe16fe06f7f2ef00f1fbf4feede0f60de8fc0511efecee12e70a090b,
f0f1fafaf7fb03f6f5fbf6fcf9f706ece9f7f3f6f2fcfff2f3ebff05f101f702,
fb01f5f712ff03f7f4fbf3f505030f05ff02ecf1fe020e07f2f8f3f408060a01,
fb01f8f20200fe06fcfafde6070305fefc01f2fb0cfb08fffc0aebf913f0ffff,
030705f90800ff00fc01fff8f903ffff020803f405ff03fcfdf7fded06ff0002,
fefe07fcfc0203fefcfdfe0105030802f9f8f60efd1004fcfff70002010b07fc,
fae701f4f6f5fe11e708e804eefcfff3fff90901fd04fd0001f808fe01fd0000,
05fb0506fe0105ef14f6fbf3fffb0304f708f913fb0202f7f6f6f00efbf503f2,
fcfc03e8011407f7fdfeff02f7010cf912f207ebf9080902f400f71af50004fa,
0d02fc00131d09f8f9fd0df2fc0a08f50101f9f4050400fa130cfce8121f0502,
f700fbed05fc0dfdf802fafa0c130ffbecfcf5ed080a11f7f8fd02fbfa1408fd,
f8f2070f1505fcfdf3dd0610fd0b0a02eaf1fa07fefb03fef2f30c0b010907fe,
0af607fd0901fa0f02fdff100202f710f8e9121411010701e5ff0a0b15f60107,
fefaeef9f4fefefefcfd02fefd0300fcfbfd03f4f705fd000af50b0c0002fc11,
fe05fefa020cfb00fffff2fafbfffcfeffff04020103fbfb0202fdfef807fb00,
0005fefe01fdfffd0009fcfe00000100fbfce5f5f7fafd03f902fe040309fdfa,
00ff01ff00fd02fdff02fe00fffc02fd0100fc00000001fcff09ffff00feff00,
11090ae1fc0bfbf1fdfc000204fd01fefd01010503010400fbfbff02020001ff,
fc151407050a05fe01fe11fa17ee04ef0cf311ebf50afbf0061608ecf90cfff3,
0fff0cfe07fd09f9101cfd1dfd04ffff120aff1511f9fff8fdf10b0311f607f4,
00feffff0b070201fdfc03070d1208f7f4f702090c0c0bf7f7f40408141009f7,
01f9fd090408fa0505f502080c07040a020000020a070505f802f502060105ff,
0402040306ffff040002ff04030001030109fdfb07fcff0907f8fa0b0d010004,
fefd00ff0dff000a08f5f70607fffe0503f4fa0203020004fff9f3fd0bf9f808,
1902effb0102def901f91507ff05220001ff02020a04010206fafe0703050003,
fc0604080e0311fc0dfef8fd0502ea04f8f51604fb0d13020907fd0011060e01,
0e05fdf0fa0f00fc1304ff110b0509fb25fdea030205f1fa03f712fa000c20f4,
fcf7040105f506ff0dfe04f7f4fc0008140701f6fe0efe030d07fff409070800,
0c00fdf6f805fc08fffa02f301ef050c10ff00f8f1f9f60bfcf80705fd05fb03,
0206fd01eefef7fd13000aea050f00f40b07f4f7f51a03f913060cfa0606fefa,
f506fc0ff40608f5f905f90f00000b00fd0203eff105fbfd040efc02d60d00f8,
f20206bbf80bf8f2000300f7fc020aff0602f62803030309f601fb0401fbfa02,
0d06ec270a0100fafa06fdd8fd06f8fd020304fdfcf808080306fa0803fa070b,
fc000100010005080301ff020501050ef402fabdfb0cf1f3ff01fd0101fcfd04,
feff00020102fa07fffe0002fefffd0702fe04020101fe06020100fa04030208,
fcf60b02f50703000202fcfefe06fe0104fffc01fd03fe0304feff03fd04fdfd,
06f20216f105eafc04f1f617eb0400f5ffff06f8fe10030c02f508faff08fc03,
e0fe20fee3fa0cfbeff80f10e9f606fde7f31502e8fe03fcf5fa0015ed07ff01,
ef05fffe04f908ffec07060607f70df9f10904090afc0bfbed09110004f40cf6,
effd02ff08fb0bfff608fff704f109f9f30c000b07f90b01f502f70403030d0a,
f8050005fe040d08f803fcf8fe060205f807fd0100060f00f308fb020dfc0bf8,
ffff0102fe010801ff0402fffef80503fe01fdf704fef6fef90301fc000807fd,
09fbfef8f6fdf93203fcef02f71103ebff01fd0200000d00ff04fcfffe06f900,
020401fe0c2204fe0702fdf20cf2ec010402ec05fe0af9ef0405fafd0c071b16,
06000a1109f5f4fdfbfe0116050ff50002f9021707f0eb0afbfaf51efd02fff0,
19110e0f0f09fe0f0805131313f4040b050401020af605f4030b090d09faf900,
030706fa09f905070b0b11f60a0c0009030617f706fa080c080f0b0412fb0906,
edece3f70401f3fb020af2fd0005f0fc06f7fbfb0905f40df600ea000303f7eb,
fa04ecfcf4f1f30400ffdff4fd02edf5f8f3ebf1f80bf101e9eef6fdf7f7f807,
0002f9fe00fbffecfbfb0001020305f901f7030800ff07f8fff9ebf6fb0cedf9,
0bfa070a00f50b030205fe08060305f9fffc07fe020707fc00fc060700fb0c06,
fdfe0101fc07030100000604fdfe06ff0302fbffffff02fe00fd02fe00fb05fa,
fb0006fffc00fffffffffd00fffcfe00fd0000fffe02fefeffff0702fa0403ff,
04f50c2f0332f0f7fc0402ff0308fcfffd03ff000203fe02fd0402000205fffe,
fffb0f2501bfef0ef3f7fb170408ed0705fb04130030e8fa030102270437f8e4,
f00b0af012feef05ed081e0d0dd9f107ef0207f80f00ee0c05000a0403f2f008,
0efef601fbef03f905fd0b0101e8010c1103fe0dfde9fc070a0700f9ffe5ff07,
0afff60cf90a02fd10f4f9ff0002fb0909fff4fefcf005ff0b03f317faf008f0,
0005fef50003f902020000f90304f30a0602fbf00108f20710fbfaf5fb02010c,
02fb06edfe06fa0106fc05f6faf6f9fb0cfb07faf8f6fa0308fc06f203f7f806,
f8fbf4f0fdf203fa06f5e50e0df60508010501f1fe05f6fb02fe08faf9fffbfa,
0a00f800f80309ea0312f202fff404010af5f50c00f902fe0501f0fcea000eec,
f3140603050601eb09080306f00c07f1f20901f9fff3050004fd030af4ff06f7,
00ff0af4fbf40bfdf71606f309fb0bf6f917ff040601ffeffe0d00f50703fcf2,
050801fdfbff02ed050705ff0d0009f4071afe00fdff09ed010607fd0bf701f7,
020f0105f406faff0cfeeff6fc09060e04fcfaf5f5fd011202fbf0fbfb07fe0f,
0102f20005f901fe0406faf8fc0d00f6020af604fc000300ff04fcfe08fcf505,
fbf314fe0808fff7fe0504fcfbf9fdf3f5ea0502fff908fefd03f0f7ff11040b,
f2e0fa0b02f70008fffe08fe070b0204fb0afffbfbfd00fbfd020001fcfe0402,
00fcff0100ff010301fcfdfc00fe0201fbf30d070802fb03fcfbfb0300f8fdfe,
fffdfefe0001ff00fffffcfcfa01ff0001fcfdfafc000200fffffd0003feff06,
fe0be11afa3af201fffc010003ff00ff02fdff0001ff00fe02fd010101000202,
eef5f7f8010a18f4eaf1ef00fe1d0a00000bec1b0d2efdfbfb0cd702fd33faf0,
0506e3f2070b0b0c00f3e9ea120b0d000a08e9e702121210fafeed00fb1a01ff,
00020805fe03060b060d00010500060606ff01fe06faff060811fafa05fc0f09,
07ff1502ff08f807fbfc0e01ff03070c0a0710fe0504fc040bf60903fe08fa0e,
060300fff402fc010a03fd00faff03000805fe02f701050002fc0604ff01f90a,
fefe03fcf7fcfbfd0406fe05f9fb01fb0b05f903060100020204fefefefdff01,
03010211fa032200f6e9ffe806f6f2e7fafdfffff5fafef900fafd00fbfffbfd,
fdfa07f6f800fd05fbea030302fa1f06fbdb06f60bfee3e60307f9f2fb03f8fd,
dce8fc010c20f3fffbffedf8faff0000fbf2eb03fffd2c22f5f608f8f8fed3f3,
efe4f4fe070c00e6ece7fa01020e01f9d8f3fb070516f106e4f001ff0013f7f0,
f1f802030208ff0ff3f10304fdf8fef4f5f70701f408f609eceffd050b0ef703,
e8f709fbf8f809f6e8f6ee03f5f906ffebf707fffcf7fe02e3ebf80af6f115fe,
f1fd0d0c03edfe07f6fa0eff00edf5fbea030003e7f7f3ffef011402f6fdeb07,
0cf000f9dafdea0309fa05ff00fa11000006fffdfefdca08f100060901e8fdfe,
f30ffb02f906b30506f9f1f6e8fbfa03060003fa0bfe19fd000cfef40603f304,
ff0206fefc02fe01ff030500fa0604fffeeff3fbd400e801fbfc020607fe0dff,
0201030301ff04fe0101ff0100fdfd0001fefa0000fffdfeff000800fa06ff02,
34d7f800f5e62d0e02f8fcff020100fa02fffc000400feff03faf6fc050002f8,
1908060001e9f0ec1ee7fafcf2e6e9e729e9ec1101e7ed0226f6eb0cf4e80610,
0efd02f9f5fcdcf304070cfb03f9f9f808f6ff0002fb23f31feef70403ebf5e4,
030007f9f6fefb0d000a0300f2f8fc0204fe07eef4fcfe0af90408f6f70af80c,
ffea0df2f3f10508f4f508ffebf7fd0b0dfefc00f3f7f60911f208e8f1f0f406,
0df20505fc050a0007ee0dfffd0207030af208fcfefa090200f90109f3f6fa0d,
00fb05f7fefc0d070cf904fc03030b0005f20ef80a0903ff0bf403f407fc0906,
0200000bf5f5f300fdf7f9fd020907e704fc05fa00010f01fbfc0cf009fe0e02,
0d03150801f900fa03fb01f9f703f805f8f9f9f0f80806f80b050b0609fcfef1,
05fefbf7ed06f6fe0b050a020e01090103f5f5fffdf7f911fbfdfbf0fd060a01,
12f8f201e9f8f80607f2fdffe602f30a0bfffcf0f3fcf80c1204f9fbecfdf6fa,
f9f7fce3fbf1f30209fa08e5f4f0fffe02f301e6eb03f50a07fd03f9f2f1f50b,
f3170105040909e5023c0300200105ebfe2efd0f1206ffe80641fb0c1dfc02e4,
f217fd1211fe07f7fb190911130404e8fb1407ff09fc08f3ef10fa0f01070af0,
fc06f90700fcfe03f6fbfefc04f90105fcfdf80202f90d0a02100a051a0005f2,
fefcfffe0101070ffa03fe02fffafa07fafa02fa04f5fc04fdfefdfe07010403,
04fdfe00010006fe03fefffd01fe0afbf8020307fcfafa04fafa05fcfffdfe02,
01fcfefcff0006fc02fd01fb010105ff020000fc00fd06fd04fcfd00fe020afc,
f9f503020200e323ff00fcfffe04020001ff00ff02040201fffffefe010302fd,
fd1debf9f61701eef405fcfff40dec0afdf3f2fb07f9e12d0904e703020afa09,
f9f1f3ffffe8ea00fa08fa06fbf203ebf9f2f803fbfff5f9f9fef6faf8f9f010,
faf3fffafe051814faf702f9fefb010afaf6fcf500050918fdf502f00304050b,
f500f4060307ff0df5fb03fdfc030706f7faf6ff03fe0a0cf9f6f6fd07041e26,
f9fb0bfcfe02030402f80300fd03fd0100fafffdfc03ff04f3faf505ff050701,
04f901fb0401f80500f905030702feff09f3fb00030c0a0004fa00ff00050303,
0afe35f7fdf9f1faf9fecff518f8f70101fafd000dfffb0604f5fc010707fc02,
00fadb0d02fdf80106f813ec03fbf305f4fcdff705020008fdfdc50df20002fa,
fafd00ed13000bebf700e1fd08fcfffe02fb00ed0cf800fef6fce1fc05fb040b,
0208fceb0f02f603fa06fee60cf8fff5fa04f7f40e0302f1f5fc03fb0f0a02f4,
0c0701f208fafdebfa05fdf80efef6ecfa06fff40cf5f9e90705f4eb0bf900f6,
0f01fef9fffd07fff3f60a03fdfb14f1edfb0606010116fd06e9fe06fa0c10f1,
01130af403fe0909080900fa0c000e04050cfff704ff04fb04100af702f80b00,
0907faf6fcf8030300020201f4fd03fbff06e607f2fcfe0205090bfd080502fc,
feffff01f303fdfa060704fefbfb04fe00020504f5ff03f903ff0204f3fd01ff,
03fafe00f8fffe0307f80001f701fe050304fcfdfbf8fdf7fb00fdfff6fcfdf6,
03fd00030103fe0302fdf9010200fd0200fcfc020102ff0504fb0201f802fe06,
f8270511eff133f803ffff000001010403fffd0103ff010201ff00ff04010105,
fcfb0f2e15e505f50409ed17fceffb01f62106fc06fb28f1f30a0a10fcf72ff6,
0d11fdfe1b0718ea1404fa2219fb22fd0d03ed170ef616fffe0f15061bff0def,
00fbf2f50412fe000bf9f7fa0112fcf904f2eaf00925ff0708f1f9f40711fcff,
08f4effcfc2105010d01e7fbf907fef301f9f3fa001407fefde9e8ea08240914,
f901fa010afe07fdfeff000608fb070102f8fb02050006fb0afef9fefb0800fa,
04fff9fbfafd0601fe02010602ff05fffdfc0508fe04060105fe0706f6f903fc,
0ef005f610e3f5fa07fdee0bf7f008fe0406f90001fe06fdfb0401fefef80c06,
fc0cff03fc0df401f90d06ff0feefefc02020200faf70ffb05f80208ef07ebfb,
0f050d06f3fa0903000ff401f809fcf5f821f9ff02eefaf303f2fa06f3f811f8,
0df70308f4f6f60209010a00e9fbf50613040e06f000010510000d06f5f50802,
0400fff9f0fbfdfd07fe0100f6f9fffd07ff01f9e7fafafe14020bf8f2fff7fe,
0f031ff60df20df8ec0523f501f90503fb0b0ce4f2ecf602fa0e18fe00f50809,
0cff16f70cfa090404011a0214060dff04f71df201f807f710000ad8fce909fd,
f502f4fefefbe903fafcfafdfffafd00050b0afd0efbfd01fffa1100fd090efd,
04f80c020901fd00ff01fefa0905f2060002fdfbfffd0603020404fe08010101,
01fcfeff04fcfeff01fa01000400ff02fffdfbff0401e40704fe03fd05fdfbff,
fffe04ff03fafe020202020101fd04fe0001050102fefdff00f602fe09fdff03,
f407f2f608f2ef02fffc0100fefef40401fe010002fff601fefe0300fe00ef03,
00e1ebfffbec070f0ae8ef01f7e0f309f60cf5f6ffe8f406ed09ebfef6e9fe07,
04f1e5fdf6fbf21103e3ec040908f51e09f0e8fa13ffe11403ededf6f5e1ff07,
f50d0402f300fbfbf60f01f80202ef00fa0703fa0910fc10f40802fcfdfff20b,
f802fafaf606f3fbf70bfdf9ef00f0fbfc0c05fdfb00f90300070306f80ef700,
00f9040706f90afd02ff0a0110fd0aff01fa06ff07f60cfdfe0cfaf7f402f100,
0200000305f50401fb00010604f809fbff08080a05fd0302fe01030901f807f7,
f701f4fff3fff6f1fdfcfb0706ef0f1bff00fe0009f406f90006fe0106fa00fd,
fdff06000a0efdfef4fff6f302040602f8f506fe0bee1200fbfd01060307f011,
f209fffe0ef4fef605030106080502070102fb00f20905ff03fe03040af8120f,
fefdfd1306f5fa11f8f9fafe0706fd0bf90cf50610f4fdfef506ff080bf1fdf9,
02fff2fb0cfbfb060cf6f4ff0a01fb0dfaf4f4f406fb0005f5fdf2040300fe09,
e2f106ef08f40bfef2e602fff116f902faec0df906f9f9f1ebf007fa0012f6ea,
f1f4faeefbf30707f20303f700050a01ebe9fdf1fbf206ffededf9da05ec07fd,
05fbf905fd05fef602040801fd01ff050907060003fe01e2f8f401fdfcff0013,
05030802fdfcfddc09fdf705fb0900ff05040100fe02ff100a03fe0605fd00fb,
ff010400ff02fffe01020503fe02fb0106fbeffefc0500ea0301fa00fd01fc02,
ffff050101010101fd0104fefe010302ffff0601ff0201ff010209010101fdfb,
0b0ff5110415161600fe0301010301fefffd0000fe0403fd00fc0101ff0401fd,
1414faedf6d907110e0100f0f8f10805050cf90b010b0bff2525f50efcfe1620,
11f3090f0dfef30b100118fb07fbf81307f71a0f0e0af6160cf8f4f700ef0bff,
fb03fb04fcf90107ef0afdfd07f60604fa06fef808fb0708eb09fafb04f40209,
fe0af8fc08f8f8f6f5fbfa0406f3f8f8f909fbfc00fc0cfe0b0af7fdf6fd010b,
04f9fbfdf2fc05fdf8fafa02f303ff0306f8f6f9effe04f9f401ef060cf5faf4,
0701f4fafdfcfcfcf8fcfcfef70002fbebfcf60cf4070901f8fcf9f9f40202f8,
f5f825060104f1ff03080003fbfc01040401fdf900fa02fcf8fcf503fe03feff,
0605fa030e030201f80301060bf9fcfd090e00000201f6f6fc00f9090c02fcfe,
e804110cfa08ff0b06fffcfd0901fe01f7fa040403f5fcff020c02060801fcf1,
ecea12fff714050eeff01307000a0006e50e0d08000bfffeef030d03f30c050c,
fcf70d020200fbf9f1fe0e0bfdfbfa0af5fe1c05fdfefd05f1f40907fe030807,
f2fdf6ede9fceeeeedfafdebfefe01f8f5f10ee9fff50000e9f706eaf7f9f701,
f9fa00f7f4f9fdf9e3fa05f7e8fafffaf3fd02ffeefef3f7f4f500f4f5e4edee,
02fdf7f90105fe060001f407060101fffffbf1020903f9f6f5f90a01f1fd0703,
f3faf5fe11fe04fa05faf7fe0804010305fafa050a0201fcfcf0f604080000f5,
fefd0101030602fb00ffff020305fef801fcfdf90b060000fefcfd020f000200,
ff0004fd03030300fcfe00fe0204020000ff00fd0201040201010302050501fa,
e9ed04f00000faf903fd00f900030304000002fd0204030403fefff900050303,
fdd9fa05f70ff1eaf2eb05f60710f3edfdf7f5f206fff2f7ecebf2f6f500fdea,
fcf8feef0ffaf001f4e3feeffe04ef08fbf604e701fff6f903f4f9fb0901f7ea,
0cfc0117fcf5000c10f604180102f60a0109f616f8fef80d0afb071403fdf60e,
02f4f417f802fd060af6f11500f8f90a09f80c18fc0103090511ff20e9010707,
04fe07fafa0101f605f8f8f8fc0303f6030103faf706fff611f4f81402fbf809,
000404f9fc06fffc080000f9fd02ffff11f8f2f10203f9000bf705f7fd08fc01,
ee14240300f9e8f6f1f9e9e1fa0dfa08010703f6fd02fbfbff0000f4ff0204fe,
0ceff30101fc05f8e40200ebfb05f0f3f7fdeee8fa0eed060b01e3fefdfbf6f8,
fff7fcf0fe0b04f6fde50210050a01fbf4fd1d110109feff0210ece80110f805,
01fdfcf9f9fce9faf90302f2f90cebfffdf4fdf5050ffffc0ffffbfefd08feef,
fbf802fd070ef50501f70afb0300f50000f805f3fd07f603fcfffbfb0b0be804,
f4080ee82bfa0bfdfe0cfbf9170002faf70302fe0b0209f3f4f9f8ec181005f8,
0ffdfdfefffc080313f204f104fc16fefe0e0af91fff12ffef12feee21fd0cf0,
faf502f803f7f8fef50bfefd02fc0708f3f4fcf8070314010afa09fa00ff1103,
fcfcfffb03060c0dfdf805fb0304fbfbfb06ff00ff050506f703f7fb04060905,
0001fdff0401ffffff0800ff0402fe03fbf707fafffef5fafb0300fdff040509,
fdffff0104fffbfcfd00fe0004fbfdfbfdfd02010300fafaff0600fe0502fe00,
e5fbffdefd0e04f001f9fdfe03fdfdfc01f9fd0104fd00fbfff9000103fffef9,
e5f9e9ebfefe0910eafff4e9f8fc0106e7ec0debfaff11f9e9d9e8dbfb031901,
0af804f205f3110400f2fce200f10f0007f507f5fff3ff03ed01fbeefefd1202,
0508020fedf5fd0b0007fe08fa00f3020501fa14fe05f600fdff000cfdfdf603,
fe02f90a0409020a0101fe04fc000009040a0112f5fcfa05080f0222f000fd08,
0904f60304fc01fd0c05f60705fe09000801f70205010000fefffb06fcffff0f,
0306f4ff06fe00020509f50304fdfeff070cf10903fc0902030af4fd0600fefe,
04fe02fae012f1fefd090ffc19eef8140208f90003fdfd070205f4fc08fafb01,
0702ff00fb02fbef06fb0201f405fdfefe0101fe1bfdf505fdfe0602eaf9f702,
0e1804f50205fd0201f70201ef0102f004fbfefdea050513fafd03f716f7fd04,
091c0afdf5fef90908180af8ff04fd0b0a0e05fdfe0ffb030c1408fff205f7fa,
0407030807faf7f1ff0c030504f6fcfb010a050109f8f7fd05130cfdfe04fd00,
0cef0804faf8e9010eed00ece5fdf70b0df20b00eefaecfb0ff00ff8e6fafc0b,
05f31ef7fafff9110cee11fd02f602180ff306fef701e50b09f90bfe02ffdcf9,
00fa0103f4f6081200fa03f7f9fe080300fe06f8f303091007f20af2fcf2fe22,
040306f8000b020e04fd06fff9fafc0500f607fcfcf9fdfffcfd0bf6f902fa08,
0108fdfcfd0003fb0108feff010103fe04fd01fafbf2fb0e04f804fbff000103,
030700fdff0100010008fffcfcff00fe030700fdfefefe010307fefe00ff03fe,
fbfe02f5fe03effa0303010201fefb0304030100ff02fcfd03020101ff00fbfe,
fffef8fc06f2f5190101fefc06efec13fafe0d0309f2f5f701ff09f8f1ed04ff,
0c0f050006f302fd0c0500fe05fdfc090a0414fb07f5f402fb00fc030fe6f4f9,
fbffff03fe0ffefffa010cfaf707f2f5f401fefefa09f8fafbff07fcfc00faf7,
08030a0bfc1100f40602160af80bf6f1fff604fff80ff900f8fcf303fd1afe06,
fcfc0105fb0705f903fb02fcfc0504fffffdfe02ff0608fdfffc190bfa06f6f2,
fcfa01fbf90c02f4f8f7fe02f70606fafef704fbf50907fefdfc0700fb0808fd,
fdf6fae7faf4fe0cfafdf603f9f908fffbfaff02fc0602f4fdf8fe01f90705f6,
06f700f916f9fa06070305f3f9f2fb040302ff00fc0707f70bf6f9f20ff6030b,
0a000b070429fffd06fefefd12fc0b1004060bf80be2020cfa01f0f4020412fd,
01f91712080e00f7fdfd2001fe19f9fe05040f07001dfcfb0f080913fe2403f9,
01f001faff2608fd03f70102072b0e020bf7080203290908f4f815ff0210fcfc,
14fde10e0d070cfc0cf5e20bf80d09fe06f5f305fe11ff0c0b00e302f8140cfd,
04010207f90606fe09f6f408fd020a0112fde505090207fc17eced040ffdfd06,
010806fff9060002fd07fe0004f70300f50909f80dfe08fe0cfbf100fb06fe04,
f504fcf70bfc060200070500fb030303ff07f90101fa0601fc0605fa08fe0800,
fb01fffc0000fefdfb0003ff010200fdfe050104f2060502fc05fa0100f806ff,
ff0000fffc0000fffffdfefd00fe0100ff020000fe0200fffb0004fbff0102fe,
f0f2e8fefd11f3050303fe01ff0302020203ff01010102010103000200040203,
0de00100ea1305fefde4eaf4f704fd00f200ed03fc10f30203e2f205021bfb02,
f80601f50a1af6fe09f107fd0026f20200f0f8f11113eb00faf1f5f3ee0bfeff,
f50506fe07f9fff5f6f20d0004f701f5fdf50ffafc02fdf9f8f110080af8fdeb,
01f906fc02fc0afffdef0bfa06f80df9f90006feffff06f8f90004fdf3fdf9fe,
fe0bfa0300fdf8fffd09f902fffefcfeff09fb0bfffdf60200f404fd08ff0ff7,
01fcfc010400fa04ff00ff03fe020108fa0203fffbfdfe02fc040006fe00fc06,
00f30c1005f6e912000f0508eb05ee0801fdfc05fc010008fbfdff0000fefa02,
00f105fe11fc010408eefbf909f3070509f6f8f1f6040afefcf001090c0dfa06,
f905f2f911fe10fb04effe020df90c080906faf8fef3120e01e505f7ff05130c,
03e7f9ff02fc03fff7f4f2ff01fe06fefb03f8f014f505fd000efef913f40300,
fa0c0602fd01f4fb030504fd010700f3f808f9f5fb0404faf6fef8fa03f7fb02,
f41106ff07fb0800fc0103fb00f5f9f3fc0803f8fffdfef3fc0b06fd02fa03fe,
fa0707fdf105fbfaf602fbf8fefffdf3f60b0703faf9fffff20511030ffcfff7,
01ff04f804f90605ff02020402020609fa05fffa05f8060cfc0605faf905fdf2,
fcf3fe0203f9fd01040300ff04f4030200fa020105fc0706fcf9fbfc06f70308,
01fe030202040002020404000003000302feff0007f901010202010102010303,
01060700ff020204ffee050102060302000505fe00040002000406030301fe04,
0413f7140300110f01170200f8ff030200100201f9ff050201170200f6fdff01,
04da0403fdf813e904e3040cf70a0afefe1def1902f41220f90df00616f11d02,
030b0600fe10e9fc070dfef7fc0801ee0503fa00fe0e05f6fefaff09f102f710,
1808fa06e800f2080c0bf608f2fcffed080b050de50403fe120af904e702fef5,
100509fee8f8f1fd120cfaffe7fceafb0e08fd00f1fef4fd20060a0be0faf014,
020402040b0101ec0502080403fa00f9fefc06070805fdf00c0800f4edfef3ef,
00fc000004fdfcfa04080102090401f60c0107fafb0403040304fffd030301ff,
f6e4040306e80be3060101f2f1f4ff07000201010802faf80cf603ffff0305fe,
fdf51109100ceff7f8fa01fd1102fee80b08fcf7f9f90af7fff8121008f6ffe9,
e01202ed060703feffff02ff07fff907f4fef7f602010206fd09f6fef0fc01fd,
e804f5e2f60804fde61007f2fe0306f7d90cfff0040b0e05e500f7ebfd060cfe,
f017fffc090512f9f107f7f801ff0ff4ec0e02fb060415efe711fdf1060d0efe,
fafd02f8f7fff203ed0eff03f40203fcec0ff309021301faf00afbf4eefa0001,
fe0101f90101f500000bfbfef6fef00204f606fdf803f6fcf6fafdf5000403fd,
fefbfb01fd02f4f1fefff9fd00fe010400f6fdfc06060204fc060105fbfff0f8,
06fd0103fffc02f6fbfdfefffefff8f6fa02f800fefe0105fe01f9fd030304ff,
fd060500fffe02fd020103fffffc08fbfcfe04080002faeffffefd06fefe0300,
fc01020200010302ff010400fc050302fe01030001fe0402fe01030101fc02fc,
0005f303fbf5f5fc01ff010303f703fa03fe0301fffc04fa0101040203f503fb,
0a160e01fb100bd40a140418f1fafbdf01fefe12fdfe0cf8110e01e1012302f3,
f8030406f00418e1f00d0d08ec160dd1f4010606e8020de1090cff1af6fa0be5,
07ff00030307f6fb0b0004040001f1f40bfd050cff06ecef03fd0405fafeeff3,
04f7f4100bfd09f20102020a06f70af30406f8070105f6fd0bf7f005070ce9f6,
0a0301fa040506ff09feff020afa08f409fcff02080207f6f9fdf60504fb03f4,
00020400030903ff0208fffe04fe0204fc040b070cf600fb0207010307fdfc02,
12efe2ffed092b03020f0a07fcf5d50904010100fb00010404fe0407ff0402fe,
ff01f906fc0009ed0c07e611fafa0af6f9ff05fefd00e304fc02fdf0fb0901f7,
02dc02090af919fa0200fbedfc0001f30c0ee604f9fc13f6fb03fcf9f904df05,
fa0502020004050802f604fa02ff0b0ef7d8fd0905fc0bf5fce6fa0503fe09f9,
fbf2fcf60cfcf8fdf603f7ef0504fb02fdf2fef00af6010004f4050503fc0602,
0115f0e4fa0105000013f9f5fa02f9fe0b19fbfee4f6fef8f91b03f1fbfff5fc,
0f1108f101f509f2f70b00eefaf5fcf6030ff0ec010000041818efeef6ff0af8,
030afefef9fefb000203fa01fe09fa000003f3f2fe02f2f0fa09f8f700f903f3,
fbfef4f7f9ff0afbfe02f5f9fc07fdfe01fef4fefe09fb0001fef7f2fafe01fa,
01fefefe0601fe01fbfefbfd0702ff040301f6fff6030103ff00f501fb0801fe,
0200fbfe07ff00ff0501fc01050001fd0000fdfe040000fefcfefefc0602fb02,
fa00f91b000f1414fd03fefc0500fafb0202fdfd0502fffffc0300f90502fdfe,
f1e8eeddfefbe303fbf8e7ec040be30eeef8fb1608152012f1f4f8180009f409,
f9f8fefd0407fa0df5fef9f5f3edfd05fd0905fb01f9fd07f3efe5ee0314010e,
11ee07fc04f603050ef803fd0a0700000af905040df801fc11f6feff0bff0304,
feed09010bfa03fc04f1000003fe01fd09f4060505fffe0606e907050ceaf8fe,
0709000100faff000c0809050705fdfb050bfffd03fa000204fc11080b030400,
fd00fe030201fd000c04fa060202fbfb150704050405f7fb0d0c01060005faff,
fbf7f90bed04fdf0fd01fe05fcf000fcf8fef80503fafdfe0303fd090902fdfa,
fc0c0505faff02fefa060115fe000103fd1007f602fa0500fbfa0705ff0607f9,
e9f10208f8f504ecf9110f0c01f20b00f905f80cf6ef07fd040806f2fcfc0bfb,
faf80109f5f4010cf0f103fcf6f10703f2f8f707f7ee0af8faeef407f3fa05fe,
fafbf7fd02ef00fdf9fefdfdf3f30205edf400f7f9f703f5f9fbfc05fcea0b00,
0b090002f103000d0a01080afc0ffc0c00fb030eeffefa110c07fb09f805001e,
00fe01f6f8fb03fc0f10fe02fdfe020103060b0bfc13fbfeff060006f205fbfd,
04fe06f60bf31407fc03fa0003fb0efbf902070108030bfd090e0f01050803fe,
0300060203010cf900f707f805fb1304f9fffc02fc060afefdfc01fe020b0902,
03010501000603feff0506fd0205030206f406f20cf6110001f5f90101fe0bfb,
03030104ffff06ff04fd0707feff060003010502fdff0402020409ff000305ff,
2c2201f1edf7f81a030bfaff02fd04fc05fe010001fd04fe0508fcff00fc04fe,
1208fcf7f8fb0afe171bf400f4fe0bfe3620f5f9e9fcfd121c170af0e1e602fd,
0a10fbf7f00311120502f6fceff9101a080c02f9ef0112131c1d02ffee000e00,
07f3f8ff0bf900faf9e803f705faf7fef5f0f9fc06f1fb02f5eefffa03effffd,
030502f6fefdf8f706f4f9f3fbf2fbf709f407f40bfcf9fd05f301ff110302e8,
040105060504ff05020501020904fe0403fbff02ff02f70401f804f4fbf8f7fd,
02fffafefffef5fefc02fb0a0503f8feef12fe0c1207fd0cfd07f90d0203f502,
05fcea07050ff4f9f20cfff4f9000507fcfef8fb00fcf6fef809fc0403fcfc02,
fbf30e080306f707f9f2e3f5fe05fbfafc0e0cfafff90b0efaf7301306fbf602,
f3fefd081cf519ebf9eaee0101fcf2060ef1f1fcf503e7f5030c03f202fc080e,
fdf1ff04fbf318ddf8f4fd0608f51ee3ea06070715f70fe6f6f30a0612f91eeb,
00fcfafe07f301f3fbf1f803ffee0bebf8fffafb0df80deefdf9070704f114e6,
010503040202f701fa1007050608faf20d09f808fe17fdf5fe0a01fffafefff1,
09f8ff0e0b08000b0d02fc1006fd0107fb0bff0d0307f3f500fef607fafffdea,
faff09fef7010405faf8fbfcfbfb0301f4f9fd0207f5050203faf90d09fd0300,
01fafd0501f70ffdfefe0403faff040001fafd02fdfb03fdfefc0006fef703fe,
0104fefd03fd06fdff03fcfa0200050003ff01fffbfe050300f8f906fdfa09fe,
020200fd04fe02000002040008fb04000101010204fc02010204fdf902ff04fd,
f904e9ecfb0d01080100fc00fc03fe0000fffe03010002fe01fefa02ff030001,
f905fc01ff0cf5f10c0cfef8fc0602f0011ae7ef010bfeffeefcc3f0f816fff8,
f50d04ff061007f4f90300050d160cff0c0402fe0b0d13ff041406f4080a00f9,
fa01030f06ff0901fcfcfc060c0c0700fd00ff100e041207fe04010b0f060d02,
010103030906fb0202010aff1006fbfcf8fa0103fc040a08f8ff020c03090f10,
fdf8f801fd08fc030700fffdff080300fef9fe02000aff02fe0404fefe070003,
fbfdfffa04fffa0d06fe0004f703f8071301fe0cfdfff60bfffcff01fe04fb06,
08e8ecfaf4f0e6fc09f613f8071e01fb02fdfffa0200f5060302fd0202fbf60e,
000ef90108f5f3ff0af300fe02ed0df9020a06fb140a10fb0af5f6f8fbfce600,
0002fafefef00a0806090002f1f6f4ff05f40c01eee8f8f9090d0b050f0c0807,
f707ebf8f202fb0801fff4fcf6fdfd07fafb01fa00f9040cf904ef04fcfdfe08,
fdf207fafb070b02fdf4fbfbef050b0206f5fb00f1f90b01f3f5fbfaf701fc07,
11fcf4f7f8fa050ef8030a03f605011712040005ebfdfb0304050700fd070102,
fd02f8f7fff2ef1203fd00f8fcf6f81a03f7f6fcf9f907131204f4ffecf20b0e,
069c02f70302de0202fc01f8f804fb0608201df905fb0007010903f901f5f313,
0523040011fd100509cb01fd0507f3fe021102fdfa0b0500080304fc03080701,
01ff000000fe04020002f80105010301fe8e03ff0efdf000fff7070000040603,
010604fb02ff0000030904fe02fa01020308fffd02ff0100ff05fffe06030401,
faee060c0014fd010404fefd02fcf8fe050901fe01fcfa010608fafd00fef600,
071f170ae101f5ff110e250cf41cf9fcfed60dfdfe05fdffef150d1af7f3f412,
17b31605f20cf6f60e130b11ecf3ebfe16e81210f60eedf512ee2601f016f5f8,
f20002f9fff908fa12ff02ef04fbfaf7ff1107fa08fdfefe030403f305f7fbf6,
f7fc07fa00f5f4fcf9fa04f7fbebf7f4f80702f20dfd07fcea09050802fb0bfd,
f903fc0807ff0009ef0305050600f9fdf601fb0605fcff04fefc01ef04f2f4fa,
fafbfa0a0202fd00f8f9fc0503fdfe05f0f2fe0300fdf804f5f6f402fefe0302,
f2f4faf10afef3eafd03fd0d13fe00f5fafafc0a0407fffff1fd0203fe01fe02,
fcfbf5fcfcf201f9f4f4f0f2fbf501da000009f6090806eff9faf903ff06f6fe,
f104fa08f4fcf502f7fbfbfcedeffc000808f4f6f9f8fef8fa05fc00080e0d0c,
05ffebfffdfdf307ffffe8fd05fff2ffeefaf707fafbfb08ebf9ed0706f9f60b,
f6f9fd06f9fffffc00fa0010fe02f7060400f303fc08f406f7fcf00700f9f300,
09eee5fbf3fc0bf600faf3fbecfc05f6fdfaf4f3eb020a0005ffe6faf9f30ff9,
0bfcfcfdf2010b02ff05f4f8f5fd13fa09f2f1fef3f60601faecf0f8e9030d03,
00eafe06f9030ee3f8fcf7fe01fefb02ea11eaff020707060601f9fafcfb0107,
ee01f5f5040801fd01020203f80406fbfc0504ff03fdf909f201f8fe02040303,
fb00f7030902fd00fcfdf804fdfbfcfdfdf90406f1080adbf80104020103fdf6,
fcfe000200fc0100f9fffd03fefd0101ffffff02fcfb01fffdfff60301fffcff,
04e904fa0bfd04010304fffe03fc03fe0104010304fd00010504feff01fc0200,
f4e301fcfb04fb04fff60af7070ffd0e06e0fe0109f7f5ef01f9f8fcfeeb0406,
13060af70005131107de02f80cfd03140e1013f7000b0d12fcff0500060c0213,
0503020bf30003ff0cfe0009f5fa03f60bfb0701f4ff100618fcfb08f7050302,
0c160efcf80707fa080e060cfa0afef3ffff0607f903f9f9020302fff5040a08,
ff020901fc0208fe020406ff020602f9fcff0400fd080afb09140503f908fdf6,
fef60601f7fe0af7fb000701fdfe03f9ff00fc0709fa09faf5fe0207000004f6,
131902fef7ff07fae6f8e1eef503f4fcfef705fcfa010dfb05f607fefb0209fb,
12f107fe0404fa06f9f1f601fcfe1205ff00f0f5fe0208fc14f4effc04fdfd04,
e8fa05edd90df1e1eb0cf00607110002de1a00fbfd060b031fd5fdf401fcfffb,
f5f60900ee0200e40005fbf7e2fffae9f5f5faf4dd0bf4dcfdf20d01e502f2e8,
f60dffece8f0fcf1f6f91400eff9fefaf50a04f2ecf8f8f1fffefdf5e4fe00ec,
f703040ae602050deaf3f217e9f90c1ae004fb00e7ef081ee6f4f41ae9f60a1a,
fbfdfdfdf603ff0500f1f813f203fb11f7080906f1fefa10f01512f9e0fe030c,
ec011001fb0602fffafffd04f70205feebfcf803f70b0c0107fb0109fe0df40c,
f1f5fefff9060306f9010a03fd03fe010101fd01faff04fdfdfa0401f9040702,
0c0509fd01fefffe0c0406fa00fd00fff1ff18fbfdfe0004f8fafffdfc010400,
fd020202fe0001fffffd0200fffe04fefcfe00fffffe02fe090807fc0000fcff,
f60f06141302eaf7f005fa0001fffd03f801ff0101ff0201ec04fafe0400fd01,
0010ecff0aff15f0eb0ef906f7000bf6f8120a1920fbe9fbf801f9160d0fc8f8,
fff21100fefc02071af219fcfb030b04f6f90d03f7fd0c07ea07f70809fe05f6,
0a0109010204001200110f05fc00f301091410fbf3fbef0205090e03fb040204,
0c0502fc0ef6f306040b03fe0afafe08060209fb01fafd070dfe06f5f8f5f412,
f7070bfc0602fcfff8090ff9040109fcf20709fe07fd0cfe050a04000cf5040c,
f90006f904fd06fc01060af301000401fd110dec04fd0900fb0b0bf703010d02,
350ff60a10ecda07e4fefcfef6011009fcfe02fa06ff05fc040408f806fa02fa,
f007070afb0429063202fdfdf908ea04ecf803ec00f81202dbed020a02e33304,
fcf9000c05070913e90b061901f6230a3403fc050b07e10bebf40bf203fd1a04,
f5000df4f704fdfafef804f6070803fd00fa040ef903090cf8f803fd00f50310,
f7fc10020af80107f1f815f502f3030bf4f30cfd1104020efefc0a01fc0e0701,
eee3ef080604090ffbefeb190701061601f3f619fff9031d06f5ee11f80d0b1c,
faeced09f7f9fd0afdf5f008fb00f808f3f2e50c06fe0810eee1f00affff1918,
ddfe0c0700e0f10200f8fc02fc03fdff1cfbfcfe0312ff0602f0e707faf1fc0f,
14fbfdfcfe2207ffef00090402e9fc0208fbfb01000901ff03fb02fe01130302,
fd0103ffff030303010103fefe110603e3ff0bffffebfefe03fcf9ff020d03fd,
000003ff0203fe03fd000203030903020200010004020602fe0004fdff15fe04,
f7ffe60708041c0cfbfffffd01e80502fd01010002f80601ff0102fe03ea0a02,
05f6edf40f0c16fb04f5f0fe0e1018010204da070203f60705fee102ee0f0504,
fbfefa0009e403f7fff8f7f70eeb03fae8f602010edc06fa0cf5e9fc15090ff8,
060707fd0a09fbf9f9010c03071c04fe01ff1100f6111701fc0a0a030a1204f9,
fffb07fc060bfdfefe0300fb140df400000106fb0809f7fe0b050bfcf7030101,
ff04fffa040009fffdf706fffafc070500fc00fa03f704fffa0601fa1013fbf8,
04f300f609fd00fd010201f400f7fc03040006f600f0ff080afe03f606f70505,
f6090205f5f4fc12fe060011f00d0e1202fdfffa010302fbfcf706fb0400f802,
03ed08fafc04e81308f60200fe04fd10fffa0b02050f1010ffec0606f303ee1b,
fcfa001bfd0cfc0703f807f80105fffd0e0a01ee03faf3fa0af10ffc0c150510,
0711f5091518f209f70bf80c080c0201fdf7f712080eff0608fcf918131e060b,
fdf4010bf5f2fc15fe01fc09fbf3ee11f8f80106f8f2fb10ff06fb0c0a07f808,
0dff010912e30a0afbf80507f7f20216f2eb080607e4031101e7020a07e80a15,
f9f9090c0ce507fefefc040211ed0e0206f905fd00effa09f6f501ff09e6060b,
0aec0901f903021a090501fa04fa01070d060afe0f040a0403fd020606f80500,
070104fe0f0400070bf80801f903fe15060201000104fb04090403ff0807fb01,
000002fb0301000a01ff00fdfdfdff0909f40efbfd09001b05ff00fe07fcfc07,
00fd01fffdfc000d00fe03fd01fefe0a00fd01fefbfd000b0201fefbfefdff0b,
fa091bfa19eb091601fdff02fbfbfd1002000104fdfcfe0a02fffe04fbf9000f,
f5151e14f6ef0e23f80323fd02f80620fb0114070ef70a13f41a1c0417ed1d14,
01051118df00082301071b14e4f4fd24faff1913dbf9091bff091909fef10524,
010005f2fefc080302faf7fb07fa000ffef8fef8fcfdff0af9f6fffbfdf1fb10,
fc0003ff00f708fdf70601fb00f201050101fefa04020904fb03faf5effe0700,
07fb07fffaf9060bfffb06ff04fe01fe04fe04f9f8fa0008fb0200fe09fa0108,
04030afffffc020603fd060501010307f903030603fefafffc0202fc02fe0103,
080721fc1b07fafffdfacd01f4f512f5080005fefbfefe08fffd0800fefbff02,
0909f6000b05f601fafe0ff1020ffcf000fdf2fdf60000f5ec03f9fd100d05fe,
fefbfefdfbf1f105e903fdff00f9f6fc0e00faf6f1fde6f319fd030105f8fa06,
f80101fff9f80401fff703fefdf20304f6fefaf7f3fbf509fe0a08fafbf4f9fe,
fff6f502f906f703fafffffbfa02fff7000401fe07fef5fa00faf100f9f4050a,
0508f3fffaecfce3ff0a100afae60ce0f00bfc0cf8f1ffe4f60ff20dfde009df,
f5f408f1fbf1fef406fbfdfc0cd705ee01f905fdfef50ae9f3fefefae9edffe2,
04f9edfbf3fffffbf4fcf4fdfb01f6f5f3ffc7ff1101fe0108f809fd0ee10bf0,
0103eefc0e02fb0d02fe00f9fbfe0502000006fd09fefdfcff00ff0410030004,
fe0202ff01fd0101fe020302ffff010600fdfcf5f7fa0601fafcf8fa08fcf9f8,
fa0103fffdff0004fa02fffe01fbfe00fc010300fefefe03ff02000300fc0008,
f4fe0403f3ddfe0c020001fff3fe01fb0401fd00f8fc010303010200f5fe00fb,
d10ce4f1e2ff17fcf802deeaeff808fcf700e4f7f9e7efffc707d8fde1d90401,
14060be60104fdff2612e5e4fe081bfb1b01e7edfb070bfc09050deef0f80001,
fe0915f7000006ef0bff0bfafc0805fe070315020aff090307fe0dfd030308fd,
09ff180404fa00020af90a07fc05fbf906070df503fb04f7011230ef0cff0bea,
fafdfc04f9070504f8fc03fafb0f00faf9fbf7faf80400000af30bfa00030100,
0207f80a00040602fe04fcfe030a03080502fbf5ff13070a0405f9fbfd0c030f,
00071c0709f90110fe03f8fff50201000107f80a030607010307f90702000506,
03f5fcf90907ff0604f3000505f5f9fcf913f6fcebfaf9f4fb06fcf60702010d,
00ec1215f5fafbfd08e3fcfbfc0505ef0ce8061009fff8ecf61ef9fcf6edfeee,
0beb0f10fa06f50104e71217fbfe030b03f2fb1401fff8ff0df60d0ff2fef7fe,
fafd0316030901fb02f8000ff9110408fcfe051bf308fb0908e90b1403030601,
fa06f8ebff0f06fc0bf2f9ee080f16f4fdf8ffedfc0f1efa0ef7e9ef0d0913fb,
0407f2eefd080aed0e05fce704040fedfd05f9ec070c0201ee0702f1e8140dff,
fd010809f70d02fb01020102fa00fe0a04faf80af6fc01fb0dfdfbe909ff09f2,
fd09ff08f2fd0302f9070806fb0e03fc02040100fe01ff0905feff06fafe04fd,
fe05feff000105fdf902fbfe030102fff509060bf61207fa0007fd02f907050b,
fe010200fe0002ff02020201fefc0302ff00030300ff04fffb06fd0101ff04fe,
03ee080602d803ecfff902fffe0302fc02fc0001ff0003fdfff90101fe0203f5,
ff060bf9f6fef6ec010803fef6eff9fc08f8071001e207e9f1e60c03f8f210d9,
fcf4090003fd01f7fff7fbf100ff050af6fdfef8060a06fe0a070804f6e5fcef,
0318f0f405fa05f80418ebee11160af80411f8fc0d0a01fb0f10e8ef111801f4,
0b07fc0104f401020620efeb0403fc070015f6f005070df50a0f01fd08e404f9,
eff1d7e6f7f6e708dcf7e7ecfdecee01eaf0d6e9fcf4f0f80819f7f0fa0d05ef,
ea08eae025ef06e1e5f9ecf011faf706e9040af814fef1feeafcf4eb1500ffed,
1900f10ff4f2fcf81200f007f5f4fc06f1f8efe418f7ff0d0307fdf520f811ed,
07fdf2fc0301f8090d00f506f618f9f708fff6fdfd02f1ed0c0cf602fbf4f8fb,
0cfdfaf404ff01eb0806f0f202f303030918ecf501f90d050c0fefe909eaff04,
020602f700f60601010201fdfffb06f80000f9f803fdfc000bfb01f500f90703,
fe01f50002f9fe000503faf00302ff010401f60307fffcf6fc05fef8fef60504,
fdfff803f7070d09f9f30004fbfd06f6f7f802fcfbfa0afcf8f701fefc0410fc,
0506f7f70203fe0f0b05f8fd02030611f6fbfa07f0040401e8fff5fcf3030403,
ff07f5f8fcfd08f00502f9f802fb02010702f5f6fcf805070f05fe03fb060004,
f50cf3f3f9f9050ef2fbf3f9f50106f8f9f6eff9fcf6fe06f1f7f2f6f3f901f1,
f8faf6f8f4e8ee04ebfa04f001ece512fc09f5f8f2fe06f4f415f9faf5faff0c,
ff07fb0902f0ea071407d70500eaf9fefd0aebfb04f4f6faf3020de7f7fbdcf6,
e4f712e0f1f3f80dfaf41406fafdf910fdfc0cfb0403fcf8f4fe0c07f5f3fff1,
f9e127fceeeef714edd508f6f0e9f206eff309e5f611f5eddefd24e3f307f607,
f4ee00eaea01f3fd10ef20fdf6e7da01f7e203f501f5e4feebdf06e9e901f606,
0aff080613fefcfbfaf5100a0afa0012f20d000f11f9fd0afc0114040cf40213,
02f807f91107f80bf8fc06f50ffdf919090103fe0afdf8070d14fd00110df3d9,
f403140aed030719dc100a17f5f70b0bec071f0ef0fb0113fffc05fb1100fd22,
ffef0611f204f209f5f30a0ff1f90703d3000902f2fbfef7eff90c05f1fef8f8,
f90206f3ef0304f8ec0315f2f8f60207f8fb05f7eff8f30eecf70809f00bfd00,
fcf40b06f007ff08e5ee04fce80afc09f1ef04f7effa0212fa0208f4f8faf901,
09f504f2fef9110002fb0105f8030103ef01090afb07fe13fcf50801fafb0706,
05f90ef307f602f305ee06f1070005f70af502ff08fe0afb05f7040306f90efb,
09f810f50804fe020df517f209fc00fe0cf60eec0bff08fbfef210f60afe00f4,
01f7070a0406fd05f2fdf3ecfd05f4fbf0fafbe3fefceeefeffff8f6fe05f3fa,
0a0505fe0d05ff000bfd02050b020301f8fe03fc0105fa06fff30c0a060ef5fd,
f4f0fe02fefeff05edf0faf6090706fbf4f7fafd08fe05ff0100fd020400fafd,
fb07050201fbf9fdff0001060500fc06f2ff06fe070dfffdf80200050704fcfa,
02100ffefc0ffffdfafd0ffdfd0bfff504080803fdfbf704030d09fcfd00f706,
fbfd16fefd17fc07f71d0b0e0322010ff30c0f02fd0d0206fb050a06020bf5f6,
fbfee20404f809eef1f8fa0eff00fd09f9fbf80b0105fb0af0f5020c00f90c0e,
10e6f9df0de5170ae7f5eef207f90af1f403f5fd07fafeef13f1f30112f60bf3,
f2fbf8f6080301fbf4f5eff806f71603f3eef3f5090202f7dcfaf8f605fd03f3,
07fbf3ff0e0bf9e604fd01f51706fadd19f6ff040bf7f6e912fcfdfb1401f3da,
03f607020b100afefcf501fc0c1206e504fafbf71007fced17fff6fff70ef1fc,
07ff0eeb08010be1fb0803ef15ff07fefdf610f20aff18def90101fb0b0e0ae1,
fbf2fbf9f90604fc0106fcf100f601fc0012e4f50cf3001500fcf8f5faef0efd,
05f30e091ff7f910fef70e0c0bf10a0efaf8f6f8040a11fefffef2fa030e0b08,
fcff0c0806f9fa0f07fc070918f3f301f1fc080f05f1f70905f417fe05f20d0c,
fdf3fa03e8000af6f4ff10100bfe0512f1f8050d0afbfdffebf70b1803faff12,
f002fe0bf9ff020ff5fffa0cf4050409fef2fbfbeb0915ecfbfafe04f1fe0305,
fcfcf40bfe0c0408f5fef90eff030609f5faf911f805fefffefbfb01f8060703,
fa07050308050407f500f7fef2fb0302f6fcedf9e7f3fafff4fef6f9f5fbfbfd,
140a01fc030afd09100405fe06080b07ff0601fc05fffc0af40700010407fe07,
ff0406fd060e0d09ee0707fcf9030bfff7011100020d0e0710fb05fcfd03fd05,
f40d0bfe05130d13f90d04010c0c0601ef0907f9fa1100fcf40f0cfd0a0d01fe,
fbf9020e00fa0200f6fbf90afeed0af9f61205010610100ff40d0c00f90d0807,
f3f00703f405020bfcfa00fff608fa14f4f001fff2fafc02f7f70012fef4fefc,
fb08e809fa0819f2faf00502efff09f610090603ef010afa0303040ae9f902ed,
fae2fb0400f502f5e3eff60af3090ceffe07ee08fe020bf301f3eefa04fd0afe,
fdeaed05f50904ecfae7ea03f3fd03efefebed04f00b07f0eeeffb11f1f601f1,
f30001f4070bfeeaf7f4f701fc170de1e9fcf801fd1009eee7f8f506fe1201dc,
fcfe0bf4ff0af4f3fbfb05e7030e07e9f7fc02f9fd0f05ebe80707fe0900f4ec,
1813030110ec0aeffd0bf1fc08e1f7fd0e19edfb08e80af1fffd07edfb0f0dee,
fb0afa05fbf6f5090808f60e00f4130400fdfb10ebf4110f000bf513fafa110a,
ff02ff01eae4fe03030213f8f2e1000af1fdf10dfbfb06fff7fbf405f5fb0e0c,
06fe0706e8e70ffd0603fa07e8ef0efefc050203ebee000507060904eee1060f,
f708fbfc0205f3faff00feebebfdfb0d0107fcf4e3fafc04fe010af7e7f7fc06,
f50705fef90402fffb010002fbfcfdfcf40b01000202f5f9f20a09fb0209fff8,
0605fbffff02fbf6040504f80005fbf9060405fefa00f5f40106fb04fafffffc,
0a02f9ee02fafdfffa08fcfcf704fafef506fffeee00fef8fb00f2fbf4fd0a02,
09fe0a050cf505ff04fffdf80bf80006040803f801ffff01030206fd04fa04f8,
0205f7f9fdfe16110503fef60006e6130102fcfa07022217010202fb03fafd04,
f900f603fffb100800070500f3f6f508fd001005fb05f10cf7040a05f9f7020b,
06f9effdffffe7e01800ff05f8f406defafdf408f4ef0d03fcf7fc03fbfcfb04,
03f8fc08e70502f6dcfa0613edf600dde5f80bfff1fb01ed1303f6fafbfdf7e9,
f802f100f8ec05f9e8fcf4fdecf508e8e7010105e1f8fde7e5f70a04f8eb03e4,
e3f222ead20d0403e3f602f0def80202ff0ae4fcf0e9f3f3070201f0d807f9f7,
e60ef107eaf7fcfddc0d13fed60409feea06f00cdff80a02e900f0e9e1f0fcf8,
fffc05f203fe06fff9000dfe0807120cfc1b1c0e0b040ffcfff80e000c0a0c05,
fefdfafd01fa101d04020bf103ff1e1707fb03fa0c0909fcfd020af405f8f5fd,
f0011d1005ee01ffd12e1303f8f008f7ef011c14ffeb07fc01070cfa02071223,
fa05100f0a03f5f2f605110d08f2f8ffea260907f5f4f3eeeff81405fbf9f2fe,
100103fd0d11fdef12e2f9f70813f6f500fcfa0afdfff1f1ff00f41611f9fbef,
0efdf60105fff8e8190a07110b0109f216fdf6040503faf90ce7f4f20513f7ee,
01ebf3fb01f401ed0efcf0fa0003ffe811060110010507f20ff6f708fd0400eb,
02fbf607fdf4090506f7eff908ee02fe05f2f2f20ef503e803f0fa04faf5fdfe,
05ea03fa01f907fcfdf508fdf9fa0b0804eb0ef700f70bfe06fef5fa12f703f7,
f704fefafcfb0502fbf7f8f6f8eef6fdfefff5eefbeef603fcfefafbf6f8f5fd,
faf70307ff0cf90103fc0306020a0100f2fcf9f5f6f803fcea08f9f5f8f202ff,
faf8f806fcff070901feeafd02f301ffff02fc0e060209ff00ffff06fd07fdfb,
f8040000f80ffc0af7fffffef7020803f80400f7faf7f7fefafe0903fb030104,
030708e9fffaf200060bfdf112f604edf5fffc01fa11fe05f0fcf7f5ef0cf304,
f5ff0af203f7f208e9192df2fcefec0fe518190103f0f104060010fd04fcf1ee,
fb0bf30a010210fcfefd0a00fd00f60a04051500fdf7eb0ff800030a00f9f006,
e0defef500ebe70ceefdfc0708fef60dfa0ffd16fd0a0f01ffc0da1600e90af5,
f8fb08fb12ff001cde1425f808f7f011f501080d0f020123fd06f4f909fdf90a,
f719fbfff8f70200f00ef9fffc0203fbf813f4f9fbfc07fef011f9fcf6fffcf6,
000eede7080208ff030d00e70707fe04f809fcfd0106f9fffb19f00401f706ff,
e5f5ff06ffe9fff0e7e6020004e802f2dfea040106e60cf0fc08fce90f0ded00,
f5fd02e90808fefaf5f406ec01eafff0e6ef08df02effde1e9ed0de606ebfeef,
00f50f080aea03fef9f0140611f41af8fbfbfbf20a05f8f4f5fa0aed0503fff4,
ff01fe020a0a0b01f4f9f51007020804f7050301100b1904fcf60b0018fd0ffd,
f8feeb0007f4f2f60004f40709011604f9edf60401fa100bfc0501ff0cff1a01,
eef1faf106f604fef4f8f1fc0afcf6fe02fbf203fef1fffbfcf7f20506f9fdf4,
fdfcfb0400fbedfef70103fd00f800fdf5fefb0501faf2fcf6fbf4fafefaf9fd,
f8f0f7fbfe070113fc07fd0003010c03f303f5fd04f816fcfafff6ff02f9ff01,
fdfe05030505f505fdf607fe060dfb03fbfdf8000404080cf7f8f30304010d0d,
fcfbf9fcff0016090b00faff04f80ff501fef6f403fd1402f9ff00fe010af802,
03fefffff801050302fbff01fa000c021101020e00f5f3f10e01fafcfcfb04ff,
10fc2af2ececf80815f90b00f8f3f4fcfcf2fefff8050c0204fefa01fafc00f8,
f5f40ae801fdfa01dcef21fcf3f90c0ff5ef13f8fefcf1ff0df40df3f8eff2fa,
0f150cfa08e602f8fce7f8f90bfbe4f2f5e408f0fc04000103dffb0502f9e4fb,
f80221c50c0d15f4f71010f0000401f5051114fb0ae70df6110324e80dfa13fe,
e7f0f3f8f50508faf9f1f9e0fe030aefe9f5f3fcf0fff6f0ef0a00ea01ff0df5,
ec03f4e9f8f50106ebf4e2f807f1ff06eb0be9e706d7f4fbd9f9e3f007ebf801,
f8faf1ec0cf80df4f2f4ecee04f707f9f000eaf1fa00fd00ef17f1e3feeffbfc,
e4fe021120faf923ed05fb061ef3071de900082c23fd0e2beceee9f007ff07fe,
fdfb022c06e5fd17f3fc081e0c09f811f912f90b100cfb0cfa05021b05eff61d,
071610faf612fa07001902f6faff0005fcf3f2310d060216fa02f81f0ffaf9f9,
ef0fff01fc15fcfcf7190a01f21ef603fb110afdf60d0107f114f9f2fb0400ff,
fc06fdfb10f7ff05ef00f602090102f7f6120006ff02fef7f609040008fd0bff,
f202f2f3fd04f8fffcfcf7f6fdfbf5090802ff0411f6f907fb03f7f9fffcfaf6,
f9fbfefa0bf2f713faf601ef00fd000900f7faf70501f610fdfbfefa05f9fb06,
020dfc0207fdfa06f8fffbfe00f903f6e201fafdfefcfbfdf4fef8fcfdf8f6f8,
0206fa09000101fcfb0efc050304fc01fd04ff0507f4ffff0007f70805f7fb04,
fff6f300f61a04fffbeb04ff0508f506fdeef700f816edfcfd060206010203f7,
fbf5eef9f512f90804f3f7fbfa0b0f01f9ec02050c06020002f2fc01fe070604,
e7ff04fdf516f3e7f4f1e2ef0135f2e8f7f4ee00f412f9fbf1f7f902fd0ff804,
f8e501fdef0005ebfdfb0809e0ec12fcfceff9fbea1515f5dbeeedf90a2ef7e5,
e7dffbee06fafcfc0ed6f9f4041603f018f6fbeefcfd05f9fbe3fcee08220bea,
02d007f913fe0503ffd8f9f90ef40c00dbd809e4fef400fbd8cffdeb020108fe,
f2fa07ed08e30b01ecf70af207f10b06eff200f607ed1103faddfbf511f60dfa,
0207f30e070608f1f40b0207f7080ffa05f7020f030214fb0011000404040b01,
01060bfe08f709fffa120fee0df702f8fc0bfa1303030ef50afaec1b140a12eb,
f408fae8eef7ee09ec210ee3f2fcf800e7120bd8e4f7f507f2150df40dfa07fb,
f40807fcf2eff7ebf00f0afefff1edffdb0f12f3f9edf6efea1819f5f6f5f9f2,
f8fafaebfafd02fafce0f5f0f9010af3f6000dfcfdfaf6f3f7050202e8f4f7ed,
09f0f9fa01fb16f71401f5edf0ff18fb08f1fcfcee0512f6fce4f7f901f50ef8,
1ce1fbee0cf6040cfae90812030013ee06f90804030509f6feef0610000008f6,
fafd010afdfb0bfffdf3fff9fffc0afd0ce2f4f00cf8050d19eb00fa03f8070f,
08f1fcf7f9f3ff0609f4000700f7fd0310ec01f9faf8fe00f8fbfefafdfc0102,
04f9010814050a01fafbfffbecef14fbf4fafffcf0e50cf1f7f1fcf6f4ee0bf2,
0b0103fe0a01fc05fffd02010605f90606fbfe0808000801030002000ef408fd,
f4edfdf400ff07f8ecf8fff509100bf1f4e507ef001010f809faff0505fefd05,
fa05fef10407fc01fc05f5f802020b00fc1005eb0f011500fefc03edfe0d0b01,
faf60f0b050dfbf0e9e11a070e0df8f5f80dfef30106fe00021101ef01fd01fb,
f7fd02f90508f602f7f9fd01f709f211ebf6060c0d06fb15e9ea12030916f6f3,
f1df11f1feea05ebecf0070006030a07f7eb0b13030e0110f4f00507050c021c,
05ea08f40c0d0deefae20df301f612e3f0e9030009f50ae9fbe6141606fcfddb,
e8fc130b16ea16f4ebf40ff409fa14e8e4f80a0018ec1dec04ed0cfc050406f4,
fefc00eafcfb00f6fbf6fbf4dee5f7fcf7fefdfaf0f908f809fa02fbe0eaf809,
04f708f004f9f8040bf904eff4f1f409f70008f7faf3fefff709fff506070bef,
fafbfcefe9f003f901ee14f9fe050604fefd06efe9eefe1efef60eedf2edf80e,
f7f408ee05e9f804f6f801ef07f8fef8f4ed09fb0f04fdfcfefc04f20ff2fc0e,
04fe1105e80807fdfbff040de304f4fef2f9fef503faf4fbeaf614fe0ff40c02,
07fb06f9ec08fffcf90d07e3ebff0af50700fefbf109f4f9fafc0b01e90afb03,
fb030406fefa04fbf8f20100f90df7f1f604fafffa01fef0fbf9fc04ee0bf4e6,
03f5ec0603f8060b02faf80503f9fe08f3fb070604fc02f3ff08000a01ff0cff,
f7f9050f01f60af3f7fdf60ffef60efdfafdfc1504ee0afffdf4fc0104fa0402,
ff10ff0006fbf7ff01f7f4050404f103f5f7ef0cf9ffee01f600fb0afffef901,
fdfbfbf7060afdf6000100f90a09fcf700fefb050600f7faff0dfaff0501f8f6,
0c0ff6fff5fc06060901fcfbfbfefdfe070ef903f502070cfffb00ff080a02f7,
0405f80202fffc000c03f4f6fe01fefd08f4f4f7060008f90103f3f8fb0301fe,
f4150216f11700f8ecfafe14e12302f204ffee06fc01fc0b0103f6fe0a060602,
01000a09eb0ff801f6fe1414f206f00002f61215eb18fbf9eaf70a21e41bfaf5,
e6e3f2fdf114fffdf3070e0ae615e4f8efff0f1ae309d9f8f5060d05e218ebf4,
eccef919fb0ffa0af2c6f609e91b0a00f7e0d7fcf30b0807e4d9e607f201080c,
f204f2f9f1150406f8ede705f30af90cfef1e2faeb1107f8f4dcf0fff4110003,
00fde5030301f507f6fc0b03ff0af60ff6f5effc010aef11f4f9f309fd05fe13,
f5f9f3f7020cfc13f6fbecee0003fd13fbfbf201fd00f9fdfcf9e70bfffcea07,
f0effffbf6f9080bf5f11008f1f0f9fff6eb0c0a01ff0c0d03fdfaf3fc030d0f,
fbed09e907f4f113f2f405f908fafa06eae3f20205f4f609eee8f8fd0303f408,
ef01f7f4ec05fff4f5fb08f1f60af901000116f10efcf90cf9e90ff10ffafc09,
f0f804f6fe0300ffeb04f4ecfc0a02edf0f9fff7f60001f0fef602e4f80a0309,
01f50e0f05faec1e060008f8f9fd0302030400fdf60d03ff0dff0cf9f60203f9,
04fcfef8000004040cfc090b03f2010cfafa060efefcfe1af5f505f8fef9f212,
0efe051107fefb130608fe060212020b0c020f0805f7f61507f70209fe00060c,
04fdf7fb0ff9fc0df704fafcf6f4fc0df5fff303fafdfd13fe03f3fbf8f7f90a,
fd030002f6f6ff00fb050903f801030503ff03f80eedfa0c09faf80009f8fb0e,
f700fbfa0cfaf3fee8060704fcf8f509ed03fb0107fcea02fd080afc04080009,
fefdfcf7f7fbfb07f0f70c050afff8fdedf20410fff7fef4f8f6ff0305fff5fb,
0f191b060d15eff9f70b1c081010e7ecfaf80502faf8fa0dfefc07fbfbfff908,
fb19f51516f8fd050510f7220d070206fa0afd1512fdf7f7f5150f0d1206edf5,
f1ffffd8fefcf102f215f30f18080513f90cf0190e1300fff6060a151601fbfe,
fd1e1901f021ff0cf90e0fe3fcf5fd06e709e5db05f6f1f4ee1f0df10104f8f8,
f0fae4e80ff0f108ef0604eb09fbfc0bec0507f00bf60404f40ae9ee00f2f90c,
f8fe0cea00030e04f6050e00fefb0b25fc0006000c050f0ffeff120201ff0e16,
f60703f6fdf81606f6ff03e8fb030d19f0fb07eff9fa0d0ef3f80aff02001b03,
ecf5171809fdf61205f11b13f1fff4fceefb1b27edf7f2fdf40211eb0aff0b1e,
edef121bf2f5fff7f1040622040f0a0d000d0e12f20f0c01f00d191ffc090b09,
0201f3fffd04fb01f5fff503feed03effdef081a02fd02fcf7e81612f004f8f8,
fb09fb0a00f90cfcfa0bf1f904170711f900f5fe04f808fefe06f90afaec0bf5,
f31e080301f4f0f009f70005fee300f000f4fb0604f2fd02fee5fe04fee5fdf4,
f70afd0004fd0409f00bff010df602fefb0e06fd05fbf2f1fc0c040001f0eff8,
00190dff0cf9fafa0507060105f703fefc1006f908f800f5fd0d05fa07f8f900,
05faf803fc000bfc01fffb03fe06fb03f8fff600e507f80503fdf806f20afa06,
fb0502f816fe0bfffe0100030e02080204fdf8ff02010cfa0501f601e5f90df8,
fe050ef902f2031301f611f8fbe90916030412f701f008130005ffff0b040402,
f1f500fbfefd0705f2f808fb03f8050bf4ed05fafdee060cf5fa0efa01ee020d,
01f117fbf9f6f000fdff07f6f4f7f000f8010301fefb090bf8f504fefbf5fe0d,
01f809f8f9f2fefe01f2ff02fef5000df6f704f0fde7f8f600ef00f0feefedfb,
f80eeef20d06f1fef702110d0cfc0901fff1fffa01fd150cf30103faff030504,
fa150ef3ec0ee1edfb0f01effa02fd0107fcf6e7060df4f4fe1011f80709e7e4,
04fa1bf5f404040c0b130811fc05f00f050110f5fdf4fd14030b0ae6050bfd00,
15f9f40af7f306fa1102f2f9fef5f7e01ffff511f4ed07ef1afaf704f4e600de,
1010fd04eb0109fc080bf9f1f5f8f8df1302ff04fcf5fbfd23fdfc14f4fc0212,
23dffcee0903fb0519c2fc05f610f9101bc5f505fd090216030d01fcfcfa04e9,
fadb0402fbfc0f0807d1f4fc11fcfd09fccf08f703f9080609cd050300000013,
d6f8040117f1fdfdd1fff9fb10ebf5ef01eafd08fbf3fd0ff2e40ef3edf5fbee,
d400fefe0ef2f604dffafcf71704f404d3f3fdfc0ffa00fed4fafd0211eef8f2,
e8fef4fef602f8efd9f7f50b07e7fc05e5fdfb000bf9000cdbf6f90708f0f301,
ebfc000becfeffeaebff000ced0503f3e5fefbfef504f0ebe7faf7fbf0fff7e8,
f7fffd03f700edfff3fafe06f5f702f3f604f708f8fafdfeee01f909f2fffaed,
f8fdfd080105f5040000f40ffe0710f2f8fce901f80612e80102f704f406fcf0,
fefefb02fb000c0d03ff0704010a040af9fafb09f6020402f4fbf802f2fff90c,
fbf7f504ff0812fdfff8fe0405000b06f7fefaff0205f3fffdfb04fef602020a,
fa0106020400ebfdf9f9030501fb1002fffb04fe04f00b07fefaff03fcf8f703,
f305f7070d1119e9eb06f7fe132af0e9f202000412fc1b06f9fd02020bfc1705,
04f102030015faf805e6f10a0e0e05f7fee7ff0d051414fdf326f8f20a1f12eb,
fafffaf909fdf3ebfffd03fc0516eff508f5fbfc0209f5e9f8ea03fc082312e7,
d9ee00f5f2fd0aede4f105fcfd04f4f1f904f1fefc010bf9d81000fcf1fe11e8,
fdec12080af910f6fee90d0211f902e6fff51e060902deefebf2fc0af3080c00,
fb0804f7f1fe001704f605f4fd10eefeffff09fb0908f81a03020f02ff02f00c,
f20107f6fafeff06f9f701fcf002ea0fff01faeef3fc0205f615f3e1f2f60d10,
dcde0ee502030f02e4f5faf5fd03170adade0eeded091306fffa01feef0ef1fe,
e7f3fbe6f9ff0cfeebe913effa011107eafef7f2eef71708e7e809eff7000912,
f20c07f507ff11ede8fffae10c0722efdef5fef807f810f7e8fdf5f3faf80ef2,
ec10f2f203fc17f9eb11fb0dfbeffbecea0bf4fefefd1df5e90103de0cfc1ded,
0600fbf1f9fdfff8fb0df7e4090824f8f604f8fc00090df9ef09f1ecff0a2d09,
0cf5f402fafd080d07fcf903f60204020afcf5f4f7fffbee10f7f6f600fffdfd,
fefdf705fa02f6f004fdfd03f7f8fcff01fefd06f3fc00fd04f9f2fffb0703f9,
01fffa00fe10f7f701f9030203050cfefff303fdfafb100100fa00fbf7020efe,
fafffefcfe01f2f6fcfe07fa02fef9f9fffdfbf80411faf801fef4fbf906f5f2,
fc0006f20901fe01f7000af7fdfef5fef90902f607faf7fefafd02f90301f9fd,
f9fd09f20b02e90afcfd0efc0307f402fb100f05f604eef9fa0810faff09eef7,
e8fd0205eefc0919e8060d07ecf3f61bfbf115f40706f00602fc0cfaf8ffea01,
fcf70b06f6fdf90d04ff0ff4f9ff241ef9fd0cfefcf51117e9f70407ebfdef0b,
0e0ef900ef0602080008ecefed0005fe030cedf1e9fa1a04f907f5ebe3fe0d14,
14e60f0cf2fd09f209f9fbfdf00a00011d03f605e80af5060d14020debf308ea,
14f302efe703f0000fed1305f6f901e816f609e8f302f4fc12efef02e407f005,
f900080a02f712fefb06040bf6ff0209030cfdecf7fcfff1fbfcf0f9f1020705,
fc1af70503f9f6fdf802f2120ef9fe00f104040efcf70307fb19fdf3faf20ef8,
02f3f7f10eea18fffdf2fae510fd0f19f5f6e4f107f70a0eee09000efaffff02,
faf707f6fef10cf0fef9f7fb0ff712edfbfafee810f70ef7f6fb01fffb0001eb,
060505f7040200fefef8ffeffafff1120605f8f50fed00e801ff00ed0df0fcf1,
0002fbf60ffaf701050602fe050501e701fd06f20004faf50201faf614fcfa0b,
0cf302fbff0900130107ffef08f6000602ff0cec08fc07f4f40114e603fc0508,
0b0af8050a03e8040c06070a0ffdef0708f3f6000402fe1505fc02fc03fbf107,
12faf6f90401f6ff0dfafafd0d02f6fc13fef9020dfaf9fb0cfff80003fef20a,
02f9f9fc04fc030efe0200fd06fb0203fd05fdff06f904fdff03f2fc05fc05ff,
03fefdfffd07020600fd01f7f90307ff06fefafe10fc040400eff4030804fe08,
f9f2fdfc02fff9f7f8ebfd06fa03f803fae4fdfd0104f7f502fffdfbfbff0506,
f7ed02f70003fbf9fdf2fefa0401f3fcfaee03fff905f605fce608fffd08f4f4,
07f600152000fdf6fdf9f41915f4f309f9f3fcf602fdfdf9fdf2fe02fefdf900,
fdf90d1109f7f70cf90113080bf0fb0efcfc071707f6f40b00f3141913fff509,
fe08fad40d02ede8f6fc04250507ef0efa04fd2bff07e015f2f9032efc02df1c,
06eb051f12f70e05f3f9f8f2170d0800fb0becda0a04f5ef0c0ffd070fedf1e5,
fcecf5f90706eb0905dcfa0e190cf11408e5f0f71c1cf508ecf7f7ed07050500,
0c0609fd02f705d7240807f3fceff9de0c0309f8f4db08e3240c11fafbf302df,
07fef501f9fbfae611050701f5f5f5ed0bfffef5fdf002e50101f1fd04ea05cd,
fa03e1f7fee7f1f9f216f0fb04e3f502ee15e408fee9f50015020603fcfdf4f1,
fd00e802f902e90cfc07f3ea02ecea00f105f9cd0feaf611f7feedf503e8f412,
0815edebf6cb05dafe1aedf8fed6fad4f4f4f402f702eb08fe01060603f8f508,
0603fcfa09e5ffe20d08ffd60dd40ecd0306f5f60fe301d2ff02f1fffddafbe6,
1102f1080df907ef01f6f90905ee0ae801fe06fa0af010f40601fe070df007e0,
f100f2fbf5f6fff3fc01ed0205f701f01608f30317f9f7f20804f60004f806f5,
1209e70307f7f8f9fe02f3fcfdf700020a06eeff09f803f4fc05ee05fff8fcf8,
fffbfb07fcfd04fd090501f703fdf900070a00f402faf400071005fbfffcfa05,
09f50001fd0b02f90afc0305ff0a05fffff6fe05fffd00fa03f1fa09fdfe07fc,
0afdfe00eeff010c07fa05f4f4040cfd0b04050af20a010203f70202000902f7,
06fb0c0ef803100504f90601fcfe030706f907f5050403fe09fd0907fc090106,
f6f8e002000fe8df07f4e8fefb2eead304f50104f1fc0e0a03f401f802fe0a01,
0804f4ecf001f4e4fa0400e4efe5f1df0105f9f6f10ceede13fde3fa0026f4db,
fde50aee020301e30a1200eefe16e8e40418fddbfd11f1de1310f7e6fc23e7dc,
f50aececf32502e406fe02ececffffe00ffe03f2f3f404e6f3f5f9ff132afeea,
130300e8f5f3e4dc0102f5f400f2e6d50f0507f3f3eaebd3030af8effefcf6e8,
06fbf217f1ef17f6fd02f605ff0708ef0b03f80100ff02f804fcfb08f70c0eff,
0dfff317f2fb03f613fef416fb050cf30cfcf10bfeee16f30ffbeaf9f1eb08f2,
0307eb02fc0a07fe1e01eef4f2051c030700eaeeee0713140afcfe0eebfc03f9,
f6f0fbf4e213fefcf70bf1eb081107f51df8eb0af40618fc09ffeff3eb0bff03,
0dfafbfc1500150dfdf5ebf901fb0b0afd01f7fdf71308eff4ebf8f5ef080ef8,
f9eafdfb05000ef900e9faee000a0bfefeecf9fcfd0304f802fcf9fa0df80a04,
fa0106f80305f3f8fef203f80bf80512f7ee0df50003040401f6fefc0afefc10,
f6f51205fe0a06f2f7fd0e03080cfdfcff0006f60602f6f9fffd09000301fdee,
f301fdf2050603f5fafa09fffd0807f4f20505f303040102f2fa05fd070903fd,
f90605020f00f9fefff7f4f3fcf20008f6f2f5eef8f2040203f9fafafcfb0401,
01030a05f503ee0201feff09f304f307fefe01050ef80001f6010cf50ef9fdfa,
fdfa0b0400010af501f80a09fc0d160600f50208ff070efafe020206f704fc07,
09f5fd02f3ff030403040407030805fd0c0303fcfc1c0cff0a000604fb0b04ff,
17eb03f0f6e11c0610fefeeff7ec0cfc02fa0106f6fb0406fef7f8fbf3060708,
1befff01f9f9090e26ec000bf0f50b1313f50905f8f70d1017fafff7f6e91502,
04f71302ea03faf20ce1f5f8fcee03130de901f5f3e40e0408f2fcf6ecf3fd11,
fa04090bf203ff1707f60312ef03f3fb11fdfc0beefffb1ad60803eee00101fa,
f9fbfb0cf5f2f80108fd080cfbf1ff17fefffe0af7f1f4fb14f3fc18f600f706,
01f009f6060612f71be7ffed070417f80df2fa02fb0409f529e8f8f4010b0ff8,
fd0503e8030202f311f200e7fffe0cf7f9010be606fd0dfaeafc1008fbfe0af0,
0af301d70dfd241810f2f4f0130b0f131ee9f2e70809281108fe00de0bff08f8,
1ce2f4def51b1f0ffae904e80c0c1723f5dbeffe0e15f31bfde0ebf508161411,
04faedecfaf8f4011702e4fafcfef70610f4fae0fb0c1b1e0fe901ecfc070e18,
fb00ea090a02f7060cfcec030dfcf70013faee010c02fa100d05e8f2f7faf907,
ededfdf8f80918fe0704ed1b0508f50609f6ff14f60ff7091004f70dfe0ef909,
edf3080ff9fc08edf8f4fcfffa030af6f3ef01fbfc061502eaeb05f9f3030bf8,
fbfb02fdfd0607fef4f70406fafe0afbfdfaf7fffb000408f5fbfe04f9020af5,
0102fdfaff01ff04f90104fbfe0709fa00f8fbfefb0705ff030505fffb03fef9,
