memory_initialization_radix = 16;
memory_initialization_vector=
00000b3600000b3300000b090000058e00000b9300000b7000000b7300000b76,
00000b1400000b1c00000b3100000b0300000b2600000b0800000b3b00000b2e,
00000af700000aea00000b0c00000b4200000b4d00000b1b00000b1e00000b0f,
00000ad500000ad50000063500000b7f00000b9400000b8600000b6f00000b07,
00000aff00000b3900000ad300000b0c00000ad600000b1a00000b1700000b1c,
00000ac200000aec00000b1400000b1b00000acd00000ada00000af400000adc,
00000abd0000061500000b7d00000b7100000b6900000b7200000af000000acd,
00000b5f00000adb00000af000000acb00000b0500000afe00000b1900000ae6,
00000aea00000b1e00000b2200000ace00000acd00000b0b00000ac300000b08,
000000000000000000000000000000000000000000000ade00000aba00000ab7,
03fc00fa02ff01000101000600ffff0205fa07ff00000202fe04fdf601fef900,
fdf9ff01fdfffb02fdfbfefafc00fa01ff0001fffafdf502fae4f6f7f5fde403,
fefe06fffffeff000100fdffffff010301ffffff0001010200000d01000000ff,
fd02f9fdfefffffffbf9f8ff01fe000000fefffefcfe00fcf9ffebf8ff030a06,
020103fcfd07000200fefe0000f601000100fffe02fe0404fc00000001ff0b03,
ff03fefafbfdfdfe000604fcfcfdfdfbfe00000100fd01fbf301fef401d2ffe4,
ff0201fd0002fffc0000010001000102fffffeff00fd00020408050506fe0302,
fff901fffefcfffdfff8020001fb03fb01f8020300f8fdff02db040103eefcf9,
00fd0203f501ff030000000006000202fbfeff01fa00fbfffe0c020502020202,
0703fbfbfc0001f9fafff8fafffffff916faf7f8fc01fff8e9f4efedde0807e6,
00000101fe020100fbfffb0100ff0000010afefefa02000002f003fd00fa0200,
fbff00eafc020001fefdfff7ff01fff9f8fbfde2f9fefbf9c6fbf52418e803ee,
0500000000000200fdfffc04010102fffd00010700ff0100fa00fef8fc0002fa,
ff0201f902fefcfdfcff00ff0000fdfcffff00fc0000fffcf90201f20409faf5,
fef5fdfdfefe00ff0108fe040902fffd06000000fefdfdfa0805040101021201,
fffe040803fbf800fefcfdf700fbf4ff00feffe4fdfaf8ff03dbf1f9fff6d70a,
feff00fcfb0015000500fefdfeffeefffc0000fc0005fa0202ff000d03060007,
f90200fe00f7f9f9fa01000100f8faf8f30000fe01f6f2f8ec03010d02f4c8eb,
fcff02fe010408fd02ffffffff00f902000100020100fe04fffe02070100f301,
010502fe01ff03da00fe000200fefcdf010002ff060404e80102010403e8f443,
0a020107fe0509fff3fc00fb04fffb00ff01fffd01f7fe02f7fd000afd08f2ff,
040302fc01f8fff80200fff60006fef6010200fb02fe04f4f906fbfafdd509eb,
f603ff01ff00ff0106ff0301fcff00ff00ff00fffc0001000003030203010102,
ff00fd0100fd0200fcfffe00fa000503fe01fffe00ff0200dd03f60000f80302,
01fffefffc04040003fefffe03fb01fffe01fefeffff0d0200ff00fffef80e00,
020202fefcfdf70000ffff00fcfffcff04fffffffc01040006fe0304fa05e400,
00fd0101ffff010001010000000004070603fefffd0003ffff00fe00fe00ff00,
f6fe00ffff0001fff902ff00feffff02f6feff01fe020204f3010300fb030001,
00050200ffff000000fcfefdfdff07fe00fa010200fd0a030203020000ff0001,
03fc0100fefffdfffefcfd00fe00fb02fdf901020200f7ff03ebfc0301ffb201,
f7fa00fe0201ff010a06020302010101020504fdfdfdff00fb00ff0000fefcff,
feffff00ff000204fdfefffdff00fd00ff00fffd01ff00fff4f3f5e90100fd00,
fe0402080100fffe010100f702000304f4fcfd0400f9f9fd00010911fefcfffc,
01ff20f401fffdfffefef2fbfdfcfeff010109f100fe00ffff000012fcff0402,
03001d01fffefcfffeffea0200030200fbff00ff00fe00f5fb00f201ff0409ee,
e501ff01ff00ebeffdfdf6010500f2fee201fb010004f0f3f9ffd90202df0b0f,
fa0300fe0204020203fc00fdf9fcfc0103f8ff010104fcff01fa0000ff040600,
0000ff0202fffffffcff010101fefb01feff000100fc0100ef01ff0104f2ffff,
00010000fefa0001010004fdffff0200fc000100000205ff01000100fffff7fe,
ffff030201fb0600ff0102ff00faf7ff00ffff0100faf9ffffff000201f2fbff,
fa00fc02fc0000e7020101010200021304ff00ff020108f9ff02ff020501fb02,
fefe0100ff01edfc000101fdfffef6f5fe01ff00ffffeefbfa0604fdfe00f2d8,
0dff040404010102f901ff0001fffe01ffff02fdfbfc05020f03010600fefdfd,
f5fdfffd01fffdfcfd0100fe0002fdf8f104ff0104fe03f9060002080304f2eb,
fe01fd010300000001ff0400020001fb00ff0201020100fefe01dd0000fcfe03,
0101ee00fefffff8fefdefff00ff01f9fdffec01fefd00f801ffd7ff020406ee,
00fb00f6e6fffd00000200080f0002fbff02fe0203ff02010305020009fdfefe,
03fb00fafef7000200fe01fbf8f6ff0001fd01fcfdf4fe0104fe01ebdee5ffd7,
0100fefdfd00fd01000100fffe02020002010000fe0211fefe01ff00fffef602,
ee01ff0200fef901e601010103fdfb05e5010600fffdf700bf04010302ed0801,
2107010001ff03fee1f900fefc02fc010102020103d8ff10fbf100fefefbf4fa,
fc0000ff01fcfd02fbff00ffff01fdf8fcfe01010207fc1fcf0400fdff0ff50f,
02fdffff00fffffe02ff01feffffff0201fef2ff00030003fffdfafcfefc0005,
00feff0003000101fffd030000fffdfe00fe0400ff03040204fd0e0202030002,
fef7ff0101fe0001ff0500fb000201fb0008000d04fe0204ff07fefef3fd01fe,
000100fe0000fffefffd01fd01ff03fdffff02fc010300fd0401030a04f603dc,
fc01ff01010001ff020203fffe000000ff01010200020300f9fe03fe0103fc00,
fbfcf100fffefe00fffded01fffeff00fbfbebfffffdfefefff3d00201f60101,
02ff05f8fd0102000002fe0304010902fe00fcfc0300fefbf6f9f9090501ffff,
00ff01fefffe02000102fffbfcfe00ff00ff0201fe0101ff0000dbc9fdff0202,
0cff0204fe050204fbfefeff00fb01ff04ff000202f8ff010cff010003100000,
e2fffefe02fb0101eaffff00feff0301de0000ff00fc0000ee0103fd00ec00f3,
0201f700040107ff010209ff0201fdfefe00fc00000201010000fe00ff000103,
0101f902fdfafd01ff01f001fff8ffff0003f2fefbf3fdfb0501ac01f4efdb03,
fd02fdfcfe01fd06fcfcfdf9fb01f700fdf8fefbfc00fe0002030200fdfef901,
fcfcfbf6f9fdf801fdfdfef9f9fff702fcfbfdf8fdfffc02fcf9fcf7f902fa04,
fefff7fefdfffffefafef90001010001fc00f60002010101fefefe0100ff0304,
fd00f60000040200fefdf9000200fefffcfef8fe000201030205fb0501010001,
fcfefafffcf9faf8fd0000ff01fdfefcfcfffef900f8fdfefafcfdfe010200fe,
fa02fefc00fcfdfefe00feff0101fdfbf7fbfafafbf9f9fbfe06050205020303,
02fb000305fe04fe01f700ff00fb000008010603050100fc02fdfffe00fb02ff,
fdf601ff00fafefd00f400fffffa00fe00fd01ff01fefbfc00f9000403fd0403,
f705fafb020200f903fdfafbff0202f800fef8fdfdff00ff00fff9fd000402f9,
fdfcf7fafd0000f701fdf7faffff03f9fefefbfdffff01fafdfef7fbfe0002f7,
03f6ffd4fcfd01fa01fafcecfafdfff8f8f9fe2b01ff00fb00faffe3ffff01fb,
fefe00f2fdfd01fafbffffeafb0203fafe0103e80bff01fbfcfbfdf2fcfffef7,
040202fffffefaff0104030004040000f600010400040100000100f9fefdfcfd,
fd0000ff0104fefffefd00fcfefefcfa010402050404020100030300040400ff,
fe00fed00200fbfffdfbfeedfefcf4fc01ffffe60805fafdfe0006eb0400f301,
fffe00f8fffcfafbfffcff0700fbf30201fd02fc03fef801030004f60100f8fe,
f8fdfffd00f7f7f7fa000202fefaf9f5000100fe00faf6fbf8ff00ff00fdfcf8,
fb00010203faf9f4fd01ff0003f9f8faff0100fc01fefdfbf801fffd01f4faf8,
fb0001ff0000fa1400ff00000001fee301000000fffefaccfb03ff000103fbec,
010202fc0101fcd1010201020100ffe9020101030402fdd801ff01010100fdcf,
0201ffebfffbedf6ff00fdf6fefbfbf8fa03010dfffdf9fafc00fef1fcfaf7f5,
fd0102fbfcfcfdf7fefefff900fc03fb0402020700ff02fe000301f9fdfbf9f4,
fb02ffffff03010302040506ff000200ff01ff0000fdfffffc00ff03ff000201,
fc00ff00fbfdff01fc020000feff0001fc00fb00fdfb0002fbffff02ff010301,
fc02020402020a00fbff00030002fa05fafe0003fe02f700f701fefefd00e500,
fb000201fe00fa02fe020201fbfbf600fdfffe00fd01f1ff00030003fefef701,
f7fffefdfdfd0301fe05ff01fe020303f7fcfefcfbfdfafef902ff02000302ff,
f701ff00feff0001f7010202ff010101fbfffefffd01fffdf403030401040204,
0200070708fefefefffe03030303fd06fffdfffdfefef8fc04fc010503010003,
fff8fdfefcfffbfe01fa00fdff00f9fd00ff0101ff00f8ff01fafffdfffdf800,
0403020001010401fefffffe01fffd000406040306fffdff01fe00fd00ff0400,
00020300ff02feff00fefdfe0000fd00ff01ff010201ff000403060707050506,
0201ef0e020502010202f4fd0301020201fffbfe0503040401011ff2fe00ff00,
fffff2fb02010303fffdf2f6010002000608ed0bff000300fffff0f501000103,
10fd02050603fbf0fe0201050104fcf7d700f6feffff150808fffd000201e9f2,
f200fa020201f9f8ea00fafe0200f2fceb070507050307fff407fe030704f5f4,
fefbfbfefdfbf3fdfbfefdfcfcf8fe020600040303010702fdfdf5030101fb03,
fdfcfdfffffdff0101010103fef6fd0104010303030200030102020404fcfe02,
020001fffef9e7fefdfffefffef7f6ff0003030304020c040202040001fb0800,
0100050102fdfcfe0101fe0101f8f9020301010202fb07000302020204fcfd03,
0505040303012803ff010200fdfefef8030204fffe01fa00fffe00000001f2ff,
ff02fffe0001faff0101fefefbff00fb010101ff0202ff01030102fffe01fbfd,
f600fffe020100fff6fcfcf8fdfdfdf8f90200fbff02fcfdf900fffefffffcf9,
fb0100fd00fffff6020002ff010201f9f7faf8f4f7f600fdf90003fd0101fcf5,
02ff0001000100f900fdebfdfcfbfcf3fe020502030403fcff00e9feffff00fd,
03fdf400ff0100f801fdebfffffffef90100fc0100fdfcf601fcee01000202f4,
01fefffbfdfe02fefffe02fffcfa01fd01fe00fe03f9fef901fcfdf8f9fc0102,
01fd01fd01f901fb03fe00fdfcf6fdfe0302050001f9fffefefafcfbfcf501fe,
e800fffe01010000e300ff010200fd01edffff0000ff0302eafffefd0200f9ff,
e1ff00ff01fff8ffe5fffdff0202fa00ed01000202fe0204df0001010000fc02,
fe0101ff000ffcf0fcff01fe00fdfcfdf8fe040100f9fcf5fbfcff0204f6fd02,
f9fffffe00f8fcf4fd0102fdfefbfdff0401fdfefffbfceffbff020101fbfdf4,
02fff90003010002f9f6f7f9f7f7f7000002020405050405fefcfa0300010300,
02fefe02000002ff02feff02000102000402000101010101fefafafefdfe0103,
01fe00ff01000000fefbfdf9fdfaf9f70000fffafe0003fbff02fffbfe0000fc,
fffdfff7fe0003fd00fb01fefcfbfeff050405fd02030404fbf8fcf6fbfffffc,
fefbec0202fe0202fffcea00ffff02010201f60301fd000200fcef0203fefe00,
fcfbe8fffd02fe00fffbe8fffffeff0000fceffdfdfafafbfdf8e6fdfcf9fbfc,
0001fbfafdfefefafffffffeff0000fc0000fdfe0001fffdfe00fcfefd0101fd,
fefefdfefe01fffffb0001fffd0407010000fefd00fefcfc020401fbfefefffe,
ef05050300f800fbed0002fcfdfbfffc0c00010203fc04ffdf0000fefef8fefd,
ed0102fe03fb01fde400fffe00fc01faf602010000fc0202ea02010100fe0600,
0100f300fef904030506ec00faf4ff00fe00fc02fffdfdfeff01ed01fef801ff,
0100ecfefcf5ff000001ef00fdf6feff0300f401fef9fe0001ffeefffbf5fe00,
f9fbfcf4ff00fe0002fdfcf8f8fff700fefaf8f7fc00f901fafbfcf9fcfefaff,
fffcfefaf8fdf700fcfafcf4f8fef700ff020001fcfef400fcfdfffdff01fcfe,
fbfef90100000100fdfef6000102ff020002f90200fffe00fffff500fefdfefd,
fbfdf30202030202fa01f3fb0000fd0200fffd0001fe0003fbfffbfdfcfd00fd,
fd01fefefe01fc00fd01ff0101fefbfcfd00fdff03010000fc0101fe0101fefd,
fafefcfcfcfefbf8f901fefe02fefdfafbfffe0101fffefeffff010200fbfbfc,
00fa0101fffe000001f6fffdfdfafefc01f5ff0001fdfffd01f50000fdf800ff,
00f601fffdf9fcfb02f60101fffdfefd03f6fcfe01f8fefe00f80001010100fd,
f0fefbfeffff01fdfbfcf6f7fd0200f6fdfff7fbfd0202f8fc01f6f9ffff00f7,
fbfcf5fbff0200f8fdfff7f8fe0302fa0af9fdfcfd0403f702f9f9fffe00fff9,
02ffff0cf3fcfefdfbfafcf2fcfefef5fefefcf3fcfdfdf9fefd02f4fafa00f9,
fcf9fcf1f6fcfef6fefafcf1fafe01f80500fcddfd0304fefc0cffe7f3fe01ff,
fefefc00fefcfdf800fefffefe00fcfbfa02fffb02fefbfdfdfe00fb01fffdfd,
fffdfcfbfcfcfafbfe01fffe0201fefb04010300010100fb03fefefdff0100fd,
02fdff1101020e0001f9fdf30100f8fe01fc0100fffcf9fd01fefefbfffcf5fd,
fefdfef2fef9f6fdfcfc00f401fef5fe01fdff2600feed03fefbfeea0202fe02,
00fcf8f6fdfef8fffc03ff0001f6f8fafa00020301fafdfafd01010100f6faf5,
fe05020203f8f9f7fa03fdfffef3f7f6fa00ff1201fefaf7fafffffcfffafaf8,
01020203010102f8ffff0101fe01fde0fd020401fefefcdf020404000100ffd5,
04020203030301d8000102fefdfffdd203fffef90002fdff03ff0001fefd02fb,
fcfeffef01fcf7fefdff01f5fc03fff6feff01f700fefff7040200f6fffcfef5,
fcfcfef9fdfefef8fe0100f9fefcfff700fcfbf401fb08f8fe00fffffb09fbf7,
00ff03fffcfefefdfd04ff0000fdfffe0002010301fefefffbfffc00fbfbff03,
fb00fefffdfcfdfdfcfefc01fe000101ff04fe01fbfffcfbfb000304fc000101,
020001ff00ff0502ffffff01fafe0100fffffffefe00fd0200040404ff02f702,
fb00fefffefdf802fefe0002fdfdf6000301ff01fe01f101fffc00fdfcfc03fe,
ff0100ff0001fc01f6040501ff02fffff9ffff01fefffffffa02010200fefdfe,
fa020103000200fff900ff03fd000101f7fd010002050001ff01ff02ffff0001,
02f902000003ff0101f800000000fb00fffaff0203fffd0201f900fefe01ff01,
02fe02020202fd0301faffff0202fefe00f7fdfefefffffffdff00ff0000fe01,
ff0100fafefe0106fafdfffefffffffeffff0001fbfd00fcfcfafefffd00fd00,
fefefdfdfffdfd04fe00fffc0200fbfeff0002010102fe0300ff020101fdfe01,
fe02e1ecfe01ff01fe01f1faff0001fb00fff3f6feff00fffffef6f700020202,
fcfff1f700fffefe0502f4f9fefeff00ff0000f502010201fffbe6ebfdfd0002,
34fffe010100ebf8f903fa000101f2f9f401faff01fdf0f8f2fffb000201f5f5,
f5fffafffffbf3f2f1fef6fe00fef6f7d102f9030304e7fce102fcfd00fe19ff,
00ff01030202fe00fcff010102fffc02fd00010101fb0000ff01ffff02fafd06,
fffe0000fffbfb00ffff01ff00fcfe01ff06030000f8fffffbff000002fe0100,
fcfd01fffefde7fffd00fdfffffbf9fffdfdfefdfdf8f9020201020100fbfd00,
0000ff0000fafa010000040402f9f9ff0305040302faf10101010102fefa1cff,
fe0201ffff01ddf902010000fe01fafa000200fffdfff9fb000203ff0201fcfe,
0405fefbfb00f9f9fffe03fefe01f9fb030301fdfcff160401fe0001fffcedfa,
0b0000fdfd01fffefcffffff01fdfbf8fbfefffd020202f8fa0300ff0101fef7,
fb0201ff040302fdf7fffefc00fffdf7f2ff0200000301f7fe010001ff0100fb,
fffcf8fe01fdfefbfffef100ff0000f6ffffef01fefffef1fffdedfdfe02fef7,
fffef0ffff0000f7fefdeefe00fffcf400fbe9ff030401f70100ef03030201fc,
02fe000703fcfffcfffcfefcfcf6fffdfdfdfefffaf7fffcfffe04fdfdf900fd,
fffc00fcfbf7fefb02fdfdfbf9f4fef901fd000105fbff0300ffff01f9010200,
f3010200030a0201e70103ff0002fe02e40203010402fc00e200ffff01fff800,
e1fdfefefdfcf8ffe402040001fefb03e90100fefefef201ef01ff01ff01ffff,
f9fbfffdfef8fc0bfbff0000fd04fbfbfafeffff03fdfdfc0000020701f9fbf7,
fcfdfffcfcf7f9f200fd010200f9faf3fcfc01fffff6feebfefaff0101fb07e1,
fffdff01000101fffdfeff03040201000001fe0100fe00fe01fbfb0003040303,
0402fe040501000003fcfafe0205fe02fffef7030300fefd020101010002fc00,
fff70009fbff01fd01ff03ff02fe00fc01fb01fc01fefffd01fb02fdff0000fd,
00fc01fd000102fe04fc00fd0100feff01fb01fefc0100fcfeff0000fe0000fd,
00fcf7020001ff0100fce800fefaff0100fbec0202ff0001fefdea010001fe02,
fdfae9ff00ffff0000feeb0104fdfc0002fdea02010201fffffff5000000ff00,
010100020301fffbfd02fffd0405fe03ff01fdfc0101ff000101fefe00ff01fe,
0100fefdff01fffdfefdfcfbfcfcfd0002ff01fe000001060000fcfffc000002,
0801fffe000300ffea03fcfffffafdfae4fd00fb02fd00fde902ff0100fe00fe,
eb010100fffd01feeb0202ff01fefefbd5000001fefc05fffc00fafeff0500fc,
fffd0afefcfc0400ff00effefcf6feff0100f0fffdf4fd000001edfff9f5fe00,
fffeeffffcf5fcfefffff0fffbf5fe00ff01effffcf9fe010000f700fbfafdfb,
fe08000401ffff0002f7030400ff06020104fcfd02030604fcf9fcf6fa01fd02,
fffcfefefafdf603fefd0103fafffafef9e4f9f2f8fcecfd02ff00f801ff01fe,
0102fdff040505020106050407050200fc01fa00ff010201fefff30002010100,
fe03f8fb0003fc00fefffc0202010200f200e7fcfc00010703020303ff00fdfe,
fe00ff0402fffc020401fefa00fe0a01fc00feff01020200ff0300fd00fefefd,
fa0101000204fbff0001fdfe03ff02fce90301fd04d003e6000103fc000102ff,
02fe020200ff0006fefbfdfc010100ffff0101fefefb000004f9030403fe02fd,
fcf2fd0003f8fffbfeef040103fafdfd03d4feff00f5fdf9ff040003020500fb,
020603030cff0102fffe0300fefffffd0609ff0300fe00fefcfdf6faff0202fa,
ecfbf9fb02fcfcf329fff8f7000104f607fef9f8d60502f402fe0000f604fc03,
0003f9fefefe0102fdfb02fdf7000102010302fd0afeff01fdf9fff1f9fcfef7,
fdf9ffe403f801f6fcf503d5f30100f6acfbe02204d100f5ffff0401000001ff,
f9ff0003ff01ff0303fdfd02fefefcf5f3feffecfffe0004fe00fcf9fcfef9f9,
fc02fffffbfffff8fb0101fd00fffef9fc0602fd0100fbff06fffdfdfe02ffff,
fd050b02ff0402fe060cff000303f9ff0609000101fe04ff03fbfff3fefafafc,
fcfe00f501fce9fefe0300c703fcfafe06d7f914fff9dded04fbfa0000ff00fe,
050001ff0303ef04fa00fffa0000fb000202020b03230605fc00020201fbfaf9,
f90102ff03f2fcf8fc07020503e3fbfaf803ffe500f4b3f2feff01feffff0cff,
0000fe00ff02fdfe0001010301fe0406010304fd0101ef010101010302fffed8,
fdfbfe0000fff6d4010003ff03020200ff02fff8ffe8e82c030102ff03ff05fd,
fd00000000fefefefdfffe0003e9020306fd05010800ea06fdfefc04fcf7f9f7,
fdfe02f1001b04f808fdfffbfff8fef7e8fb0300fdf416f303ff0100fe030307,
06fffeff0302000012010d0101fafffffdfefdfefbfdfe02ff0201fffffefcfc,
f7fffd02fefe0000fa00fd0402010302d202f1fcefff0600fbff0103fe0000fe,
fcfe00ff00ff02000600ff0003001302f60001fffef612fdfbfefdfdfa02f602,
fc000101fffe09ff08030101fcfe04030200fb02fa040900ff010200fd0101fe,
0501ff0100ff0000fefefd00ff010401fd01ffffff00fc00f8fffe01fbfdfdfe,
f4fdfefffffcfafff6fbfffffffe04feef00fbfffd020200ff00ff000002f802,
fefb0000000001fffeeefbfefdff0dfe02040603010200ff01fb00000000f9fe,
00f602fe02faf8fefffe0202feff01000be1f7ff00ffa702fe02fe0000fcfefd,
0f0904050200fe0103fa0400fe0000fdff0002010202fc01030300fe0200fd00,
01fffffafffefafd0103fe010100fd0109f2fccf0504f401f8fefffc0000fc00,
fe01fffe020000010101fb000703070904050a05030100ff0101f2fe02020403,
0201e306ff00fffd0104feec0403010200ff0b0505fd04070000020300fcfafd,
0001e601fd0501ff00fd02fefefbf900fefcfbfd03050d01f400fd03010103f6,
fbfff8ff0000f107d801fe020105dde40d00cb0003cd0ffd01ff1601fffd00fe,
0500fe00fff9010005fe050200010cff01ff000001030101ff01010102fefe00,
fb0104fef8f8f5fe03fdfeff00fefcffe1fcfa0303f9f604fdff0401090700fd,
fe02030101ff010100ff000200030602feff020303ffee01ff02020204fefd02,
ff00010502f9ec0003020102fff8df010002000100f722020404000100030003,
050002020801010cfcfefef9fbff02f9fdfffefefcfef50203020201fe02fcf8,
02fefdfbfe01ecfefdfdfd0101fed208f80607f9f7ff0fcbfe0001fff90100f2,
f70202f802fcf5fdfb0101feff000cfe1501fe04fffdf8fcf9ff00feff0200fa,
000704ff030100f6ed0202000305fbfe070602020301e4f705000202feff0600,
00fa0301ffff0101ff0209fcfdfd00fffb00f1fe000001070301fc03fffefef6,
02fedc00fefefef6ffffea04feff00f500fdf10002ff00f0fd0200fe03040401,
fffdfc0a11fdfdfd0304000b0afbff00fffe0006fffffffc08060900fffc0201,
0101fdfc04f60203fcfafdf6fbf1fd0203fcffdedbeefdc7ff01fdf9efff00fe,
ff00fefe0104fd01fd01010102fe0b02f9fdfefdfdfbfeffe904010404030306,
e402030102fffd04e5ff02fffff9f9ffd904030200e9000201fe00fefe0001ff,
e5f9ffff0000fe02fe05fefdfed7fc09fefafdfffef8f9f7fe00030103fd00f3,
fefb02000207fc0bfbfc01fefe0cfb2dbdfeff030308ed021c06080409ff04fe,
0107feff04ff01f7fcfbf3fafbfcfbfb00fff901fffffffe00fefd01000101ff,
ff0210000100ff04000404fffbffff0100eafd020104050501fa0102fdfaff02,
0104fffd000201030005021002020002000b0203f4fcff00fffbfff900fffffd,
fefffd0402fdff0003f801ff000102fe0007fddbfbf201d2fefc00fc03fe01fe,
0a00fdff00f5fbfffe00020000fe0002f5fef90000020102fffdea03fffc01ff,
00fdeb0200fefd02fbfde90100f9fd000500e2ff01f7fc03fa010201fe0405fd,
fefeff0903fefbff0304fb010301fffc00fdf9f7fefcfcf7fe00ffff010101fc,
fe040101010401ff000400fefa02fffcfdffd1c7f802020302fd00fdfd05fd00,
fafffffe00f9fcf206fd000001020307070002fe0108fdfaf50301fefffc00fe,
deff02ff00fdfdf8db0000ff02f70300f60203fffad407e5040200020006010c,
fd0101060200fafffefdf6fefe00fefd0405060503fe09040507f506fff80001,
0503f0fff9f5fa010100fd01f5f6fffd0401b6fff9f6d5fffffcfdfffffd06fd,
00fefef7f904f702fcf2fbf9f9010100020f050dfe00f402fbfa0008ff01fd02,
fcf8fefefafbf3fcfcfdfef2fe01fd01fdfafcf6f7fbf50000fff5fbfafffcfe,
fffff5fdfefe0002fafef1fd00ff010102010c050400ff03fc01fefe0302fe00,
0303fd03fefefefffd01f5fe00fffffff9fcf4fcfc020201fdfef9fe00ff0201,
fe04fdfd04fdfbfb0005010004fd0000fcfb0002fe0100fc0602fffeff0305fe,
fa000005060407ff0005030405ff0100ff060403fdfaf9fbf902fefe0302fa06,
fdf802fd00fe060102fa0003020002fdfc0d000401f8fe03fff50002fffdfffc,
ffeb020104000001fefd03010302030607fa090403fe0401fdf3feff00fafe04,
12fdf3f9fd00fff5e8fdfdfcf6fffff9fbfffef900030000ea00fffdfbfd01ff,
0bf6f3f4f6fdfdf4f5fefafdfcfd00fcfcfef9fcff0606fada01f1fd010701f6,
0ef600e1f8fb02f6f9f4fc3aff0100fb0cf202ce19f804ff030007d8f00bfeff,
0002fed9fe0200faf9f4ffc230fffffb00fefff3fb0103f803ecfdc108fdfefa,
fe0408fffff300fefcfc0104000300010200ffeefd02fffb00ff02fa0000fefa,
fbfe00f500fffcf9fafefd03fefffdfeff030400040400ffff0301fe00fefbfd,
fefdfcd706fbed0408fffdbf00fbf3fffd070ece050af309fc06fe1500fc0604,
00fbff1afbfae50002f8fe09fdf7e8f8fcf9fbf4fafaf3f90004fab302fdfbfa,
fc02fffefef9f8f4f900ff0302f3fbfcf900fffafe02f9fbfa03040301f9fdfd,
fb02020106f2f1f50200fef9ff09f2f9fe02030401f5f7f4000602ff00faf8f5,
fdfb02f9fd01f8fa000502fffefdfdbc0200fff9fffdf3f100fefefefdfd0bce,
fffefdfdfdfffa0206ffff010001efd3fcfbfaf9faf802d4ffff02020101fc23,
01ff01eaf9f0f2f40201000dfff6f3fffe00fee8fff8eff9fffdfff703e507f8,
fe0101f8ff06fef6000303f601f6ff05fefffffbfdf8faf10304ffe4f9f5e4f5,
fd010403ff040103fdfefe00fdfd0200fb01fc01fd0501ff01fd010003ff0303,
f8fdfdfffb00010000fff9fdfef9fdfdfafafafbfefdfffff8020602010500ff,
f5020001fdfbe4010000fe01fd020100f3fe00fffdfacdfe0600010000feeefe,
f7fcfefff9faf4fbf8fefefefe05df00ff0102fffcfef6feff0100fc00011501,
f9000000ff0103fffbff000200fefefe00fe0001fe010100fa02010405060006,
fb020101fdfffffcff010301ff03fbfdf2fbff00fd020202fa00ff0000030301,
00f8020000fef6fd01fb0000fdfd0301fff500020304fd0005fdfa00fd000000,
00f4fc020101fd0303fdfefffe03fc0502f7fcfcfdfef8fc0503070607070601,
fdfefff8020201fffe0200050403ff0106ff01f801fe00fd0205fffd00ff02fc,
040204fe04050505ff03fdf5ff01ff000102030200020201040503ff03040404,
00ffe006fe010101fc02140901ff0000000219e504010004fbfe37e90300fe01,
0602caf003040301ff00c9190000fdfefcfef0f3fdfdfdfdfcffe70a04030503,
0903fa0102fd02edb9fefcfffe07f90c2900fc00fe01d7eec709ff0b03ffd6e4,
d602fb0103ffecf8d700fc00ff0101f2e800fa000000f4f50b00fffafafaf2e3,
fff7000101f9fc01fefdff0002fafefbfe0300ff01fcf90201fefd00fcfdfa06,
fafafbfdfdf902010afa00feff01fefffefefe00fffafcfffcf8fd0001fef8ff,
0001fffffff6efff030105050000ed000102ff0300fa15ff000000ff01fd0b00,
02050506fdf5ebff01010102020015030000000101f7fafe08fffffffff9c6fe,
fdff01fcffff0afa03020002fdfd080401fd03fe0700e2fd010103030101cc06,
050406020202eefe040203000501ee0a01ff00fefdfff5fd070706010307230b,
fefe00fb000101f7fd00fffe01ff00fcfb0301f80201fcf9f30201ff090005fb,
11040502040505fe04fd02fc0002fe00fe0100ff0303fff7effefdfffefcf9f3,
fefbe300050100f101fe0600ffff03fbfcfce202040103fd01fff304ff0102fd,
fcfbdd01010201fa02030d010200fffefefbed00010100f7fcf913fcfefefdf4,
fffafefef9f5fdfc04fefcf902fc02f902fc0301fefdfffdffff01fa05fc010a,
fefafef7f9f2fcfd020003070cf903fb00fbfff9fef5fefd040205020701faf9,
ddfc00fd000301fef901ff0100fd0904f40001030006f902f40100fffffef0fd,
e60001020306f303f40001fdff030600e30303020200f900e4fffe00fe031004,
fefc000304ec000afdfeff01fdfffcf8fdf8fcff01e4fef800fdff050600fdfa,
02ff020101fd010cf8fbfffe01f8faf3fe00000103fcfef800000000ff17f9e9,
fffc050102fffe000200fb030004fffe0200f40100fefdff0301fcff01ff01fd,
fefdf1fefe000303fe010e04030101010200ff02010202010201f0ffffffffff,
fff9fcfffefe01fcfefafefc00fe02fd030cfffafd0104fbfeff0200fd030102,
fdf7fffbfa0100fe010301f9fdff00fd02fe03fe010202ff03f90001020200fd,
fcfce5000301010004fdf50000fafe0004fcf1000102fe01f9fff8030300ff00,
01fde600fbfbfafdfffff50202000104f9f3dffaf701000401feed0001ff0203,
f902fcfbff0204f60000fd03fdff00030306faf9f9ffff02010202fef9010000,
000100fdff0101040000f7fa05ff01f9000101fdf8fcfaf80101fcfbfdfffdf2,
f602fffb03ff03fb0103030201fbff02cfff02fffef806fada0101ff02fe0306,
cbf7010000fd03ff0500020100f901fdeafefffefffd01feeefbfcfafdf3fffa,
fd00e4fdf9f1fc03fe00fe0100fcfafe0001ee00fef80002fdfcff0205fe0500,
01fde9faf5f0f6f8fefcf300fefcfcff0302ecfcf7f1fafcfefdfafdfbf601f9,
fdf8fcf9fa00f1fbfdfdfefaf9fdf500fdf9fdfbf9fef300fafafcf6fbfff901,
00fbfdf8f9fff50002ff03fdfdfef5ff00feff03fc03fc01fcfcfcedf9fbf800,
fdfef200fdff00fefbfff1ff00ff0002fdfff80100fffffefe00f40000ff0000,
f9fff3fe0202020304fe040300fffefffd02f7000001ff01f600f80101000301,
fbfffeff01fffbfafb01fffd02fff8f5fc000000fe0205fbf900fefe00fefeff,
fbfffbfafffdf7fbfefffdfffdfefbfaff0303ff0000fe05fb0001ff00fefc03,
00f101fcfcfbfefcfeec0000fffc02fe01f50002fff701fd00f9fffffefafefd,
02f10000fff9fffe00ed0001fffa02fbfff10003000003fd01f200fffdfcfefc,
edfbfbf8fe0101f3fffdf5f9fafd00f0f4fdf7fc030002f8fd00f8fb040001f6,
fc00f4fafe0101eff9fbf9f901fefef6f8fbfafbff0200fae205f9f8f9fe00f7,
f8f9ffeefb0204f9fd00fae602fe00f7f8fd00eafafdfff9fefdffec05fd00f9,
f9fafef0fdfe00f50607fdd3f00201f5ff1a05d9e3fffdf906080119f0ff07fd,
fd0202030003f9fbfa01fffd0001fdf3ff0100fd0101fefafcffff0303030000,
000001fefefefcf6fd0200f801fffef808fffff9ff0101fe020002fc00fcf9fa,
00fbfee401f9edff00fc0111fdfbf0fc02fe011100fef0fffef903f302fcf9ff,
fdfeffecfffaf4ff02040217ffffe8fc00feffcf00050b04fefffe1bfffc2001,
f501fffe00ebf2f5f6ff010001f9f3f3fa0300fe00f1f2f5faff00fcfffbf6f4,
f90100fffff6f7f6f601011201fef7f6ff0002fb01ec0afa03fffdfcfff6faf7,
00ff0100fefef7dafdff000201fff6edfdfdf8fd01fffdd2ff00fd010200fad4,
010203000103fbd501fe02fcfe01020b010400000101070f00fefe0401060405,
fdfeffeefd07fff40000f9ecfc0901f0fe00fff1fbfe02f0fc00fcf8fbf8f7f4,
02fffef7faf8f8f300fdfdf601e80bf9fbfffef5fe13fdfa010001ee01ebf6f8,
fb02fe01fafcff00fa01000100ff0101fbfd01fefeff01fefe030005fefe01ff,
fdfffefe00000301fbfffdfffdf8fefcfb010600fd00fffc0001fafcfcfd0101,
fbfafdfef5fa22ff00020102f7fdf9fd00fe00fefcfe03fffd010103fe02eb01,
fcfefffffbfdf2ff07fc00fefafcd9fcfe010002fefb0efe0300fefffdfc0202,
f300030402000101f4020002fe01ff06f50002010003ff00fb0202020100ff00,
f60001fdfe00fe02f101010100fffc02ff0304ffff000000fbffff00fefefdfe,
fff70000ff02f700fff6fd010301f6fefff6fc0101fffb02fffd00010406ff02,
fff9fffe0100fa0400f4fa0000fefcff01fd01ff0200faff01f70302fe00fc01,
0207fffe02fdfcfffdfefefbfffefdff0202ff0200fcfeff050702000000fd00,
050401ff01fefeff0000ff0503fffe0401fe010200fffbfefffffefe02000003,
fffde8fc00fe05fd01ffe3fd01ff00fe0001fef701fe01ff0103eb0b04040504,
ff01ebfefd020603040208fd04010102feffcfd902ff0101fffed8e8fc000001,
0b03fa0300fef0f7e7fef9020101e9f8e501f8000200edfeec02f901020201f9,
ec00fa0000fff6f2c200fefffd00df0ad3fefcff00fe21033200020201f9e1f3,
fd02fe0002fbfafcfc00fe0101f9f900fefef9fffdf4fafe000201ff03fdf902,
01fcff00fff8fbff02090601fefa0201fcff00fffffd04fe03fcfe020107fb00,
0101fefdfef9eb0001000100fff5ecfbfefffe0000faf3f8fe00010001fcfc01,
0102010001f9f80002fe000302f9e100fc00fefefefc28fffffdfe00fffad801,
00ff01f8fa04f0fcfb0301fdfb02faf8010100fefefef2fcff0201fffdfffd02,
ff010202ff00f5fc020101fffd032107ff0000fcfeffc8fa02020400fdffc6fd,
fd03fefe020000f4080200ffff0001f6ff0201ff000001f7fafeffff0001fcf6,
fbfffafa010100f6ef01030001ff05f8ff03ff0301fffffa120000fcff0106fa,
00fddefdfffffef301fce000ff0300f5fdfae2fefffdfef90200fd0101fefdf5,
02ffec010301fff300fbdb01fe01fefa0101dd01010103fd01fef7ff000001f9,
ff0002fafff400fe02fc03f9fdf400fe0102fffb00f602fffdf9fcf906f901ff,
02fa01fdfff5040104fb02fd07fc020402fd0201ff04010002fe000001fa0002,
dc000100fefaf500d60000000004f901e5fffdff00f7f802e1fdfdfdfffbfaff,
de010000ff00f801e6fffe01fffaedffee01ff020202feffe401ff010103f501,
f503fff7ff13faf7fc000300fffafa04ff0303ff03fcfcfef9fb00ff00fcfaef,
fffc0101fffa01f407ff020702f6fbc60501010003fd0acc03ff02fe01ff0302,
02000d02010101fe02ff000103020001fdfefcfffeff0303000202010200ffff,
00fffc02ff0103010401f501030202020104fe00fe0102fffffcf5fcff020003,
000701ff04fe00fffffafffd00fffffcff0100ff020100fc000000fa01000000,
02fb00fb00fb00fefffa000301040203ffff0003fe01feff02f2010dff010103,
00fae20300ff050101fde502ffff0001fefde4fe04fc0203fdf8e7fdfefcfcfd,
00fce0030301000106ffe6040000fc0100fff30000ffff02f6feeaff01ff0401,
0101fdfbff020603ff0200fbfe02000201fe00fefd01fd0100fefdfe0100fff8,
0100fefafcfffffb000203ff01070104010401fefb010007030201ff04fdfef4,
e40203fbfffbfffcde03fefdfdfc02fbdf0000fffefbfefff1000301010001fe,
e801fffefdfb00fed00100fdfff901fdfb00fefafa0f00fe1a0001fbfd0800fb,
0401ee04fdf7ff030005e901fbf4ff020002ec01fbf3fc01feffed01faf3fb01,
0100eb01faf2fd0000fee9fffef7ff02ff03fefefef8fdff00fd0efefaf50601,
f50302ff01ff03ff02fd02fc00010100f9f9faf3f7000401fbfdfdfaf9fdf5ff,
fdf8fefcf9fcf604f7f3fdcff7fbf00302fefefd01010501fd02fd04fafbfcf5,
000001fe0000fdfb020003fdfcfbfdfcfaffe9fe00010101fb00f60000020101,
02fffb020206fc05ef00ea030000ff0301ff01feff00010203fc000002fdfbfd,
ffff010301030102f9faff03fd06fe00fbfefffbfdfff8fcfb02fefdfefdfbf9,
fb00fb04040009fee7fdfbedfed2f4e904fffefeff07020000000101fbfafe03,
fff8010001fe0000fdf9faf9f7f7f6fbfcf1fdfe00fffdfafff4020300fe05fe,
fee7ff0006f800f9040803020100faf9fc05fffdffff00fb00fffffffdfb0206,
fe04ff01fe000102090303fdfafcfffd0e00f7fc00fe00f50dfdf5f8fd0001f6,
22fef7fa050600f72ff9eef3cdfdffef01000101fb03fcfbff02f9fd02fffdfc,
03f803010a010106fe09fcfd03040000fcee01d5f9fc02fb04f6fce4fafe02f8,
fef301d9f6fc00f8a9fde01002cc03f6010109fffffd01ff0002f9fe01020002,
fdff00f5fefefcf8f3fefde60000ff06010101fbfefef8fdfeff01f903fffdf9,
fa0201f1fb02fdfd0301fbfefc05feecfd00ff02fffe04fdf0fefd06feff0705,
040cfdff01fbfc06010406020204fefefffffff300faf2fa00fcfee401faeffe,
f90103c903fcf1fc00d1ef1c01020604f9f2f7fffef802fd03070c00030b0102,
00fefffdfb0104fcf1fafdf8fc1e04020200ff0001f1f6f9f60100fdfffcf6f5,
fe00fb0305d4def9f600fedc000842f4f401fd01fdfa05fe0902fffe0006ff03,
0202000100040c05f6f7f7e6fcfdf900ff04fffe020102dafefefefdfffdfbeb,
04fefd02fdfdff140103040604de14fb0101010002fc00fe0000ff02020601fe,
f9fefe0107e10701080006fafcf7eaf905010034fbe8f1f8000101f101f7f6f3,
0900fdedfbfbf2f5f800ff00fe010df504fefd00fe00ff00f9fafc000100fcfe,
0d0210001303fbfb0202f8fcf8fffb00fe0002fe03fefe03f600fd00fe010303,
fe01fb00fdfe0100c906f8080af90602ff01fd0605f9ffff02010402fb00fdfb,
05000000010011fff101020202fe0d02fc0000fffe04d800faff0100fdfce5fd,
0106fe03f70103f9ccfe01fffd041300fc01fbfefafaff0000fe00fdfefc01ff,
04020101ff01fffd000000faf7f9f8f5f9000000fdfefefff9ffffffff00ff02,
f201fffefb060f02f4fafb03fd02f4fe020104fdfcfdfbf80600ff00fd0103fe,
fd04fb000100f002030405ff000001fcfffefffffefff90105fc05030405f700,
03f3f505fcfe00fd01eaf501ffff9809050b000102fefdff04fd030500020403,
fcf704fdfefdfcfc05feffeefefcf70500fe00fb010001ffff00fffa0000fdff,
fd0301f2faff02fee2f4f3060806ee02f601ff0004040a06060500030303fc06,
fffffdfcfdfdfc00060a0601030302000001e0ef00feffff0102ebff01010101,
f8fe02e2fffefa0002000e2307ff02fffeff000101fc01fffdfffffffc020101,
0001fcfd01fdfe05feff1b0001010a18ff01fe03fffb21ee08fefd0100fffbee,
dffef6fdfffed2d71a02f40100c61af90000080102fcff0000fffafe03030001,
f6fc050201001d00f0f2f4f7fe01fbfdfefafeff01fefbff00ffff00fffdff02,
0300fc00faf7fa05e6f4040302fdecfffa0304020303fffd0500fe00fff400f9,
fdfcf9f900fd02fefcfdfcf7f7f8f2f6ff01fdfdfef8e7ff0001ff0001f8fb00,
fbff020101f6dcff0001fe0303f11004fffdff000002fffd0101010100070002,
f8fbfbfaf8fc01fc0101fefaf4f9f6080000fefefd0301feff01fffc00000af8,
fe0100fe0101d905f80903f3f4010b80fe0301040cfdfffb06fefffe04060005,
ff00030805fefefc0c0001fc0102fe00f3fd00fbfafdfef6fe0000fb0001fef4,
e803fcf802fefef8e80301f10403e8f307030204ffff0304f90503ec03020001,
01fd0a00ff00ff0000fe040204030108040101fe0100fefafffce200030803f7,
0701e701020002ec00fb0a0001ff00f30003010301030305fef70003fe000100,
fbf4f9ff0100fefc0402021607050303fdfc000101fc00fe030002fdf9f8fcfc,
fffd01f6fcef010202fb0007bdfeffb205070408fe0bfdfdfd06040603f900f9,
ff00fefcfefcf1f40100fdfe0003fb05e501010200fd03fee100010404030101,
e200ff0002fdf901d204040401efe40300fbfffdfefe0001030000000005fafd,
00000102fdee0006eff7fdfdfe0106fafcfa00fd02eef6e8fbfe0000fff8fef8,
eef6ffef0316f731f108fef902f9ff0018040301fffd01fef8fd00fcff02fd02,
01030500fffefcfd01fdf4fe0001000000fdf5fbfffffd00fffffbfefefefd01,
04000dff0100010003ee040405030303010a060605050706fefafefffefcfdff,
00f4fe00f304fffc041007080e07050300f701f90200fffdfcf90001ff0104fd,
fffaff00f80006fa02fc01c306eefeef04ff0401fa000012fefbfc0004fffefc,
00fdfbfdfefffcfffffaff0305060707f8fae3fcfd000102fef9e901fefefe01,
effeee0000f70101fffbe20001fefe01f6fb04fffafbfd050b04fdfbfdf9f5fd,
0508140f060600fbfbfa06e9fbfef60407070308080708f8020101fcfeff01fd,
0300f9fc0200fefd0205e0f602fc0305000000fdfd02fffeff0001070a030306,
fdf9faf7f91004fa0300fffffdf0fcf9050101fefdf70406e6fcfff9fdfafefd,
e5fffefafdef01fce40402f9fa07fe0afffbfafb05000006fe0002fc0400fdfe,
f3f7fff3fffb09f9fefe0600fcfe04000201f4fffdf9fcff01feecfff8f7fbfc,
0202f406ffef060002fc8efcf8e7d7ff01fe00fcfcfe02f7fe01fefefefbfaf9,
f8f5f2fafcfbfffd05110711e9fdf4fef2f7fd050101030000010101fdfffb02,
fcfcfbfd01ff04fffafbfff9f9fdf501fd01fbf4eefff9fafefef9fcfa01f701,
fafaf0010402fffbf9ff1d1e0500ee00fb0001ff020103fc02fff901fa040300,
f900fafffff80103ff04fb040802f8fefcfc01ff0202fe03fef7f001fefe0302,
020300f502fff600020001fffff201fdfeff01fb01fe0207fe0305f8fb00f8fd,
01010106fa08f9fafbf8030101faf50300060404fffffffff007f403fcfdf7f6,
01000301010502f902fd0102fff4000602f5fffdfffeff0004f41005f9f6ffff,
fffbfff906ff0005f7fb0304fffcfd0201f4fe0102fcfffffef0fefc01f6fb01,
e1fefdfdfa010103e403fdf4060001f8de05fffcfb0001feccf8f7f800ff02f6,
f6ffeb0006f70601f6fef6fafc03f4f1e302f4f80301fcf60bfdf5fbfa03fff3,
02dff74ee5fc04f909f303d21f0701fe020d03cad80b00fd02f303e806fffffd,
f1ebfbb2390705fff6f9fcece90107f4fef1f6ccf2fa01fc17eefdebeffd05f7,
01fb03fe0205fff902fd00e901fdfff7000202f601fdfafd0403f90cfe01faf8,
03fe011200faf5fafe05fffb01fafef8fdfffaf10afcf7f7fa01fff80001fafc,
020603affff4e303000208bdff07db00010b000afff1fc0201fffdd502fad3ef,
fefcfdfb04fbcdfe01fa06f7fa01fb000301f9bcfef6d2ff00ff01bc05f7e501,
f7fef7f4fffdeffbf7ff05f901fdeefe0304010b0407ed01edff03f702fcdcfa,
0df804f90114df02f701020300f7effd03fe000b01fde6f6f8fe00fdfbe7eff2,
01ff0bfffc01ffbc0007fffcfefff5f3fef9fd03feff02defc02000101f5f8d4,
000103010102e3dbfd081a06fcf70cc900f901040001f616fe0102ed0104fc22,
fcfcfffffaeef60df50402e306f3f7f8fc01faee06ec07f8ff0002ed0314fef9,
0202fff6feebf4020afa07f800fefbe50802fedafdfbebfbfafdfad0fbe4eaf5,
f802fb0000fdfffbfa0004f901040201fbfffd01fd0103fbf303fafefbfdfefe,
0503f806fdfb04020202fcf7fe000000fbff0503faff02ffff050a01fe0300fc,
0500fd02fbf3f600f6fcfe04fffdd4000a010106fffae6fdfc02fd02fdff0301,
040200fd0006dc01f6ff0401fff50c05020101fffc011400ee020202fbf8cdff,
fafefd04f90501fbfdfefdfeffff04fefa02ff00fd03fefbf7fcfe03fe00fe00,
0001010200ff0402f5020102fe01ff03f6fe02fdfffe0000f800fefefef90300,
01fdfc00fbfe01fefef50bf70100f703fffcfafffbfc070001fbfd01ff01fc03,
fffeffff0100090300f8030003fefeff02edfbfdfefa08fffffa0300ff00f5fb,
02fa00f9feff0000010a04f2fbfe0a0b0202fc03fffe0001010203edfef9f902,
fdff01edfdff01ff0003ff15fffcfc010009fefc0201fdfe020002e802010003,
0005211100ff020000ff24cdfe05fc00fa0044d9fef9fbff03fde70901ff00f5,
fd00cf18010201fe010302e407fffffbfdfee211fcff01000100d1ff02040003,
ac0000f7080712fb4006020405fbd3f1bb0404fefefbd1d4f3fffffdff02ea14,
b501f5000004e7e6d3fff801f909ee001501fd010302f2e10b03f600fdf705ea,
fefcfc00fffa0903fbfd0103fffd060807f701fe00fdfa00fd07fd0102fef703,
0bfcfe01fe09faff01f2fd0400ff0802030002fe06fc0100fa02fc04fffaf801,
0002010000faee04fe05070504fb0afefb0101fd09001602fdfbfefbf7f5ecfa,
ff000001000212ffff0202ff04f7f4ff040402ff04f4c502fe01fc0203f6dcfe,
fffffd02020016ff01fef7fa0601dd0203030202fdfdcb110406fd00fdfed2fb,
020001fe0001ea0101000401fd0002feff0200fcfffd140aff0300f903fefbfc,
efff0000fe01f9fbeafafcff06ff09fdf400fe08fffcf3fa02ff05fffcfefff5,
f801ff00fffd01fffcfe00f9fe02fbf5f603fffff403fef8fb0102f8030201f8,
fefb0b02fe0300fffff9cefefffe03f602f8ed010400010100f9ce080204fbf9,
01fd06fefcfcfd0000fce300ff0103fa0cf82d020001fdfbfc02e504fbf9fef3,
fdfefbf808fe04fe00ff0406fffc00fe000000fc0303fa0ff901fbf5fafbfcfc,
0001fd0301f8020400fbfff4fff7fe0302fd050408f801fcfef7fe0af3fbfff8,
e9fefffd00ff05fcf40303fdfc02fd01f80003fd01ffee00e7ffff0204020601,
01ff010000020afddf0000fffffaf6ffe8fdfc03fef9fcfdde00fe00fc1e0ef6,
001303faecfbfbf6f2ff0003fee6fff80807040204fefdf9fd07000200fcf724,
f9f8ffffff01f9ecf7fafef7fffcfdebfdfe0301002df7dbfafafe01fed9fe15,
fb03f2f8010110020103f400fefa0800fbf2ec0202000602f4f81103fe050005,
000704fdfefefe0100fcf6fc00fe03fe02f7e20100f902fdfbfd07fe01010402,
00fefefe030207f8040503fdf503000502f60109fcfffd01070cfa0b02f801fb,
fbfc00fcfafffefcfffc0df6fe08fbf8fee5fffef9fffefe02f9fe05ff0404fa,
0502f00102fd040109ffeefdfe010201fcfef6fcfe05fffe06fbf400f8fe0807,
f8fefd00fef9fdfd01f8e40303fcfeff02f9eb0501f6f702fc00e302fffd0401,
fe02f9fcffff02fc00faecf4fb0003fe00060002fd05fffffafffe170401fff2,
ffffedf702fefef7f7ff02fffb050301fefefd030c0300f202fffbf203ff00f3,
e7fefefe060504fecc0702fffffa0107d0fe02fd04f2ff01e30504fd0201ffff,
2901fffffd010001ebf7ff0101fd0101f0fe01fd01eefd010f0304fc03fe01f9,
04020a0200fa02fefbfff302fef80e030102fd0107fcfdfc02f3f703f9fbfffa,
00fd01fffdfcfe010204fafafbf3eb010001fefffcf9fefe00ffec01f7ea0703,
0202fdf6fb00f80403fd0103fdfff900fdfcfefbfb01f901020004f7fd00f800,
00fffcfcfafef900fefb000afffffafff9fefdeafb00f9ff01f9fcf6f7fff5ff,
fefff8ff0100fefeff05070500020001fa00f200020200fffefefefeff010202,
01ff07fd000203fafafdfcfe06000103f9ffedff02030205fb00ed01030201ff,
f800ff0002fffcf600fe000200fc0301f900fbfcfffbfdfbfdfffefe00fa02f9,
00ff01fefd01ff06fe05fefe02f7fa0bf701fc01ff0a00fdfc02fdfe02fa01fc,
fdecfefdfafaff00fcf9fffcfdfbfefe04f2fdfefcf6fdfe00ecffff01030002,
fdedfd0101fd06fcffe9ff00fefbfcf903ee030201fbfef901f3050103fe01ff,
ecfef5f9fdfffef3dc00fcfcfd01fff6f4fdf4f7000103f70bfcfcfbf80100f8,
06fdf8fb01fefdf6edf6fbfcfb0001fcc903fbfbfdfd01fcdafcfbf8fe01fef0,
fcfafcd509fb01f5f7fefbe6f1fdfffef7f6fbe506fb00f7fb04fec8f2fcfffa,
060efec9ea0404fa042606d5e90100fdfefffd1010fd01fbf7f800f2eefdfefa,
f8010103fffdfbf60002fefcfffcf9fafbfffffc0000fdfaf8fefef100fdfbf9,
fefe03f3fe01fefafe01fff20201ff01000300ff02fffffffa00ff0502fff8f6,
01fd021b0502e507fefd01110201eb03fefcfde8fffde7fc0300fd17fff7dfff,
0107050bfe04e0ff0502fdaf01060700fdf7fc15fffd58fe00fbfcdd01fde2fb,
f20102ff00f0f9f3f6fffefa00eceffafa0002000301ecf7f6fefdfeffe0fdfb,
f8ff010900fdf6f8fdffffff00ea11fcffff00f3feee2df8f400fe0401e1e1f4,
010102fefdfeebf1020103ff01fc05c20200010000fef5db0302020200ff020d,
000203fd0104080c020402000002081e0200fcfdfe00f908ff000301fffef1ce,
fd02ffd5f80dfbf600fefcf205fa03fcfcfbfcfbfcf8fdf708060307060bf7fb,
0700fff302e114fdf70102f8051c0ef9040003f6fcf1f6f6fb0001e6fdfa0af6,
ff060b04ffff0203f9fffdfffdfd00fffc00fcfff8fefffdf6010900fe050505,
0102fd0203ff02ff0100fffefff9fd000100fb0000fdff00f301ff04fafe0201,
fa010301fa05ee05f9ffff01fdfa1800fc010101fd02e701fefe00fffd00f2ff,
05feff04fcf9dc02fffafefffcff17fc0302fe01fdfefc00ffff0202fbff31fe,
fc03020200030203f6ffffffff0000fef7000000fe010101f8fdfefd0002ff02,
f101fc02fd02fe01ff0002fafb03fd01fafc0000fdff0200f900fffffafe01ff,
00f9ff0000fffd0301f9ff00fdfefffd02fb010301fff802fef2fd01ff00fefd,
02f3fc03fd00fefbfffaff030002f501fefbfc0000fe000101fcfc0300fe0001,
010201f8ffffff01fffffd0afffefe00010101fd0203fe01020101000000fcfd,
fffe0307fd0002fd03fa0404fd00fcfefe02fff902ffff00fe01020a0103fc01,
0000d112010100020200fbe7fe0000fe0101e60afffd0202fffecbdd00020101,
0101f7f2020200ff0001c8bd00030300ffffdbea00010102fcffe607020000fd,
e40207030300e3fac2fff5fe0002e508e402f4fe00fffcf9d102050001fddaf1,
ce000ef90005d602ba00fd01010018081c02040200ffcaf40d00fd0201fee800,
f80802fefff6f8fffcfcfbfdfdf8fffffffcfdfe01fcfd03fe00ff0402fafc02,
0304020001fcfd00ffff040104fd0905fcfdfeff0101f100fb0001ff05fcfb00,
feff000000f8ddfffe00ffff00fde4fe0001000001f800010404040404ffdcff,
0201000200fad8000000fffffefd1f00feff00fefffed2ff0001fe0001f8e504,
fdfffefefdfffffa02fefd00fdfdfff70301fffdfe00f7fc00fdfdfd0203e201,
fffe0201fefd2908fe0101fffbfbc700040001fdfd00db0102ff00fbfd00f3fb,
210000fe020201f4fafc02ffff01fcf8fa00fef801fff9f50efcfe05030201fc,
f600fffc000108f9fd0101fcfdfefff90c000000000205fc08fffffdfdfff8f5,
ffface0100fffff7fefee000fbfcfbfa00fcf200000001f3fffdd4fcfefffdfb,
02fed0fdfffefffb00ffe10102fdfbf800ff090100ff02f70000cb01fd0106f9,
feff00fbf9f5fdfcfcfbfdf3faf7fd0002ff020103f3fffc05f9fff5fbfcfe00,
02fb01f902fcfe0900fbf9f80cfd010601fc00f9fff80000fe0301f9fdf50300,
de0000000001f600ebfcfe00fdfff800dffefcfe02050402ecfffffefdfdf202,
e90100ff0002f002f403ff030402fafcec0200fefe02f8fde40200ff01fcfe00,
fcfefefefff40106020600ff01fdf701fbfeff0103fefaf00903000102fa0806,
09fb0002fa0106b70ffe03ff01f80fce00fc0001fffcf8edff07fffefe1bfde1,
fffcfdfffffefffe00fcfcfefcfe02010000ff0100fefffffef9e2fcfcfcfc02,
01fff0fdfdffff00fe08030201fe0002ff01f9fefd010101fcfe06ff02ffffff,
fef5fffb03fcff0100f801010601000302fd00fc010101fcfbf4fcfbf8fcfcfc,
02f3fffffb030206fd02fffbfb01fdff0105fe0302fcfd05000201fe08fd01fe,
fef9e20001010001fefeeffe01fe05ff03fee8020000fffffafee5ff00fffffe,
fafce90100fffd0000fff5030003fc00fefee8010200010003fae50000fe01fe,
01050300fc0101fe020304fbfbfffefbfcfdfefeff00fdfa02000afdf9fffffe,
fe000406fc0203fcf902f4fff6fe020c01fdf2faf900fff6f80403fcfa00fc02,
d1ff02fbfaf901f7da05030202000206fe000200fff401fad30001fdfefb0003,
c7fffffffcf801fbf70500010211020115fffe03fafafff6e700fefe00f802fd,
ff02e704fbf1fa0405fff002fcfb00000101e800faf3fa000205e9fefaf7f8fe,
01fef0fffdf701feff01f6fc00f8fafe01fd04fdfbfcfafe0105e7fff8f6f905,
000000000000000003fefdf7fbfefc02fe01fb00f9fcf601fffffff7fafef504,
0000000000000000000000000000000000000000000000000000000000000000,
0000000000000000fdf7f601f50303f80201fafefdff02ff01fcf9fdfe000000,
0000000000000000000000000000000000000000000000000000000000000000,
00000000000000000300fe02fe05f500f902fc0100fefef8fafafe00fd0000fb,
0000000000000000000000000000000000000000000000000000000000000000,
0000000000000000fff6fe00000100fdfff20000fff7fefe01f20000fef702fd,
0000000000000000000000000000000000000000000000000000000000000000,
0000000000000000fcf4f6fbfd0300f50900f8fbfa0002f108faf2f6feff01f3,
0000000000000000000000000000000000000000000000000000000000000000,
000000000000000000e205d2e5fffcf814f202e5f9fdfffaf8faf9e207fd01f8,
0000000000000000000000000000000000000000000000000000000000000000,
00000000000000000103f9ff0303fdfe020005fb0305fdf7fdfefefbfffefbf9,
0000000000000000000000000000000000000000000000000000000000000000,
0000000000000000fffd02e000fbdbf400fe00ce01f8e60202faffe9fff8e3fd,
0000000000000000000000000000000000000000000000000000000000000000,
000000000000000004ff01f702f0dcfaf8fefffdfffbe2f8fdfd0000fffbecf2,
0000000000000000000000000000000000000000000000000000000000000000,
0000000000000000ff010102fe0306d9040500fe0202fcf0000102010302f1ea,
0000000000000000000000000000000000000000000000000000000000000000,
00000000000000000f02fd55f9dae6f9010100dc02f0f1f30000fffdfbf3f9f3,
0000000000000000000000000000000000000000000000000000000000000000,
0000000000000000fd01fffdfc03ff00f8020802fa030000fb03fefefbfd00fe,
0000000000000000000000000000000000000000000000000000000000000000,
0000000000000000fbff0301fc00d201fbff0001fdfed8020100fffcfa03ea01,
0000000000000000000000000000000000000000000000000000000000000000,
0000000000000000f90201010001ff01fc020000feff0000f6000601fbfcfc03,
0000000000000000000000000000000000000000000000000000000000000000,
0000000000000000060002fd01fffd0000f602ff0000f60101fb01020403f700,
0000000000000000000000000000000000000000000000000000000000000000,
000000000000000000fbfff203000103000001f202fefd020400000201fffe01,
0000000000000000000000000000000000000000000000000000000000000000,
00000000000000000106ddc500010000ffffd8ef00fffeff0003e0ff00fdff01,
0000000000000000000000000000000000000000000000000000000000000000,
00000000000000000cff050101fd2deb1802fafff9ff04f7dd01f900030402ef,
0000000000000000000000000000000000000000000000000000000000000000,
0000000000000000020100030510fe01fd00030102fb0102fdff01fe01fc00ff,
0000000000000000000000000000000000000000000000000000000000000000,
0000000000000000ff01030102facd00000102fa00f8f1040501000202fafc01,
0000000000000000000000000000000000000000000000000000000000000000,
0000000000000000fcff0004f802f2fcff01fffd02000bfe000201000504fafe,
0000000000000000000000000000000000000000000000000000000000000000,
0000000000000000ec01000103ff07fafe0200fb03fefdfbfc000201fcfe02f8,
0000000000000000000000000000000000000000000000000000000000000000,
00000000000000000100ee01fd0000f905fad8fe0001fef6fefef4fd0203fcf0,
0000000000000000000000000000000000000000000000000000000000000000,
000000000000000007fe0001fbfefdfd00fd05fdf9fefffc00f201fefdf70001,
0000000000000000000000000000000000000000000000000000000000000000,
0000000000000000e501010001f90003e30203ff01070501e30301020401f203,
0000000000000000000000000000000000000000000000000000000000000000,
000000000000000000f7fffefff1f8f0fafdfffdffebfff000faf5fefe00fcee,
0000000000000000000000000000000000000000000000000000000000000000,
0000000000000000f801ec000101010001fdf9ff04ffff01010102020201fe02,
0000000000000000000000000000000000000000000000000000000000000000,
000000000000000004ef010806050100fef9fe03fcfcfff8fdf900fc0102fe00,
0000000000000000000000000000000000000000000000000000000000000000,
0000000000000000f900e5ff00fd01fe01fde305feffff0000fbe10100fdfe01,
0000000000000000000000000000000000000000000000000000000000000000,
0000000000000000ff01fffb030101fafffcfef60003fe0101fefdf700ff0201,
0000000000000000000000000000000000000000000000000000000000000000,
00000000000000000203fc0004f3020ef50001fefdff00f6f1fffefdfef602fa,
0000000000000000000000000000000000000000000000000000000000000000,
0000000000000000fefef8ff00f801fa0201f2fdfaf6fe03ff01e8fffff3fa01,
0000000000000000000000000000000000000000000000000000000000000000;
