fffffe96
0000029a
00000070
000001de
00000163
000000f7
0000010f
0000007d
fffffeff
ffffffa6
ffffff60
ffffffda
ffffffa4
000000c3
0000004a
0000007c
000000ae
0000009d
ffffff8c
ffffff89
00000016
00000070
ffffffe9
000000bd
00000022
00000005
000000c5
ffffff51
00000006
ffffff52
000000e1
ffffffab
000002d0
ffffff4b
fffffe40
00000106
000001fd
000002e1
00000058
fffffaf6
0000025a
ffffff94
fffffeb9
000003a0
000005f2
000001e2
00000071
000005c1
0000007b
000000f7
ffffff86
ffffff7c
000002e6
ffffffee
ffffff73
0000017f
00000068
000008e9
00000159
ffffffd6
00000e9a
0000010a
000001da
ffffffb7
000002f6
000002ed
000003cd
ffffff90
fffffde7
ffffffe0
ffffff95
00000081
0000095e
0000016b
ffffffd6
ffffff74
00000032
ffffffa6
ffffff25
ffffffba
000002f6
0000056d
00000232
000000a6
000004f3
ffffffd7
ffffffa2
00000160
ffffffba
ffffff0d
00000078
0000014f
ffffffc4
ffffff1d
ffffff63
00000218
00000004
00000554
0000003b
00000184
ffffff80
ffffff80
ffffffbc
ffffffb8
ffffffa8
00000014
ffffff8a
000000a0
ffffff63
ffffffef
ffffffa7
000002a1
ffffff69
00000397
fffffff4
ffffffb7
ffffffd5
ffffffa2
00000134
ffffff54
ffffffe1
0000006d
ffffff33
ffffff20
0000004d
ffffffac
00000039
fffffff4
ffffffa6
ffffff8e
ffffffd1
fffffeca
00000667
fffff9cd
ffffffca
ffffffeb
0000033d
0000034a
000000df
ffffff36
ffffffb2
000000e7
ffffffca
00000f74
fffffef4
0000000f
00000137
ffffff00
ffffffd0
00000026
0000007e
0000004a
ffffffce
fffff8aa
00000219
ffffff75
ffffffb9
fffffff0
ffffffc5
ffffffd3
00000402
000003bc
ffffffdc
0000018d
00000144
ffffff70
fffffec9
0000001f
000002af
00000060
ffffff49
ffffff9c
000001d6
ffffff92
ffffff75
000002e1
0000030d
ffffffd5
ffffffcf
ffffff55
ffffffe1
00000c09
0000006f
ffffffea
fffffd75
fffffffe
00000216
00000381
0000010c
ffffff80
00000110
ffffff26
ffffffb5
0000028d
fffffedd
ffffffca
ffffff7d
ffffff43
ffffff11
000008c4
fffff7dd
0000006c
0000041b
ffffff72
00000094
ffffff98
0000013c
00000056
ffffff79
ffffffb5
ffffffa7
ffffff71
ffffffad
00000190
00000126
ffffff4d
0000000e
ffffffb0
ffffffd6
ffffffb5
00000486
ffffffdc
00000296
ffffffb3
ffffffa6
00000036
00000031
ffffffde
ffffffe4
000003ba
0000015f
0000015e
00000012
ffffffc0
ffffff94
00000058
0000014b
ffffff5e
ffffff80
ffffffd3
00000111
ffffff79
00000051
ffffffcc
0000008f
ffffff1e
ffffff8a
00000535
00000024
000000c6
00000363
0000019b
ffffff91
000003f5
ffffff52
ffffff42
