00000b76
00000b73
00000b70
00000b93
0000058e
00000b09
00000b33
00000b36
00000b2e
00000b3b
00000b08
00000b26
00000b03
00000b31
00000b1c
00000b14
00000b0f
00000b1e
00000b1b
00000b4d
00000b42
00000b0c
00000aea
00000af7
00000b07
00000b6f
00000b86
00000b94
00000b7f
00000635
00000ad5
00000ad5
00000b1c
00000b17
00000b1a
00000ad6
00000b0c
00000ad3
00000b39
00000aff
00000adc
00000af4
00000ada
00000acd
00000b1b
00000b14
00000aec
00000ac2
00000acd
00000af0
00000b72
00000b69
00000b71
00000b7d
00000615
00000abd
00000ae6
00000b19
00000afe
00000b05
00000acb
00000af0
00000adb
00000b5f
00000b08
00000ac3
00000b0b
00000acd
00000ace
00000b22
00000b1e
00000aea
00000ab7
00000aba
00000ade
