fffffffa
fffffffd
fffffffc
fffffffc
fffffff7
fffffffb
ffffffff
fffffff8
fffffffc
00000005
00000008
fffffffb
fffffffa
fffffff2
fffffffe
00000008
00000009
0000000a
fffffff8
0000000d
ffffffef
fffffffb
00000006
ffffffe3
fffffffa
fffffff5
00000006
00000005
fffffffa
ffffffff
fffffff7
00000010
00000004
ffffffff
fffffffa
fffffff5
ffffffff
00000002
fffffffe
00000005
0000000c
fffffff3
0000000e
00000002
00000002
00000003
00000006
fffffffa
ffffffff
fffffff1
00000001
fffffffd
00000015
ffffffe9
00000014
ffffffed
00000004
fffffffc
fffffff6
ffffffff
00000005
00000006
fffffff0
00000003
fffffffa
0000000a
00000006
fffffff6
0000002d
00000001
fffffffd
fffffff9
00000004
00000003
fffffffc
00000007
00000009
fffffff6
fffffffa
fffffff2
ffffffff
00000007
00000001
fffffffc
00000013
fffffff9
00000002
00000008
fffffff6
00000005
00000001
00000002
0000000c
fffffffb
0000000c
fffffffa
fffffffa
00000007
fffffffe
fffffff9
00000003
fffffff9
fffffff9
00000001
00000000
00000011
fffffff3
fffffffe
ffffffe9
00000006
fffffff1
fffffffa
fffffffd
00000008
ffffffe8
00000007
fffffff7
fffffffc
00000001
00000013
fffffffb
ffffffed
00000007
ffffffff
ffffffff
ffffffff
00000009
0000000c
00000009
fffffff0
00000000
fffffffd
fffffffa
00000005
00000002
0000000b
ffffffdd
ffffffff
00000005
00000001
fffffffb
fffffff7
ffffffff
ffffffc2
00000004
fffffff6
00000002
fffffff7
fffffff8
00000006
00000005
0000000b
00000016
ffffffff
fffffff8
ffffffea
fffffff1
00000011
ffffffd3
00000004
ffffffff
00000006
00000009
0000000d
fffffff5
00000003
0000000a
fffffffb
fffffff9
00000003
0000000b
fffffffa
00000003
0000000b
fffffffe
fffffff3
00000000
00000002
ffffffea
fffffff2
fffffffc
00000014
00000006
0000000d
00000004
00000001
fffffff2
fffffff6
00000000
fffffffc
0000000c
fffffffd
fffffffa
ffffffef
ffffffff
fffffff4
0000000b
00000002
00000001
fffffffe
fffffff2
fffffffe
fffffff7
fffffff9
00000004
fffffffe
fffffff9
fffffff5
fffffffc
0000001d
00000003
00000006
fffffff4
00000002
0000000f
0000000d
fffffffe
00000003
00000001
00000004
00000002
fffffff8
00000029
00000004
ffffffeb
00000009
fffffff4
fffffffc
fffffffa
00000000
00000006
fffffff7
00000006
fffffffe
00000005
00000001
fffffffe
00000006
00000008
fffffffa
fffffffd
00000016
00000007
00000004
00000005
0000001e
fffffffc
fffffffc
fffffffd
ffffffff
fffffffb
fffffffd
00000003
fffffff8
fffffff8
ffffffff
fffffff8
ffffffec
fffffffe
fffffff6
00000008
00000000
00000005
fffffffc
00000002
fffffffd
00000000
00000003
fffffffd
00000003
00000001
00000005
00000003
00000003
ffffffef
fffffffd
0000000f
00000022
00000005
ffffffff
0000000c
ffffffff
fffffff4
fffffff8
fffffff6
00000002
00000002
ffffffe3
00000008
00000012
fffffff4
ffffffff
fffffffb
00000003
fffffffd
00000001
fffffff7
fffffffb
fffffff8
ffffffff
fffffff9
00000008
0000000a
00000003
fffffffe
00000004
00000002
fffffff8
00000002
fffffffc
00000002
00000010
fffffff3
00000006
0000000a
00000006
fffffffa
00000002
00000003
ffffffe6
fffffff6
00000010
fffffffa
ffffffea
00000005
00000006
fffffffc
00000005
fffffff3
ffffffe1
0000000d
fffffffc
fffffff7
00000009
fffffffb
fffffff2
00000000
fffffffd
fffffff4
fffffff1
fffffff9
fffffffb
ffffffff
00000000
fffffffd
ffffffe4
00000000
00000003
fffffffe
00000008
fffffff9
00000007
fffffffa
fffffffe
00000015
ffffffff
fffffff0
00000002
00000003
fffffff9
ffffffff
fffffffe
fffffffa
fffffffe
fffffffa
00000006
fffffffe
fffffff4
fffffffe
00000007
00000006
fffffffd
fffffff9
0000000a
fffffffc
fffffff5
fffffffe
00000007
00000009
fffffff1
00000014
fffffff8
fffffffa
ffffffff
00000008
fffffffe
00000000
00000008
00000006
00000002
00000003
fffffff9
00000006
ffffffe6
00000004
0000000b
fffffff0
00000001
fffffffa
fffffff6
fffffffe
00000001
00000023
00000009
00000008
fffffffe
fffffffd
00000010
00000006
00000001
fffffffc
00000004
00000005
0000000a
fffffff4
fffffff0
00000021
00000016
00000009
fffffffe
fffffff0
fffffffd
fffffff6
00000007
fffffff5
ffffffff
ffffffff
fffffff9
ffffffea
0000000d
fffffffc
fffffffc
00000000
00000009
00000012
fffffffc
ffffffff
ffffffe7
0000000d
0000000a
00000002
00000002
00000005
fffffff7
fffffff9
ffffffd9
00000003
ffffffee
ffffffee
00000001
ffffffff
00000010
00000002
fffffff2
00000004
ffffffe9
00000002
ffffffed
fffffffc
00000002
00000007
00000006
00000000
00000006
00000008
00000009
00000002
00000005
00000007
fffffff4
00000008
00000011
ffffffff
00000002
00000002
ffffffef
00000020
ffffffff
00000004
00000000
fffffffe
00000002
fffffff9
fffffffd
00000003
00000006
fffffff6
00000004
fffffffc
00000000
00000007
00000008
00000003
fffffff6
fffffffd
00000000
00000002
fffffffb
fffffffc
0000000a
0000000f
fffffffe
fffffff7
0000000a
0000000c
fffffffe
00000001
00000003
fffffff5
fffffffc
fffffffd
00000013
00000009
fffffffb
fffffffd
00000005
fffffff2
00000002
fffffffe
fffffffe
0000000b
ffffffe1
fffffffd
fffffff7
00000002
0000000c
fffffff9
fffffff5
00000005
fffffffb
00000003
fffffffc
fffffff5
fffffffb
fffffff6
fffffffe
00000002
ffffffe9
fffffff0
fffffff6
0000000a
00000006
00000003
fffffffe
00000003
fffffff7
fffffffc
fffffffe
fffffffb
00000007
fffffff8
00000002
0000000e
00000000
fffffff8
00000004
00000000
00000000
00000002
fffffffc
fffffffb
00000007
fffffffe
0000000a
ffffffff
ffffffef
00000004
fffffffb
ffffffff
fffffffe
fffffffc
fffffffe
00000005
ffffffff
fffffffc
00000002
fffffffc
fffffff6
fffffff6
00000000
fffffff5
fffffff8
fffffff9
fffffffd
0000000a
00000001
fffffffb
fffffff8
00000004
fffffff1
0000000e
fffffff5
ffffffff
0000000e
ffffffed
fffffff2
fffffff9
00000006
00000005
00000003
ffffffff
00000011
00000000
0000001b
fffffffb
fffffff4
fffffffa
fffffffe
00000008
fffffffe
00000004
ffffffff
00000009
fffffffc
00000000
fffffffb
00000000
ffffffe8
00000000
0000000d
0000000a
fffffffb
00000006
fffffff5
ffffffff
00000000
fffffffe
00000007
00000000
ffffffed
fffffff9
00000007
00000002
0000000e
00000001
0000000c
00000008
fffffffc
00000006
ffffffd8
00000006
00000001
00000001
00000010
fffffffe
00000006
fffffff2
fffffff7
fffffffd
fffffffd
fffffffb
fffffffb
00000007
00000000
00000008
fffffffc
fffffff2
ffffffff
00000003
fffffffe
00000000
fffffffa
00000002
00000002
ffffffed
0000001a
fffffffb
ffffffff
00000006
0000000e
00000001
fffffffb
fffffffd
fffffffe
ffffffff
00000012
00000006
00000012
00000004
00000000
00000011
00000004
fffffffc
ffffffef
fffffff5
fffffff9
0000000e
00000001
fffffff9
00000005
fffffffd
ffffffe2
00000003
00000012
fffffffa
ffffffff
fffffff0
00000004
00000007
00000001
ffffffff
ffffffdf
00000004
ffffffff
ffffffff
00000008
0000000a
fffffff6
fffffff5
fffffff7
00000004
ffffffff
00000002
fffffffe
fffffff1
00000011
fffffffa
fffffffb
00000006
00000001
fffffffa
fffffff1
fffffff9
fffffff2
00000005
0000000f
ffffffff
fffffffe
00000004
fffffff8
fffffffc
fffffffa
fffffff7
fffffff5
fffffff8
fffffffa
fffffffb
fffffff6
0000000a
0000000c
fffffff6
0000000b
fffffffc
00000008
fffffffc
fffffffa
fffffffb
00000005
fffffffa
00000000
ffffffe7
00000001
00000012
fffffffe
0000000b
fffffff7
fffffff2
00000002
fffffffe
00000002
fffffff4
fffffff3
fffffff8
00000004
fffffffc
00000001
fffffff6
fffffffe
fffffffd
0000000f
0000000c
fffffffa
fffffffe
00000002
fffffff6
ffffffec
00000001
ffffffe4
00000004
fffffff9
00000000
fffffffc
fffffff6
fffffff7
fffffffb
fffffff4
00000000
00000009
fffffff6
00000013
00000012
fffffff8
00000005
ffffffff
00000002
00000001
00000000
fffffff8
fffffffb
fffffff9
00000003
fffffff1
ffffffff
fffffffe
ffffffff
fffffffb
00000004
00000007
ffffffc6
ffffffff
fffffffe
0000000d
0000000a
00000012
00000003
fffffffe
fffffffa
fffffffd
00000009
00000003
0000001b
00000012
fffffffb
fffffffe
fffffff0
00000007
fffffff6
00000006
00000002
00000001
0000000b
00000001
00000004
fffffffa
00000004
00000000
fffffff3
00000005
00000007
fffffffb
00000000
fffffffb
00000000
ffffffef
fffffffa
00000005
00000013
00000003
00000003
00000010
fffffff5
fffffff8
00000004
00000010
fffffff6
0000002d
0000000d
00000005
0000000b
00000000
00000017
fffffffe
fffffffa
ffffffff
fffffffb
fffffff0
fffffffd
00000000
fffffff2
00000003
00000019
00000003
ffffffed
fffffff5
ffffffff
00000002
fffffff3
00000003
fffffff5
00000018
fffffff7
fffffffb
00000009
00000006
00000004
fffffff9
fffffff8
fffffff8
fffffffa
fffffffd
00000000
0000000a
00000001
0000002f
fffffffc
fffffff6
00000011
00000002
00000005
fffffffc
fffffffc
fffffff7
0000000c
00000010
00000003
fffffff4
fffffffc
00000000
ffffffff
00000005
fffffffc
00000003
fffffff1
0000000a
ffffffff
00000003
fffffff5
00000004
00000003
fffffff8
00000002
0000000f
fffffff8
00000001
fffffff9
00000001
ffffffff
0000000f
00000003
fffffff6
00000001
0000000b
00000001
00000004
00000004
00000002
00000003
0000000b
fffffffe
fffffffb
0000000b
fffffffc
00000014
fffffffd
00000005
fffffffe
0000000e
00000009
fffffffb
ffffffd2
00000001
fffffffa
00000001
00000007
ffffffff
fffffffa
fffffff5
00000009
fffffffd
fffffff0
00000011
fffffff7
00000008
fffffffd
fffffffe
fffffffa
00000003
00000004
fffffffb
00000005
00000002
fffffffc
fffffff7
00000004
00000004
0000000d
fffffffd
00000005
00000004
fffffff0
fffffffd
fffffffd
00000003
fffffff6
fffffff2
00000000
fffffffb
00000001
00000006
00000004
00000007
00000000
fffffffe
00000009
00000005
00000004
00000008
00000007
00000004
ffffffff
fffffffa
fffffffd
fffffff7
fffffffe
fffffffe
00000006
fffffff1
00000009
00000008
fffffffd
fffffffd
00000009
00000007
fffffffd
00000004
00000001
00000000
fffffffe
00000009
fffffffd
00000002
00000001
fffffff5
fffffff5
fffffffc
fffffff7
fffffffa
0000000b
0000000c
ffffffff
00000007
fffffffb
fffffffc
00000004
0000000b
fffffff8
00000000
00000000
00000005
fffffffb
fffffffe
fffffff8
00000003
00000000
00000003
fffffff2
fffffffc
ffffffff
00000008
fffffffb
00000003
00000005
00000001
00000006
fffffffe
0000000b
fffffffb
ffffffff
fffffffb
ffffffff
fffffffb
00000001
fffffff2
00000010
fffffffa
ffffffef
00000004
00000004
fffffffe
00000015
fffffff5
fffffffe
fffffffd
00000005
fffffff6
fffffff4
0000000b
00000000
fffffffa
fffffffe
00000005
fffffff6
00000000
00000000
fffffffd
ffffffef
fffffffc
fffffffb
00000004
00000006
00000003
fffffffd
fffffffc
00000001
00000002
fffffff9
fffffffb
0000000a
fffffff4
fffffffd
fffffffd
00000008
fffffffd
fffffffc
fffffff9
00000000
00000006
fffffffb
00000010
fffffff7
ffffffff
00000004
ffffffff
fffffffc
00000005
fffffff1
fffffff7
00000004
0000000b
fffffff9
00000001
00000001
0000000a
0000000e
fffffff5
fffffff3
fffffffd
0000000d
00000001
00000000
fffffffd
fffffffa
00000004
fffffff9
fffffffc
fffffffc
fffffffa
fffffffa
00000001
fffffff9
00000002
00000009
fffffffc
fffffffa
fffffff8
fffffffc
00000002
fffffffc
fffffff9
00000002
00000004
00000009
00000006
00000005
00000009
fffffff8
fffffff6
00000000
fffffff5
fffffff8
fffffff9
fffffff9
00000005
00000007
00000000
fffffffe
ffffffff
0000000a
fffffff6
00000000
fffffffe
00000001
fffffffb
0000000d
00000003
fffffffc
fffffffd
ffffffff
fffffff6
0000000d
fffffff9
00000004
ffffffff
0000000c
00000006
00000009
00000003
00000007
00000002
fffffffd
ffffffff
00000001
00000007
00000002
00000002
00000000
fffffff7
fffffff8
0000000d
fffffffb
00000001
fffffffe
fffffff9
fffffff7
ffffffff
fffffffe
00000002
00000007
00000004
ffffffff
fffffffc
ffffffff
fffffff7
00000006
fffffffb
fffffffe
00000003
ffffffff
fffffffa
00000000
00000006
00000001
fffffff9
00000007
fffffffd
00000003
00000001
fffffff5
fffffff6
fffffffc
fffffff0
fffffffd
00000014
00000006
fffffffa
00000013
00000006
00000007
00000000
0000000c
fffffff7
00000009
00000004
00000001
0000000a
fffffffd
fffffffc
00000007
fffffffb
fffffff9
fffffff7
0000000c
fffffffd
00000002
fffffffd
fffffff5
fffffffe
00000010
fffffff6
00000007
fffffffc
fffffffa
0000000d
00000005
00000008
fffffffd
fffffffb
fffffffb
fffffffe
00000003
00000009
fffffffd
fffffff4
fffffffd
00000000
fffffffe
fffffffe
ffffffff
00000001
fffffff8
fffffff9
00000008
00000002
fffffff7
fffffff6
fffffff9
fffffff7
ffffffef
00000006
fffffff8
fffffff5
00000003
fffffff9
00000001
fffffffe
00000000
00000001
00000003
00000011
fffffffb
0000001e
00000009
00000009
fffffff7
00000002
00000009
fffffffb
ffffffff
00000002
fffffff5
fffffffa
fffffffc
00000000
00000004
fffffff4
00000003
00000001
00000008
ffffffef
fffffffa
fffffffa
00000005
0000000a
fffffffa
fffffffd
fffffff3
00000009
fffffff3
fffffffa
0000000c
fffffffd
ffffffef
00000010
fffffffb
fffffffe
fffffffd
fffffff9
fffffffd
fffffff3
fffffff3
fffffffd
fffffffa
fffffffd
fffffff2
00000006
fffffffe
00000000
ffffffe9
fffffff7
fffffff3
0000000b
0000000a
00000005
00000000
00000001
fffffffa
fffffffc
fffffff1
fffffffe
0000000b
fffffff4
fffffffd
fffffff8
00000002
00000003
ffffffff
0000000d
fffffffd
fffffffb
fffffffe
00000002
00000002
fffffffc
fffffff8
00000009
fffffff8
fffffffb
fffffff7
00000008
fffffffe
fffffffe
fffffffb
00000000
fffffffb
00000002
00000000
fffffffc
fffffff2
00000000
fffffffd
00000004
fffffff7
00000004
00000006
00000002
00000012
fffffffd
fffffffc
00000005
fffffffc
fffffff8
00000005
00000002
0000000e
fffffff7
00000000
fffffffa
fffffff9
0000000e
00000003
fffffffd
fffffffb
fffffff6
00000004
fffffffd
00000002
00000012
fffffffc
fffffffa
0000001a
fffffffa
ffffffff
fffffff2
00000005
fffffff5
fffffffe
00000006
00000000
fffffff4
00000001
fffffff8
fffffffc
00000002
00000009
fffffffa
00000008
00000001
00000008
fffffff0
00000001
fffffff1
0000000b
00000000
00000000
ffffffff
00000008
00000009
fffffffc
00000003
fffffff1
fffffff4
fffffff5
ffffffee
fffffff8
fffffffe
00000002
fffffff7
00000000
00000004
00000005
0000000f
fffffffc
fffffff7
fffffffa
fffffffe
00000007
00000000
00000008
fffffff6
fffffffe
fffffffe
00000004
fffffff3
fffffff7
fffffffb
fffffff6
fffffff9
fffffff7
00000012
fffffff7
0000000b
0000000b
00000007
fffffffe
00000008
fffffff5
fffffff5
0000000e
00000000
00000001
0000000a
00000004
fffffffa
fffffff5
fffffffb
fffffff7
fffffffd
00000007
00000007
00000008
00000013
00000002
00000007
fffffff8
00000000
fffffff8
fffffffb
00000003
00000001
00000003
00000004
fffffffd
fffffffb
fffffff5
fffffff2
fffffffa
fffffffb
00000006
fffffff3
00000003
fffffffa
0000000a
00000010
fffffff8
fffffffc
00000003
fffffff4
00000003
00000002
fffffffc
00000000
0000000a
ffffffff
fffffffd
00000006
fffffff8
fffffffd
fffffffe
fffffff2
fffffff4
0000000b
00000006
fffffff8
ffffffee
fffffffb
ffffffff
fffffffb
fffffffd
00000005
00000006
00000000
fffffff8
fffffffd
00000000
00000015
fffffff7
fffffffe
fffffffd
fffffff6
fffffff6
fffffffd
fffffffb
fffffff9
00000000
00000004
00000001
fffffffd
00000008
fffffffc
0000000c
00000000
00000005
00000003
00000011
fffffffc
fffffff5
fffffff5
fffffffb
fffffff4
0000000d
fffffff8
fffffff6
fffffffb
ffffffff
fffffffa
fffffff8
fffffff2
fffffffb
00000005
00000005
00000001
0000000f
fffffff4
00000003
00000000
00000007
00000004
00000003
00000002
fffffffa
00000003
fffffff3
0000000a
00000003
fffffffc
00000002
fffffffa
fffffff5
fffffff9
00000003
00000006
0000000b
0000000b
fffffff0
00000000
fffffff8
ffffffff
00000007
0000000b
fffffff6
00000004
00000006
fffffff5
00000002
ffffffef
00000006
fffffffb
fffffffd
00000001
fffffff1
fffffff9
fffffffd
00000004
fffffffb
ffffffff
fffffff6
00000004
fffffffa
00000002
00000003
fffffffd
fffffff3
00000002
00000023
fffffff3
00000002
fffffff1
00000006
fffffff7
fffffff2
fffffff5
00000006
ffffffef
fffffffb
fffffffa
fffffffb
fffffffa
0000000b
00000003
00000006
00000007
00000005
fffffffb
ffffffec
fffffffd
fffffffc
00000005
00000001
fffffffc
fffffffd
fffffff2
00000003
fffffffe
00000011
00000000
00000000
00000003
ffffffef
fffffffa
ffffffff
fffffff4
fffffffb
ffffffff
fffffff7
fffffff9
fffffffb
fffffffd
fffffffd
00000003
fffffff1
fffffff9
00000001
00000008
fffffffb
ffffffff
fffffff4
fffffff8
fffffff4
00000013
00000004
ffffffff
00000004
00000002
fffffffc
00000001
fffffffc
fffffff7
fffffffb
fffffff5
00000005
00000004
fffffffd
0000000d
00000002
fffffffe
fffffffd
fffffff2
0000000b
00000000
fffffffe
fffffff4
00000008
fffffffb
00000008
ffffffef
00000006
00000000
00000001
ffffffff
0000000a
00000001
00000009
0000000b
0000000c
fffffffc
fffffffd
00000001
00000004
00000003
0000001e
0000000d
fffffffc
fffffffc
00000001
fffffff7
00000006
fffffffe
fffffffa
00000005
00000009
fffffffb
ffffffef
00000005
00000008
0000000c
00000004
00000004
00000002
00000003
00000003
ffffffff
fffffff6
fffffff7
00000006
fffffffe
00000005
fffffff4
00000003
fffffffd
fffffffd
fffffffc
fffffffd
ffffffef
fffffff3
00000007
00000001
fffffffc
00000018
00000000
0000000a
fffffff7
fffffffe
ffffffed
fffffff8
ffffffff
fffffff9
ffffffff
fffffffc
00000008
00000001
00000010
00000001
fffffff9
00000002
fffffff9
fffffff5
fffffffc
0000000c
fffffffe
00000005
0000000d
fffffff8
00000000
00000008
fffffff5
fffffff9
00000001
fffffff9
00000007
fffffff7
00000002
fffffffe
00000004
0000000b
00000008
00000008
00000000
0000000f
00000004
00000006
00000003
00000008
00000009
00000003
00000019
fffffffb
fffffff9
fffffffd
00000003
fffffff5
00000010
00000000
fffffffd
fffffff1
00000013
fffffff7
fffffff6
00000001
00000003
00000002
00000002
00000003
00000007
00000005
fffffff1
00000008
fffffffd
ffffffff
fffffffe
fffffffb
00000007
0000000a
fffffffe
fffffff1
fffffffd
00000006
00000004
00000002
00000006
00000005
fffffff5
00000003
00000003
00000011
0000000a
00000010
fffffff2
fffffff9
00000007
00000003
fffffff8
00000002
fffffffe
fffffffd
fffffffa
fffffffd
fffffff9
fffffffd
fffffffc
ffffffef
0000000b
00000000
00000003
fffffff9
fffffff6
00000002
00000009
00000002
fffffff9
0000000f
00000007
00000000
fffffffd
fffffffa
ffffffff
00000001
fffffffe
fffffff7
fffffff7
00000005
0000000d
0000000f
fffffff4
00000006
ffffffff
00000003
00000005
fffffffc
fffffffa
fffffff7
00000003
00000000
fffffff0
0000000a
fffffffe
fffffffb
0000000e
00000009
fffffffd
0000000e
00000001
00000004
00000003
fffffff9
00000006
00000017
00000001
fffffffb
00000004
fffffffc
00000006
00000004
00000005
fffffffb
00000004
00000006
fffffff2
fffffffd
fffffffd
0000000c
00000005
fffffff8
fffffff9
fffffffa
00000005
00000006
fffffffe
00000000
00000008
0000000c
00000003
00000002
fffffffc
fffffff6
ffffffff
fffffff8
fffffff8
00000000
00000005
fffffffc
00000008
fffffffe
00000002
ffffffff
fffffffd
fffffff6
00000012
00000001
fffffff7
fffffff9
fffffffd
fffffff3
ffffffff
00000007
0000000b
fffffff8
fffffff7
fffffffe
fffffffd
ffffffe8
fffffff5
00000003
00000001
00000009
ffffffff
00000005
fffffffd
00000001
fffffffc
00000005
00000006
fffffffa
fffffffc
00000005
fffffff8
00000000
fffffffe
fffffffb
fffffffc
00000004
fffffffa
fffffffb
0000000b
fffffff2
00000006
00000007
fffffff0
00000012
fffffffa
fffffffb
fffffff8
00000003
00000006
0000000a
00000001
00000003
00000010
00000006
0000000a
00000003
00000004
0000000b
fffffff6
00000005
ffffffff
fffffffe
fffffff4
fffffff9
fffffffd
fffffffc
00000003
0000000c
00000007
00000007
00000008
fffffff0
fffffff7
fffffff9
00000012
00000002
fffffffa
00000001
00000002
00000006
00000000
00000000
fffffff2
fffffffc
00000009
00000000
fffffff4
00000008
fffffffc
0000000b
fffffffb
fffffffa
00000000
00000001
fffffffd
00000005
fffffffe
00000004
fffffffe
00000004
fffffffc
0000000b
ffffffff
ffffffff
00000007
fffffffb
00000005
00000003
0000000d
fffffffe
00000011
0000000d
fffffffe
fffffffe
0000000f
fffffff3
fffffffd
ffffffff
fffffffe
0000000a
fffffffb
fffffff7
fffffff8
00000005
00000008
00000007
00000004
0000000b
00000000
00000001
fffffffd
00000003
fffffffd
00000006
00000001
00000003
fffffff4
fffffffd
fffffffe
fffffffe
00000006
00000009
fffffffc
0000000e
00000002
fffffffb
00000002
00000009
fffffff7
ffffffff
fffffff9
0000000c
00000000
00000001
fffffffc
00000001
fffffffb
ffffffee
fffffff9
fffffffb
0000000a
ffffffff
fffffffe
00000004
fffffffc
00000006
fffffffc
00000000
fffffffd
fffffff1
fffffffa
fffffff9
00000006
fffffffb
fffffffb
00000004
fffffffe
00000003
fffffff4
fffffffa
00000005
0000000b
fffffffd
0000000b
00000002
00000001
00000005
00000001
0000000a
00000003
fffffffd
fffffffc
00000005
ffffffff
00000004
fffffff7
00000001
ffffffff
00000001
00000005
fffffffc
00000005
00000000
00000009
fffffff8
fffffffe
fffffffe
fffffff8
00000001
ffffffff
fffffffc
fffffffe
00000006
fffffffa
fffffffb
fffffffb
ffffffff
fffffffb
fffffff6
fffffff5
00000001
00000007
fffffffc
fffffff9
00000002
00000000
fffffffe
0000000d
fffffffb
00000006
fffffffa
fffffffb
00000005
ffffffff
fffffffd
fffffffb
fffffff9
ffffffff
0000000a
00000002
fffffffa
fffffff6
fffffffe
fffffffe
00000007
00000002
00000001
fffffffb
fffffff6
ffffffff
fffffffa
00000007
fffffff8
00000001
00000001
fffffffd
00000006
fffffffc
ffffffff
fffffffd
ffffffff
fffffffe
00000001
fffffffc
00000003
00000004
fffffff7
fffffffd
00000001
fffffff9
00000003
00000001
fffffffc
00000003
00000001
00000000
00000007
fffffffb
fffffff0
00000004
fffffff6
00000002
00000011
00000000
fffffff0
00000004
ffffffff
00000003
00000010
fffffffe
fffffffd
fffffffc
00000006
fffffff8
00000001
fffffff9
fffffff8
00000002
fffffff8
0000000b
00000004
ffffffff
00000006
00000001
fffffff7
fffffff8
fffffffd
00000002
fffffff6
fffffffd
00000005
fffffff5
fffffffb
00000005
fffffff9
fffffffd
fffffffd
fffffffa
fffffffe
fffffffa
00000002
00000000
fffffff6
fffffffc
00000000
fffffffc
00000000
00000005
fffffffb
fffffff3
ffffffff
fffffff9
fffffffb
fffffffb
ffffffff
fffffffb
00000001
fffffffa
0000000b
00000003
00000002
00000000
fffffffd
fffffffd
00000003
fffffffc
00000006
fffffffb
fffffffd
00000014
00000002
fffffffb
0000000c
0000000b
00000000
fffffff9
00000006
fffffffc
0000000a
00000000
00000000
0000000a
00000006
fffffff9
00000003
00000003
00000009
0000000b
00000002
ffffffff
00000004
fffffffc
ffffffff
00000000
00000001
00000002
00000000
fffffffd
00000004
00000004
00000003
00000002
fffffffb
00000000
fffffffb
fffffffb
fffffffc
00000000
00000002
00000004
ffffffff
fffffffc
fffffff8
00000003
00000003
00000001
fffffffc
fffffffd
00000000
fffffffd
fffffffb
0000000a
00000000
00000005
fffffffe
00000008
00000000
00000007
fffffffd
00000000
ffffffff
00000009
fffffff5
00000002
ffffffff
ffffffff
fffffff7
00000007
fffffffc
00000003
ffffffff
00000008
fffffff9
fffffffa
00000009
00000002
00000006
00000004
00000001
fffffffe
00000001
00000000
fffffffa
fffffff9
00000002
fffffff9
00000000
fffffffd
00000011
fffffff6
fffffff9
00000002
ffffffff
00000008
fffffff3
fffffff9
fffffff5
00000002
fffffff8
fffffffc
00000001
00000000
fffffff6
00000004
00000000
00000002
00000001
fffffffd
00000003
00000000
fffffff9
fffffffc
fffffff7
00000001
00000001
fffffff7
00000001
ffffffff
ffffffff
00000006
fffffffb
00000002
fffffffa
fffffffb
00000002
fffffff4
00000006
fffffffd
fffffff8
fffffff9
fffffffd
fffffffe
00000000
fffffff2
fffffffd
fffffff7
ffffffff
00000003
00000005
fffffff6
00000000
fffffffa
00000001
fffffffd
0000000c
0000000b
fffffff9
fffffff5
fffffffe
fffffffe
fffffff6
00000000
00000004
ffffffff
00000001
00000008
fffffffd
fffffffc
fffffff3
fffffff9
00000006
fffffff3
fffffff7
fffffffb
fffffffc
00000007
fffffffd
fffffff9
00000005
fffffffd
00000000
ffffffff
fffffffe
ffffffff
fffffffb
0000000a
00000003
0000000b
00000000
fffffffe
00000002
00000001
fffffffb
fffffffb
00000004
fffffffd
fffffffe
fffffff4
fffffff5
fffffffd
00000008
00000006
00000007
00000001
00000003
00000005
00000006
00000003
fffffffa
00000008
00000008
00000004
ffffffff
fffffffd
fffffff5
00000007
00000005
0000000b
fffffffc
00000004
fffffff9
00000001
00000006
00000000
00000008
00000006
00000001
00000002
fffffff7
00000003
00000006
0000000a
fffffffa
00000008
ffffffff
00000004
ffffffff
00000001
fffffff7
00000006
fffffffa
00000008
fffffffe
fffffff5
00000008
fffffffe
fffffffa
fffffffd
00000006
fffffff5
fffffff9
00000005
fffffffe
fffffffa
00000009
00000004
00000001
0000000b
fffffff5
fffffff5
00000007
00000008
fffffff9
00000000
00000001
fffffffb
fffffffb
ffffffff
00000000
00000002
fffffffb
00000009
0000000f
fffffffa
0000000d
00000003
00000002
fffffffe
fffffff9
fffffffd
00000007
00000004
fffffff5
fffffffc
fffffff8
00000000
ffffffff
fffffff7
fffffff9
00000004
00000003
00000005
fffffff9
fffffff4
ffffffff
00000001
00000001
fffffffc
0000000c
fffffffe
00000000
fffffff4
ffffffff
00000007
fffffffe
fffffffb
0000000f
ffffffff
fffffff6
00000000
fffffffa
fffffffd
0000000d
00000002
fffffffc
fffffff8
fffffff9
fffffffa
0000000f
00000000
fffffffa
00000002
fffffffc
fffffffa
00000004
00000005
fffffff7
00000003
fffffff7
0000000a
00000002
00000005
00000004
fffffffa
00000002
00000012
00000000
0000000a
ffffffff
0000000a
ffffffff
fffffffe
00000001
00000001
00000004
fffffff7
fffffffb
00000003
00000006
fffffffc
0000000c
fffffffe
00000004
fffffffc
ffffffeb
fffffffd
fffffff3
ffffffff
fffffffd
00000002
ffffffff
ffffffff
00000002
fffffffa
fffffffa
00000001
fffffff6
00000009
fffffff8
fffffffe
00000000
00000005
00000007
00000006
fffffffb
fffffffe
00000003
00000000
fffffffd
fffffffd
00000001
fffffff9
fffffff5
00000007
00000006
00000005
00000005
fffffffe
00000003
00000000
fffffffe
fffffff3
00000008
00000000
fffffff8
fffffff8
00000001
00000004
fffffffd
fffffff8
fffffffa
fffffff9
00000001
fffffffb
fffffffc
00000000
fffffffe
00000002
00000007
00000007
00000004
fffffffe
00000005
fffffffd
fffffffb
fffffffc
fffffffe
fffffffb
00000002
0000000a
fffffffa
00000006
fffffff3
00000002
fffffff5
00000002
00000010
fffffffa
fffffffc
fffffff5
fffffff9
fffffffc
00000006
fffffff8
00000009
00000007
ffffffff
fffffff8
fffffffa
00000002
00000000
fffffffa
fffffffd
00000006
00000000
00000001
fffffff4
00000004
00000009
fffffffc
fffffffd
00000004
00000007
fffffff8
00000002
fffffffd
fffffffa
00000006
fffffffa
fffffff9
00000000
00000000
fffffff6
fffffff9
00000001
fffffff8
00000001
00000002
0000000a
ffffffff
fffffffd
fffffff8
00000000
00000001
fffffffb
00000002
0000000c
00000004
00000003
fffffffc
fffffffd
00000003
ffffffff
00000000
fffffffa
fffffffe
0000000b
00000004
00000003
00000002
fffffffb
00000001
fffffff2
fffffff8
fffffffc
0000000a
00000007
fffffffc
fffffffd
00000004
fffffffc
fffffffe
0000000f
fffffff9
fffffffa
fffffffe
ffffffff
00000002
00000000
fffffffa
fffffffb
0000000c
00000001
00000009
fffffff3
fffffffd
ffffffff
fffffffb
00000006
00000001
00000009
00000003
fffffffd
00000003
00000003
00000002
fffffffb
fffffffe
fffffffc
00000003
0000000c
fffffff9
ffffffff
fffffffa
00000008
00000001
ffffffff
ffffffff
00000002
fffffff8
00000003
fffffff7
fffffff8
00000005
fffffff7
00000013
00000007
00000001
00000003
fffffff7
00000001
fffffffe
00000000
fffffffe
00000005
00000005
fffffffe
0000000d
00000007
00000001
fffffffb
0000000a
fffffffe
00000004
00000003
fffffff7
00000000
fffffffa
ffffffff
00000004
0000000a
00000001
fffffffd
00000003
fffffffd
00000005
fffffffc
fffffffc
00000007
fffffff6
00000000
fffffffd
00000007
00000001
fffffffb
00000012
00000006
ffffffff
fffffffe
fffffff8
00000003
00000000
00000001
0000000a
fffffffa
0000000a
fffffffb
fffffffd
00000008
00000003
00000005
00000000
fffffffc
fffffff9
00000001
00000004
fffffffe
0000000a
fffffff5
00000006
ffffffff
00000006
fffffffc
00000000
0000001b
fffffffd
00000002
00000000
00000000
fffffffa
0000000f
00000003
00000008
00000004
00000001
00000003
0000000b
00000005
00000005
0000000a
0000000a
fffffff6
00000005
00000003
fffffffc
fffffffb
fffffffa
fffffffe
00000005
fffffffe
ffffffff
00000002
00000006
ffffffed
00000000
fffffffa
fffffff8
fffffffb
00000004
fffffffe
fffffffe
fffffffa
00000000
fffffffc
00000001
0000000a
00000001
00000001
00000004
00000000
00000001
ffffffff
fffffffe
00000005
00000001
00000003
fffffff2
00000004
fffffffd
00000000
00000001
00000001
fffffff9
0000000f
00000000
fffffffe
fffffff8
0000000d
00000006
00000009
00000000
fffffffa
0000000e
00000004
fffffff8
fffffffd
0000000d
00000003
ffffffff
00000002
fffffffe
00000001
ffffffff
ffffffff
fffffff9
fffffffd
00000003
fffffff3
00000001
00000004
fffffff5
0000000a
00000001
fffffffe
fffffffb
00000000
fffffffe
fffffffa
fffffffb
fffffffd
00000002
fffffff4
fffffff7
fffffffc
ffffffff
00000005
00000006
fffffff3
00000007
fffffff9
fffffff6
fffffff7
00000000
fffffffb
fffffffc
fffffffc
0000000f
0000000e
fffffff7
0000000d
fffffffd
00000000
00000001
ffffffff
fffffffd
00000004
fffffff9
fffffffe
fffffffb
fffffffc
00000003
00000007
00000001
00000009
fffffffe
00000003
ffffffef
00000002
fffffffe
00000012
00000003
ffffffff
fffffffa
fffffffc
0000000b
fffffffe
fffffff3
00000009
fffffff9
00000004
fffffffd
00000000
fffffffe
00000007
ffffffff
0000000a
00000004
fffffffd
00000000
00000000
00000006
fffffff8
00000001
fffffffa
fffffffe
ffffffff
fffffff9
0000000a
fffffffb
fffffff4
fffffffe
fffffffe
fffffff9
fffffffd
fffffffa
00000005
ffffffff
fffffffe
00000010
00000005
00000006
00000002
fffffff6
fffffff9
00000006
00000005
fffffff9
fffffffd
ffffffec
00000008
00000007
fffffffc
fffffffb
00000002
00000004
00000000
00000000
00000002
fffffffe
fffffffe
00000010
00000007
00000007
00000006
00000007
fffffffd
fffffffb
00000003
00000000
fffffff8
fffffffd
00000007
0000000c
fffffffa
0000000b
fffffff3
fffffffa
0000000e
00000006
00000004
00000001
00000004
fffffffc
fffffffa
00000000
ffffffff
00000005
00000009
0000000a
fffffffa
fffffffa
fffffffb
ffffffef
fffffffc
00000000
fffffffc
fffffffd
fffffff4
fffffffd
fffffff6
fffffffc
00000001
0000000c
fffffff7
fffffff4
00000004
00000003
00000008
fffffff9
fffffff0
fffffff7
fffffffe
fffffffa
fffffff7
00000005
ffffffff
fffffff8
ffffffff
00000006
fffffffa
00000007
fffffffa
00000002
00000009
00000005
00000007
fffffff6
fffffff8
fffffffc
00000010
fffffff2
ffffffff
fffffffd
fffffffa
fffffffc
0000000c
ffffffff
00000004
00000001
fffffffc
fffffffd
ffffffff
00000003
00000001
fffffffb
0000000c
fffffffd
fffffffe
ffffffff
00000001
0000000a
00000007
fffffffb
0000000b
fffffffb
fffffff9
fffffffd
fffffffb
00000001
ffffffed
fffffff6
00000010
fffffff7
fffffffd
fffffffc
fffffffe
0000000a
00000006
00000003
00000009
00000015
fffffff6
00000013
00000007
fffffffb
00000006
ffffffec
00000003
fffffff4
00000008
00000001
00000004
fffffff8
00000000
fffffffe
00000002
fffffffa
00000005
fffffffd
fffffffc
fffffffe
fffffffb
fffffffd
fffffffd
00000001
fffffffd
00000003
fffffffe
00000002
ffffffff
00000006
00000005
00000000
fffffffa
fffffffb
fffffffb
fffffff0
fffffff3
fffffff3
ffffffff
00000002
00000007
0000000d
00000001
fffffff9
fffffff9
fffffffc
fffffffe
00000003
00000000
ffffffff
fffffffb
00000002
00000002
fffffffa
fffffff8
00000001
fffffff9
00000004
00000001
fffffff4
fffffffe
00000007
00000001
fffffff8
00000005
00000003
ffffffff
fffffff1
fffffffa
fffffffe
fffffffe
fffffff2
00000007
fffffffd
fffffffe
ffffffff
fffffff9
00000004
0000000e
fffffffe
fffffffe
00000006
00000004
fffffffb
fffffffa
00000004
fffffffb
00000009
fffffff1
fffffff5
fffffffe
fffffff5
fffffff4
00000002
fffffffe
ffffffff
00000004
fffffff7
ffffffff
00000001
00000006
fffffffd
00000000
00000002
0000000b
fffffff4
00000002
fffffffc
fffffff9
00000007
00000005
00000000
fffffffc
00000004
fffffffd
fffffff9
fffffffe
fffffffc
fffffff3
fffffffb
00000000
fffffffe
fffffff3
0000000f
0000000e
fffffff7
0000000a
00000002
fffffffd
fffffffa
fffffff3
00000001
00000000
00000000
fffffffe
00000006
00000004
00000002
00000002
fffffffc
00000002
00000009
00000003
fffffffb
00000007
ffffffff
fffffffc
fffffffb
fffffff9
00000006
00000003
00000006
fffffffc
fffffffb
fffffffc
fffffffc
fffffffb
fffffffd
00000013
fffffff7
00000002
ffffffed
0000000d
fffffff9
fffffffa
00000006
fffffffe
00000000
00000013
fffffffb
fffffff5
ffffffff
0000000d
fffffff1
0000001c
fffffff1
fffffff9
00000007
00000001
fffffff9
fffffffe
00000003
fffffff8
fffffff6
ffffffff
ffffffff
fffffff8
00000005
fffffff3
ffffffff
00000002
00000001
00000006
fffffffc
00000004
00000002
00000000
fffffff1
00000004
00000008
fffffff9
0000000b
fffffffe
fffffffb
00000007
00000000
00000003
00000004
00000005
00000001
0000002b
fffffff6
fffffff5
00000005
fffffff9
fffffffd
00000018
fffffff9
00000008
00000000
00000007
fffffff3
fffffff5
00000001
fffffffc
00000005
00000004
00000001
fffffffd
ffffffe0
00000000
00000001
ffffffff
fffffffd
00000004
00000003
00000005
fffffff3
00000003
00000000
ffffffff
00000003
fffffffb
00000003
00000002
00000006
fffffffd
00000001
00000002
00000007
00000006
fffffffa
00000009
fffffffd
00000000
fffffffa
00000008
00000000
00000002
ffffffff
00000000
ffffffed
00000003
00000009
00000006
00000003
fffffff9
ffffffff
fffffff1
00000003
00000003
00000003
00000006
fffffff7
00000000
ffffffe6
fffffff5
00000002
00000000
00000003
fffffffd
00000004
fffffffb
00000008
00000001
0000000e
ffffffff
fffffff4
fffffffa
fffffffb
fffffffb
00000001
fffffff8
00000002
fffffffa
fffffff9
00000001
ffffffff
00000004
00000003
fffffff0
fffffffa
fffffff8
fffffff9
00000003
fffffffd
fffffff7
ffffffff
00000008
fffffffb
fffffffd
00000004
00000007
00000000
00000006
00000002
00000009
00000008
fffffffd
00000002
00000002
fffffff3
ffffffec
0000000d
00000009
fffffffb
fffffff6
00000005
0000000d
0000000c
00000001
00000005
0000000c
0000000a
00000006
00000000
ffffffff
fffffffd
00000003
fffffffb
00000001
fffffff7
00000000
fffffffc
fffffff8
fffffffc
fffffffb
0000000b
fffffffb
00000002
ffffffff
ffffffff
fffffffe
00000002
ffffffff
fffffffd
fffffffd
00000009
00000009
00000007
fffffffb
fffffffb
fffffffa
00000004
fffffff6
fffffff2
00000008
fffffffe
00000003
fffffff9
00000003
00000008
fffffffd
fffffff9
00000002
0000000c
fffffff4
00000002
ffffffff
fffffffd
00000001
00000001
00000007
00000006
0000000e
00000000
fffffff8
fffffff8
00000001
ffffffff
fffffffd
00000005
fffffffe
fffffff3
fffffffd
00000006
00000006
fffffffe
00000001
0000000c
00000004
00000003
00000003
00000008
fffffff1
00000002
fffffffd
fffffffd
fffffff5
fffffffc
00000000
0000000b
00000000
00000004
fffffffa
fffffff9
00000003
fffffffc
fffffffb
fffffff9
00000001
fffffff8
fffffffa
00000001
00000003
fffffff2
fffffffb
00000013
00000004
fffffff8
00000000
00000001
00000003
0000000a
00000002
00000004
00000003
00000008
0000000a
00000000
00000006
00000006
fffffff7
fffffff6
00000006
00000000
00000001
fffffffe
fffffffd
fffffffe
00000002
00000002
00000006
fffffffc
0000000d
fffffffb
00000003
fffffffe
ffffffff
00000006
00000009
00000002
fffffffc
00000001
00000004
0000000a
00000001
0000000b
fffffff5
00000005
fffffffe
fffffffb
00000003
00000002
00000001
0000000d
00000000
00000003
fffffff7
fffffffc
fffffffc
fffffff6
00000002
00000005
ffffffff
ffffffeb
00000004
fffffff5
fffffff9
00000003
00000002
fffffffd
00000009
fffffffa
fffffff5
fffffffe
fffffff3
00000003
00000007
0000000a
fffffffd
00000000
fffffff9
00000013
00000008
ffffffff
fffffffd
fffffff3
ffffffff
00000005
00000009
fffffffe
fffffff8
fffffffc
00000008
00000007
fffffff8
00000004
00000006
fffffffc
00000001
00000009
0000000c
00000009
fffffffd
fffffffa
00000001
00000009
00000001
0000000a
00000002
00000001
fffffff8
fffffff0
00000002
fffffffe
00000001
00000008
00000003
fffffffa
00000001
fffffffe
fffffffd
ffffffd9
00000005
00000005
fffffffb
fffffffa
fffffffe
ffffffff
0000000c
ffffffff
0000000b
0000000f
00000001
00000007
fffffffa
00000000
fffffffb
fffffffe
fffffff6
00000000
00000010
fffffff7
fffffffc
00000003
00000004
fffffff4
00000000
00000002
fffffffc
00000009
00000000
fffffff9
00000000
fffffff3
00000009
fffffff5
fffffffd
fffffffb
00000005
fffffff9
fffffffc
fffffffd
fffffffd
00000000
00000003
fffffffc
00000009
00000008
00000000
00000005
00000006
00000007
ffffffff
fffffffb
fffffff9
fffffff5
00000005
00000006
00000002
ffffffff
fffffffa
fffffffe
fffffff6
00000006
0000000c
fffffffb
0000000b
fffffff8
00000003
fffffff7
00000000
fffffffd
00000006
00000006
00000009
00000007
fffffff8
fffffff7
00000002
fffffff9
fffffff8
fffffff9
00000002
ffffffff
00000002
00000009
00000000
00000002
fffffffc
fffffffe
ffffffff
0000000a
00000004
ffffffd8
00000016
00000010
fffffff8
fffffffc
fffffffc
fffffff9
00000004
fffffff3
fffffffb
ffffffff
00000004
fffffff2
fffffffd
00000004
00000004
0000000d
fffffffc
ffffffff
00000003
fffffff7
00000000
00000009
fffffff4
fffffffc
fffffffa
00000008
fffffff2
fffffffa
00000001
00000009
00000005
00000014
00000009
fffffff5
ffffffff
00000003
fffffffb
fffffffb
00000009
00000004
fffffff7
00000004
0000000a
00000003
ffffffff
fffffff9
fffffffd
fffffff7
00000003
fffffff9
fffffff9
00000002
00000000
00000011
fffffffb
ffffffe8
fffffff5
0000000b
00000007
00000000
00000004
00000001
ffffffff
00000005
fffffffb
00000006
00000006
0000000c
00000001
00000000
00000003
00000007
0000000a
00000000
fffffffa
fffffffa
00000009
fffffff6
ffffffff
fffffffc
00000003
00000000
fffffff0
ffffffff
fffffffb
00000000
fffffff9
0000000e
00000004
00000002
00000006
fffffff2
00000004
0000000a
00000003
00000000
00000001
fffffffc
00000002
00000000
00000008
fffffffe
00000001
fffffffc
fffffffd
0000000b
fffffff6
00000005
fffffffd
ffffffff
00000003
00000003
fffffffb
fffffffd
fffffffc
fffffffc
ffffffff
fffffff9
00000001
00000004
fffffffe
fffffffe
00000008
fffffffe
ffffffff
00000002
00000007
0000000b
fffffffe
00000009
00000004
fffffffb
00000003
0000000a
fffffffc
00000001
fffffffb
fffffff9
0000000c
00000001
00000005
fffffff9
fffffff5
00000003
fffffffd
fffffffc
00000002
0000000a
fffffff7
00000003
00000007
fffffff7
00000001
00000009
00000006
00000010
00000002
ffffffff
00000003
fffffffa
fffffffd
00000000
00000002
00000010
ffffffe8
00000000
00000008
fffffff7
0000000b
00000007
fffffff1
00000009
0000000a
fffffffc
fffffff9
fffffff5
fffffffe
00000005
00000000
ffffffff
fffffffc
00000000
fffffffc
fffffffb
fffffff7
0000000f
00000014
fffffffe
fffffff8
fffffffb
fffffff9
00000008
fffffffb
fffffffd
00000007
00000000
0000000d
00000000
00000004
00000009
00000004
0000000c
00000008
00000002
00000001
fffffffd
00000007
00000003
ffffffff
00000005
fffffffc
00000003
fffffff3
00000004
fffffff8
00000001
00000005
fffffffb
00000000
00000001
fffffff1
ffffffff
00000005
0000000c
fffffffc
0000000a
fffffff1
fffffffd
00000001
fffffffa
ffffffef
fffffff8
00000008
fffffffd
00000000
00000000
00000003
fffffffe
00000009
fffffff8
fffffff9
fffffff8
00000001
fffffff6
fffffff8
00000001
00000006
fffffff0
fffffffc
00000005
0000000a
0000000a
00000000
fffffffd
fffffff7
fffffff6
ffffffff
fffffff9
00000007
fffffffa
fffffff7
00000004
fffffff0
00000000
00000001
ffffffed
fffffffd
fffffff0
00000010
00000005
00000014
ffffffff
00000000
0000000a
fffffffb
fffffffa
fffffff4
fffffffa
fffffff2
0000002b
fffffff7
00000004
00000004
00000004
fffffff7
00000001
fffffffc
00000011
fffffffe
00000009
fffffff7
00000000
fffffffd
00000014
fffffffa
00000007
fffffff4
fffffff5
fffffffe
00000003
00000006
ffffffff
ffffffef
00000006
fffffffb
fffffffa
ffffffff
0000000a
00000004
00000002
fffffff8
fffffffb
00000002
fffffff2
fffffffc
fffffff3
fffffffd
fffffff9
fffffff6
0000000d
00000004
fffffffc
fffffff5
fffffffb
fffffff6
00000000
00000000
fffffffe
00000001
00000004
0000000b
fffffffa
0000000d
fffffff9
fffffff7
00000002
fffffffd
00000000
00000007
fffffffe
00000009
0000000e
fffffff7
ffffffff
00000008
ffffffec
00000009
fffffff1
00000000
ffffffff
00000000
fffffffc
fffffffd
ffffffff
fffffffe
fffffff4
fffffff9
fffffffc
00000003
00000005
fffffffb
ffffffff
fffffffd
fffffffa
00000000
fffffffa
00000014
fffffff3
fffffff8
fffffffd
ffffffff
fffffff7
00000008
fffffffa
00000005
00000000
fffffffd
fffffff4
fffffffa
fffffff4
00000005
00000006
00000005
fffffffe
0000000a
0000000a
ffffffef
00000003
00000003
0000000d
fffffff9
00000001
fffffffe
fffffffe
0000000b
00000006
00000015
00000000
0000000d
fffffffd
fffffffe
ffffffff
fffffffe
00000000
fffffffb
fffffff4
0000000f
fffffffc
00000006
00000005
fffffffd
00000003
0000000b
00000004
fffffff3
00000003
00000001
fffffff7
00000010
00000000
0000000c
fffffff6
fffffff8
fffffffb
fffffff7
ffffffff
0000000a
00000003
fffffff0
00000002
00000001
0000000f
fffffff6
00000002
00000007
00000003
fffffff7
fffffffc
fffffffe
fffffff6
fffffff9
fffffffb
fffffffd
fffffff4
00000005
00000005
fffffffb
fffffff8
fffffffc
fffffffd
00000002
00000001
0000000b
00000008
ffffffff
ffffffff
00000003
0000000b
fffffff7
fffffffe
0000000a
00000005
00000006
fffffff8
00000005
00000006
00000002
00000000
fffffff5
fffffffc
00000000
00000006
fffffff8
00000000
fffffff8
fffffffe
00000001
0000000d
fffffff4
fffffffb
00000007
00000004
fffffffa
00000007
fffffffa
fffffff3
fffffffb
00000000
00000001
00000003
0000000c
fffffffa
00000002
00000006
fffffffe
fffffffa
fffffff8
fffffffa
00000008
00000004
00000002
00000004
fffffffd
00000000
ffffffed
00000007
00000004
0000000d
fffffffa
fffffff8
ffffffff
fffffff9
fffffff8
fffffffd
00000006
fffffff8
00000009
ffffffed
fffffff6
00000002
00000004
fffffff9
fffffffe
fffffffe
00000003
00000001
00000003
fffffffe
00000002
00000009
00000006
fffffff5
ffffffff
fffffff7
fffffff5
00000003
fffffffe
fffffffa
fffffffb
fffffffd
fffffff6
fffffff8
fffffffc
00000005
fffffff4
ffffffff
00000006
00000000
fffffff9
00000007
fffffffd
fffffffa
00000008
00000004
00000001
fffffffd
fffffffa
0000000f
00000003
fffffffb
00000001
ffffffff
fffffff2
fffffff6
fffffff7
fffffff9
00000008
fffffff7
fffffff7
00000000
00000000
fffffffc
0000000a
fffffff7
00000002
0000000c
fffffffc
00000000
00000008
00000009
00000006
ffffffff
00000009
fffffffd
fffffffe
fffffff6
00000005
00000000
fffffffa
ffffffec
00000009
0000000c
00000003
00000002
fffffff1
fffffff9
00000003
00000005
fffffff9
00000004
00000007
00000000
fffffff6
fffffff3
fffffffa
fffffffd
fffffffe
00000000
0000000f
00000003
00000002
ffffffff
fffffffd
fffffff0
ffffffff
fffffffa
ffffffff
fffffffd
fffffffd
0000000f
fffffffa
00000000
fffffffe
00000006
00000006
00000003
fffffffe
fffffffb
00000000
ffffffea
0000000b
fffffff6
fffffff2
fffffff7
fffffff8
fffffffa
00000009
ffffffef
00000001
fffffffb
fffffffb
00000002
fffffffe
00000001
00000002
fffffffb
fffffff9
00000002
00000008
fffffffa
fffffff0
fffffff8
fffffffe
fffffffe
00000002
00000003
fffffff7
00000004
00000002
fffffff8
00000001
fffffffb
fffffff7
fffffffb
fffffff8
ffffffea
fffffffe
fffffffc
fffffffa
fffffff9
fffffff8
fffffffa
00000007
fffffffd
0000000f
00000007
fffffffa
00000005
fffffffc
fffffffd
00000007
fffffffd
fffffffb
ffffffeb
fffffffc
00000000
0000000e
fffffff8
00000004
fffffffe
fffffff4
00000005
00000005
00000005
00000001
fffffffb
fffffffd
fffffffa
00000012
0000000c
fffffff9
fffffff5
ffffffef
0000000c
fffffffb
fffffffd
fffffffc
fffffffd
ffffffee
ffffffff
fffffff9
fffffffa
ffffffef
00000003
fffffffd
00000002
00000004
fffffff6
00000003
00000005
fffffffc
00000000
00000005
0000000b
fffffff4
00000007
fffffffa
fffffffa
0000000a
fffffffd
00000002
00000010
00000002
fffffffc
00000005
0000000d
fffffff1
fffffffe
00000008
ffffffee
fffffffe
00000000
ffffffff
fffffffc
fffffffc
0000000f
fffffffa
fffffffa
00000003
fffffffe
00000007
00000000
00000000
00000003
00000006
00000007
00000011
fffffffc
00000004
fffffff7
ffffffff
fffffffb
fffffffd
00000008
00000014
fffffffa
fffffff6
fffffffe
00000000
ffffffff
ffffffff
00000000
fffffff9
00000009
fffffff5
00000006
00000010
00000007
00000008
fffffff9
00000002
fffffff7
fffffff9
0000000a
fffffffa
fffffff8
00000006
00000000
fffffffa
fffffff5
fffffffe
00000001
fffffffb
00000004
fffffffa
fffffff9
00000004
fffffffd
00000002
fffffff4
00000002
ffffffed
fffffffc
fffffff6
fffffff4
00000018
00000008
00000003
fffffffa
fffffffa
00000005
fffffffe
fffffff8
00000000
00000002
fffffffc
00000004
fffffffe
00000004
00000002
ffffffec
fffffff8
fffffff9
00000004
00000000
0000000e
fffffff2
00000002
fffffff4
00000001
fffffff3
00000004
fffffffd
fffffff6
00000002
00000012
00000006
fffffffb
fffffff6
fffffffa
00000007
fffffff7
00000004
00000003
fffffffa
00000001
ffffffff
fffffff8
00000004
00000008
00000002
fffffff2
fffffff9
fffffffe
00000004
0000000f
00000009
fffffffc
fffffff5
00000002
00000008
fffffff2
00000002
fffffff8
ffffffff
fffffffe
00000003
fffffffc
fffffffa
fffffffd
fffffffe
00000004
fffffffe
fffffff7
0000000b
ffffffff
fffffffd
fffffffd
00000000
fffffffb
0000000a
00000001
fffffff1
fffffff1
ffffffff
fffffffe
00000001
fffffff1
fffffffb
fffffff7
fffffffa
00000003
00000004
fffffff2
00000005
fffffffa
fffffff5
ffffffff
00000004
fffffff3
00000001
fffffffb
fffffffd
fffffff2
fffffffb
00000006
fffffffb
00000004
00000024
fffffff9
fffffffc
ffffffff
fffffff8
00000003
fffffff2
00000014
00000001
fffffff9
fffffffd
fffffff2
00000001
fffffff6
00000012
0000000a
0000000a
fffffffd
fffffff7
fffffff7
fffffff9
fffffff8
fffffff6
ffffffff
0000001e
fffffffb
0000000e
00000007
fffffffd
fffffff8
fffffffe
00000000
00000001
00000007
fffffffb
00000003
00000000
0000000e
fffffffa
fffffffa
fffffff2
00000002
0000000a
00000001
ffffffff
00000001
00000020
fffffffe
fffffff8
00000006
ffffffe9
fffffffa
00000009
fffffffd
fffffff5
00000008
fffffff8
00000003
00000002
ffffffee
00000002
00000007
fffffff2
fffffffb
00000003
00000007
fffffffe
fffffff8
00000004
fffffffc
0000000b
fffffffc
fffffff5
00000005
fffffffc
0000000d
fffffff5
fffffff6
00000001
00000014
fffffffa
fffffffa
00000005
00000000
0000000a
fffffffc
fffffff2
00000009
fffffffa
00000007
fffffff9
00000008
fffffffe
ffffffff
fffffff9
fffffff0
fffffffe
fffffffe
fffffff5
00000002
00000002
fffffff8
fffffffd
fffffff0
00000001
0000000e
00000007
00000003
fffffff4
fffffffd
00000005
fffffffa
fffffff6
fffffffd
fffffffd
00000000
00000003
fffffffe
00000002
00000001
00000003
fffffff9
0000000d
fffffffe
fffffffc
fffffffc
00000001
fffffffc
00000019
fffffffe
fffffff9
fffffff8
00000002
00000007
ffffffff
fffffffc
00000002
00000003
fffffff5
0000000a
00000005
fffffff8
00000012
00000009
fffffff7
ffffffff
0000000a
00000016
00000000
ffffffff
00000004
fffffff6
ffffffe7
00000022
00000013
00000003
fffffffa
fffffffa
fffffff3
00000015
00000014
00000001
fffffff9
00000004
00000005
00000002
00000001
ffffffff
fffffff6
00000012
fffffff7
fffffff6
fffffffe
00000000
ffffffff
0000000a
fffffff0
00000007
00000003
fffffffd
00000000
00000001
00000001
00000013
00000003
00000000
0000000f
fffffffc
fffffff0
fffffff1
00000007
ffffffff
00000003
fffffff4
fffffffe
00000000
00000008
fffffffd
fffffffd
00000001
fffffffe
fffffffc
ffffffff
fffffffc
fffffff3
0000000c
00000004
fffffff4
00000001
00000004
fffffffe
0000000d
fffffffa
fffffffd
fffffff7
ffffffff
fffffff3
ffffffff
fffffff1
fffffffe
0000000e
ffffffff
fffffffc
00000000
00000005
00000007
00000008
fffffff4
00000013
00000009
fffffff5
fffffff8
fffffffd
fffffffe
fffffffa
00000009
ffffffff
fffffffc
00000001
fffffff3
00000010
00000005
00000004
fffffff5
00000004
0000000f
00000005
0000000e
00000005
fffffff6
fffffff8
00000001
00000004
00000009
fffffffb
00000001
fffffff6
00000002
00000000
00000002
fffffff6
fffffff3
fffffff1
fffffff6
fffffff5
fffffffb
fffffffe
00000005
00000007
fffffffb
fffffffd
fffffffe
00000001
00000009
00000008
00000005
fffffff8
fffffffb
00000009
00000008
fffffff9
00000003
fffffffd
00000000
0000000f
fffffffc
fffffffc
00000004
fffffffe
0000000a
00000003
0000000d
0000000f
00000008
00000008
0000000f
fffffffe
fffffffb
00000007
00000001
fffffff7
fffffffd
0000000d
fffffffd
ffffffeb
fffffffe
00000008
fffffff8
00000005
00000009
00000004
fffffff7
fffffffd
00000005
fffffff9
00000006
00000010
00000001
fffffff9
00000006
00000005
0000000d
fffffff8
00000000
fffffffc
fffffff8
ffffffff
fffffff7
fffffffa
fffffffb
fffffff9
00000001
fffffffb
fffffffa
ffffffef
00000005
fffffff6
fffffffc
fffffff9
00000001
ffffffed
00000004
00000004
00000006
00000002
fffffff5
00000005
0000000e
fffffff5
fffffff3
fffffff8
00000013
fffffff2
00000000
ffffffeb
00000007
fffffff6
ffffffee
00000013
00000000
fffffffa
0000001c
00000002
00000000
0000000c
fffffffa
0000000b
fffffffa
fffffffc
fffffff8
fffffff5
fffffffa
00000005
00000006
00000007
0000000b
fffffff0
fffffff1
00000003
fffffffd
00000002
fffffffc
00000003
00000007
fffffff9
fffffffe
fffffffe
fffffffb
00000000
fffffffc
fffffffb
fffffffc
00000006
00000006
fffffff8
00000018
00000008
0000000b
fffffff8
fffffff5
fffffffb
fffffff7
ffffffff
fffffff7
ffffffff
00000008
00000001
fffffffa
0000000e
0000000c
fffffff6
fffffff4
fffffff5
fffffff3
00000001
fffffff7
00000002
fffffffd
fffffffc
fffffffb
fffffff7
00000009
00000002
00000002
00000003
fffffffc
00000002
fffffff7
fffffff8
00000034
fffffff5
fffffff2
fffffff8
00000004
ffffffeb
fffffff0
fffffff9
0000000a
00000006
00000007
fffffffa
fffffff5
0000000d
ffffffee
00000005
00000015
fffffff8
ffffffef
0000000c
fffffffd
00000009
00000001
fffffffc
ffffffff
00000002
00000002
00000007
fffffff8
fffffff4
fffffffa
fffffff9
fffffffe
00000010
00000002
00000007
fffffffc
fffffffd
00000007
00000008
fffffffe
fffffff9
fffffff4
00000003
fffffff9
fffffffa
fffffff9
ffffffff
00000002
fffffffe
0000000d
fffffff8
0000000a
0000000b
fffffff1
00000002
fffffffc
00000006
00000009
fffffff6
fffffff7
00000009
00000004
00000004
00000014
fffffffd
fffffff8
00000008
0000000d
0000000f
fffffffe
fffffff3
fffffffa
00000011
00000007
fffffff6
00000000
fffffffc
fffffff7
00000004
00000006
fffffff3
0000000c
fffffff2
00000005
00000001
fffffffe
ffffffff
ffffffef
ffffffff
00000008
fffffffd
0000000c
00000003
00000001
00000008
fffffffc
00000010
fffffff2
fffffffb
fffffff6
ffffffee
00000000
00000003
00000007
00000002
fffffff1
fffffffe
00000005
fffffff9
ffffffff
00000002
00000004
00000005
0000000d
00000006
00000005
fffffff8
00000002
fffffffe
00000024
fffffff8
fffffffb
fffffff3
00000024
fffffffd
ffffffff
fffffffc
fffffffa
fffffff7
00000000
fffffff8
0000000d
00000009
fffffffe
00000017
fffffffe
fffffffa
00000002
fffffffe
0000000c
fffffffd
fffffff5
00000006
0000000b
00000001
ffffffff
0000000e
fffffff5
fffffffe
00000009
fffffffe
00000004
fffffff5
0000000b
00000000
0000000a
0000000b
fffffff2
fffffffa
fffffff2
fffffff7
fffffff4
00000006
fffffff6
00000003
fffffffb
00000014
00000001
fffffff5
fffffff7
00000000
00000005
00000005
00000000
0000000b
00000002
fffffff8
fffffffd
fffffffd
00000002
00000007
fffffff9
ffffffff
00000004
fffffff3
00000005
fffffffc
00000012
fffffffb
fffffffb
fffffff4
00000002
fffffff8
0000000c
00000004
0000000d
00000001
fffffffc
0000000d
fffffff6
fffffff7
00000003
00000000
0000000a
fffffffb
00000001
fffffff6
fffffff6
0000000d
00000005
0000000a
00000004
fffffffe
00000002
fffffff7
00000004
ffffffff
ffffffff
00000000
fffffff2
ffffffff
00000000
fffffff9
fffffffe
0000000c
fffffffa
0000000b
0000000e
fffffffa
00000002
fffffffb
fffffff0
00000003
00000007
00000004
ffffffff
fffffffe
fffffffa
fffffff6
00000015
fffffffb
ffffffff
00000002
fffffff5
fffffff9
fffffffb
fffffff5
00000003
00000016
fffffffb
fffffffb
00000002
fffffff8
fffffff9
00000010
00000000
fffffff1
00000001
fffffffd
fffffffd
fffffffe
fffffffb
00000005
0000000e
00000007
fffffff6
fffffff9
00000005
0000000e
fffffffa
00000002
0000000a
fffffff8
fffffff6
fffffff4
fffffffd
fffffff9
0000000d
fffffffc
fffffff1
ffffffea
0000000c
00000002
fffffffa
00000000
00000017
0000000f
0000000c
fffffff5
fffffffd
fffffff5
00000012
fffffffc
ffffffff
ffffffff
fffffff2
fffffff8
fffffff9
00000002
fffffffe
fffffff4
00000006
00000009
0000000d
fffffffe
fffffffe
fffffff4
fffffff6
00000007
fffffffe
00000003
fffffff8
0000000b
fffffff7
ffffffee
fffffff3
fffffff9
fffffff5
fffffff6
00000004
00000000
00000002
fffffffe
0000000b
fffffffd
fffffffb
00000019
fffffffe
fffffffe
fffffff6
fffffffc
00000000
00000000
00000008
fffffff6
fffffff5
fffffff8
fffffffe
fffffffa
fffffff3
fffffffa
fffffff9
fffffffb
00000001
00000004
0000001f
ffffffff
fffffffe
00000005
00000003
00000008
ffffffff
fffffff2
fffffff8
fffffffe
00000000
fffffffc
fffffff9
00000001
ffffffff
00000007
00000005
fffffff9
fffffffd
fffffff5
fffffffa
00000000
ffffffff
00000003
00000004
0000000e
00000005
fffffff8
fffffffc
00000002
fffffffa
00000003
00000007
00000005
00000002
fffffff3
0000000d
fffffff7
fffffff7
fffffffe
fffffffa
0000000f
00000004
00000007
0000000b
fffffff4
fffffff9
fffffffd
fffffffd
fffffffa
ffffffed
fffffffe
00000008
00000002
fffffff5
ffffffff
fffffffc
fffffff6
fffffffc
fffffff8
fffffffc
00000008
fffffff2
fffffff8
fffffff7
ffffffff
ffffffff
00000001
00000002
ffffffff
00000002
fffffffa
fffffff2
0000000c
fffffffe
fffffffe
00000005
fffffff7
fffffffb
00000004
0000000b
00000005
fffffffc
00000008
fffffffc
00000003
ffffffff
0000000a
fffffff4
00000002
fffffff8
00000005
00000009
fffffffa
fffffff7
fffffff7
00000009
fffffffd
fffffffa
00000001
00000012
00000007
0000000e
0000001b
fffffffd
fffffffe
00000004
fffffff3
fffffff7
ffffffff
ffffffff
00000003
fffffff1
00000002
fffffffe
00000008
00000009
00000015
fffffffd
00000003
00000008
fffffffb
fffffffc
00000006
fffffff6
00000007
00000002
00000007
0000000a
00000000
fffffffa
fffffff8
ffffffec
fffffffd
00000005
fffffffa
fffffffa
00000005
fffffff8
fffffffa
fffffff7
00000004
fffffff7
ffffffec
fffffff8
00000002
00000000
fffffff4
00000007
00000000
fffffffd
00000001
00000002
fffffffa
fffffff7
00000003
00000004
00000002
ffffffeb
fffffff7
fffffffc
fffffff5
00000003
fffffffd
00000000
fffffff4
fffffffa
fffffff6
00000004
00000000
fffffffd
00000002
ffffffeb
fffffffe
0000000a
00000004
00000002
fffffffc
fffffffd
00000001
fffffffc
00000008
00000016
00000001
00000003
00000012
00000001
fffffff8
fffffff0
fffffff9
fffffffd
0000000d
00000004
fffffffe
fffffffc
00000005
fffffffe
0000000a
0000000c
00000002
fffffff7
fffffffb
fffffff6
fffffff7
fffffff3
ffffffff
fffffffc
fffffff9
fffffff1
00000003
00000006
fffffff9
fffffff9
00000009
fffffff8
00000003
00000000
fffffff5
00000003
00000000
ffffffe5
00000004
00000001
00000003
00000002
ffffffff
fffffffa
ffffffff
00000003
00000006
fffffff7
fffffffd
fffffff9
0000000e
00000000
00000001
0000000d
fffffffa
fffffffe
fffffffa
00000005
00000002
fffffffe
fffffff9
fffffffa
fffffff5
00000017
fffffffa
fffffff6
fffffffa
00000002
fffffffe
ffffffee
00000006
00000000
fffffff4
fffffff5
fffffff9
fffffffa
00000006
00000005
fffffffc
00000000
fffffffb
00000005
fffffff5
00000002
fffffffc
fffffff1
00000001
fffffff5
ffffffee
fffffffa
fffffffc
fffffff2
fffffffb
fffffff9
fffffffb
fffffffb
fffffff7
00000000
00000009
fffffff9
fffffff7
00000008
fffffff1
fffffff7
fffffff7
00000002
fffffffd
00000002
fffffffc
fffffff6
0000000a
fffffff8
fffffffc
00000008
fffffffa
00000000
fffffff5
00000015
fffffffd
ffffffee
fffffff6
0000000f
00000006
fffffffa
ffffffed
0000001f
fffffff6
fffffffd
fffffff2
fffffffa
00000001
fffffffd
00000005
00000004
fffffffd
fffffffe
0000000c
fffffff0
0000000f
00000004
fffffff9
fffffff4
fffffffd
00000002
fffffff2
fffffffb
0000000a
00000008
fffffffe
00000000
00000007
fffffffb
fffffff4
00000002
fffffffb
fffffffe
fffffff5
00000012
00000004
fffffffc
fffffffc
fffffffa
00000008
00000003
00000005
00000005
fffffff9
fffffff7
fffffffe
fffffffe
00000007
00000001
00000006
fffffff8
fffffff1
00000000
fffffffc
00000003
fffffffb
00000001
fffffffd
fffffffe
00000002
fffffffb
00000009
00000009
ffffffff
fffffffd
fffffff7
00000008
fffffff5
ffffffee
fffffff3
0000000b
fffffffe
fffffff8
fffffffd
fffffff9
00000006
fffffffc
fffffffd
fffffffc
00000000
fffffff6
00000005
fffffff8
ffffffff
00000006
0000000a
fffffff2
00000006
0000000c
00000001
00000007
0000000e
fffffff9
fffffffb
fffffff7
0000000d
fffffffa
fffffff8
0000000d
fffffffb
fffffff9
ffffffff
fffffffd
fffffff9
0000000e
fffffff4
00000003
00000004
fffffffe
fffffff2
00000002
0000001e
00000015
fffffffe
fffffff4
fffffffc
fffffffd
fffffff9
00000000
fffffff5
fffffff6
fffffff1
00000001
fffffff4
00000005
00000009
00000025
00000004
0000000a
00000006
ffffffff
00000001
00000005
fffffff5
fffffffb
fffffffb
fffffffd
fffffffe
fffffff8
0000000c
0000000b
fffffff6
fffffffa
fffffff4
00000003
00000005
fffffffa
ffffffe8
00000003
00000001
00000015
fffffff8
fffffff6
0000000c
00000001
fffffff4
00000005
00000002
fffffffe
00000003
fffffff6
fffffffb
fffffff5
0000000d
00000007
00000005
ffffffee
00000001
00000006
fffffffc
fffffff4
00000004
00000005
00000000
00000001
fffffffe
00000000
00000006
00000008
fffffffc
fffffffc
ffffffef
fffffff8
fffffffa
00000002
fffffff7
0000000a
00000010
fffffff5
00000002
0000000c
fffffffa
0000000d
00000004
fffffffd
00000004
fffffffc
fffffff9
0000000a
fffffffb
fffffffa
00000016
fffffff1
00000000
00000008
0000000a
00000003
00000008
fffffffc
fffffffd
fffffff1
fffffff3
fffffff9
00000003
ffffffff
00000004
00000012
0000000d
fffffff3
fffffffd
fffffffb
fffffffb
0000000b
00000000
fffffff6
00000008
00000008
0000000f
fffffffb
fffffff6
0000000b
fffffff4
fffffffb
fffffff2
00000005
0000000c
00000004
fffffffe
00000006
fffffff3
fffffff8
00000017
00000009
fffffffa
fffffffa
fffffff3
00000002
fffffff6
fffffffe
00000003
00000004
ffffffff
fffffff2
fffffffa
fffffffd
fffffffa
fffffff7
00000005
fffffff5
fffffffa
fffffffa
00000000
fffffff0
00000003
00000001
fffffffe
fffffffd
00000011
00000009
fffffff6
fffffff5
fffffff0
00000001
fffffff7
00000008
00000000
fffffff7
fffffff8
00000001
ffffffff
fffffffc
fffffff5
00000001
fffffffb
00000001
fffffff7
fffffffb
00000004
fffffff9
00000012
fffffffa
0000000a
fffffff5
fffffffc
fffffffd
00000002
fffffff8
fffffff8
00000003
00000001
fffffffe
fffffffc
fffffff8
ffffffef
00000003
fffffff2
0000000b
fffffffe
00000000
fffffff9
00000006
fffffffa
00000001
00000000
ffffffff
00000005
fffffffa
fffffff6
ffffffff
00000008
fffffff0
0000000a
ffffffff
fffffff6
fffffff7
fffffffb
ffffffed
00000001
00000003
00000000
00000009
00000010
fffffffa
00000002
00000001
00000000
00000006
fffffff7
00000005
00000002
fffffff3
00000002
00000002
00000001
00000003
00000006
00000005
00000002
ffffffee
00000007
00000015
fffffffc
00000007
00000001
ffffffe7
00000004
00000007
fffffff8
00000003
00000012
fffffff9
fffffffb
00000001
fffffff2
00000003
00000003
fffffffe
00000006
0000000d
00000000
fffffff4
fffffffa
fffffff5
fffffffa
0000000f
fffffffb
fffffffd
ffffffef
00000005
00000009
fffffff7
0000000e
0000000f
00000000
00000000
fffffffa
fffffff2
fffffffa
00000003
00000002
fffffff6
00000008
00000006
00000002
00000000
00000007
ffffffff
fffffff9
fffffffc
fffffff7
fffffff8
00000007
fffffffe
ffffffff
00000000
00000005
00000000
fffffffb
00000007
fffffff8
fffffffe
00000006
fffffff4
00000002
00000003
00000001
00000001
00000004
ffffffff
00000004
00000010
fffffff9
fffffff7
00000008
fffffff3
fffffffe
fffffff0
fffffff2
00000000
00000005
fffffff5
fffffff5
00000016
00000004
fffffff7
00000000
fffffffb
ffffffff
00000011
fffffffc
00000001
fffffffb
fffffff4
00000006
fffffffd
00000011
fffffff9
00000004
00000009
00000006
fffffffb
fffffff8
fffffffd
fffffffd
00000005
fffffffc
00000012
fffffff3
ffffffea
00000003
fffffffc
fffffffc
fffffffb
00000001
ffffffed
fffffff1
fffffffe
fffffffa
fffffffa
fffffffe
00000005
ffffffff
00000000
fffffffc
fffffffb
fffffff8
fffffff7
fffffff0
ffffffff
fffffffd
00000001
ffffffff
00000008
fffffffe
fffffff6
fffffffe
fffffff2
fffffffc
fffffff9
00000008
fffffffd
fffffff9
fffffffa
fffffff1
00000007
fffffff9
00000005
00000004
ffffffff
fffffffd
ffffffff
00000005
fffffffa
fffffffe
fffffff2
fffffffd
fffffffb
ffffffe8
0000000b
00000007
fffffff6
ffffffec
fffffffd
0000001c
0000000d
fffffffc
00000001
fffffff4
00000004
0000000b
fffffff6
fffffffb
fffffffd
00000009
00000002
00000017
00000009
fffffff4
fffffff6
00000009
00000002
00000005
0000000d
fffffff2
fffffffc
fffffff2
0000000b
fffffff9
00000009
fffffffd
fffffff9
00000004
fffffff9
0000000d
fffffff9
fffffffa
fffffffb
fffffff9
00000002
fffffff5
fffffff9
00000000
fffffffa
fffffff8
00000004
0000000e
00000005
00000002
00000000
00000003
fffffff9
00000002
00000018
00000001
00000001
00000010
ffffffff
0000000a
fffffffc
fffffff9
00000005
00000005
fffffff9
00000010
fffffff5
fffffffe
fffffffa
fffffff4
fffffffe
fffffff8
00000002
00000008
fffffff7
fffffffa
00000011
fffffffd
fffffff5
00000007
0000000b
fffffffa
fffffffb
fffffff8
00000000
00000005
ffffffef
00000006
fffffffa
ffffffff
00000014
fffffff2
00000002
00000005
00000009
00000003
fffffff6
fffffffe
fffffffb
00000008
00000000
fffffff9
fffffff3
00000007
fffffff8
00000005
00000000
fffffff4
fffffffb
00000004
fffffff1
00000005
00000001
fffffff1
0000000b
0000000c
fffffffa
00000005
fffffff8
00000001
00000004
fffffffd
00000008
00000002
fffffffa
0000000a
00000003
fffffffd
ffffffff
ffffffff
fffffff8
fffffffe
fffffffb
fffffffa
00000000
00000001
00000000
fffffff8
00000005
00000004
fffffff5
0000000f
fffffff8
00000001
fffffff7
0000001b
00000007
0000000a
00000001
00000001
ffffffff
00000009
00000002
00000005
fffffffc
00000006
fffffffa
00000004
fffffffb
0000000b
fffffff5
ffffffe9
0000000b
fffffffa
00000023
00000009
fffffff9
00000007
00000000
fffffff9
00000003
fffffff9
fffffffc
00000006
fffffff5
fffffff4
fffffff2
fffffff5
fffffff6
fffffff6
fffffffa
0000000a
ffffffe9
fffffff7
fffffffc
00000000
fffffff2
fffffff8
ffffffe6
00000002
0000000f
00000000
fffffff8
fffffffa
00000000
00000008
fffffffb
00000003
ffffffff
ffffffef
0000000c
fffffffd
fffffffd
fffffffd
fffffffb
00000006
fffffffa
ffffffee
fffffffa
fffffff6
00000006
00000003
fffffffd
fffffff7
fffffff5
fffffff9
0000000f
00000000
ffffffee
00000009
00000002
00000011
ffffffff
00000003
00000003
00000007
00000005
fffffff6
00000000
00000003
ffffffff
ffffffff
0000000d
fffffffa
fffffff7
fffffffc
00000003
fffffff4
fffffff9
00000004
0000000d
fffffffe
fffffff6
fffffffb
00000005
fffffff3
00000000
fffffff7
0000000c
fffffff9
fffffff1
ffffffef
fffffff1
00000007
00000009
fffffffc
fffffffe
fffffff4
00000000
fffffff8
fffffffe
00000002
fffffffe
0000000b
fffffffa
00000001
fffffff5
fffffffb
fffffff8
0000000a
fffffffb
fffffffa
00000007
00000003
fffffffd
00000007
fffffff4
00000008
fffffff8
00000001
fffffff7
fffffffc
fffffff5
fffffffc
00000008
fffffffe
fffffff3
00000001
fffffffe
00000001
00000008
00000005
fffffff6
00000003
0000000b
fffffffa
fffffff6
fffffff6
fffffffa
fffffffc
00000002
00000002
fffffffc
fffffffc
00000007
fffffffb
fffffff9
fffffff6
fffffffc
fffffff1
fffffffd
fffffffc
fffffffe
fffffff8
fffffffa
fffffffd
0000000a
00000001
fffffff6
fffffffd
fffffffa
00000006
0000000e
0000000f
fffffff6
ffffffff
fffffffd
fffffffc
00000004
00000003
fffffff9
00000001
fffffffe
fffffffe
00000005
00000004
00000002
fffffff5
ffffffee
fffffffa
00000002
0000000f
00000007
fffffffb
00000004
00000005
00000015
00000007
fffffffb
fffffffe
fffffff2
fffffffc
fffffff0
0000000d
fffffffc
fffffffe
00000011
fffffffd
fffffff7
0000000f
00000001
00000003
fffffffb
fffffff0
00000004
0000000b
fffffff7
fffffff1
00000009
00000002
fffffffc
fffffffa
0000000a
00000006
fffffff6
fffffff8
fffffff6
fffffff2
fffffff8
00000010
00000004
ffffffed
00000004
ffffffff
00000002
00000002
ffffffec
00000001
fffffff6
fffffffd
fffffffd
0000000b
fffffffc
0000000e
00000002
fffffff5
00000000
00000001
00000002
fffffffe
00000004
00000002
00000008
00000002
00000006
fffffffc
fffffff7
00000005
00000007
fffffff8
fffffffa
00000006
fffffff5
fffffffa
0000000a
ffffffff
fffffff5
fffffff7
fffffffd
ffffffff
00000002
00000008
fffffff6
00000001
00000009
00000001
00000005
fffffffe
ffffffff
00000005
00000002
00000009
00000005
fffffffe
fffffff2
00000010
00000000
fffffffa
fffffff6
fffffffb
fffffff7
00000004
00000002
00000003
fffffffa
fffffffb
fffffffb
fffffff6
fffffff9
0000000a
00000007
fffffffa
00000004
00000003
fffffff4
00000009
fffffff8
0000001f
fffffffa
00000001
00000004
00000004
fffffffd
fffffffd
fffffffe
00000000
0000000c
00000000
00000004
00000002
00000000
fffffff3
fffffff9
fffffffb
fffffff7
00000000
fffffff5
fffffffb
fffffffd
fffffffa
00000003
00000004
fffffff7
fffffff9
fffffffe
00000004
00000005
fffffffd
00000002
ffffffff
fffffff2
00000007
fffffff1
fffffff7
fffffffb
0000000b
fffffff7
00000009
fffffffb
ffffffff
fffffff9
0000000c
fffffff4
00000001
fffffff2
00000013
00000004
fffffffe
00000010
00000007
fffffffe
00000008
00000004
00000005
00000009
0000000d
fffffffd
0000000a
fffffffa
00000009
fffffff8
00000015
00000000
fffffff9
0000000c
fffffffe
fffffffc
00000002
fffffffc
fffffff7
fffffffe
fffffff8
fffffff9
00000002
fffffff8
fffffff8
00000005
00000011
fffffff5
fffffffb
fffffff6
00000003
0000000c
00000007
00000005
fffffff8
00000004
fffffff9
00000004
fffffff6
fffffffa
fffffff1
00000003
00000003
00000001
ffffffff
fffffffc
fffffffb
00000000
0000000b
00000000
fffffff7
00000004
fffffffb
00000005
fffffff3
00000008
fffffff4
fffffffc
00000000
00000002
fffffff6
ffffffea
fffffff8
fffffffc
fffffffc
00000006
fffffffd
fffffffb
00000002
fffffffc
fffffff4
ffffffff
00000003
ffffffff
00000006
fffffff3
00000009
0000000a
00000000
00000003
fffffffd
00000006
0000000b
fffffff7
fffffff4
00000000
00000008
fffffffa
0000000f
ffffffed
00000002
ffffffff
ffffffff
00000013
fffffff2
ffffffef
fffffff5
0000000f
00000004
0000000b
ffffffed
00000004
0000000a
ffffffff
00000001
fffffffb
ffffffef
0000000d
00000006
fffffffa
fffffff9
00000004
00000001
00000000
ffffffff
00000004
00000002
fffffff1
00000000
fffffff7
fffffff8
fffffffd
00000004
00000000
fffffff7
00000007
fffffff7
00000009
0000000a
00000003
fffffffc
00000007
00000000
fffffffa
fffffffa
fffffff7
fffffff5
ffffffef
00000006
00000003
00000003
fffffff3
00000004
00000000
fffffffd
fffffffc
fffffffc
fffffff8
00000009
0000000b
fffffffa
00000005
00000001
00000002
00000002
00000002
fffffff3
fffffff4
fffffffc
fffffff4
00000003
fffffffc
00000002
fffffffd
fffffffc
00000002
fffffff7
00000001
fffffffc
fffffffc
fffffffd
00000000
fffffffc
00000002
fffffffb
fffffffd
fffffff6
00000016
0000000a
00000008
00000009
fffffff7
fffffff5
0000000a
ffffffff
fffffffb
00000024
00000019
00000000
fffffffd
ffffffff
0000001d
fffffff9
fffffffd
ffffffef
00000007
00000006
00000005
00000000
fffffffb
fffffff9
00000002
00000006
00000002
00000006
00000001
fffffff0
00000001
00000007
00000005
fffffff7
00000001
00000004
fffffffd
fffffffa
ffffffea
ffffffff
fffffff9
00000004
fffffffa
0000001b
00000004
fffffff4
fffffff9
00000000
00000008
00000005
fffffff2
fffffffd
fffffff9
00000001
ffffffff
fffffffd
fffffffa
fffffff8
00000004
fffffffa
00000006
00000006
0000000a
fffffffb
fffffffd
ffffffed
ffffffff
00000005
00000003
fffffff6
fffffff7
fffffff6
00000001
00000009
ffffffec
00000008
00000001
00000000
fffffff8
00000000
00000004
fffffffb
00000009
fffffffd
fffffffc
fffffff8
00000007
fffffffe
00000004
fffffffa
00000005
0000000b
fffffffd
0000000e
00000000
ffffffff
ffffffef
00000002
fffffff8
fffffffe
00000006
00000002
00000022
00000009
ffffffed
00000004
fffffff4
fffffffc
fffffffd
00000016
00000002
00000008
fffffffb
00000005
00000002
00000004
00000013
00000004
00000008
00000002
00000000
fffffff9
fffffffa
fffffffb
00000024
fffffff8
fffffff5
fffffffc
ffffffe7
fffffffd
fffffff8
fffffff4
ffffffef
fffffff8
fffffff8
00000004
fffffffc
0000000d
00000002
fffffffe
ffffffef
00000005
fffffff2
ffffffff
ffffffed
00000007
00000001
0000000c
0000001d
00000000
fffffff2
fffffffe
00000000
0000000b
fffffffe
00000002
fffffff8
00000007
00000002
ffffffe8
00000005
0000001f
ffffffef
00000003
00000011
fffffff4
fffffff1
00000019
00000019
ffffffed
00000005
fffffff9
0000000b
fffffff7
00000015
fffffffc
ffffffee
00000004
fffffff6
fffffffb
ffffffee
00000013
fffffff8
fffffff2
fffffff4
fffffffa
fffffffc
0000000e
0000000f
fffffff8
ffffffea
fffffffe
fffffff4
fffffff8
00000000
ffffffeb
fffffffd
00000001
00000000
fffffffc
0000000a
00000000
00000001
00000001
00000005
00000006
fffffff1
ffffffff
00000006
00000003
00000008
00000001
fffffff0
fffffffe
fffffffb
ffffffe3
00000001
00000003
ffffffed
00000004
00000020
00000003
ffffffee
0000000a
00000004
00000000
00000010
00000003
fffffffe
fffffffa
ffffffe9
00000005
ffffffee
fffffff9
0000000b
fffffffd
00000001
ffffffee
0000000b
fffffffe
fffffff0
00000006
fffffffd
fffffffc
fffffff6
fffffffc
00000007
ffffffff
ffffffee
fffffffd
ffffffe6
fffffff1
00000002
00000008
00000001
00000005
fffffff6
00000005
00000008
fffffffa
00000009
00000003
fffffffa
0000000a
fffffffe
00000009
fffffff0
0000000f
fffffff2
fffffff4
00000006
fffffffb
00000009
00000023
00000015
ffffffef
fffffff0
00000012
fffffff6
00000006
fffffff8
00000011
00000000
0000000a
0000001a
00000006
fffffffb
ffffffff
fffffff4
fffffffe
ffffffff
fffffff2
00000004
fffffff4
fffffff1
00000007
0000000e
fffffffe
00000002
fffffffe
ffffffff
fffffffe
00000006
fffffffd
fffffff7
00000001
0000000b
fffffffe
fffffff8
fffffff9
00000002
fffffff4
0000000c
00000008
0000001a
fffffffb
fffffff2
ffffffff
ffffffe8
fffffffd
00000020
ffffffe4
00000011
00000001
00000000
00000006
0000000c
ffffffff
ffffffff
fffffff3
fffffff9
fffffffd
fffffff6
fffffff6
0000000f
00000005
ffffffff
0000000a
fffffff9
00000000
00000006
fffffff0
fffffff0
fffffff3
fffffffb
fffffff8
0000000d
00000005
fffffff7
fffffffa
00000000
00000007
00000003
00000001
00000019
00000000
0000000e
00000000
ffffffed
0000000c
fffffff5
ffffffec
ffffffff
00000011
fffffff0
fffffff6
ffffffee
0000000a
fffffff6
fffffffd
00000009
fffffff3
0000000c
ffffffea
00000001
00000009
ffffffe4
00000002
fffffff6
fffffffa
fffffffc
fffffffd
fffffff5
fffffff9
fffffffe
fffffff8
fffffff9
00000003
0000000b
00000011
fffffff9
0000001d
0000000d
00000002
00000003
00000003
fffffffc
ffffffea
fffffff3
fffffffd
00000009
fffffff4
ffffffff
fffffff5
0000000c
00000004
fffffff7
00000005
fffffff1
fffffff2
0000000d
fffffffe
00000007
ffffffef
0000000e
fffffffe
fffffff3
fffffff4
ffffffec
00000005
00000010
00000008
fffffffb
fffffffc
fffffffc
00000018
fffffffa
fffffffb
fffffff5
00000008
00000014
00000000
fffffff2
fffffffd
fffffff5
00000005
fffffffc
fffffff4
0000000f
fffffff6
00000009
00000002
00000004
ffffffff
00000006
ffffffe5
00000006
00000003
00000011
00000012
fffffffa
ffffffec
00000009
ffffffe9
00000005
fffffffc
00000018
fffffff8
fffffffc
0000000f
00000008
fffffff9
fffffff2
00000003
fffffffd
00000001
fffffff8
fffffffb
fffffff7
fffffff0
00000002
00000000
0000000f
0000000a
00000002
fffffff5
fffffffb
fffffff7
ffffffee
00000007
fffffffe
ffffffff
fffffffc
00000003
fffffff8
fffffffa
fffffff1
00000022
00000014
fffffffd
00000000
0000000f
0000000f
fffffffb
fffffff0
00000007
0000002b
fffffff9
0000000c
00000019
fffffffb
fffffffd
fffffffd
00000004
fffffffb
00000008
00000000
fffffffe
fffffffb
fffffffe
fffffff0
00000009
fffffffe
fffffff7
00000003
fffffff5
ffffffff
0000000d
fffffff9
fffffffa
00000000
ffffffff
00000003
00000009
ffffffff
0000000f
fffffff0
ffffffed
fffffff9
fffffff2
00000009
ffffffef
fffffff2
00000005
fffffffe
00000019
00000005
ffffffed
00000001
fffffffc
fffffffd
fffffff7
00000009
0000000c
fffffff6
0000000d
fffffffc
fffffffb
00000006
fffffff4
fffffffe
00000001
fffffff4
00000000
fffffffb
00000004
ffffffff
0000000f
00000016
ffffffee
fffffff8
00000000
fffffffa
00000001
fffffff5
fffffffa
fffffff4
fffffff5
00000007
ffffffe9
fffffff7
ffffffe6
0000000e
00000006
00000016
00000008
00000013
fffffff9
00000005
00000016
00000004
00000014
00000003
00000002
0000002a
fffffffd
ffffffff
00000011
00000008
fffffff8
0000000e
ffffffe5
00000003
00000005
00000008
ffffffef
fffffff8
fffffff3
fffffffb
fffffff5
fffffffd
00000005
fffffffc
fffffffd
ffffffff
ffffffef
fffffffc
fffffffc
fffffff8
00000005
fffffff6
fffffff8
00000005
fffffff1
00000006
00000016
0000000c
00000003
00000000
00000002
fffffffe
00000012
00000006
fffffffe
fffffffa
00000009
00000007
0000000d
0000000b
00000007
fffffffe
fffffff6
00000004
fffffff3
00000003
00000002
fffffffd
00000000
00000003
fffffffd
fffffffa
0000000e
00000008
00000001
fffffffa
fffffffa
00000003
fffffff9
fffffffc
00000017
fffffff1
00000006
00000018
00000003
fffffff6
00000006
fffffff7
00000005
0000000e
fffffffe
ffffffee
fffffffe
00000005
fffffff9
fffffffb
00000002
0000000a
fffffffe
00000000
00000009
00000003
00000012
fffffff8
00000012
fffffff9
ffffffe9
fffffff3
fffffffd
fffffff9
0000000b
0000000d
00000003
fffffff2
fffffff5
00000000
0000000f
fffffffc
fffffff6
00000001
fffffffe
fffffffd
fffffff7
0000000b
00000008
00000004
00000007
00000001
fffffff5
fffffff1
fffffff7
fffffffc
00000000
fffffff1
00000000
00000017
fffffffb
00000010
fffffffe
0000000a
00000002
00000007
00000002
0000000b
fffffff3
fffffffc
fffffffe
fffffff0
00000004
fffffff2
00000007
ffffffe9
fffffff0
00000010
fffffffb
00000008
00000006
00000004
ffffffe9
fffffffb
fffffff4
00000014
00000001
fffffff9
fffffffe
00000001
fffffffc
0000001b
00000001
fffffffc
0000000c
00000027
fffffff2
00000011
0000000e
00000008
00000008
fffffff9
00000008
fffffff5
fffffff7
fffffff9
0000000f
00000009
fffffff1
0000000d
ffffffec
fffffffd
ffffffff
fffffffa
fffffffe
fffffff7
fffffffd
fffffffc
ffffffef
00000014
00000006
00000004
0000000f
00000005
fffffff3
fffffff5
00000009
fffffffe
fffffffa
fffffffe
00000000
00000005
0000000c
fffffffc
00000003
ffffffe4
fffffff4
00000006
00000003
fffffff9
fffffff9
fffffffe
fffffffb
fffffff7
fffffff6
fffffffd
0000000a
00000005
fffffff4
00000006
00000023
00000005
fffffffb
ffffffe4
fffffff0
00000018
fffffff8
0000000d
fffffff1
fffffffa
fffffff4
fffffff9
fffffffd
fffffff6
0000000b
00000001
00000004
fffffffa
fffffffe
fffffffa
0000000e
fffffff1
fffffffa
fffffff6
fffffff9
00000005
00000007
ffffffff
fffffff5
fffffff4
fffffffe
fffffffe
0000000a
fffffff9
00000005
00000004
fffffffd
00000001
00000011
00000007
fffffff4
00000003
00000001
fffffff1
00000005
00000001
0000001f
fffffff5
ffffffef
0000000c
00000001
00000004
0000001e
fffffff8
fffffffc
00000005
fffffff8
fffffff9
00000003
ffffffff
ffffffee
0000000d
ffffffff
fffffff7
fffffffa
ffffffea
fffffffd
00000003
00000010
fffffff1
00000005
fffffff7
fffffff9
00000003
fffffff7
00000023
fffffffa
fffffffb
fffffff1
00000021
fffffffc
ffffffff
fffffff7
fffffffd
0000000a
00000002
fffffffd
fffffffa
fffffff7
fffffff9
00000008
00000005
0000000a
00000009
ffffffed
00000009
ffffffff
00000010
fffffffb
00000017
fffffffb
fffffff3
fffffff6
00000003
00000004
fffffff5
0000000a
00000008
00000002
fffffff7
00000004
00000002
fffffffb
00000000
ffffffe3
fffffff9
00000009
00000002
fffffff7
00000006
fffffff7
fffffffd
00000003
00000004
00000005
00000003
fffffff5
00000018
ffffffe7
0000000d
fffffffa
00000001
fffffffe
00000006
ffffffe5
ffffffff
fffffff9
0000000b
00000004
fffffff5
00000006
fffffffa
00000009
fffffff6
fffffffd
ffffffe8
00000000
ffffffff
0000000f
00000004
fffffffe
fffffff7
fffffff7
fffffff8
ffffffef
fffffffe
fffffffd
00000001
fffffff5
00000009
0000000c
00000006
00000006
fffffffa
00000005
00000002
ffffffee
fffffffa
00000005
ffffffed
fffffff9
00000003
fffffffb
fffffff4
0000000d
fffffff7
fffffff8
00000000
00000003
fffffffd
00000011
fffffff8
fffffffe
ffffffef
0000000e
ffffffff
00000002
00000002
fffffff7
fffffffc
fffffffe
00000007
00000010
fffffff2
fffffffd
00000001
00000006
00000037
fffffffd
00000004
ffffffea
00000000
fffffff9
fffffffd
fffffffe
fffffff5
fffffff2
00000004
fffffff1
0000000b
00000004
ffffffff
00000007
0000000a
00000009
fffffff2
fffffffb
0000000d
0000000f
fffffff3
ffffffff
fffffff7
00000003
fffffffd
00000001
ffffffea
fffffffd
00000001
00000000
00000002
fffffff9
00000003
ffffffef
fffffffd
fffffff7
00000014
fffffffc
fffffffc
fffffffe
0000000f
fffffff6
fffffff4
00000011
fffffffc
ffffffed
fffffff8
ffffffff
00000013
0000000e
ffffffe3
fffffff7
fffffffa
fffffffa
fffffff1
00000000
fffffffe
fffffff3
00000009
0000000c
0000000d
ffffffff
00000005
fffffff2
00000006
ffffffde
00000008
ffffffff
00000002
ffffffed
00000002
00000003
0000000f
0000000f
0000000a
00000007
fffffff3
ffffffff
00000011
00000003
00000007
ffffffe3
fffffffe
00000000
fffffffa
0000000a
00000005
ffffffe9
fffffffe
0000000b
0000001e
fffffffe
00000004
fffffffa
00000007
00000015
00000004
fffffffe
fffffff6
fffffff8
00000001
00000002
00000007
ffffffff
0000000a
00000006
fffffffb
fffffff8
fffffff5
fffffff8
ffffffff
00000007
fffffffa
00000009
00000002
ffffffe8
ffffffff
00000010
ffffffff
00000006
00000007
0000000c
fffffffd
fffffffd
fffffff5
00000001
fffffffb
fffffff3
00000005
ffffffed
fffffff6
fffffff5
00000010
ffffffff
fffffffc
00000005
fffffffe
0000000a
fffffff5
00000003
fffffffe
fffffff5
0000000a
00000005
00000017
ffffffff
00000016
fffffffc
00000006
ffffffec
fffffff4
fffffffa
fffffffa
00000002
ffffffee
fffffffe
00000005
00000006
0000000d
fffffffb
00000006
fffffff9
fffffff7
fffffffd
fffffff9
fffffff9
00000015
fffffffe
fffffff9
fffffff4
fffffff6
00000003
0000000a
fffffffb
fffffffd
00000005
00000007
0000000d
fffffff3
00000000
0000000c
00000007
00000002
00000004
fffffff8
00000007
fffffff7
fffffffe
00000000
00000006
fffffffe
fffffffa
fffffff1
00000007
00000009
00000008
0000000c
ffffffec
ffffffee
fffffff7
00000015
fffffffd
fffffff8
fffffff6
0000000a
fffffffb
00000005
00000004
00000002
fffffff9
fffffff2
fffffff7
00000002
ffffffff
fffffffa
fffffff8
00000001
fffffffc
00000008
fffffffa
00000002
00000001
fffffff8
fffffffe
fffffffe
fffffff9
fffffff6
0000000c
fffffff2
00000002
fffffffa
fffffffa
00000000
00000001
00000008
fffffff7
00000003
fffffffd
00000005
00000001
00000009
00000005
00000001
fffffff0
fffffffa
00000014
00000007
00000006
00000002
fffffff7
00000017
fffffffb
fffffffc
fffffff6
fffffffd
fffffff9
fffffff7
fffffffb
fffffffb
00000003
ffffffff
00000000
fffffff8
0000000e
0000000a
00000003
fffffffb
00000002
00000001
0000001c
00000014
00000007
fffffff9
fffffff7
fffffff9
ffffffff
fffffff6
fffffff6
fffffffb
fffffff6
00000001
fffffffe
fffffff6
00000001
fffffff1
00000007
00000004
00000001
00000004
fffffffc
fffffffa
00000002
fffffff9
00000013
fffffff9
fffffffb
0000000b
0000000e
fffffff3
fffffffd
fffffff6
00000005
00000004
fffffffa
fffffffe
fffffffc
fffffffc
00000005
fffffff3
00000004
00000007
0000000d
0000000a
00000001
00000004
00000010
00000000
fffffff7
0000000a
00000000
0000000f
0000000c
fffffffc
fffffff5
fffffff8
fffffffd
00000004
fffffffe
fffffffb
fffffffd
00000001
fffffff1
00000007
fffffffe
00000000
00000002
00000007
fffffffa
fffffffe
00000002
0000000a
0000000f
fffffffb
0000000b
00000002
00000002
fffffff9
00000001
00000011
fffffffa
fffffff6
00000005
00000006
fffffff7
fffffffa
00000009
fffffff7
fffffffb
fffffffa
00000011
0000000b
00000014
fffffff3
fffffff6
0000000d
fffffff9
fffffff7
fffffff8
0000000c
fffffffd
00000003
00000005
0000001a
00000003
00000001
fffffffa
fffffff9
00000002
fffffffa
fffffff6
fffffff0
fffffff9
fffffff2
00000007
fffffffd
00000007
fffffff7
0000000c
ffffffff
00000000
00000000
00000014
00000004
00000016
fffffff5
00000000
00000012
00000006
fffffffe
fffffff9
fffffff6
00000005
fffffff5
fffffff5
ffffffef
00000008
fffffff9
0000001c
fffffff6
fffffffc
00000007
fffffff3
fffffff4
00000003
0000000a
00000007
fffffffc
0000000b
fffffffa
fffffffb
00000003
00000001
00000000
ffffffff
00000002
00000001
fffffff7
00000016
fffffffd
00000001
ffffffff
fffffffb
fffffffd
00000003
00000002
00000010
00000000
fffffffd
0000000a
fffffffc
fffffffd
00000005
00000004
fffffffd
fffffff2
fffffff6
0000000a
00000001
fffffffa
fffffff2
00000008
fffffffc
fffffff7
fffffff7
fffffffb
ffffffff
0000000f
00000000
00000009
0000000b
00000001
0000000a
00000005
ffffffef
fffffffa
fffffff6
fffffffe
00000002
fffffffd
00000009
0000000b
00000015
fffffffc
fffffff7
00000001
fffffff9
00000008
00000004
fffffffa
00000000
00000003
00000002
fffffffc
fffffff7
0000000f
fffffff5
00000018
00000006
00000001
00000006
fffffffc
00000000
fffffffa
fffffff5
fffffff9
fffffff4
fffffffa
00000001
fffffffb
00000009
fffffffb
fffffff9
fffffffb
ffffffea
fffffff1
fffffffc
fffffff2
00000013
fffffff8
fffffffb
00000008
fffffff7
fffffffe
00000005
00000009
ffffffff
fffffffc
fffffff9
00000007
fffffffe
fffffffb
00000005
0000000a
00000009
00000002
fffffffa
ffffffff
fffffffc
00000002
00000001
fffffffe
00000009
00000007
00000000
00000001
00000000
00000010
fffffff8
00000001
fffffffe
00000009
ffffffff
ffffffea
ffffffed
00000007
00000006
00000008
ffffffff
fffffffe
fffffff9
00000003
ffffffff
00000005
fffffffe
00000000
fffffff3
fffffff5
00000002
fffffffd
ffffffff
00000003
0000000f
00000002
00000004
00000000
0000000d
fffffff9
00000006
fffffffd
00000000
fffffffb
00000001
fffffff3
ffffffee
0000000c
ffffffff
fffffffe
00000005
0000000a
fffffffd
00000006
fffffff5
00000008
ffffffff
ffffffef
00000008
00000007
00000006
00000002
0000000c
fffffff9
00000006
00000000
00000001
00000003
00000001
fffffffd
00000000
fffffff8
fffffffb
00000009
00000003
00000001
fffffffc
fffffffb
ffffffff
00000025
fffffff9
fffffffb
00000008
fffffffa
fffffff7
00000005
00000001
fffffffa
00000007
00000001
ffffffff
00000009
fffffff7
fffffff0
fffffffb
ffffffee
fffffff9
fffffff4
fffffff6
fffffffb
00000001
00000004
fffffffd
fffffff3
00000001
0000000b
00000002
fffffffc
00000001
0000000b
fffffff3
00000000
fffffffd
fffffff2
fffffff1
fffffffd
fffffffd
00000004
00000002
00000002
fffffff5
fffffff3
fffffff8
ffffffea
0000000f
ffffffef
00000004
fffffff4
fffffff6
0000000c
0000000b
00000001
00000003
fffffffa
fffffffc
0000000c
00000004
00000002
00000003
00000005
00000000
0000000c
fffffffc
0000000b
00000005
00000002
ffffffff
fffffffb
fffffffe
fffffffd
00000001
fffffff9
fffffff6
00000007
00000002
fffffff2
00000008
ffffffff
ffffffed
ffffffee
ffffffff
00000000
fffffffb
fffffff3
fffffffe
fffffff6
fffffffe
0000000e
00000003
ffffffe9
fffffffd
00000008
00000020
fffffffe
fffffff9
fffffffa
fffffff6
fffffff7
fffffffa
fffffff3
ffffffff
fffffff9
fffffff4
fffffffe
fffffffe
fffffff0
fffffff0
00000006
fffffffb
00000000
fffffff7
ffffffee
00000000
ffffffee
00000002
fffffffc
00000008
fffffffb
fffffffc
ffffffe9
0000000d
0000000d
fffffff2
00000006
00000004
fffffffb
0000000c
fffffff7
ffffffff
00000005
00000003
00000000
0000000a
fffffffb
ffffffee
ffffffff
fffffffa
00000004
fffffffc
fffffffa
fffffff7
00000003
00000001
ffffffeb
fffffffd
fffffff9
0000000b
00000008
00000005
fffffff6
fffffffb
00000008
ffffffe6
00000006
fffffffe
00000000
fffffff5
00000000
00000001
fffffffc
fffffff8
00000007
00000002
fffffff0
00000017
fffffffd
00000017
fffffffe
fffffffa
fffffffa
fffffffd
fffffffe
ffffffff
ffffffff
fffffffd
00000003
fffffffc
00000009
0000000b
00000001
ffffffef
fffffff6
ffffffff
00000008
00000004
00000008
0000000b
00000011
fffffffc
fffffffb
fffffffd
fffffffb
fffffffd
00000007
fffffff5
fffffffb
fffffff9
fffffff6
fffffff8
00000007
fffffff9
00000012
00000004
0000000c
00000004
00000001
ffffffed
fffffff4
fffffff7
00000003
fffffff7
ffffffff
fffffffd
00000005
00000008
0000000d
ffffffff
fffffff1
fffffff5
00000005
fffffff6
00000004
fffffffb
fffffffb
fffffffb
00000000
0000000b
fffffffa
fffffffb
fffffff4
fffffff0
00000005
fffffffe
fffffffd
fffffffe
0000000b
fffffff8
fffffffb
ffffffff
00000002
fffffffb
00000003
00000002
00000003
fffffffc
00000006
00000005
ffffffff
00000001
00000004
0000000a
fffffff5
fffffff7
00000005
00000006
00000009
ffffffff
00000006
00000001
0000000b
fffffffa
0000000b
fffffffc
00000009
fffffff5
fffffff4
00000002
0000000a
0000000a
fffffff8
00000018
00000003
fffffffa
00000006
00000006
ffffffff
fffffff4
fffffffe
00000000
fffffffa
00000014
fffffffd
fffffff9
00000002
fffffffc
00000006
00000001
00000000
00000010
00000005
0000000d
0000000e
fffffffd
fffffff7
00000000
fffffffc
ffffffff
fffffffe
fffffff8
fffffffd
fffffff5
00000003
00000002
fffffff5
fffffffb
fffffff6
fffffff8
fffffffc
00000000
00000001
ffffffee
fffffffc
fffffff9
00000004
00000005
fffffff0
00000021
00000001
0000000b
00000001
00000003
fffffff9
fffffff6
ffffffff
fffffffd
fffffffb
fffffff7
00000009
fffffff4
fffffff8
0000000d
fffffffb
fffffffb
fffffffa
00000002
fffffff8
fffffff4
fffffffb
00000001
00000005
fffffffe
fffffffa
fffffffa
0000000a
00000001
fffffffd
fffffffd
fffffff3
00000001
fffffff2
fffffff9
00000005
fffffff8
00000006
fffffff6
fffffffe
0000000b
00000006
00000005
fffffffc
00000017
00000012
fffffff8
fffffff5
fffffff1
fffffffd
00000003
00000008
ffffffef
00000005
fffffff9
ffffffff
fffffff5
00000003
00000002
0000000a
00000001
fffffff7
00000004
00000019
00000005
fffffff9
fffffff2
00000000
fffffff5
fffffffe
00000001
fffffffd
0000000a
00000000
00000005
ffffffff
00000004
00000000
fffffff2
00000002
00000006
fffffffe
00000017
00000002
00000006
fffffff3
00000006
00000004
0000000a
00000005
fffffff7
00000004
fffffff5
00000006
00000000
00000004
00000002
00000006
fffffffb
fffffffb
fffffff7
00000006
00000000
0000000a
00000009
fffffff8
fffffff2
fffffff9
fffffff6
00000011
00000009
00000004
00000005
fffffff4
fffffff5
00000007
00000001
fffffff7
fffffff8
fffffff1
0000000e
ffffffff
00000006
00000005
00000009
fffffff5
fffffff1
fffffffc
ffffffff
fffffffb
fffffffe
ffffffea
fffffff7
0000000e
fffffffd
00000000
fffffff7
fffffff5
ffffffff
00000003
fffffff8
0000001e
fffffffb
fffffff3
00000002
00000001
fffffffe
fffffff2
0000000c
fffffff8
00000016
fffffff9
fffffff7
fffffffc
fffffff6
00000031
00000009
fffffffb
00000003
ffffffff
fffffff1
00000002
00000008
fffffffb
fffffff0
00000000
fffffff1
ffffffef
fffffff7
fffffff3
ffffffff
00000004
fffffff8
00000004
00000008
00000001
00000006
fffffff2
00000005
00000002
fffffff6
fffffff3
ffffffff
fffffffe
00000002
fffffff6
00000000
fffffff6
ffffffff
fffffff8
fffffff5
fffffff2
fffffffb
00000001
00000001
00000000
ffffffef
fffffffd
fffffffe
00000002
fffffffa
fffffff9
fffffff9
ffffffff
00000005
ffffffff
ffffffed
fffffffe
fffffffa
fffffffe
00000003
fffffff9
0000000b
00000001
00000007
00000007
fffffff7
fffffffa
fffffffa
00000002
0000001c
fffffff7
fffffffd
fffffff9
00000003
fffffff6
00000001
fffffff5
00000000
ffffffee
fffffffe
fffffff9
fffffffb
00000009
fffffffd
fffffffd
00000003
fffffffc
00000000
fffffffd
fffffffc
ffffffec
fffffff6
fffffff7
00000002
fffffff7
00000001
00000005
00000011
fffffffd
00000006
00000002
fffffffc
fffffffa
fffffff9
0000000b
0000000b
fffffff9
00000002
00000009
00000004
00000002
00000005
ffffffff
00000007
ffffffff
00000006
fffffffc
fffffffa
fffffff0
fffffff1
fffffff7
0000000c
fffffff7
fffffffd
fffffffb
00000001
00000008
fffffff3
00000007
fffffff8
00000001
00000000
00000000
ffffffff
00000007
00000002
00000001
0000000a
fffffffb
00000002
00000000
ffffffff
fffffff4
fffffffc
fffffffb
fffffffa
00000007
fffffffe
00000006
fffffff7
fffffffd
00000007
ffffffff
fffffff2
00000009
00000004
00000005
fffffff9
fffffff2
0000001a
00000008
fffffff8
fffffffe
00000001
fffffffd
fffffffb
fffffff5
ffffffff
fffffffe
0000000a
fffffffb
fffffff2
fffffffb
00000008
fffffff4
fffffffc
fffffffd
00000004
fffffff1
fffffff6
00000007
fffffffd
fffffff1
00000002
0000000a
00000009
fffffffa
fffffffc
00000000
fffffff3
fffffff5
fffffffe
00000000
ffffffff
fffffff8
00000004
00000009
00000002
fffffffb
0000000e
00000007
00000004
ffffffff
00000005
00000003
fffffff6
00000007
fffffffb
0000000f
00000007
ffffffff
ffffffef
fffffffe
00000017
fffffff0
fffffffa
fffffff2
00000004
fffffff7
0000000b
00000006
00000003
00000003
00000000
00000001
00000011
ffffffff
ffffffff
00000004
fffffff2
00000003
fffffffe
00000002
fffffffc
fffffffa
fffffffe
00000004
fffffffb
fffffff4
00000005
00000002
fffffffb
fffffff8
00000010
00000005
00000006
00000003
00000004
00000006
0000000b
fffffffb
fffffff8
fffffffc
00000013
fffffffb
00000010
0000000c
fffffffb
00000001
fffffff8
fffffffa
00000005
0000000f
fffffffc
00000007
fffffff4
00000004
00000002
00000000
00000008
fffffff9
0000000a
00000002
fffffffe
fffffff5
00000005
00000002
fffffffb
fffffff1
00000001
fffffffa
00000005
fffffff6
00000000
fffffffb
fffffff9
fffffffe
0000000d
fffffff3
00000007
00000006
fffffffb
00000005
fffffffb
00000007
fffffff7
ffffffe4
00000010
00000013
00000007
fffffff7
fffffffb
fffffff3
fffffffe
fffffff9
fffffffd
fffffffc
fffffffa
fffffffe
fffffffc
fffffffc
00000001
fffffffa
00000003
fffffff5
00000007
fffffffc
fffffff7
fffffffd
00000002
0000000b
fffffffe
fffffffe
00000000
00000002
00000003
00000002
00000013
00000022
0000000a
00000004
00000005
fffffff6
00000015
ffffffee
fffffff7
fffffff9
fffffff8
00000005
00000000
fffffffb
0000000c
fffffff8
fffffffe
00000001
00000006
fffffffa
0000000b
00000003
0000000b
fffffff6
00000004
00000002
fffffffc
00000006
fffffffd
fffffffa
00000008
fffffffe
00000003
00000009
fffffff2
ffffffe3
ffffffe2
00000008
fffffff4
00000001
fffffff7
fffffffd
00000009
0000000d
00000000
00000005
fffffff9
00000002
fffffffa
00000007
00000006
fffffff1
00000001
00000003
fffffffe
fffffffb
00000001
fffffff8
fffffff5
fffffff8
fffffffe
fffffffa
fffffff8
00000002
0000000d
fffffff9
00000000
00000002
0000000a
fffffff5
00000006
fffffff8
fffffffe
fffffff9
fffffffe
fffffff0
fffffff0
fffffffd
fffffffc
fffffff9
fffffffa
fffffffb
00000012
0000000c
fffffffe
fffffffa
00000005
fffffff9
ffffffed
0000000a
00000005
00000007
00000002
0000000a
ffffffff
00000009
fffffff8
fffffffd
fffffff5
fffffff3
00000002
00000009
0000000f
fffffffd
00000002
00000008
fffffff5
0000000c
00000003
fffffffb
00000011
fffffff4
fffffffc
ffffffef
00000005
00000004
fffffff7
0000001a
00000005
fffffff8
0000000d
ffffffec
00000008
0000000a
fffffffc
fffffffd
00000011
ffffffee
fffffff7
fffffffd
fffffffd
00000006
00000005
fffffff9
fffffffe
fffffffd
fffffffb
fffffff8
00000005
ffffffff
00000016
00000000
fffffffb
00000007
00000002
0000000d
fffffff5
fffffffa
00000007
00000008
fffffffa
0000000a
fffffffd
fffffffc
fffffffe
00000004
fffffff5
00000001
fffffff5
0000000f
fffffffc
0000000c
fffffff6
fffffff9
fffffffb
00000003
fffffffe
00000008
00000006
fffffffe
ffffffe8
fffffff9
fffffff4
00000009
ffffffee
00000004
fffffffb
00000008
fffffffa
00000012
fffffffa
00000001
00000007
fffffffd
0000000b
fffffff8
0000000e
00000009
0000000f
00000004
00000007
00000004
00000009
fffffff1
fffffff3
00000009
fffffffe
fffffffd
ffffffec
fffffffd
fffffffc
fffffff7
fffffff2
fffffffe
fffffff9
00000013
fffffffd
fffffff9
00000002
ffffffff
00000000
fffffff5
00000004
00000006
fffffff7
fffffffd
00000000
00000003
0000000d
0000000c
fffffff7
fffffff7
fffffffc
0000000e
fffffffd
fffffffb
00000003
fffffff9
fffffffb
ffffffee
00000003
fffffffd
fffffffe
00000008
fffffffd
00000001
00000010
fffffffd
00000005
00000005
ffffffff
0000000b
fffffff4
ffffffff
00000006
0000000b
00000010
fffffffa
00000001
fffffff5
fffffff5
fffffffa
00000000
ffffffeb
fffffffb
00000002
fffffffe
fffffff6
fffffffe
fffffffc
fffffff9
fffffff5
00000009
fffffffc
fffffff9
fffffffb
fffffffe
00000004
0000000e
fffffffa
fffffff0
fffffffd
fffffff5
fffffff6
0000000c
fffffff6
fffffffd
00000001
00000004
00000000
00000006
00000004
00000007
fffffff5
00000007
0000000a
00000004
fffffff0
00000008
fffffff8
fffffffe
0000000b
fffffff0
fffffffa
fffffffd
00000000
fffffffe
fffffff5
fffffffe
00000001
fffffffc
fffffffa
ffffffff
fffffff7
fffffff4
00000003
fffffff5
fffffff9
00000006
00000002
fffffffe
00000002
00000005
fffffff6
fffffffd
ffffffed
00000008
fffffff0
00000007
fffffff6
fffffffc
ffffffff
fffffff9
00000001
fffffffe
00000008
fffffffb
00000008
00000001
0000000a
fffffffc
ffffffff
fffffffc
fffffff9
fffffffd
fffffffe
0000000b
00000003
ffffffff
fffffff9
fffffffa
ffffffff
fffffff5
fffffffb
fffffff4
00000001
fffffff9
fffffff5
fffffffd
00000006
fffffff9
0000000b
fffffffd
ffffffff
00000000
fffffff4
00000002
ffffffff
00000006
00000009
ffffffec
fffffff7
fffffffd
fffffffe
fffffffe
fffffff5
fffffffd
ffffffff
ffffffff
fffffffe
fffffffc
fffffffb
ffffffef
00000009
fffffffb
00000009
fffffffa
00000001
fffffffe
00000004
fffffff5
00000007
00000001
00000003
fffffffa
fffffffd
00000006
fffffffd
ffffffeb
fffffff3
00000004
fffffff1
00000005
00000009
fffffffb
00000005
00000009
00000008
00000001
00000002
00000005
00000009
00000004
00000018
00000008
0000000c
00000000
fffffffd
00000006
0000000c
fffffff9
fffffff9
fffffff5
00000009
00000009
fffffffa
00000006
00000009
fffffffc
00000003
fffffffa
00000008
00000011
00000008
00000001
00000005
00000000
0000000f
00000005
fffffff7
fffffffa
fffffffe
fffffffd
00000005
fffffffe
00000000
fffffff9
00000000
fffffff7
fffffff8
0000000a
00000006
00000002
00000008
fffffffd
fffffff9
ffffffee
00000001
00000001
00000004
ffffffef
fffffff8
00000012
00000003
fffffff0
fffffff8
00000001
00000002
00000007
fffffff9
00000019
fffffffa
00000012
0000000a
fffffffe
00000010
fffffffa
fffffffc
fffffffd
fffffffa
fffffff5
fffffff1
fffffff6
fffffff9
ffffffef
00000003
00000003
00000001
0000000f
fffffff6
fffffffd
00000009
fffffff3
00000010
00000006
ffffffea
00000001
00000002
fffffffa
fffffffb
fffffffa
fffffffe
00000005
fffffffe
fffffffe
0000000b
00000003
fffffffc
fffffffa
ffffffea
fffffffb
fffffff4
00000003
00000000
00000003
00000001
fffffff8
00000008
00000002
00000000
00000009
0000000c
fffffff6
00000000
fffffffd
00000004
fffffff9
fffffff7
0000000a
fffffff9
00000003
00000002
00000002
0000000c
00000004
00000005
ffffffec
fffffffb
fffffffb
fffffff4
fffffffd
00000000
fffffffa
00000003
fffffff7
00000003
fffffff6
00000000
00000004
fffffffd
00000012
ffffffff
fffffff0
00000005
00000003
fffffff6
fffffffc
00000005
fffffff9
fffffff7
fffffffd
00000018
fffffffe
ffffffea
00000007
fffffffd
ffffffff
fffffff8
fffffff3
00000000
00000000
0000000b
ffffffff
ffffffff
0000000c
00000009
0000000a
0000000b
00000001
00000000
00000004
fffffffb
00000009
00000001
ffffffff
fffffff6
fffffff8
fffffff9
00000008
fffffffa
fffffffb
fffffff8
00000000
00000000
fffffffc
0000000a
00000003
fffffffc
fffffffb
00000005
ffffffff
00000004
00000000
fffffff5
fffffffc
00000002
ffffffff
00000007
00000000
fffffff7
00000017
fffffffc
fffffffc
0000000e
fffffff7
0000000a
00000002
fffffffe
fffffff4
fffffffe
fffffffe
fffffffe
00000006
fffffff2
00000025
00000002
fffffffd
00000007
fffffff6
00000009
fffffff8
00000001
fffffffb
ffffffe9
fffffffd
fffffff9
ffffffff
ffffffff
00000004
00000005
00000008
fffffff2
ffffffef
0000000d
00000003
fffffffe
fffffffe
fffffffe
fffffff8
fffffffe
00000005
fffffff3
fffffff1
fffffffb
fffffffa
00000007
00000006
00000005
fffffffd
fffffffc
00000003
00000005
00000004
fffffffe
fffffff9
fffffffb
00000006
fffffffa
0000000a
00000004
ffffffee
00000007
0000000c
00000009
00000009
0000000d
00000005
00000005
0000000a
fffffff6
fffffffc
00000007
fffffff7
00000005
fffffff9
00000006
00000008
00000018
fffffff6
fffffffb
00000004
fffffff4
fffffff3
00000004
00000011
fffffff4
ffffffef
fffffffe
0000000a
00000000
00000003
fffffffb
00000000
00000003
00000004
00000019
fffffff8
00000006
00000003
00000001
fffffffe
fffffff7
00000001
fffffff2
fffffffb
fffffff4
00000001
00000004
fffffffb
fffffffe
0000000b
00000002
00000009
fffffffb
00000001
0000000d
fffffff6
00000003
00000000
0000000a
00000001
fffffff7
00000002
fffffffb
ffffffff
fffffffa
00000007
00000001
fffffff6
fffffffc
00000006
fffffffd
ffffffff
fffffff7
00000002
00000007
fffffff0
fffffff8
00000009
00000006
fffffffb
00000010
0000000b
00000008
00000006
fffffffb
00000002
00000001
fffffff8
00000000
fffffffd
fffffffd
fffffffb
fffffff7
fffffffa
00000004
00000000
fffffff9
00000008
fffffffb
fffffffc
fffffffe
fffffff6
ffffffff
00000013
fffffff1
00000008
00000000
fffffff2
00000011
00000003
fffffff4
fffffff7
ffffffff
00000000
00000000
00000015
00000001
fffffffc
00000000
00000008
0000000a
00000002
ffffffff
00000000
00000005
00000006
00000005
fffffff5
ffffffff
00000003
00000006
00000015
00000005
fffffffd
fffffffc
0000000a
fffffff2
fffffffa
00000006
fffffff4
0000000d
00000000
fffffff4
00000001
fffffff4
00000000
00000007
0000000e
fffffffb
00000001
00000015
00000001
00000003
00000002
fffffff5
00000009
00000000
fffffff0
fffffff9
00000001
ffffffff
00000004
00000004
fffffff8
fffffffe
00000003
00000002
0000000a
00000008
ffffffff
00000005
fffffff1
fffffff8
00000001
00000000
00000010
fffffffe
fffffffa
fffffff9
0000000a
fffffffc
fffffff1
fffffffd
fffffffd
00000000
ffffffff
fffffff6
fffffffd
fffffffb
00000004
fffffff9
fffffffe
fffffff2
00000001
fffffffa
fffffff5
fffffffa
fffffff8
fffffff3
fffffffc
fffffffe
fffffffa
00000003
fffffffc
00000005
fffffff7
00000002
fffffff7
fffffffe
00000000
fffffffb
00000002
00000004
ffffffec
fffffffa
00000017
ffffffff
fffffffa
fffffffe
00000001
0000000a
00000002
fffffffd
fffffffe
00000004
00000004
fffffff6
00000013
00000028
fffffff3
0000000e
ffffffff
00000000
fffffffd
fffffffd
0000000d
fffffff9
fffffffd
00000004
fffffff7
fffffffb
fffffffc
ffffffff
00000008
00000001
ffffffff
fffffff4
fffffffc
fffffff2
0000000a
00000009
00000011
fffffff4
fffffffe
0000000c
00000000
fffffff8
fffffff3
00000005
fffffffc
00000002
fffffffc
fffffff7
00000008
00000000
fffffffd
fffffffd
00000009
00000004
00000001
00000005
00000003
00000009
fffffffd
fffffffb
00000004
00000005
fffffffe
0000000b
fffffffd
00000003
00000004
00000002
fffffffa
00000000
fffffffc
fffffff8
00000001
00000002
00000000
00000003
0000000b
00000000
ffffffff
00000001
fffffffe
00000001
0000000a
fffffff9
00000006
fffffff4
fffffffa
fffffffb
fffffffa
fffffff5
fffffffa
0000000c
00000000
fffffff5
00000001
00000007
00000003
fffffff0
00000001
fffffff7
fffffff9
fffffffa
fffffffb
fffffff2
00000003
fffffff8
00000001
00000003
fffffffe
fffffff5
00000006
fffffffc
00000010
fffffff8
00000008
00000001
ffffffff
00000008
fffffffe
fffffff3
fffffffb
0000000d
00000007
00000009
fffffffe
fffffffd
00000004
fffffffd
fffffff8
fffffffc
fffffff7
0000000c
00000002
00000000
fffffff4
00000002
00000009
00000002
fffffffa
00000018
fffffffe
00000008
fffffffc
00000004
00000001
00000009
00000017
fffffff8
00000001
fffffff6
00000008
fffffffc
fffffffc
fffffffd
00000000
ffffffff
00000009
ffffffff
fffffff6
fffffffb
00000001
fffffffc
ffffffff
fffffffb
00000002
00000003
00000020
00000004
00000006
00000006
fffffff7
fffffffe
fffffff7
fffffff5
fffffff4
0000000c
00000005
ffffffee
fffffffc
00000021
ffffffff
00000005
00000003
fffffff7
fffffff3
fffffffa
fffffffa
fffffffa
fffffffc
fffffff7
0000000a
00000007
0000000b
00000002
fffffffb
00000002
fffffff6
fffffff9
fffffffd
fffffff5
00000001
fffffff7
fffffff5
00000011
00000012
00000006
fffffffc
00000004
fffffff5
fffffffa
fffffffe
fffffff4
00000008
00000000
00000000
fffffff0
fffffffa
fffffffe
00000000
00000003
fffffffc
fffffffa
00000000
fffffffd
00000000
0000000e
0000000b
00000002
fffffffe
00000003
fffffffc
fffffffc
00000000
00000001
fffffff7
00000003
fffffffc
00000004
fffffff9
fffffffb
00000007
00000006
00000003
fffffffb
fffffffa
fffffffc
fffffffc
ffffffff
00000001
fffffff3
fffffff9
fffffffd
fffffff1
fffffffa
fffffffe
00000001
fffffffe
fffffffa
fffffff6
fffffffa
fffffff8
00000002
00000003
00000007
00000003
fffffff5
00000000
00000003
ffffffff
fffffff6
00000004
fffffff4
00000002
fffffffd
0000000b
00000003
00000001
fffffff0
fffffffd
fffffffe
fffffffe
fffffffa
ffffffee
00000002
0000000e
00000003
00000000
fffffff9
0000000d
fffffffd
fffffffa
0000000d
00000003
0000000c
00000002
fffffffe
fffffffa
00000002
00000001
fffffffc
fffffffc
fffffff3
fffffff7
fffffffa
fffffffa
00000003
fffffff2
00000004
ffffffec
00000001
fffffff9
0000000e
fffffffd
ffffffff
00000000
00000005
fffffffb
00000002
fffffff4
fffffffd
ffffffed
fffffffc
0000000b
fffffff7
fffffffc
00000000
00000001
0000000c
00000000
fffffff9
fffffff1
00000013
00000005
fffffffc
fffffff9
fffffffd
00000006
fffffffc
00000001
00000009
fffffff9
fffffffd
fffffffb
0000000d
fffffffd
00000004
fffffff3
fffffff8
fffffff4
00000002
fffffffd
00000002
fffffff0
fffffff7
fffffffc
00000003
fffffff5
00000009
fffffff7
00000005
00000005
0000000d
fffffffc
fffffffd
00000004
00000001
00000007
fffffffe
00000003
00000001
fffffff7
fffffff7
00000008
fffffffd
00000001
fffffffb
fffffffb
fffffffe
00000001
00000009
fffffffe
fffffff8
ffffffff
fffffffe
fffffffb
00000001
fffffffb
fffffffe
fffffffb
fffffffd
fffffff5
fffffff7
fffffffb
fffffffd
00000000
fffffff7
00000004
fffffff9
fffffffc
00000007
fffffffe
fffffff6
00000001
00000000
0000000e
0000000a
fffffffc
00000009
fffffffc
00000001
00000002
ffffffff
fffffff1
00000003
00000006
fffffff7
fffffff8
fffffff7
fffffff4
fffffffb
ffffffff
00000000
00000005
ffffffed
fffffff8
fffffffb
00000001
fffffffc
fffffffc
00000016
00000000
00000002
fffffff9
00000003
00000002
00000005
ffffffff
0000000f
fffffff8
00000008
00000000
fffffffd
00000004
00000002
00000010
fffffffc
fffffffe
fffffff9
00000000
fffffffe
00000008
00000002
fffffffe
00000004
fffffff5
ffffffe6
00000001
fffffffe
00000005
fffffffa
fffffffb
00000008
00000000
fffffffc
00000000
0000000c
fffffffa
00000003
fffffff8
fffffffe
0000000e
fffffff5
ffffffef
fffffffb
00000005
00000003
00000014
fffffffb
fffffff8
fffffffd
00000001
fffffffd
fffffff5
ffffffff
00000007
fffffff7
00000001
00000002
fffffff8
fffffff1
fffffff2
0000001b
fffffffb
00000005
ffffffef
fffffffe
00000006
ffffffeb
fffffffe
fffffff8
00000003
fffffffc
fffffffd
ffffffeb
00000008
fffffff7
fffffffb
fffffffd
ffffffff
fffffff0
ffffffff
fffffff8
0000000a
00000009
fffffffc
fffffff7
00000002
ffffffff
fffffff1
00000000
fffffff7
fffffffc
fffffffc
0000001b
fffffffc
00000002
fffffffc
00000000
fffffff1
00000004
00000004
fffffffc
ffffffec
00000003
ffffffff
fffffff1
ffffffff
fffffffa
00000003
00000000
fffffffb
00000004
fffffffb
fffffffb
fffffffd
00000004
fffffffa
ffffffff
fffffff6
fffffff5
fffffff3
00000008
ffffffff
fffffff8
fffffff3
fffffff2
fffffff7
00000006
ffffffee
fffffff7
00000008
00000008
00000000
fffffffb
00000000
fffffff9
00000003
fffffffe
fffffff5
00000003
fffffffe
ffffffff
fffffff9
fffffff6
fffffff6
fffffff9
fffffffd
00000007
00000004
fffffffd
fffffffb
fffffffe
0000000d
0000000b
00000004
00000005
0000000a
fffffff9
00000002
fffffffa
fffffffa
fffffffd
fffffff0
00000007
fffffff5
fffffff6
00000014
fffffffa
fffffff5
00000005
fffffffa
00000005
fffffffc
fffffffa
00000006
fffffff5
00000009
00000006
fffffffc
00000005
00000004
0000000f
00000003
fffffffb
fffffffc
fffffffe
ffffffff
00000006
fffffffc
fffffff6
00000003
00000000
fffffff8
00000007
00000004
ffffffff
fffffff7
00000002
fffffff2
fffffffc
fffffffd
00000003
0000000b
0000000e
00000008
ffffffff
fffffffa
fffffffd
00000001
fffffff8
fffffff7
00000000
fffffff8
fffffff6
00000009
fffffff7
ffffffff
ffffffff
fffffff5
00000000
00000001
0000000a
0000000a
0000000c
fffffff7
00000003
fffffffc
fffffff9
fffffffa
fffffff3
0000000b
00000001
00000001
00000013
00000001
fffffffc
fffffff7
00000000
ffffffed
fffffffc
fffffff9
0000001d
fffffff8
fffffffe
fffffffc
fffffffd
fffffffe
fffffffa
0000001d
fffffffb
00000005
fffffffe
fffffffa
00000018
00000001
0000000c
0000000d
00000007
00000003
00000009
ffffffee
00000014
fffffffa
fffffff8
fffffffd
00000009
fffffffe
fffffffd
00000004
0000001c
fffffffe
fffffff7
0000000b
fffffffc
fffffff3
0000000f
00000008
fffffffa
00000016
00000003
0000001b
00000007
ffffffff
ffffffff
fffffff9
fffffff3
fffffff2
ffffffef
fffffff0
fffffffa
00000001
fffffffd
fffffff3
ffffffff
ffffffff
fffffffc
00000000
fffffffc
fffffffd
00000004
00000001
00000000
00000001
fffffffc
00000002
fffffffd
00000000
00000002
fffffffb
fffffff6
00000003
00000000
fffffffa
fffffffe
00000003
00000004
fffffffc
fffffffb
00000004
fffffffa
fffffffe
00000011
fffffff9
ffffffff
00000014
fffffffc
00000005
fffffff2
00000004
00000001
0000000a
fffffffd
fffffffe
0000000d
fffffff9
fffffff8
fffffff8
fffffffe
00000000
fffffffa
0000000b
ffffffff
fffffff8
00000003
ffffffeb
fffffffd
fffffffe
00000002
00000003
0000000a
00000009
00000000
00000003
00000006
fffffffe
fffffff8
0000000c
00000003
00000002
0000000a
0000000a
fffffff8
00000000
00000002
