00000000
fffffff9
fffffffe
00000001
fffffff6
fffffffd
00000004
fffffffe
ffffffff
00000000
00000000
00000000
00000001
0000000d
00000000
00000000
00000003
0000000b
ffffffff
00000001
00000000
00000000
00000000
fffffffc
00000002
00000003
fffffffe
00000006
00000005
00000005
00000008
00000004
00000002
00000002
00000002
00000002
00000005
00000002
0000000c
fffffffe
00000000
00000002
fffffffa
00000000
fffffffd
00000003
fffffff0
00000002
fffffffa
00000002
00000000
fffffffc
fffffff8
fffffffe
00000000
fffffffa
00000001
00000012
00000002
00000001
00000001
00000004
00000005
00000008
00000007
00000000
00000006
00000003
0000000d
00000000
ffffffff
00000002
00000001
fffffff3
00000000
00000001
00000007
00000002
fffffffe
ffffffff
ffffffff
fffffff2
00000008
fffffffd
0000000a
00000000
fffffffd
fffffff7
00000002
00000001
00000001
00000003
00000002
00000003
00000003
00000000
00000000
0000000e
fffffff8
fffffffe
ffffffff
00000000
ffffffff
00000000
00000000
ffffffff
00000000
fffffffe
00000000
fffffffe
00000000
ffffffff
00000001
00000000
ffffffff
00000000
00000000
00000002
00000003
00000002
ffffffff
fffffffc
fffffffe
00000000
00000000
ffffffff
00000000
fffffffb
fffffffc
ffffffff
fffffffc
fffffffe
00000011
00000009
00000001
00000000
ffffffee
00000009
00000004
ffffffff
00000001
fffffff2
00000000
fffffffb
00000000
00000006
00000004
ffffffff
00000000
00000000
fffffffa
00000001
fffffffe
fffffff7
ffffffff
ffffffff
00000000
00000001
00000000
00000001
00000002
fffffffb
00000001
00000005
00000002
ffffffff
00000002
ffffffff
fffffffd
fffffffd
fffffffe
00000000
00000006
00000001
00000003
0000000f
00000003
fffffffe
fffffffc
00000000
00000000
ffffffdd
00000001
fffffffe
fffffffe
fffffffe
fffffffd
00000009
00000000
00000002
00000005
00000003
00000002
fffffff6
fffffffe
ffffffff
00000000
ffffffff
00000001
fffffffe
fffffffa
fffffff4
fffffffb
fffffffe
fffffffe
00000000
fffffff1
fffffffb
00000005
00000000
fffffffc
fffffffe
fffffffc
fffffffa
fffffffd
ffffffff
fffffffe
00000001
fffffffd
fffffff3
fffffffe
fffffffe
00000007
ffffffff
00000000
fffffffc
00000003
00000001
fffffffe
00000003
fffffffe
fffffff9
ffffffff
ffffffff
00000001
00000005
00000009
fffffff9
fffffff9
fffffff6
00000000
00000000
00000010
00000003
00000000
00000001
ffffffff
0000000c
00000003
00000001
00000000
ffffffff
00000000
fffffffe
00000000
00000000
00000002
00000002
00000000
00000000
ffffffff
00000007
fffffffa
00000005
00000002
00000001
00000001
00000000
ffffffff
ffffffff
ffffffff
00000001
00000004
00000004
fffffffe
00000002
fffffffe
ffffffff
00000000
00000001
00000002
00000000
fffffffd
00000000
ffffffff
fffffffe
ffffffff
ffffffff
ffffffff
fffffffb
00000000
fffffffa
00000001
ffffffff
fffffffe
fffffffb
00000000
00000000
00000002
fffffffa
fffffffe
fffffffe
0000000a
00000001
00000000
00000001
ffffffff
00000000
00000007
00000001
00000000
fffffffd
fffffffa
fffffffd
fffffffd
fffffffe
00000000
00000000
00000000
00000006
00000002
fffffffa
00000005
00000000
fffffffc
00000000
00000000
fffffffc
00000004
fffffffe
00000000
00000001
00000002
00000000
00000001
00000000
00000002
fffffffe
fffffff7
00000001
fffffffd
ffffffff
00000001
ffffffff
00000000
00000001
00000000
fffffffc
ffffffff
00000000
ffffffff
00000000
00000002
0000000d
ffffffff
ffffffff
fffffffe
fffffffe
00000001
fffffffe
ffffffff
00000003
00000000
fffffffd
ffffffff
fffffffe
00000003
00000006
00000003
0000000a
fffffffd
00000000
00000002
00000001
fffffffa
00000000
00000000
ffffffff
fffffffd
fffffffd
fffffffd
00000004
00000005
00000002
fffffffd
fffffff9
fffffff9
00000000
00000004
fffffffd
fffffffc
fffffff4
fffffff5
00000000
fffffffe
00000000
ffffffff
00000000
ffffffff
fffffffb
ffffffff
fffffffc
00000004
00000001
00000001
ffffffff
fffffff8
00000003
ffffffff
00000005
00000002
00000000
00000000
00000001
00000000
fffffffc
fffffff9
00000008
00000001
00000002
ffffffff
00000000
ffffffff
00000004
00000002
00000005
fffffffc
fffffffb
fffffffd
00000002
ffffffff
ffffffff
fffffffe
00000000
00000001
00000002
00000001
00000002
ffffffff
00000000
00000001
00000002
ffffffff
00000003
00000002
fffffffe
00000002
ffffffff
fffffffe
00000011
00000002
fffffffe
00000000
00000000
00000001
00000002
00000010
ffffffff
ffffffd8
00000003
00000001
00000002
00000002
00000001
00000003
00000000
00000003
00000000
ffffffff
fffffff2
fffffffe
00000001
00000004
00000002
fffffffe
00000004
0000000d
00000000
00000008
00000000
00000000
00000003
00000002
00000000
00000002
00000001
00000001
ffffffff
fffffffb
fffffffe
00000000
00000003
fffffffc
fffffffc
00000000
fffffffe
00000001
ffffffff
fffffff8
00000002
00000002
00000000
ffffffff
00000004
00000001
00000001
00000002
00000000
00000000
fffffffc
00000000
fffffffe
00000002
ffffffff
ffffffff
00000000
00000006
00000000
00000001
00000001
00000003
00000001
ffffffff
ffffffff
ffffffff
fffffffd
00000000
00000001
00000000
00000001
fffffff6
00000000
00000000
fffffffe
fffffffe
00000000
00000002
00000001
00000000
00000001
00000000
00000001
00000000
00000000
00000002
00000002
00000000
00000006
00000000
00000000
00000000
00000000
00000000
00000000
ffffffff
00000000
00000001
fffffffb
ffffffff
fffffffb
ffffffff
00000002
00000001
00000001
00000004
fffffffc
ffffffff
fffffffd
fffffffd
ffffffff
00000002
00000009
00000004
fffffffe
00000008
00000001
ffffffff
ffffffee
ffffffff
fffffffe
fffffffd
fffffffe
00000000
00000005
00000002
fffffff9
00000000
ffffffff
ffffffff
ffffffff
ffffffff
00000002
00000000
fffffffb
ffffffff
00000004
fffffffb
00000000
fffffffc
fffffff3
ffffffff
00000000
ffffffff
fffffffc
00000001
00000003
ffffffff
00000006
ffffffff
00000001
fffffffb
00000003
fffffffe
ffffffff
fffffffe
00000003
00000007
00000004
00000000
00000000
00000000
00000000
00000001
00000001
fffffffe
00000007
ffffffff
fffffffd
fffffffd
fffffffe
fffffffc
00000000
00000001
00000001
00000001
00000002
00000003
00000002
00000006
0000000a
00000004
00000003
00000000
00000002
fffffff7
00000000
00000001
00000001
00000000
00000002
00000003
00000000
00000002
ffffffea
ffffffff
fffffffe
00000001
fffffffc
fffffffc
fffffff9
fffffffd
00000000
fffffffc
00000003
00000000
00000002
ffffffff
ffffffff
fffffffd
00000004
00000000
00000001
00000013
00000002
00000000
00000002
00000001
00000001
00000001
00000002
00000001
fffffffe
ffffffff
00000001
00000000
ffffffff
00000001
fffffff9
fffffffb
00000001
00000000
00000002
00000000
00000004
ffffffff
00000001
fffffffb
00000002
00000000
0000000f
00000008
00000000
00000002
00000000
00000000
00000002
00000002
fffffffe
ffffffff
00000000
00000001
00000000
00000001
fffffffc
00000002
fffffffc
fffffffe
00000000
fffffff9
ffffffe1
00000002
ffffffff
ffffffff
ffffffff
fffffffe
00000001
ffffffff
00000002
fffffffb
00000001
00000002
00000000
fffffffb
00000000
00000005
ffffffff
00000000
00000000
00000000
fffffffe
ffffffff
00000003
00000002
00000002
00000002
00000009
00000001
00000004
00000003
fffffffe
00000002
00000000
ffffffff
00000001
fffffffb
00000000
ffffffff
fffffffe
fffffffe
fffffffb
fffffffe
fffffffd
00000001
00000002
ffffffff
00000009
00000002
00000001
00000000
00000001
ffffffff
00000002
fffffffa
00000000
fffffffc
00000003
00000000
ffffffff
fffffffe
ffffffff
ffffffff
00000006
fffffffe
fffffffe
00000002
00000000
00000007
fffffffd
fffffffc
00000003
00000001
00000002
fffffffc
ffffffff
00000002
00000000
fffffffd
00000001
00000002
ffffffff
00000003
ffffffff
00000001
fffffff5
00000003
00000002
fffffffd
00000000
00000000
00000001
00000002
fffffffe
00000001
00000001
00000000
00000000
00000000
00000002
00000000
00000000
00000000
00000000
00000000
00000005
ffffffff
00000000
fffffffe
fffffffe
fffffffd
fffffffd
fffffff5
fffffffe
00000000
00000015
00000000
fffffffb
fffffffc
00000000
ffffffff
fffffffe
fffffffd
00000008
00000004
00000001
fffffffe
00000002
ffffffff
fffffffc
ffffffff
00000009
00000005
fffffffe
00000007
00000001
00000002
0000000a
00000001
ffffffff
00000000
ffffffff
00000001
ffffffff
00000003
fffffff6
00000000
00000004
00000004
fffffffc
ffffffff
fffffffe
ffffffff
00000001
00000000
00000001
ffffffff
ffffffff
00000001
00000001
fffffffd
00000000
00000000
00000000
ffffffff
ffffffff
00000000
00000002
00000005
00000000
00000001
ffffffff
00000001
00000002
fffffffe
00000000
fffffffa
fffffff7
fffffffe
ffffffff
00000000
00000001
00000008
00000002
00000004
fffffffe
ffffffff
fffffffc
fffffffe
ffffffff
00000001
0000001d
00000000
00000003
00000002
00000002
00000004
00000002
fffffffe
00000000
00000003
fffffffa
00000001
00000000
fffffffa
fffffffe
00000000
00000000
00000001
00000000
ffffffe7
00000000
00000000
fffffffc
00000002
fffffffc
00000000
fffffffa
00000002
00000001
00000001
00000004
00000004
00000004
ffffffff
0000000d
00000000
00000000
00000000
00000003
00000001
fffffffd
00000001
fffffffe
00000000
fffffffd
ffffffff
ffffffe6
fffffff6
00000000
fffffffb
00000000
00000001
fffffffd
00000000
fffffffd
fffffffd
fffffffe
00000000
00000001
fffffffe
00000003
ffffffff
00000001
00000000
00000001
00000007
00000021
fffffffe
ffffffff
ffffffff
00000000
ffffffff
ffffffff
fffffffd
00000002
00000001
00000000
fffffffe
00000001
00000001
ffffffff
fffffff7
fffffffe
ffffffff
00000001
00000000
00000001
00000001
ffffffff
00000001
fffffffc
00000000
00000002
00000001
fffffffd
fffffff8
00000005
ffffffff
00000002
00000004
00000002
00000005
fffffffe
00000004
00000002
ffffffff
0000000c
ffffffff
00000007
00000001
00000004
00000000
fffffff7
00000001
00000002
00000003
ffffffe4
fffffffd
fffffff5
fffffff7
fffffff6
ffffffe4
fffffffa
00000006
0000000a
00000003
ffffffff
fffffff8
ffffffeb
ffffffff
fffffff9
ffffffe4
ffffffff
ffffffd2
00000001
fffffff4
fffffffe
00000001
fffffff3
fffffff9
fffffffc
ffffffee
00000003
00000001
00000004
ffffffdb
00000002
ffffffe6
00000007
00000008
ffffffde
ffffffed
ffffffef
fffffff4
ffffffe9
ffffffee
00000003
ffffffe8
00000018
00000024
fffffff5
fffffffb
ffffffc6
fffffff5
fffffffa
00000009
00000004
fffffff2
00000001
00000002
fffffff9
0000000a
ffffffd7
fffffff6
ffffffff
fffffff9
fffffff1
ffffffdb
00000003
ffffffeb
ffffffc8
fffffff4
00000002
0000000d
00000001
00000003
ffffffec
00000043
fffffff4
ffffffe8
00000003
00000004
00000001
00000002
00000001
ffffffeb
00000009
ffffffd5
fffffffd
fffffffa
fffffffb
00000006
fffffff9
00000002
00000003
fffffff8
00000000
00000000
fffffff6
00000003
ffffffdd
00000000
ffffffe4
00000005
fffffffa
00000004
00000003
fffffffe
00000006
00000001
00000000
00000003
fffffffb
00000000
00000003
00000001
fffffff3
00000001
ffffffb2
ffffffff
00000001
00000003
fffffffc
ffffffeb
00000003
00000000
fffffffd
00000000
00000001
ffffffe9
fffffff5
fffffff3
fffffff4
00000002
00000004
ffffffff
fffffffc
00000012
00000000
00000000
ffffffff
0000000f
0000000b
ffffffdf
00000002
00000002
ffffffd9
ffffffff
fffffff9
ffffffff
ffffffff
fffffff2
00000004
00000001
ffffffff
00000001
ffffffef
ffffffff
fffffffb
fffffff2
00000001
00000002
00000000
ffffffff
ffffffff
ffffffd8
fffffff2
00000000
fffffffe
fffffffd
00000004
00000006
fffffffa
ffffffeb
fffffff2
00000004
00000003
00000008
00000002
00000000
00000006
ffffffee
00000006
00000004
00000002
ffffffff
ffffffd7
ffffffff
00000001
ffffffd7
ffffffff
ffffffe5
ffffffde
ffffffeb
00000001
fffffffe
00000004
00000001
00000008
ffffffed
00000002
00000003
00000001
00000004
ffffffbf
0000000f
fffffff5
0000000f
ffffffff
fffffffd
00000000
00000004
ffffffcf
00000002
00000000
00000003
00000002
00000002
0000000e
fffffffd
00000004
ffffffdc
00000003
fffffff6
00000004
0000000a
00000003
00000001
00000004
00000001
00000001
fffffff6
00000001
00000002
ffffffd0
fffffff3
ffffffff
00000002
00000002
ffffffff
fffffffd
ffffffc9
ffffffdb
00000000
00000000
fffffff3
00000000
ffffffec
00000000
fffffffd
00000003
00000001
ffffffee
00000003
ffffffdb
ffffffef
fffffff4
00000001
ffffffac
00000001
00000005
00000002
fffffff5
fffffffd
fffffffa
ffffffff
00000001
00000000
ffffffff
fffffffc
00000000
fffffffe
fffffffc
fffffffe
ffffffff
fffffffe
00000000
fffffffb
00000001
fffffffd
00000000
00000001
00000000
00000000
fffffffe
ffffffff
fffffffd
fffffff8
00000000
00000003
00000002
fffffff8
00000001
fffffff8
ffffffff
00000001
fffffffc
fffffff8
fffffff7
fffffffa
00000016
fffffff9
fffffffb
fffffffe
fffffff9
ffffffe2
fffffffd
fffffffb
fffffff8
fffffffc
ffffffff
00000000
00000000
fffffffc
00000000
ffffffff
ffffffff
ffffffff
fffffff8
fffffffa
fffffffd
ffffffe4
ffffffff
fffffffe
00000000
fffffff8
fffffff2
fffffff6
00000001
fffffffe
00000000
00000000
fffffff3
ffffffe8
00000004
00000004
00000006
ffffffff
00000002
00000000
00000001
fffffff4
00000004
fffffffe
00000002
fffffffb
00000000
00000002
00000001
00000000
00000002
ffffffff
00000000
fffffffe
ffffffff
00000001
fffffffe
00000000
00000004
00000001
fffffffc
ffffffff
ffffffff
ffffffff
00000004
00000004
00000002
00000002
fffffffe
00000001
ffffffff
fffffffe
fffffff6
ffffffff
fffffff7
00000000
00000002
00000002
00000001
fffffff9
fffffffd
ffffffff
00000000
ffffffff
00000001
fffffffd
ffffffff
00000000
ffffffff
ffffffff
00000000
fffffffe
00000000
fffffff1
00000009
00000001
00000001
fffffff3
fffffff0
00000004
00000000
00000001
fffffffb
00000001
ffffffe2
00000000
00000001
fffffffc
00000000
00000001
00000000
ffffffff
fffffffe
ffffffff
fffffff9
fffffffa
00000000
00000001
ffffffff
ffffffff
00000000
fffffffb
ffffffee
ffffffff
ffffffff
00000000
ffffffff
00000001
fffffffe
fffffff9
00000003
fffffffe
00000004
00000001
ffffffff
00000004
fffffff1
fffffff8
00000000
fffffffd
fffffffe
00000001
ffffffec
ffffffff
fffffffd
00000001
fffffffe
fffffff4
fffffffd
fffffffc
00000001
fffffffd
00000001
00000000
fffffff7
fffffffd
ffffffff
00000000
00000006
00000001
ffffffe5
0000001f
fffffffc
00000007
00000002
00000001
00000001
fffffffe
fffffffc
00000002
00000004
00000003
ffffffff
00000000
00000004
fffffffe
00000000
fffffffd
00000000
00000003
00000001
fffffffc
00000002
ffffffff
ffffffff
fffffffe
fffffffe
fffffffd
ffffffff
ffffffff
ffffffeb
fffffffb
fffffffb
ffffffff
00000001
00000001
fffffffe
00000001
00000002
ffffffff
00000000
00000000
00000000
fffffffc
00000000
ffffffff
00000000
00000000
ffffffde
fffffffb
fffffffd
fffffff3
fffffffb
fffffffe
fffffff2
00000003
00000000
00000001
fffffffa
00000000
fffffffc
fffffffa
fffffffe
fffffffb
fffffffd
00000000
00000000
fffffffe
00000001
ffffffff
fffffff8
fffffff9
fffffffb
fffffffb
fffffffd
fffffffd
fffffffc
fffffffc
00000004
00000006
00000000
fffffffb
00000003
fffffffb
00000001
00000000
00000002
fffffff8
ffffffff
fffffff9
ffffffff
ffffffff
ffffffff
fffffffa
fffffff8
ffffffff
fffffffa
fffffff9
ffffffff
00000001
ffffffff
fffffff7
ffffffff
fffffffd
fffffffe
fffffffc
fffffffd
00000000
00000000
ffffffff
00000000
ffffffff
fffffffc
ffffffff
fffffff4
fffffffb
00000000
fffffff7
fffffffd
fffffffc
fffffffe
fffffff8
fffffffa
fffffff8
00000000
00000001
00000000
00000001
fffffffa
ffffffdf
fffffffc
fffffffe
00000000
00000002
00000000
fffffffe
00000000
fffffff6
fffffffe
00000006
00000000
fffffff6
ffffffff
00000000
00000002
00000003
00000005
00000000
fffffffa
00000000
fffffffe
ffffffff
fffffffc
ffffffff
fffffffc
ffffffff
fffffffc
00000000
ffffffff
ffffffff
00000000
00000002
ffffffff
ffffffff
fffffffe
00000000
ffffffff
00000002
fffffff9
00000002
fffffffb
00000000
fffffffe
00000000
fffffffd
fffffffc
fffffffe
00000000
fffffffd
00000000
ffffffff
fffffffd
ffffffff
fffffffe
fffffffd
ffffffff
fffffffe
fffffffc
fffffffd
fffffffb
fffffff2
fffffffe
fffffffe
fffffffe
fffffff2
00000000
00000005
00000001
fffffff6
fffffffd
fffffffd
00000001
fffffffb
fffffffe
00000001
00000001
00000001
ffffffff
fffffffc
ffffffff
fffffff7
fffffffa
00000000
ffffffff
00000002
00000001
ffffffff
fffffff5
fffffff6
fffffffe
ffffffff
fffffffd
00000001
00000001
00000000
fffffff8
fffffffd
00000002
00000000
fffffffe
00000000
00000001
fffffffd
fffffff9
00000001
ffffffff
00000000
ffffffff
ffffffef
fffffffd
fffffffe
00000000
ffffffff
fffffff6
fffffff8
fffffffb
00000001
fffffffe
00000000
00000005
fffffffb
fffffffd
00000003
00000001
00000001
00000001
ffffffe6
fffffff8
fffffffd
00000001
ffffffff
ffffffff
00000000
ffffffff
fffffffb
fffffffe
fffffffd
ffffffff
00000000
00000000
00000003
fffffffd
ffffffff
fffffffd
00000003
ffffffff
00000001
fffffffd
00000001
fffffffd
ffffffff
00000000
ffffffff
fffffffe
ffffffff
00000001
ffffffed
fffffffd
ffffffff
ffffffff
00000000
fffffffe
fffffffc
fffffffb
ffffffff
00000002
00000001
00000001
00000003
ffffffff
fffffffe
00000000
ffffffff
ffffffff
ffffffea
ffffffff
ffffffff
fffffff8
ffffffff
00000001
fffffff0
00000001
ffffffff
00000002
fffffffb
ffffffff
fffffffd
00000001
ffffffff
fffffff9
fffffffd
ffffffff
ffffffff
ffffffff
fffffffe
fffffffd
fffffff9
00000002
fffffffd
fffffffe
fffffffd
fffffffd
fffffffb
fffffffa
fffffffe
00000003
ffffffff
fffffffd
ffffffff
fffffffc
fffffffe
ffffffff
00000001
fffffff9
ffffffff
fffffff9
00000001
00000000
fffffffc
fffffffb
fffffffb
00000003
00000007
00000001
00000000
00000002
fffffffc
ffffffea
00000000
ffffffff
fffffffb
fffffffd
fffffffc
fffffffe
00000002
fffffff9
00000001
00000002
ffffffff
00000000
fffffff8
fffffffb
00000003
00000008
00000004
fffffffe
ffffffff
fffffff9
fffffff9
fffffff7
00000000
fffffffe
00000000
00000002
fffffff9
ffffffda
00000003
ffffffff
00000001
fffffffe
00000002
00000005
00000001
fffffff8
ffffffff
fffffff8
00000001
fffffffc
00000002
00000003
00000004
00000000
00000002
fffffffd
00000000
00000001
fffffffd
00000000
ffffffff
00000000
fffffff7
fffffffd
fffffffc
fffffffe
00000002
00000002
00000002
ffffffff
00000001
00000000
ffffffff
ffffffff
00000000
fffffffe
fffffff6
ffffffff
fffffffd
ffffffff
fffffffe
00000000
00000001
fffffffc
00000003
00000004
00000002
00000000
ffffffff
00000000
ffffffff
ffffffff
fffffffe
ffffffff
fffffffd
ffffffff
00000001
fffffff4
00000020
ffffffff
00000001
ffffffef
ffffffeb
00000000
ffffffff
00000001
ffffffff
00000001
ffffffe5
ffffffff
ffffffff
ffffffff
00000002
00000002
ffffffff
00000000
00000000
00000000
00000006
fffffffb
00000001
00000002
00000003
ffffffff
ffffffff
fffffffc
ffffffed
00000001
ffffffff
00000000
00000001
fffffffe
fffffffe
fffffffc
fffffffd
ffffffff
00000001
fffffffd
ffffffff
fffffffd
fffffff5
fffffff8
ffffffff
ffffffff
fffffffe
00000000
ffffffee
00000001
00000001
00000002
00000000
fffffff7
fffffffe
fffffffa
00000000
fffffffb
00000003
00000001
fffffff9
fffffffe
00000000
00000002
ffffffff
00000001
ffffffee
00000002
fffffffd
fffffffc
00000001
ffffffff
00000000
00000000
fffffffc
00000001
00000001
00000000
00000003
00000000
ffffffff
fffffffe
00000000
fffffffe
ffffffff
00000000
00000000
fffffffe
00000000
00000001
00000000
00000000
fffffffe
fffffffe
ffffffff
00000000
fffffff1
fffffffc
fffffffb
00000000
00000002
fffffffe
ffffffff
fffffffe
00000001
ffffffff
00000000
00000001
00000001
fffffffb
00000002
fffffffe
fffffffe
ffffffff
ffffffe2
00000001
fffffffd
fffffffa
fffffffd
00000002
fffffff9
00000001
00000001
00000001
fffffff9
fffffffe
fffffffd
00000000
00000002
00000003
00000002
00000004
00000003
ffffffff
00000000
00000001
fffffffe
fffffffe
fffffffe
fffffffe
00000000
00000002
00000001
fffffffe
fffffffd
fffffffc
fffffffa
ffffffff
00000002
fffffffb
00000000
fffffffe
ffffffff
fffffffd
00000002
fffffff9
00000002
00000004
00000000
fffffffd
fffffff9
ffffffff
00000000
fffffffb
00000001
ffffffff
ffffffff
ffffffe3
ffffffff
fffffffa
00000000
fffffffd
fffffffc
fffffffd
fffffffe
fffffff9
00000000
00000001
00000000
00000001
fffffff3
00000000
00000004
ffffffeb
00000006
00000000
fffffffe
fffffff8
fffffffc
fffffffd
00000000
ffffffff
00000000
ffffffff
fffffff8
ffffffec
fffffffb
00000003
00000001
00000000
ffffffff
00000003
fffffffb
fffffff5
fffffff7
fffffffa
fffffffc
fffffff1
fffffffe
00000000
fffffffc
00000001
00000002
00000000
ffffffff
00000003
ffffffff
00000000
fffffffc
00000000
ffffffe5
00000000
fffffffd
fffffffe
fffffffe
00000001
fffffff7
ffffffff
00000002
00000003
00000000
00000002
ffffffff
00000002
fffffff9
00000003
00000000
00000001
00000003
00000005
00000001
fffffffc
00000004
00000000
00000004
ffffffff
00000000
fffffffd
00000000
fffffffe
00000001
00000000
ffffffff
00000000
fffffffe
fffffff2
0000001f
00000001
00000001
fffffff2
ffffffe9
00000001
00000002
00000000
fffffffd
ffffffff
00000008
00000003
fffffffb
00000001
00000001
00000003
fffffff5
fffffffd
fffffffd
00000000
00000008
fffffffb
00000001
00000000
00000004
00000002
00000002
ffffffff
fffffff2
00000001
00000000
00000000
00000000
fffffffe
ffffffff
fffffff9
fffffffc
ffffffff
ffffffff
fffffffe
ffffffff
00000000
fffffff9
fffffffd
00000000
ffffffff
ffffffff
fffffffe
ffffffe9
00000000
ffffffff
00000002
00000001
fffffffc
fffffff9
fffffff8
fffffffd
fffffffc
00000001
ffffffff
fffffff9
00000000
00000002
fffffffd
fffffffe
ffffffff
ffffffea
00000002
fffffffd
fffffff6
00000004
00000002
ffffffff
fffffffc
fffffffb
00000000
00000003
00000001
00000000
00000003
fffffffa
fffffffc
fffffffe
fffffffc
00000000
00000000
fffffffe
fffffffb
ffffffff
00000002
ffffffff
00000000
fffffffe
fffffffe
00000003
00000002
ffffffef
fffffffc
00000000
fffffffd
00000001
00000001
fffffffd
fffffffe
fffffffc
00000000
fffffffe
fffffffd
fffffffe
fffffff8
fffffffe
fffffffe
00000000
00000000
ffffffdf
ffffffff
00000001
fffffff8
fffffffe
00000001
ffffffed
00000001
ffffffff
00000000
fffffffe
00000000
fffffffc
fffffffb
fffffffe
fffffff8
fffffffd
00000001
00000001
00000001
00000002
00000000
fffffff6
00000000
fffffffc
fffffffe
fffffffd
fffffff8
00000000
fffffff9
fffffffe
ffffffff
fffffffc
fffffffc
00000000
00000001
00000005
00000003
00000006
00000001
00000008
ffffffff
00000000
ffffffff
fffffffd
fffffffd
fffffff8
fffffffe
00000000
fffffffb
00000000
ffffffff
00000001
0000002b
fffffffe
fffffff9
fffffff8
00000000
00000001
00000004
00000000
00000004
00000001
00000000
fffffff6
fffffffd
fffffffa
00000005
00000008
ffffffe6
ffffffff
ffffffff
00000001
fffffffb
fffffff6
fffffffa
00000000
fffffffe
00000000
00000001
00000000
ffffffcc
fffffffa
fffffffe
ffffffff
00000000
00000000
00000000
00000001
fffffffa
fffffff9
fffffffd
ffffffff
0000000d
00000001
00000003
fffffffa
ffffffff
ffffffff
fffffffd
00000000
00000000
ffffffff
00000001
ffffffff
00000000
fffffff7
00000002
fffffffe
00000003
00000000
fffffffe
fffffffa
fffffffe
fffffffa
fffffffd
fffffffb
fffffffc
fffffffe
fffffffc
fffffff7
fffffffc
fffffff8
fffffffe
fffffffe
fffffffd
ffffffff
fffffffd
ffffffff
ffffffff
fffffffd
ffffffff
00000006
00000003
00000004
00000006
00000004
00000004
00000004
00000003
00000005
fffffffe
fffffffb
ffffffff
00000001
00000008
00000015
ffffffff
ffffffff
fffffffe
fffffff6
00000000
ffffffd7
00000002
00000007
00000001
00000003
00000003
00000004
00000000
00000006
00000004
0000000c
00000002
00000004
00000003
00000003
00000003
00000000
00000000
fffffffa
00000001
fffffffe
ffffffff
00000004
00000002
00000003
fffffffd
fffffffc
00000002
ffffffff
fffffffb
00000000
00000002
fffffff9
fffffffc
00000003
00000004
00000003
00000002
00000005
00000002
fffffffe
fffffff9
fffffffe
fffffff9
00000003
fffffffe
00000000
fffffffe
00000001
00000002
00000003
ffffffff
00000000
00000000
ffffffff
ffffffff
ffffffed
fffffff5
fffffffc
fffffff9
00000000
00000001
00000004
fffffffe
fffffff8
00000005
00000004
00000005
00000005
00000004
00000002
00000002
00000000
fffffffb
00000003
00000000
fffffffe
fffffffa
ffffffff
00000000
00000000
00000002
00000000
fffffffd
00000001
00000003
fffffff6
00000001
00000002
fffffffd
ffffffff
00000001
00000000
fffffffe
fffffffd
00000000
00000000
ffffffff
00000004
fffffffc
00000003
00000002
00000001
00000000
0000000c
fffffffe
fffffffd
fffffffd
ffffffff
00000002
fffffffc
00000000
fffffffe
00000000
fffffff7
00000001
fffffffb
fffffff9
fffffffd
fffffffc
fffffffc
00000001
00000000
00000001
00000001
00000000
fffffff9
fffffffe
fffffffa
fffffffc
fffffffe
fffffffd
00000001
ffffffff
00000000
00000000
fffffffd
00000000
00000000
fffffffb
00000000
ffffffff
00000000
fffffff7
00000001
fffffff8
00000002
00000002
ffffffff
fffffffb
fffffffa
fffffffd
00000003
fffffff8
ffffffff
fffffffd
fffffffa
ffffffec
fffffffc
fffffffa
00000001
00000000
00000000
00000004
00000004
00000000
00000003
00000004
00000001
fffffffc
fffffff4
fffffffc
fffffffe
ffffffed
fffffffe
fffffffb
fffffffd
fffffff5
fffffff9
fffffffa
fffffffe
00000002
00000002
00000000
fffffffa
ffffffe3
fffffffe
00000001
00000000
00000000
00000000
ffffffff
00000000
fffffff8
fffffffb
fffffffb
fffffffe
fffffff6
fffffffd
00000000
ffffffff
00000000
00000002
00000000
ffffffff
00000006
00000005
00000004
00000002
00000005
fffffffa
00000002
00000000
00000003
00000000
ffffffff
fffffffb
00000003
00000003
00000002
fffffffe
00000001
ffffffff
00000005
fffffffe
00000006
fffffffd
00000003
00000003
00000003
00000003
fffffffe
ffffffff
00000000
fffffffd
ffffffff
00000001
fffffffe
ffffffff
ffffffff
fffffffe
00000002
00000002
00000001
00000003
fffffffd
fffffff4
00000002
00000002
fffffff7
fffffffc
00000004
00000001
00000005
00000001
00000002
fffffffe
00000002
fffffffe
fffffff8
fffffffc
fffffffc
fffffffd
fffffffe
fffffffb
ffffffff
fffffff6
fffffff7
fffffffe
ffffffff
fffffffe
ffffffff
fffffffd
fffffff8
fffffffe
fffffffe
fffffffd
00000000
00000002
00000001
ffffffff
fffffff8
fffffffd
fffffffd
fffffffd
fffffff8
fffffffc
fffffffc
fffffff6
fffffff3
fffffffc
fffffffb
fffffffc
fffffffd
ffffffeb
fffffffd
00000000
fffffffd
00000001
fffffffa
fffffffc
ffffffff
00000002
fffffffe
ffffffff
00000001
fffffffd
00000000
00000002
00000001
ffffffff
00000000
ffffffe3
fffffffd
fffffffc
fffffffd
00000000
fffffffe
00000001
ffffffff
fffffffc
00000000
fffffff7
fffffff7
fffffff7
fffffff9
fffffff7
fffffff6
fffffff9
fffffff7
fffffff9
fffffffa
fffffffd
fffffff9
fffffffd
fffffffb
fffffffe
00000001
00000002
ffffffff
ffffffff
00000000
ffffffea
fffffffc
ffffffff
fffffffc
00000000
00000000
ffffffff
fffffffe
ffffffff
ffffffff
ffffffff
fffffffc
ffffffff
fffffffb
fffffffd
fffffffc
00000002
00000000
ffffffed
00000000
ffffffff
fffffff4
fffffffa
00000000
ffffffec
00000006
00000005
00000006
fffffffd
00000001
fffffffe
fffffffc
fffffffd
00000002
fffffffd
fffffffe
ffffffff
ffffffff
fffffffd
fffffffe
fffffff7
ffffffff
fffffffe
fffffff8
fffffffa
fffffff9
fffffffc
ffffffff
fffffffa
fffffffe
fffffffc
fffffffe
00000004
fffffffe
00000005
00000003
00000000
fffffffb
00000002
fffffff9
00000000
00000002
00000002
fffffffb
fffffffa
00000005
fffffff7
fffffffa
00000001
fffffffd
fffffffc
ffffffd4
ffffffff
fffffff6
00000003
ffffffff
fffffffa
fffffffe
ffffffff
ffffffff
00000002
00000002
00000004
ffffffff
fffffffb
00000000
00000002
ffffffd0
fffffffe
00000000
fffffffe
fffffff7
fffffff7
fffffff7
00000000
fffffffd
ffffffff
fffffffd
fffffff8
00000014
fffffffa
00000000
00000000
ffffffff
00000001
00000000
fffffffb
fffffff6
ffffffed
fffffffb
ffffffff
ffffffeb
ffffffff
00000001
00000002
00000003
00000001
00000003
ffffffff
ffffffff
ffffffff
00000002
fffffffb
00000000
0000000a
00000002
00000002
00000004
00000002
00000002
fffffffc
00000001
00000003
fffffffd
fffffffd
fffffffd
fffffffe
ffffffff
fffffff7
fffffffe
fffffffe
fffffffe
00000008
00000007
00000007
00000000
00000002
00000001
00000004
00000001
00000001
00000000
00000002
00000003
00000004
00000001
00000002
00000005
00000002
0000000e
ffffffef
00000001
00000002
fffffff0
fffffffb
00000003
00000006
00000005
00000002
fffffffd
00000010
fffffffd
fffffff3
fffffffb
fffffffd
fffffffe
fffffffb
fffffffb
fffffffe
fffffffe
ffffffe7
fffffff9
fffffffe
ffffffff
00000001
00000000
00000002
00000003
00000028
00000001
00000003
00000003
00000004
00000005
00000005
ffffffff
00000000
00000001
00000002
fffffffe
ffffffff
00000000
fffffff6
fffffff9
00000000
00000001
00000000
00000001
00000000
ffffffff
00000002
fffffffe
00000002
fffffffe
fffffffd
fffffffb
ffffffff
fffffffe
00000001
00000000
00000000
00000001
00000001
fffffffe
ffffffff
00000000
ffffffe8
fffffff0
fffffffc
0000000f
00000000
ffffffff
00000001
00000001
fffffffe
00000002
00000000
00000001
00000003
00000000
fffffff9
ffffffff
00000002
00000000
00000000
00000000
00000001
ffffffff
00000000
fffffffe
00000001
00000002
00000002
fffffffe
00000002
00000002
ffffffec
fffffffb
fffffffe
fffffffa
fffffffe
fffffffe
fffffffd
fffffffa
fffffffb
00000001
00000000
fffffffb
00000000
fffffff8
00000000
00000003
00000005
00000005
ffffffef
00000003
00000004
fffffff9
fffffffe
00000000
fffffff3
00000000
00000001
00000004
fffffffa
00000002
fffffff9
fffffff7
fffffffc
fffffff9
fffffffc
00000001
00000000
00000001
00000001
00000005
fffffffb
00000005
00000002
00000003
00000003
00000002
00000005
00000002
00000005
00000006
fffffffe
00000003
00000004
fffffffd
00000003
00000004
00000000
fffffff9
00000000
fffffff7
00000002
00000000
fffffffe
fffffffb
fffffff7
fffffffe
fffffffd
fffffff7
fffffffe
ffffffff
fffffffc
fffffff2
fffffffd
fffffffb
fffffffc
ffffffff
00000000
00000004
00000004
00000000
00000003
00000003
00000000
fffffffe
fffffff8
00000000
00000001
fffffff6
00000004
00000000
00000003
fffffff8
fffffffa
fffffff4
00000001
fffffffd
ffffffff
00000001
fffffff8
ffffffcf
fffffffd
00000000
00000001
00000001
00000001
ffffffff
00000001
fffffff4
fffffff9
fffffffb
fffffffd
fffffff9
00000001
00000003
00000000
00000001
00000003
00000001
ffffffff
00000002
ffffffff
ffffffff
fffffffb
00000001
fffffff7
fffffffe
fffffffe
00000003
00000000
00000003
00000000
00000004
00000002
00000004
00000001
00000004
00000003
00000003
fffffff4
00000000
fffffff8
fffffffd
ffffffff
fffffffd
ffffffff
fffffffa
00000001
00000006
00000005
00000005
00000007
00000007
00000006
00000003
00000004
00000003
00000001
00000000
00000001
fffffff5
fffffff0
ffffffff
ffffffff
fffffff4
fffffff5
00000004
00000007
00000003
fffffffe
00000007
fffffff4
00000002
fffffffe
fffffffc
00000004
00000004
00000002
00000002
00000001
00000003
fffffffd
fffffffc
00000004
00000002
00000002
00000002
00000003
fffffffd
fffffffb
00000001
fffffffe
ffffffff
00000002
00000001
00000003
fffffff5
fffffffc
00000001
00000001
fffffffd
00000003
00000000
fffffff9
fffffff4
00000002
00000002
00000000
00000001
ffffffee
fffffffc
00000001
fffffffe
00000001
fffffff5
fffffffc
fffffffb
fffffffc
fffffffa
fffffffe
00000002
fffffffc
00000000
00000000
00000001
00000001
00000000
ffffffdf
fffffff4
fffffffd
fffffffb
00000001
00000001
00000002
ffffffff
fffffffb
00000003
00000001
fffffffe
fffffffd
fffffffe
fffffffa
fffffffa
fffffffe
fffffffc
ffffffff
ffffffff
fffffffb
fffffff6
fffffffc
fffffff8
fffffffb
fffffffc
fffffffb
fffffff9
fffffffc
fffffffd
ffffffe6
fffffff8
fffffffd
fffffffe
ffffffff
fffffffe
fffffffe
fffffffb
00000001
00000004
00000002
00000000
00000006
fffffffe
00000000
00000001
00000001
00000002
ffffffea
00000000
fffffffe
fffffff5
fffffffb
ffffffff
ffffffee
ffffffff
00000001
00000002
fffffffc
ffffffff
fffffffd
fffffff8
fffffffd
fffffffb
fffffffc
00000003
00000001
00000002
00000000
fffffffe
fffffff8
fffffffe
fffffffc
fffffffb
fffffff9
fffffff9
fffffffb
fffffffa
fffffffa
fffffffb
fffffff7
fffffffc
fffffffb
fffffffe
00000001
ffffffff
00000001
fffffffd
00000000
fffffffa
00000001
ffffffff
ffffffff
fffffffd
fffffffb
fffffffe
fffffffe
fffffffb
00000001
ffffffff
0000000b
ffffffe8
00000003
00000001
fffffffe
00000001
00000002
00000004
00000004
00000005
00000002
00000004
00000001
00000001
fffffff8
fffffffe
00000003
fffffffc
00000002
fffffffd
00000001
fffffffb
fffffffd
fffffffe
00000001
fffffffc
00000000
00000001
ffffffff
ffffffd8
fffffffd
00000002
00000004
00000003
00000001
00000001
00000002
fffffffe
00000002
ffffffff
00000000
00000007
00000002
00000002
00000004
00000002
00000000
fffffffb
fffffffd
00000000
fffffffb
00000000
fffffffc
ffffffff
fffffff1
00000001
fffffffd
00000000
fffffffe
ffffffff
fffffffd
fffffffd
ffffffff
00000001
fffffffd
ffffffff
fffffffe
ffffffff
fffffffb
ffffffff
fffffff8
00000000
ffffffff
00000001
00000001
ffffffff
00000000
00000000
ffffffff
00000001
00000002
00000001
ffffffff
00000001
ffffffff
00000000
00000003
00000000
ffffffff
0000000b
ffffffed
00000008
00000006
ffffffff
00000007
00000003
00000005
00000007
00000005
00000007
ffffffeb
00000003
00000000
00000002
00000003
00000003
00000003
00000001
00000004
00000000
00000007
fffffffb
00000002
00000002
00000001
00000001
00000003
00000001
ffffffff
00000002
00000002
ffffffff
00000001
00000001
00000001
fffffffd
00000000
fffffff6
fffffff7
fffffff4
fffffff8
fffffffa
fffffff7
fffffff6
fffffffc
fffffffd
00000000
00000001
fffffffc
00000000
00000001
fffffffe
ffffffff
fffffff9
00000001
00000000
00000005
00000002
00000003
00000004
00000002
fffffffe
00000002
00000002
00000000
00000001
ffffffed
ffffffef
fffffffc
fffffffb
ffffffff
fffffffe
fffffffd
00000001
00000004
00000001
00000001
00000001
00000001
00000001
00000000
00000002
00000004
00000004
00000004
00000003
00000002
fffffffd
00000005
00000004
00000005
fffffffb
fffffffa
fffffffa
fffffffd
fffffffd
ffffffef
fffffffc
00000000
fffffffc
fffffffc
fffffffe
00000000
fffffffd
fffffffe
00000000
00000000
00000002
00000002
fffffffc
00000000
00000000
00000001
00000002
fffffff6
00000000
fffffffe
fffffff9
fffffffe
00000001
fffffff4
00000000
00000003
00000002
fffffff7
ffffffff
fffffff9
fffffff9
fffffffe
fffffffd
fffffffd
ffffffff
fffffffe
00000000
00000002
00000000
fffffff9
fffffffd
fffffffe
fffffffb
fffffffd
00000001
00000001
ffffffff
fffffffe
00000000
fffffffe
fffffffe
00000000
fffffffa
ffffffff
ffffffff
00000000
fffffff4
00000000
fffffff9
00000003
ffffffff
ffffffff
fffffffa
fffffff7
fffffffd
00000001
fffffffa
00000003
00000002
fffffffb
ffffffea
ffffffff
ffffffff
fffffffb
fffffffa
fffffffc
fffffffe
fffffffe
fffffffc
00000000
fffffffd
fffffffe
00000002
fffffff3
fffffffb
00000000
00000007
ffffffff
fffffffc
ffffffff
fffffffa
fffffff8
fffffff9
00000003
00000000
ffffffff
00000001
fffffffd
ffffffe9
ffffffff
00000000
00000001
00000002
00000001
00000002
00000001
fffffffb
00000003
fffffffc
00000000
fffffff9
ffffffff
fffffffe
fffffffe
00000001
00000000
ffffffff
fffffffe
00000000
00000000
00000002
fffffffc
00000000
fffffff6
fffffffb
fffffffb
00000001
00000002
00000002
fffffffe
00000001
00000001
00000001
ffffffff
00000002
00000002
00000001
fffffff7
fffffffd
fffffff9
00000000
ffffffff
fffffffd
00000000
fffffffa
00000001
00000000
fffffffd
00000000
00000000
fffffffe
fffffffd
fffffffe
00000000
00000000
00000002
00000000
00000001
fffffff6
fffffff2
fffffffd
ffffffff
fffffffc
fffffff2
00000000
00000002
fffffffe
fffffffa
00000000
ffffffea
00000001
fffffffd
fffffff6
fffffffe
00000003
00000001
00000001
00000001
00000002
fffffff9
fffffff8
00000001
00000001
fffffffe
00000001
00000001
fffffffb
00000000
ffffffff
fffffffb
fffffffe
fffffffe
00000001
00000001
fffffff9
00000001
00000002
00000001
ffffffff
00000002
00000000
00000002
fffffff9
fffffffe
ffffffff
ffffffff
ffffffff
ffffffeb
fffffffd
00000001
fffffffe
fffffffd
fffffff6
fffffffc
fffffffd
00000000
fffffffe
00000003
00000000
fffffffa
00000002
00000002
ffffffff
fffffffd
ffffffff
ffffffe5
ffffffff
fffffffd
fffffffb
fffffffe
fffffffd
00000002
00000001
fffffffd
00000000
00000002
00000001
00000000
00000002
ffffffff
fffffffe
00000002
ffffffff
fffffffe
fffffffb
fffffffc
fffffffe
00000001
fffffffb
00000000
00000000
ffffffff
fffffffe
ffffffff
ffffffff
ffffffe8
fffffffb
ffffffff
00000001
00000007
00000004
fffffffd
ffffffff
00000001
00000000
fffffffb
fffffffa
00000001
fffffffc
00000000
fffffffe
ffffffff
00000000
ffffffe4
ffffffff
fffffffe
fffffff6
fffffffd
00000000
ffffffef
00000001
00000000
00000001
fffffff8
fffffffd
fffffff9
fffffff6
fffffffb
fffffffc
fffffffc
00000000
00000002
00000004
00000000
00000000
fffffff6
00000000
fffffffd
fffffffe
fffffffd
fffffffc
00000000
fffffffc
fffffffe
00000002
fffffffa
fffffffd
fffffffe
fffffffa
00000000
ffffffff
00000001
fffffff6
fffffffd
fffffff7
00000000
00000000
fffffffd
fffffffa
fffffff7
fffffffc
fffffffd
fffffffa
00000001
fffffffd
fffffffd
fffffff2
00000000
fffffffe
fffffffe
ffffffff
fffffffe
00000004
00000001
ffffffff
00000000
00000000
fffffffd
fffffffb
fffffffa
fffffffc
ffffffff
fffffff8
00000000
fffffffe
ffffffff
fffffff4
fffffff9
fffffffa
00000003
00000002
00000001
00000000
fffffffb
ffffffd1
fffffffc
00000001
00000001
fffffffc
00000002
00000002
00000001
fffffff7
fffffffd
fffffffc
fffffffc
fffffffb
00000002
00000001
fffffffd
00000001
ffffffff
fffffffd
fffffffb
00000000
ffffffff
00000000
fffffffc
00000002
fffffffa
00000000
fffffffe
00000001
00000002
00000000
fffffffb
00000001
00000000
ffffffff
fffffffe
00000000
ffffffff
00000001
fffffff7
fffffffe
fffffffb
ffffffff
fffffffc
fffffffe
fffffffd
fffffff8
ffffffff
ffffffff
fffffffe
00000002
ffffffff
00000000
00000003
00000002
00000000
00000003
00000003
00000001
00000002
fffffffb
fffffff2
ffffffff
ffffffff
fffffff8
fffffff9
00000001
00000002
00000002
fffffffa
00000000
fffffff2
00000001
ffffffff
fffffffd
ffffffff
ffffffff
fffffffd
fffffffc
fffffffd
fffffffe
fffffffc
fffffffd
00000002
00000001
00000005
00000000
00000001
ffffffff
fffffffa
00000001
00000000
fffffffe
ffffffff
00000002
ffffffff
fffffff6
ffffffff
ffffffff
00000000
fffffffd
00000000
00000001
fffffffb
fffffff8
00000000
00000001
ffffffff
00000000
fffffff4
fffffffd
00000003
fffffffb
00000001
fffffff9
00000001
fffffffd
00000001
fffffffd
00000001
ffffffff
fffffff8
ffffffff
00000001
ffffffff
00000000
ffffffff
ffffffe1
fffffff4
fffffffc
fffffff8
00000000
fffffffe
ffffffff
ffffffff
fffffff9
ffffffff
00000002
00000000
00000000
00000002
fffffffe
fffffffe
00000002
fffffffd
00000003
00000000
fffffffe
fffffff7
ffffffff
fffffffd
ffffffff
00000000
fffffffe
00000002
fffffffd
ffffffff
ffffffe8
fffffffb
fffffffc
ffffffff
ffffffff
00000001
fffffffe
fffffffe
fffffffd
fffffffe
fffffffe
fffffffd
00000001
fffffffb
00000003
fffffffe
00000002
00000001
ffffffed
00000000
ffffffff
fffffff5
fffffffc
fffffffe
ffffffec
00000000
00000001
ffffffff
fffffffa
fffffffe
fffffffc
fffffff9
fffffffc
fffffffb
fffffffa
fffffffd
fffffffe
fffffffd
fffffffe
00000000
fffffff5
ffffffff
ffffffff
fffffffd
fffffffe
00000001
00000001
fffffffe
00000001
00000001
fffffffc
ffffffff
00000000
fffffff8
fffffffd
00000000
00000000
fffffff5
00000001
fffffff7
00000000
ffffffff
ffffffff
fffffff9
fffffff6
00000001
fffffffc
fffffff9
00000000
fffffffa
fffffffa
fffffff4
00000002
fffffffd
fffffffe
fffffffd
fffffffd
ffffffff
00000001
fffffffb
00000000
fffffffe
fffffffd
fffffffd
fffffff5
fffffffc
ffffffff
fffffffb
fffffffe
fffffffe
00000001
fffffff5
fffffffa
fffffff6
00000000
00000001
00000001
00000001
fffffffd
ffffffd5
ffffffff
00000000
00000001
00000000
00000004
00000004
00000002
fffffff5
fffffffe
fffffffc
ffffffff
fffffff6
00000000
00000002
00000004
00000003
ffffffff
fffffffb
fffffffb
00000000
fffffffc
ffffffff
fffffffb
00000002
fffffff7
00000002
ffffffff
00000004
00000004
00000004
00000000
fffffffe
fffffffd
fffffffe
00000000
00000002
00000001
00000002
fffffffa
00000001
ffffffff
00000001
fffffffe
fffffffe
00000000
fffffff9
00000001
00000000
fffffffd
00000000
fffffffd
ffffffff
fffffffe
fffffffa
fffffffc
00000002
00000002
00000002
00000000
fffffff7
fffffff6
fffffffe
ffffffff
fffffff5
fffffff5
00000001
00000002
00000000
fffffffb
ffffffff
fffffff2
00000006
fffffffd
fffffffa
00000002
ffffffff
ffffffff
00000001
ffffffff
00000000
fffffffd
fffffffb
00000000
00000001
00000002
00000001
00000002
fffffffe
fffffffc
00000001
00000002
ffffffff
00000003
00000002
00000000
fffffff7
fffffffe
00000001
00000001
ffffffff
00000000
00000003
fffffffa
fffffff7
fffffffe
00000002
fffffffe
fffffffd
ffffffed
fffffffd
ffffffff
fffffffd
00000000
fffffff9
fffffffd
fffffffd
00000004
fffffffe
ffffffff
00000000
fffffff8
ffffffff
00000001
ffffffff
ffffffff
00000000
ffffffe2
fffffff7
fffffffb
fffffff9
00000001
00000007
00000002
00000000
00000000
00000003
00000003
00000004
00000003
00000000
fffffffb
fffffffb
00000001
fffffffd
00000000
00000000
ffffffff
fffffffd
00000002
fffffffb
00000001
00000002
fffffffe
00000001
00000000
00000001
ffffffea
fffffffd
fffffffe
fffffffe
00000001
ffffffff
00000000
fffffffe
fffffffe
00000001
00000001
fffffffe
00000000
fffffffe
00000000
00000001
ffffffff
00000002
ffffffe9
00000000
fffffffe
fffffff5
fffffff9
ffffffff
ffffffed
00000001
00000000
00000001
fffffff9
00000000
fffffffc
fffffff7
fffffff8
fffffffa
fffffffe
00000000
fffffffe
ffffffff
00000000
00000002
fffffff9
00000002
00000000
00000000
00000000
00000001
00000003
ffffffff
fffffffd
00000000
fffffffd
fffffffd
ffffffff
fffffffd
00000001
00000000
ffffffff
fffffff5
00000001
fffffff8
00000002
00000002
fffffffd
fffffffb
fffffff7
ffffffff
fffffffd
fffffff9
fffffffd
fffffffd
fffffffc
fffffff3
fffffffc
fffffffe
fffffffe
fffffffd
fffffffb
fffffffe
00000002
fffffffb
ffffffff
00000002
fffffffa
fffffffd
fffffff9
fffffffc
ffffffff
00000000
00000001
fffffffc
00000001
fffffffa
fffffffd
fffffffa
00000001
00000003
00000002
00000000
fffffffa
ffffffdf
fffffffc
fffffffe
fffffffe
00000001
00000004
00000002
fffffffd
fffffff7
ffffffff
fffffffe
00000000
fffffff7
00000001
ffffffff
fffffffe
ffffffff
fffffffe
fffffffe
00000001
00000003
00000001
00000002
00000000
00000002
fffffffd
00000000
fffffffe
fffffffe
ffffffff
ffffffff
ffffffff
ffffffff
ffffffff
ffffffff
fffffffe
00000001
ffffffff
ffffffff
fffffff9
00000002
fffffffd
ffffffff
00000003
00000002
ffffffff
fffffffa
ffffffff
fffffffc
00000000
fffffffd
fffffffb
00000001
00000000
ffffffff
ffffffff
ffffffff
00000000
ffffffff
fffffffe
fffffff6
fffffff3
ffffffff
00000000
fffffff8
fffffff0
fffffffd
00000001
ffffffff
fffffffa
00000001
fffffff4
00000000
00000000
fffffffb
00000001
00000001
00000001
00000000
fffffffd
00000002
fffffff9
fffffff8
fffffffd
fffffffd
fffffffe
fffffffd
fffffffd
fffffffb
fffffff9
ffffffff
fffffffd
ffffffff
00000000
00000002
00000000
fffffff8
00000002
00000002
00000002
fffffffd
ffffffff
fffffffe
fffffffb
fffffff1
fffffffe
ffffffff
fffffffe
00000001
ffffffef
ffffffff
ffffffff
fffffffc
ffffffff
fffffff7
fffffffa
ffffffff
fffffffe
fffffffd
fffffffd
00000000
fffffffc
00000002
00000004
00000001
00000003
00000002
ffffffe4
fffffffc
fffffffd
fffffffd
00000003
ffffffff
ffffffff
fffffffe
fffffffa
fffffffe
00000000
fffffffe
00000000
00000001
fffffffe
00000001
00000000
fffffffd
ffffffff
fffffffe
00000001
fffffffc
00000001
fffffffb
00000001
00000001
00000000
ffffffff
00000002
00000002
ffffffec
fffffffb
00000000
00000000
ffffffff
00000001
00000001
fffffffc
fffffffd
00000001
ffffffff
fffffffd
00000000
fffffffd
00000002
fffffffb
00000000
fffffffd
ffffffe4
00000000
fffffffd
fffffff4
fffffffd
ffffffff
fffffff0
00000000
00000001
00000000
fffffff7
ffffffff
fffffff8
fffffff8
fffffffc
fffffffd
00000002
00000002
ffffffff
00000002
00000001
00000000
fffffff6
fffffffe
fffffffd
fffffffc
fffffffb
fffffffe
00000001
00000001
ffffffff
00000001
fffffffd
fffffffc
fffffffe
fffffffa
fffffffd
fffffffd
ffffffff
fffffff6
00000001
fffffff6
00000000
00000002
fffffffd
fffffff7
fffffff6
fffffffc
fffffffb
fffffff5
fffffffe
fffffffe
fffffffc
fffffff2
fffffffc
fffffffa
fffffffb
fffffffb
fffffffc
00000000
fffffffe
fffffffe
ffffffff
fffffffe
00000000
fffffffe
fffffff8
00000000
00000001
fffffff3
fffffffd
fffffff9
00000001
fffffffa
fffffff8
fffffff6
00000001
00000000
ffffffff
00000003
fffffffc
ffffffe0
fffffffd
00000001
fffffffe
00000001
00000001
ffffffff
ffffffff
fffffff6
ffffffff
00000003
fffffffc
fffffff5
00000001
ffffffff
fffffffd
fffffffe
ffffffff
fffffffd
00000000
00000000
ffffffff
00000004
fffffffd
00000000
00000001
fffffffe
fffffffa
00000001
ffffffff
ffffffff
ffffffff
ffffffff
ffffffff
00000002
ffffffff
00000001
00000005
00000004
fffffff6
00000000
fffffffb
00000000
00000000
00000000
00000000
fffffff8
00000001
fffffffe
ffffffff
ffffffff
ffffffff
fffffffe
ffffffff
fffffffd
fffffffa
fffffffb
00000001
00000000
ffffffff
fffffffa
fffffff1
00000001
fffffffe
fffffff9
fffffff2
00000001
00000001
00000000
fffffffa
00000003
fffffff9
00000002
fffffffc
ffffffff
00000002
00000001
00000001
ffffffff
fffffffc
ffffffff
fffffff9
fffffffb
ffffffff
ffffffff
fffffffd
00000000
fffffffd
fffffffa
fffffffa
00000001
fffffffe
00000000
00000000
00000001
00000002
fffffff8
fffffffb
fffffffd
00000001
ffffffff
ffffffff
ffffffff
fffffffc
fffffff6
00000000
00000000
ffffffff
00000000
fffffff1
fffffffe
ffffffff
fffffffd
ffffffff
fffffff6
fffffffc
fffffffc
fffffffe
fffffffc
ffffffff
00000002
fffffffe
00000002
00000000
ffffffff
00000003
00000001
ffffffe7
fffffffb
fffffffb
00000004
fffffffd
00000000
00000000
ffffffff
fffffffb
00000000
00000001
00000002
00000004
00000003
ffffffff
fffffffe
fffffffd
fffffffc
00000000
fffffffe
00000002
ffffffff
00000003
ffffffff
00000001
00000001
ffffffff
fffffffa
fffffffe
00000000
ffffffe8
fffffffc
00000000
00000003
fffffffe
00000005
00000004
fffffffd
ffffffff
00000002
fffffffd
fffffffa
fffffffd
fffffffa
ffffffff
ffffffff
fffffffc
00000003
ffffffea
ffffffff
fffffffe
fffffff6
fffffffc
fffffffe
ffffffef
00000000
ffffffff
00000000
fffffffe
00000000
ffffffff
fffffff4
fffffffc
fffffffb
fffffff9
00000000
00000001
00000000
00000000
00000001
fffffff9
fffffffe
fffffffb
00000000
fffffffc
00000001
fffffffe
fffffffe
fffffffe
00000001
fffffffd
00000000
00000000
fffffffe
ffffffff
00000001
00000001
fffffffa
00000000
fffffffd
00000001
ffffffff
ffffffff
fffffffe
fffffffb
fffffffe
fffffff0
fffffffd
fffffffe
fffffffc
fffffff3
0000000c
ffffffff
ffffffff
00000002
fffffff8
fffffffd
fffffffc
fffffffe
00000000
fffffffc
fffffffe
fffffffe
00000000
0000000e
00000002
00000001
00000011
ffffffff
fffffffd
00000002
ffffffff
fffffff8
fffffffe
fffffffd
fffffff6
fffffff8
fffffffc
00000000
fffffff8
00000002
00000001
00000001
00000003
00000002
00000002
00000001
fffffffe
fffffff7
fffffffc
00000001
ffffffef
ffffffff
fffffffe
fffffffc
fffffffd
fffffffe
fffffffe
fffffffc
ffffffff
00000003
ffffffff
00000000
00000002
00000005
ffffffff
00000000
ffffffff
00000001
00000000
00000002
00000001
fffffffc
00000001
00000000
ffffffff
00000000
00000001
ffffffff
00000001
ffffffff
00000003
00000000
00000000
00000002
fffffff9
00000002
00000006
00000001
fffffffe
fffffffe
fffffffa
00000000
00000001
ffffffff
00000001
ffffffff
00000001
fffffffe
ffffffec
ffffffe1
00000002
fffffffe
fffffff8
ffffffeb
00000000
00000001
00000001
fffffffe
ffffffff
00000034
00000000
fffffffe
00000002
00000002
00000003
00000001
ffffffff
00000000
ffffffff
ffffffe7
fffffffd
fffffffe
ffffffff
00000001
fffffffd
fffffffc
fffffff9
ffffffdd
00000001
ffffffff
ffffffff
00000001
00000002
fffffffe
fffffffe
ffffffff
00000001
fffffffd
fffffffd
00000000
00000000
0000000b
fffffffb
fffffffe
fffffffd
00000001
fffffffe
fffffff8
fffffffc
ffffffff
fffffffc
ffffffff
fffffffc
00000003
00000007
00000000
fffffffe
00000002
00000001
00000002
0000000a
00000003
00000000
00000002
00000001
fffffff3
0000000b
fffffffc
fffffff8
fffffffe
fffffffd
ffffffff
fffffffb
fffffff9
ffffffff
00000001
00000001
00000000
00000001
ffffffff
fffffffd
ffffffff
fffffffd
00000001
ffffffff
fffffffb
00000009
00000000
fffffff7
ffffffff
00000001
ffffffff
00000001
00000000
00000002
fffffff7
fffffffc
00000000
fffffffb
ffffffff
00000001
00000003
00000002
00000000
00000001
00000001
ffffffff
00000000
00000003
00000000
fffffffe
ffffffff
00000001
00000008
00000000
00000004
fffffffc
fffffffc
fffffffe
0000000a
fffffffd
ffffffff
fffffffe
fffffffc
00000001
ffffffff
fffffffd
ffffffff
fffffffd
fffffffc
fffffffd
00000000
fffffffd
fffffffc
fffffffd
fffffffb
ffffffff
fffffffb
fffffffc
fffffffb
fffffffb
00000000
00000002
00000001
ffffffff
ffffffff
fffffffd
00000000
00000001
00000001
00000001
00000000
fffffff8
00000000
fffffff9
ffffffff
00000000
fffffffe
ffffffff
fffffff9
fffffff9
00000002
ffffffff
00000001
fffffffe
fffffff3
ffffffe7
ffffffff
0000000c
fffffffc
fffffffd
00000000
00000001
ffffffff
fffffffd
fffffffe
fffffffe
00000003
00000002
fffffffe
00000002
00000002
ffffffea
fffffffe
fffffffb
fffffffe
fffffff8
fffffffa
fffffffa
ffffffff
fffffffc
ffffffff
ffffffff
fffffffa
fffffffb
00000002
fffffffd
fffffffe
00000001
00000000
ffffffff
00000003
fffffff7
fffffffb
00000009
fffffffb
ffffffff
ffffffff
00000000
fffffffe
00000001
00000001
00000000
fffffffc
00000004
00000003
00000000
fffffffb
fffffffe
00000003
fffffffc
fffffffc
fffffffd
00000000
fffffffc
ffffffff
00000001
00000000
ffffffff
ffffffff
00000002
ffffffff
00000001
ffffffff
00000001
fffffffe
00000000
00000000
ffffffff
00000000
ffffffff
fffffffd
00000001
fffffffe
fffffffd
00000001
00000001
00000002
ffffffff
00000000
00000002
00000000
fffffffd
fffffffd
ffffffeb
ffffffe6
fffffffb
ffffffff
ffffffff
00000019
fffffffe
00000000
fffffffd
fffffffc
00000002
ffffffe1
00000000
00000001
fffffffe
00000002
00000000
00000000
ffffffff
fffffffb
ffffffff
0000001c
fffffffa
fffffffe
00000002
00000001
00000001
00000001
fffffffa
ffffffed
fffffffc
ffffffff
00000001
00000000
fffffffe
00000001
fffffffb
00000000
00000001
ffffffff
00000001
00000000
00000001
fffffffe
fffffffc
00000001
00000002
00000003
00000003
ffffffef
00000000
00000001
00000000
00000002
00000001
fffffff9
00000001
ffffffff
ffffffff
00000000
ffffffff
ffffffff
00000001
ffffffff
00000001
ffffffff
00000001
ffffffef
ffffffe1
00000007
fffffffb
00000001
00000001
ffffffff
fffffffa
fffffffe
00000000
fffffffc
00000002
00000000
00000001
00000001
00000001
00000002
fffffffd
00000000
00000000
fffffffe
00000000
00000000
ffffffff
fffffffe
00000000
ffffffff
00000000
00000000
00000000
fffffff5
ffffffff
ffffffff
00000002
00000000
00000000
fffffffc
ffffffff
fffffffc
00000000
00000000
fffffffc
00000000
00000005
ffffffff
fffffffe
fffffffa
00000000
fffffffc
fffffffb
fffffffd
fffffffa
fffffffb
00000000
fffffff7
00000000
00000000
00000000
fffffff4
fffffffe
fffffffc
00000001
00000000
00000002
ffffffff
00000003
00000000
fffffffe
00000001
00000000
fffffffd
ffffffff
00000000
fffffffe
fffffffe
ffffffff
00000001
00000001
fffffffe
ffffffff
fffffffb
fffffffe
fffffffe
fffffff8
00000001
fffffffe
fffffffc
fffffff6
00000003
fffffff7
00000003
00000004
fffffffd
fffffffc
fffffffd
fffffff9
0000000a
fffffffe
00000004
00000003
fffffffd
ffffffdd
fffffffc
00000000
00000005
fffffffb
00000000
00000001
00000001
00000000
00000003
00000001
00000004
00000003
ffffffed
fffffffe
00000000
00000026
ffffffff
fffffffd
00000001
fffffff7
fffffffa
fffffffe
00000001
00000012
ffffffff
00000000
fffffffa
ffffffff
fffffffd
00000002
00000000
fffffff9
fffffffe
ffffffff
00000003
fffffff8
00000008
fffffffb
00000001
fffffff4
fffffffb
fffffffc
00000000
fffffffb
fffffffc
ffffffff
fffffffb
00000001
fffffffe
00000004
ffffffff
00000001
fffffff1
00000001
fffffffe
00000001
ffffffff
00000001
00000003
00000001
00000000
00000005
00000002
00000000
00000001
fffffffd
fffffff7
ffffffff
ffffffff
ffffffff
fffffffe
fffffffe
fffffffd
fffffff7
00000000
00000003
fffffffe
00000002
00000001
00000001
00000002
00000000
ffffffff
00000001
00000002
00000001
00000002
fffffff5
00000000
00000000
ffffffff
fffffffc
ffffffe7
00000004
00000003
00000003
fffffff9
00000002
ffffffd1
ffffffff
ffffffff
fffffff8
00000000
00000000
00000003
00000006
ffffffff
00000001
fffffff1
fffffffa
00000002
00000003
00000004
00000005
00000003
00000004
00000016
ffffffff
fffffffc
fffffffd
00000001
00000003
00000003
fffffff7
00000001
00000003
00000000
00000000
00000002
ffffffff
fffffff2
fffffff7
00000001
00000004
00000003
ffffffff
ffffffe9
fffffffb
00000000
00000003
ffffffff
fffffffb
00000005
00000001
00000000
fffffffd
00000001
00000001
fffffff2
fffffffe
fffffffe
fffffffe
00000000
00000001
ffffffe9
ffffffeb
fffffffe
fffffff6
ffffffff
ffffffff
00000001
fffffffc
fffffffc
fffffffd
fffffffe
00000000
00000003
00000003
fffffff7
fffffffe
ffffffff
fffffffc
00000000
00000001
fffffffc
fffffffe
00000001
fffffffb
00000001
ffffffff
00000001
00000002
00000001
00000002
ffffffea
fffffffd
00000002
00000006
00000001
00000000
00000000
fffffffe
00000001
ffffffff
00000002
ffffffff
00000005
fffffffc
fffffffe
00000001
00000000
00000000
ffffffd5
00000001
fffffffe
fffffff9
fffffffc
ffffffff
ffffffef
00000001
ffffffff
00000000
fffffff7
fffffffe
fffffff8
fffffff4
fffffffc
fffffffa
fffffffc
00000002
fffffffd
00000000
00000000
fffffffb
fffffff3
00000001
fffffffa
fffffffa
fffffffd
fffffffe
00000002
fffffffe
fffffffe
00000001
fffffff9
fffffffd
fffffffe
fffffffd
ffffffff
00000001
00000001
fffffff6
00000002
fffffffa
00000002
00000003
fffffffe
fffffff8
fffffff7
ffffffff
fffffffd
fffffff8
00000001
fffffffe
fffffffa
fffffff1
fffffffc
fffffffa
fffffffe
fffffffb
fffffffe
00000001
00000002
fffffffe
ffffffff
00000001
fffffffe
fffffffe
fffffff5
fffffffe
00000001
fffffff4
00000000
fffffffc
fffffffc
fffffff6
fffffff7
fffffff3
fffffffe
ffffffff
fffffffd
00000003
fffffffa
ffffffd2
fffffffd
ffffffff
fffffffd
fffffffe
00000002
00000001
00000000
fffffff7
ffffffff
fffffffc
fffffffe
fffffff9
00000000
00000001
fffffffe
00000001
00000001
00000000
fffffffe
00000001
fffffffc
fffffffe
fffffffc
00000000
fffffff6
fffffffd
fffffffd
00000002
00000000
fffffffe
fffffffe
00000001
00000001
00000000
fffffffd
00000003
ffffffff
00000000
fffffff9
fffffffe
fffffffe
00000002
00000002
ffffffff
ffffffff
fffffffa
00000001
fffffffe
fffffffb
00000000
00000002
fffffffc
ffffffff
00000000
fffffffe
00000000
ffffffff
fffffffe
fffffffe
fffffff9
fffffff4
00000002
00000005
fffffff7
fffffff6
fffffffe
00000000
fffffffe
fffffff6
fffffffe
fffffff1
00000001
fffffffe
fffffffc
00000000
ffffffff
00000001
ffffffff
ffffffff
ffffffff
fffffff9
fffffff9
00000002
00000004
00000004
00000000
00000000
fffffffb
fffffff9
00000001
fffffffe
fffffffe
00000003
fffffffe
ffffffff
fffffff7
fffffffd
ffffffff
00000000
fffffffc
fffffffe
ffffffff
fffffff7
fffffff4
fffffffc
ffffffff
00000000
fffffffe
ffffffee
fffffffd
fffffffe
fffffff9
fffffffe
fffffff4
fffffff9
fffffffb
fffffffd
fffffffd
00000002
00000003
fffffffb
fffffffe
00000001
00000000
00000004
00000002
ffffffe4
fffffff3
fffffffa
fffffff9
00000000
00000002
00000001
fffffffd
00000000
00000002
fffffffe
00000005
00000002
fffffffe
fffffffa
fffffffc
00000003
ffffffff
fffffffe
00000000
00000001
fffffffd
00000000
fffffffc
00000004
00000000
fffffffc
fffffffd
00000004
00000001
ffffffeb
fffffffe
00000000
00000000
fffffffd
fffffffc
fffffffc
fffffffb
fffffffc
fffffffd
fffffffe
fffffffb
fffffffe
fffffffe
00000001
ffffffff
00000002
00000002
ffffffeb
00000000
fffffffe
fffffff5
fffffffb
ffffffff
fffffff0
ffffffff
ffffffff
00000000
fffffff7
fffffffd
fffffff8
fffffffa
fffffffe
fffffffc
ffffffff
00000002
00000002
00000003
00000002
00000002
fffffff3
fffffffd
fffffffb
fffffff8
fffffffb
fffffffe
fffffffc
fffffffc
fffffffc
fffffffe
fffffffa
fffffffb
fffffffc
fffffff9
fffffffd
ffffffff
00000001
fffffff6
00000000
fffffff8
00000000
00000002
ffffffff
fffffffb
fffffff5
fffffffc
fffffffb
fffffff6
fffffffe
fffffffc
fffffff6
fffffff1
fffffffc
fffffff9
fffffffc
fffffffb
fffffffa
fffffffc
fffffffc
fffffffb
fffffffc
fffffffd
ffffffff
fffffffd
fffffff6
fffffff9
fffffffe
fffffff2
fffffffe
fffffffd
fffffffe
fffffff7
fffffff9
fffffff8
00000003
00000002
00000002
00000005
fffffffe
ffffffd8
00000001
00000003
00000003
00000003
00000002
00000002
00000004
fffffff8
fffffffe
fffffffe
fffffffd
fffffff9
fffffffe
fffffffc
fffffffc
fffffffd
fffffffd
fffffffc
fffffffd
ffffffff
fffffffe
00000000
fffffffb
00000002
fffffff8
fffffffd
fffffffe
ffffffff
fffffffe
00000000
fffffffb
ffffffff
00000000
00000002
00000000
00000003
00000001
00000002
fffffffa
00000003
fffffffd
00000002
00000002
00000002
00000002
fffffffe
00000002
00000004
fffffffd
fffffffd
ffffffff
fffffffd
fffffffd
fffffffe
fffffffe
fffffffe
fffffffe
ffffffff
00000000
fffffff7
fffffff1
ffffffff
fffffffc
fffffff2
fffffff3
fffffffb
ffffffff
ffffffff
fffffffa
ffffffff
fffffff5
00000000
fffffffb
fffffffb
ffffffff
00000000
00000000
fffffffe
ffffffff
00000001
fffffffa
fffffffa
00000000
00000000
ffffffff
00000000
00000000
fffffff9
fffffff9
00000000
fffffffb
fffffffb
fffffffe
00000005
00000004
fffffffd
00000002
00000003
00000004
ffffffff
00000001
00000002
fffffffb
fffffff7
00000000
00000000
ffffffff
ffffffff
fffffff0
fffffffe
ffffffff
fffffffb
fffffffe
fffffff7
fffffffb
fffffffc
00000000
fffffffc
ffffffff
ffffffff
fffffff8
fffffffc
fffffffd
fffffffe
fffffffe
fffffffd
ffffffe1
fffffff2
fffffff9
fffffff7
fffffffc
fffffffc
ffffffff
fffffffd
fffffffc
00000000
00000000
00000001
00000005
00000004
fffffffe
00000002
00000004
fffffffe
00000002
00000001
00000000
fffffffd
00000001
fffffffc
00000000
00000000
ffffffff
ffffffff
00000000
ffffffff
ffffffe9
fffffffa
fffffffd
fffffffd
ffffffff
00000001
ffffffff
fffffffd
fffffffe
00000000
00000001
fffffffe
00000001
fffffffd
ffffffff
00000000
00000001
00000001
ffffffeb
fffffffe
fffffffc
fffffff5
fffffffc
ffffffff
ffffffef
fffffffe
ffffffff
00000002
fffffffd
00000001
fffffffa
fffffff6
fffffffc
fffffff9
fffffffc
00000000
00000001
00000001
00000002
00000000
fffffff3
ffffffff
fffffffe
fffffffd
fffffffe
fffffffe
00000000
fffffffd
00000000
00000003
ffffffff
fffffffd
00000002
fffffffe
00000003
00000004
00000003
fffffff9
00000004
fffffffa
00000002
00000002
ffffffff
fffffffa
fffffff6
fffffffd
fffffffc
fffffff7
fffffffe
fffffffc
fffffff9
fffffff1
ffffffff
fffffff9
fffffffd
fffffff9
fffffff9
fffffffe
fffffffc
fffffff9
fffffffc
00000000
fffffffe
fffffffc
fffffffa
fffffffa
fffffffe
fffffff3
ffffffff
fffffffb
00000003
fffffff9
fffffffa
fffffffb
00000001
00000002
00000002
00000000
fffffffc
ffffffd8
fffffffe
ffffffff
00000002
00000003
00000001
00000001
00000001
fffffff7
fffffff9
fffffff7
fffffffc
00000004
fffffffc
fffffffe
fffffffd
fffffffc
fffffffc
fffffffe
ffffffff
ffffffff
00000001
00000002
ffffffff
00000002
fffffff6
00000002
fffffffa
fffffffd
fffffffd
fffffffe
fffffffb
fffffffe
fffffffd
fffffffd
fffffffb
00000001
fffffffe
ffffffff
fffffff8
fffffffe
fffffff9
00000000
00000000
00000000
00000000
fffffffb
00000001
00000000
fffffffd
00000000
00000002
fffffffe
00000000
00000003
00000003
00000003
00000004
00000002
00000002
fffffffe
fffffff2
00000001
00000001
fffffff6
00000003
00000001
00000001
00000003
fffffffd
00000000
fffffff4
00000000
fffffffe
fffffffe
00000002
00000001
00000001
00000001
ffffffff
00000002
fffffffd
fffffffe
00000004
00000002
00000002
00000002
ffffffff
fffffff8
fffffffc
00000002
fffffffe
00000001
00000002
00000002
00000003
fffffffa
00000000
00000002
ffffffff
fffffffe
00000000
ffffffff
fffffff9
fffffff6
fffffffe
fffffffe
ffffffff
00000003
fffffffc
00000001
00000003
00000001
00000002
fffffffc
ffffffff
00000000
00000009
00000006
00000008
00000006
00000003
00000003
00000004
00000004
00000001
00000004
ffffffe9
fffffff3
00000000
fffffffd
00000003
00000001
00000003
00000000
fffffffe
ffffffff
00000001
00000001
00000000
00000001
fffffffd
fffffffe
00000000
fffffffd
ffffffff
ffffffff
00000000
fffffff9
ffffffff
fffffffb
ffffffff
ffffffff
00000001
fffffffc
ffffffff
00000003
ffffffea
fffffffd
ffffffff
fffffffc
00000001
00000001
00000001
ffffffff
ffffffff
00000000
fffffffe
fffffffe
00000000
fffffffc
ffffffff
fffffffe
00000001
00000003
fffffff5
00000001
00000000
fffffff8
ffffffff
00000006
fffffff5
00000007
00000005
00000004
00000006
00000003
00000002
fffffffd
fffffffc
00000004
00000001
00000001
00000002
00000001
ffffffff
00000000
fffffffa
00000001
fffffffc
00000000
00000002
00000002
00000001
ffffffff
fffffffe
00000000
fffffffc
00000000
00000000
fffffffb
fffffffe
fffffffe
00000001
00000001
ffffffff
fffffffe
00000000
fffffffe
00000000
00000003
ffffffff
00000009
00000006
00000001
ffffffff
fffffffe
0000000a
fffffffd
00000002
00000003
00000001
00000004
00000000
fffffffe
ffffffff
ffffffec
ffffffff
fffffffe
fffffff3
ffffffff
00000004
fffffffe
00000001
00000001
00000000
00000009
00000006
00000005
00000006
00000023
00000003
0000000b
00000002
00000002
00000002
00000001
ffffffef
00000001
00000001
fffffffd
00000004
00000003
00000001
00000006
ffffffea
00000000
00000008
00000001
00000005
fffffffd
00000006
00000002
fffffffe
fffffffd
fffffffb
fffffffe
fffffffd
fffffffe
fffffffd
fffffffd
00000012
fffffff6
fffffffe
ffffffff
00000001
00000000
fffffff6
00000000
fffffffc
00000000
ffffffff
ffffffff
ffffffff
00000001
fffffffd
ffffffff
00000000
00000002
00000001
00000003
00000006
00000004
00000002
00000001
fffffffc
00000002
00000002
00000001
00000002
00000000
ffffffff
ffffffff
00000000
00000001
00000003
00000005
0000000a
00000005
00000004
00000001
0000000d
00000005
00000003
fffffffd
fffffffb
fffffffc
fffffffe
00000001
00000001
00000003
00000001
00000000
00000000
ffffffff
00000001
00000001
ffffffee
ffffffff
00000003
00000003
00000002
ffffffff
fffffffe
00000002
fffffff5
fffffffe
fffffffc
fffffffe
fffffffe
ffffffff
fffffffd
fffffffc
fffffff8
fffffffd
ffffffff
00000004
fffffffe
00000001
00000015
00000007
00000001
00000000
00000000
fffffffe
fffffff1
00000000
fffffffb
fffffffc
ffffffff
ffffffff
ffffffff
00000006
00000000
fffffffe
ffffffff
ffffffff
fffffffe
fffffffb
fffffffd
fffffffd
fffffffe
fffffffd
fffffff9
fffffff7
fffffff9
fffffff8
fffffffe
ffffffff
fffffffd
fffffffa
fffffffe
fffffffe
ffffffff
ffffffff
ffffffff
00000001
fffffff9
ffffffff
00000000
00000000
ffffffff
fffffffc
fffffff4
00000003
00000002
0000000b
00000000
00000002
00000001
00000002
00000000
00000000
fffffff9
fffffffe
fffffff5
fffffff7
fffffffc
fffffffc
fffffffe
fffffff7
fffffff9
fffffffd
00000000
fffffffa
fffffffd
00000008
00000001
fffffffe
00000002
00000000
00000007
00000004
00000009
fffffffe
00000003
00000005
00000006
00000005
00000004
00000002
00000006
ffffffff
00000000
00000004
00000003
fffffff7
00000002
00000000
00000002
00000005
00000007
00000004
00000005
00000006
00000001
00000001
0000000a
fffffffe
00000000
fffffffa
fffffffe
00000001
00000004
ffffffff
00000000
00000001
00000001
fffffffc
fffffffd
fffffffb
fffffffe
fffffffd
ffffffff
ffffffff
fffffffe
00000000
00000003
fffffffe
ffffffff
00000002
00000001
00000000
fffffff7
fffffffd
00000002
fffffffb
fffffffd
fffffff5
fffffffc
fffffffe
fffffffe
00000002
fffffffd
fffffffd
00000003
ffffffff
fffffff9
00000003
00000003
00000000
ffffffff
0000000c
00000006
00000000
fffffffb
00000000
00000000
fffffffa
ffffffff
00000000
fffffffa
00000006
00000004
fffffffe
00000001
00000003
00000001
00000001
00000000
00000003
00000002
ffffffe9
00000003
00000000
fffffffe
ffffffff
fffffffd
ffffffff
ffffffff
fffffffa
00000001
00000001
0000000d
00000001
00000012
00000002
00000013
00000000
00000003
00000000
ffffffff
00000000
00000006
00000001
00000004
00000001
ffffffff
00000000
fffffffd
fffffffe
fffffffe
fffffffe
0000000d
ffffffff
fffffffd
fffffffe
fffffffb
ffffffee
fffffffe
fffffffd
00000000
00000000
fffffffe
00000000
00000004
fffffffa
00000003
00000009
00000007
00000003
00000007
00000000
fffffffb
00000001
00000001
00000000
fffffff9
fffffffb
fffffffe
fffffffe
00000002
fffffffd
00000000
ffffffff
0000000c
00000001
00000000
00000002
00000005
fffffffe
00000005
00000002
00000006
00000003
00000000
00000002
00000000
ffffffff
00000000
fffffff9
00000002
ffffffff
fffffffb
fffffff9
fffffffe
fffffffe
fffffffc
fffffffe
0000000c
00000000
ffffffff
fffffffe
00000001
00000001
fffffffb
ffffffff
00000000
fffffffd
fffffffd
fffffffc
00000009
00000002
ffffffff
00000000
ffffffff
fffffffb
0000000a
0000000b
00000000
00000004
00000003
00000002
0000000b
fffffffe
00000002
00000001
00000001
00000001
fffffffd
00000009
fffffffc
ffffffd7
fffffffe
fffffffd
fffffffe
00000005
fffffffe
fffffffb
fffffffb
fffffffc
fffffffb
fffffffa
fffffff3
fffffffb
fffffffc
00000002
00000000
00000002
00000002
00000010
00000002
00000005
00000000
00000002
00000000
fffffffe
00000000
00000000
00000002
00000000
fffffffe
fffffffc
ffffffff
00000001
00000003
00000001
fffffffb
00000004
00000003
00000007
00000003
00000002
00000001
00000000
00000000
fffffffd
00000006
fffffffd
fffffffe
00000000
fffffffe
fffffffe
fffffff6
fffffffd
fffffffe
00000000
ffffffff
ffffffff
00000001
00000004
00000000
00000008
fffffffe
00000002
00000005
00000005
00000004
ffffffff
fffffffd
00000002
00000001
00000002
fffffffc
ffffffff
00000002
00000004
ffffffff
00000000
fffffffe
00000006
00000000
ffffffff
00000000
00000002
00000002
fffffffe
00000002
00000002
00000001
ffffffff
0000000c
00000003
00000003
00000006
00000002
00000002
00000001
fffffffe
fffffffe
fffffffe
fffffff9
00000003
00000000
00000003
ffffffff
00000001
ffffffff
00000003
00000000
ffffffff
fffffff9
fffffffe
00000002
00000004
ffffffff
00000002
0000000b
00000005
fffffffd
00000004
ffffffef
00000003
00000003
ffffffff
00000001
00000000
00000005
fffffffe
fffffffd
00000002
ffffffff
00000000
fffffffe
00000000
00000000
fffffffe
fffffffe
fffffffe
00000000
00000000
00000000
00000000
fffffffd
00000000
00000000
00000002
00000003
ffffffff
fffffffe
ffffffff
00000006
00000000
00000002
ffffffff
00000000
ffffffff
00000000
fffffffe
fffffffc
00000000
00000000
ffffffff
00000000
00000001
ffffffff
00000001
00000005
ffffffff
00000001
00000000
00000000
00000000
00000000
fffffffb
fffffffe
00000001
fffffffe
00000000
00000002
00000005
00000004
00000009
0000000f
00000001
00000000
00000000
00000002
fffffffe
ffffffff
00000001
fffffffe
ffffffff
00000001
00000005
fffffffd
00000001
ffffffe6
00000001
00000000
00000000
00000001
fffffff9
ffffffff
00000000
fffffffe
00000000
00000005
00000001
00000001
ffffffff
00000001
00000001
00000003
00000002
fffffffe
0000000c
00000001
00000001
00000008
00000002
00000002
00000000
00000005
fffffffd
fffffff5
fffffffc
00000002
fffffff8
00000002
00000002
fffffff7
00000001
00000001
ffffffff
ffffffff
00000001
00000003
fffffffa
00000000
fffffffd
fffffffd
fffffffd
00000011
0000000a
fffffffc
fffffffd
ffffffff
00000001
fffffffd
00000004
00000001
fffffffe
fffffffe
00000000
ffffffff
00000002
fffffffe
00000000
00000000
ffffffff
ffffffff
fffffff9
ffffffe5
fffffff7
00000001
ffffffff
00000004
ffffffff
fffffffe
00000007
00000001
00000003
00000001
00000002
00000000
fffffffd
ffffffff
00000004
00000001
ffffffff
fffffffb
fffffff5
00000000
ffffffff
fffffffd
00000000
0000000a
ffffffff
fffffffb
fffffffe
00000003
00000009
ffffffff
fffffffe
fffffffe
fffffff2
fffffffc
fffffff9
00000000
fffffffe
ffffffff
ffffffff
fffffffa
ffffffff
fffffffa
00000000
00000002
00000006
00000001
00000001
fffffffd
fffffffe
00000001
ffffffff
00000001
fffffff8
00000000
ffffffff
00000002
fffffffe
fffffffd
00000000
ffffffff
00000003
00000003
00000002
00000003
ffffffff
00000002
00000001
00000000
fffffffc
00000003
00000001
00000000
fffffffb
00000000
00000005
00000002
00000003
00000000
00000004
ffffffff
00000003
fffffffc
00000004
fffffff6
00000000
00000000
fffffffe
00000002
ffffffff
00000001
00000000
00000000
00000001
00000004
ffffffff
ffffffff
ffffffff
ffffffff
00000002
fffffffe
fffffffd
fffffffd
ffffffff
00000006
fffffffe
00000000
ffffffff
00000000
00000000
fffffffa
fffffffb
00000004
ffffffff
0000000c
ffffffff
ffffffff
fffffffe
00000001
ffffffff
fffffffe
fffffffd
00000005
ffffffff
00000003
ffffffff
00000002
00000001
00000003
00000007
00000003
00000003
fffffffe
00000000
00000001
ffffffff
00000003
fffffffe
00000000
00000000
fffffffe
00000003
00000001
ffffffff
fffffffb
fffffffe
00000001
00000001
fffffffd
00000000
00000002
00000001
ffffffff
00000002
fffffff8
00000002
00000000
00000000
ffffffff
00000000
ffffffff
fffffffd
fffffffe
fffffffc
00000000
00000000
fffffffe
00000002
fffffffe
00000000
fffffffc
00000000
00000000
fffffffc
ffffffff
fffffffe
fffffff8
fffffffd
fffffffa
fffffffc
00000000
00000003
00000002
00000000
00000000
fffffffe
00000000
fffffffd
ffffffff
00000001
00000016
ffffffff
00000001
fffffffd
00000000
00000007
00000009
00000001
00000004
ffffffff
fffffffd
00000003
00000000
00000003
00000000
00000001
00000000
00000004
00000004
fffffff2
00000000
00000001
fffffff9
ffffffff
00000001
00000000
fffffffe
00000000
00000006
ffffffff
fffffffe
00000002
00000002
00000000
00000005
00000001
00000004
00000004
00000003
fffffffe
00000000
00000002
fffffffd
fffffffe
00000000
ffffffff
ffffffef
fffffff9
fffffffd
00000001
ffffffff
ffffffff
00000001
00000000
fffffffe
fffffffe
00000000
fffffffe
00000001
fffffffe
00000004
ffffffff
00000009
00000004
00000008
00000006
0000001c
00000002
ffffffff
fffffffa
fffffffd
00000002
00000001
fffffffa
00000001
fffffffe
00000001
fffffffe
00000003
fffffffc
00000000
fffffffc
fffffffe
fffffffd
00000005
00000004
fffffffe
00000001
00000002
00000001
fffffffa
00000000
fffffffd
00000005
fffffffd
fffffffd
00000000
fffffffd
00000002
0000000c
00000001
00000006
00000000
00000002
00000000
00000002
00000004
fffffffd
00000006
fffffffd
ffffffff
ffffffff
fffffffd
fffffffc
ffffffff
fffffffd
ffffffec
fffffffc
fffffff8
fffffff2
fffffff9
ffffffe4
fffffff9
00000007
00000001
00000000
fffffffc
fffffffc
ffffffe7
00000000
fffffff2
ffffffe6
00000003
ffffffd0
00000004
fffffffd
00000001
00000003
ffffffe9
fffffff9
fffffffd
fffffff5
00000000
ffffffff
fffffffe
ffffffd4
00000003
fffffff4
00000002
00000005
ffffffd6
fffffff8
fffffff9
fffffffe
00000007
fffffff5
00000000
ffffffd1
00000004
00000022
ffffffe0
fffffffb
ffffffac
ffffffff
fffffffb
00000000
00000001
fffffffd
00000002
00000006
fffffffc
ffffffed
ffffffdd
fffffff9
ffffffff
00000014
fffffff9
ffffffd7
00000006
fffffff2
ffffffb3
fffffff4
00000000
ffffffe5
ffffffff
00000003
fffffff8
0000002c
ffffffe8
ffffffe8
ffffffff
fffffff8
ffffffff
00000002
ffffffff
fffffff3
00000016
fffffff4
fffffffd
00000000
00000003
fffffffb
ffffffe8
00000000
00000006
ffffffff
ffffffef
fffffffc
fffffff1
00000002
ffffffd2
00000000
00000009
00000004
fffffffa
00000002
fffffffb
00000000
00000002
00000000
00000002
00000002
fffffffd
ffffffff
fffffffb
00000000
ffffffef
00000002
ffffffa7
ffffffff
00000000
ffffffff
fffffff7
ffffffe1
0000000b
00000001
fffffff4
00000004
00000005
ffffffcf
fffffffc
fffffff2
00000009
00000007
00000004
fffffffd
00000005
00000005
0000000b
ffffffff
00000000
fffffffd
0000000f
ffffffcd
00000003
00000000
ffffffcb
00000000
0000000d
00000004
fffffff6
fffffff9
00000003
00000003
fffffffa
fffffffc
ffffffe1
00000002
00000022
fffffff7
00000000
00000001
00000000
00000002
00000000
ffffffcb
0000000f
ffffffff
fffffff7
fffffff9
00000007
00000006
fffffff8
fffffff7
ffffffe4
00000001
00000003
00000002
00000002
00000006
00000007
fffffff0
00000000
ffffffff
00000002
00000000
fffffff1
fffffffd
00000000
ffffffc7
fffffffd
ffffffee
ffffffdb
ffffffde
ffffffff
fffffffc
00000003
00000002
00000000
ffffffe9
00000000
00000002
00000003
00000004
ffffffd9
00000002
ffffffed
00000008
00000003
00000003
ffffffff
fffffffe
ffffffbd
00000005
00000005
00000004
00000001
00000002
fffffffd
ffffffea
00000000
ffffffd2
00000001
fffffff2
fffffffb
ffffffdb
fffffffd
00000007
00000000
00000003
fffffffc
fffffff7
00000001
ffffffff
ffffffe2
00000000
00000005
00000003
00000002
00000002
fffffff8
ffffffc7
ffffffd1
ffffffff
fffffffd
ffffffe5
00000007
ffffffd4
fffffffa
ffffffff
00000003
00000002
fffffff6
ffffffff
ffffffd5
fffffff6
fffffff9
ffffffff
ffffffb6
00000001
00000004
fffffffe
fffffffa
ffffffff
fffffffa
00000003
00000001
fffffffd
fffffffe
00000000
00000002
00000001
00000002
00000002
fffffffc
ffffffff
fffffffe
fffffffc
00000002
ffffffff
00000003
fffffffe
fffffffd
00000001
00000000
fffffffd
fffffffd
fffffffa
00000003
00000001
00000004
ffffffef
fffffffe
fffffff6
00000004
00000001
00000000
fffffff7
fffffff8
ffffffff
00000029
fffffff6
00000000
00000001
fffffff3
ffffffd5
00000003
fffffff5
fffffffc
fffffff9
fffffffe
ffffffff
00000000
fffffffd
00000001
00000001
fffffffb
fffffffe
fffffffa
fffffffc
00000003
ffffffc7
00000000
00000003
fffffffe
fffffffa
fffffffb
ffffffe3
00000003
00000005
00000002
00000007
fffffffc
00000000
00000002
00000002
00000003
ffffffff
00000003
00000000
00000001
fffffff7
fffffffe
fffffff8
ffffffff
fffffffb
ffffffff
fffffffd
00000008
00000002
00000003
00000001
00000002
00000004
fffffffd
00000000
fffffffa
00000003
00000004
fffffffe
fffffffc
00000001
00000001
00000003
00000008
fffffffe
00000004
fffffffe
ffffffff
ffffffff
ffffffff
fffffffb
fffffff6
00000000
00000001
ffffffff
fffffffe
00000002
00000002
fffffffe
ffffffff
00000001
fffffffd
00000000
00000001
00000001
fffffffe
00000003
00000001
00000002
00000001
00000003
00000004
ffffffec
fffffffe
00000004
00000001
ffffffe4
ffffffdd
00000005
00000001
00000002
fffffffe
00000001
ffffffd8
ffffffff
fffffffc
fffffffe
00000000
ffffffff
fffffffe
fffffffd
00000003
00000001
ffffffdf
fffffff8
ffffffff
00000002
00000001
00000002
00000003
00000008
ffffffd2
fffffffe
00000001
00000001
fffffffd
fffffffd
fffffffd
fffffffe
fffffffb
00000005
00000003
00000000
00000002
00000002
ffffffed
fffffff5
00000000
ffffffff
fffffffe
00000004
ffffffea
ffffffff
ffffffff
00000002
fffffffd
fffffff1
fffffffb
fffffff6
fffffffd
fffffffa
fffffffc
ffffffff
fffffff9
fffffff9
ffffffff
ffffffff
00000002
ffffffff
ffffffe5
0000002d
fffffffb
0000000c
fffffffe
fffffffe
00000001
fffffffc
fffffffb
00000001
ffffffff
ffffffff
fffffffb
ffffffff
00000004
00000004
00000000
fffffffe
00000002
00000001
00000000
ffffffff
00000001
fffffff8
00000003
00000000
fffffffd
fffffff9
00000000
00000001
ffffffe9
fffffffd
fffffffb
fffffffc
ffffffff
00000002
fffffffa
fffffffe
00000000
00000004
00000000
00000000
00000003
fffffff7
00000002
ffffffff
00000000
00000000
ffffffdb
fffffffd
ffffffff
fffffff6
fffffff5
00000001
fffffffd
00000000
00000001
00000003
fffffff6
fffffffd
fffffffa
fffffffe
fffffffe
fffffffc
ffffffff
00000000
fffffffc
00000003
00000000
fffffffb
fffffff8
00000003
fffffffe
ffffffff
fffffffb
00000004
00000002
00000000
00000001
00000001
fffffffa
fffffffb
ffffffff
fffffff8
00000003
00000000
fffffffd
fffffff2
fffffffc
fffffff3
fffffffc
fffffffc
00000002
fffffffb
fffffff9
fffffffb
ffffffec
fffffff6
00000001
fffffff8
00000003
ffffffe4
ffffffff
fffffff9
fffffffd
fffffff8
ffffffff
ffffffff
fffffffb
ffffffff
ffffffff
00000002
fffffffc
fffffffe
ffffffe9
fffffffc
00000001
fffffff5
00000000
fffffffe
fffffffc
fffffff8
fffffffc
fffffff2
00000003
ffffffff
00000002
00000001
fffffff9
ffffffd4
fffffff6
ffffffff
00000000
00000000
fffffffe
fffffffb
fffffffd
fffffff8
00000004
0000001b
00000000
fffffff1
00000002
fffffffe
fffffffd
00000000
00000000
fffffffe
fffffffe
00000002
fffffffd
ffffffff
fffffff7
ffffffff
00000009
fffffffe
ffffffff
00000001
00000001
00000000
fffffffc
ffffffff
fffffffa
fffffffc
ffffffff
ffffffff
fffffffe
fffffffd
fffffff4
fffffffe
fffffff8
fffffffa
00000002
fffffffe
00000002
fffffff6
00000000
fffffffd
fffffffa
fffffffe
ffffffff
fffffffa
ffffffff
ffffffff
00000001
fffffffd
ffffffff
00000000
ffffffff
00000006
ffffffe3
00000001
00000002
00000007
fffffff1
00000000
00000000
ffffffff
fffffff8
ffffffff
fffffffb
fffffffe
fffffff5
fffffff8
fffffff8
fffffffe
00000004
00000001
fffffffb
00000000
ffffffec
fffffff9
00000002
00000005
00000001
00000000
ffffffff
fffffffe
ffffffec
00000001
fffffffe
fffffffb
fffffffd
fffffffe
00000002
fffffff6
00000000
00000001
00000003
ffffffff
00000004
00000007
00000000
fffffff6
fffffffe
fffffffe
fffffffe
00000000
ffffffdc
fffffffe
00000002
00000003
00000002
fffffff6
00000004
fffffffc
fffffffd
00000001
00000001
00000004
fffffffd
ffffffff
00000002
00000001
00000003
00000002
ffffffe4
0000000b
fffffffc
00000007
00000002
00000000
00000002
fffffffb
fffffffe
00000004
ffffffff
00000000
00000001
00000000
00000010
00000002
ffffffff
00000000
ffffffff
fffffffd
00000002
00000004
fffffffd
ffffffff
fffffffe
00000002
fffffffd
fffffffe
00000000
00000002
ffffffeb
fffffffd
00000000
ffffffff
00000001
00000004
00000001
00000001
00000001
00000004
fffffffe
fffffff8
fffffffd
fffffffd
00000000
ffffffff
00000002
ffffffff
ffffffde
00000001
fffffffa
fffffff5
fffffff9
ffffffff
fffffff0
00000003
00000005
00000002
fffffffd
00000001
ffffffff
00000008
00000000
fffffffa
fffffffb
00000000
fffffffe
00000002
00000003
fffffffe
fffffffe
00000001
fffffffc
fffffffe
00000005
00000003
ffffffff
fffffffe
ffffffff
00000002
00000006
fffffffc
ffffffff
fffffffd
ffffffff
00000002
00000000
fffffff5
ffffffff
ffffffff
00000001
fffffffd
fffffffb
fffffffd
ffffffff
00000000
ffffffea
ffffffff
fffffffe
0000000b
fffffff0
ffffffd8
00000007
00000000
00000003
fffffffa
fffffffe
00000000
00000000
fffffffa
00000002
ffffffff
00000000
00000004
00000006
fffffffc
00000000
00000015
fffffffe
00000006
fffffffc
fffffffd
fffffffd
fffffff9
00000001
00000003
00000004
00000003
fffffffa
ffffffce
0000000b
fffffffd
fffffffd
fffffffe
fffffffe
fffffffe
00000000
fffffff8
00000007
ffffffe5
00000003
fffffff7
ffffffff
fffffffd
ffffffff
00000003
00000003
ffffffff
00000003
00000000
00000001
fffffffd
00000001
fffffffe
ffffffee
fffffffe
00000000
00000000
00000001
00000000
00000006
00000006
00000000
00000006
00000005
00000004
00000001
00000002
fffffffa
00000000
00000000
00000000
fffffffd
00000000
fffffffa
fffffffd
00000005
fffffffc
00000002
ffffffff
00000000
fffffffd
ffffffff
00000005
00000002
00000001
fffffffe
00000000
00000003
ffffffe9
00000037
fffffffe
fffffffb
ffffffe4
ffffffd6
ffffffff
00000003
0000000b
ffffffff
00000009
ffffffc7
00000006
fffffffa
fffffffd
fffffffc
00000000
fffffffd
fffffffe
00000001
00000000
0000000b
fffffffd
00000001
ffffffff
00000000
00000000
00000000
00000006
ffffffcc
00000001
00000001
00000003
00000003
00000001
00000001
fffffffb
00000005
00000000
00000009
ffffffff
00000001
00000002
fffffff3
fffffffd
00000002
00000001
ffffffff
00000004
fffffff3
ffffffff
00000001
0000000a
00000001
fffffffc
00000005
fffffffa
00000001
ffffffff
ffffffff
fffffffd
fffffff0
fffffffe
ffffffff
ffffffff
00000000
00000001
fffffff4
fffffffa
fffffffd
00000000
00000006
00000005
ffffffff
fffffffd
00000000
fffffffd
00000001
ffffffff
00000001
ffffffff
fffffffc
00000001
00000003
00000002
00000001
00000003
fffffffd
00000000
00000002
ffffffff
fffffffe
00000000
ffffffff
00000000
00000003
00000003
fffffff8
ffffffff
fffffff9
00000000
00000000
00000001
fffffff9
fffffffe
00000002
00000002
00000001
00000006
00000003
fffffffe
00000002
ffffffff
00000001
00000001
ffffffda
00000000
00000005
fffffffe
00000005
00000002
ffffffff
fffffffc
fffffffd
00000002
fffffff4
00000000
fffffffe
0000000d
00000005
0000000f
00000002
00000003
ffffffff
00000000
00000004
00000005
0000000c
00000001
00000002
fffffffc
00000000
00000001
fffffffe
00000002
00000000
fffffffb
fffffffc
00000003
fffffffe
fffffff8
00000001
00000004
00000000
0000000d
fffffffc
00000000
00000000
00000003
00000000
fffffff9
fffffffe
ffffffff
fffffffb
ffffffff
00000004
fffffff8
00000019
ffffffce
00000002
fffffff2
0000000c
fffffffb
ffffffff
00000002
fffffffd
ffffffee
ffffffff
00000000
00000002
00000009
fffffff3
0000000a
00000005
ffffffce
0000000e
00000007
fffffffd
fffffffb
fffffff9
00000002
fffffffe
fffffffa
ffffffff
00000000
fffffff9
fffffff1
fffffff3
fffffffd
ffffffff
fffffff9
ffffffff
00000000
00000002
fffffff9
ffffffef
fffffff8
ffffffff
ffffffe8
fffffffe
00000000
fffffffe
ffffffff
00000001
00000005
fffffffd
00000001
fffffffc
00000001
fffffffb
fffffffe
ffffffcd
fffffffa
fffffffd
ffffffff
00000000
fffffffe
fffffff3
00000000
00000001
00000001
fffffffe
00000001
00000000
fffffffe
00000000
00000000
fffffffd
00000004
00000003
00000002
00000000
fffffff5
ffffffff
fffffffd
00000000
fffffffe
00000001
fffffff8
00000001
ffffffff
00000006
00000004
00000000
00000001
00000004
ffffffe5
00000019
00000002
00000000
ffffffee
ffffffd7
00000001
fffffffe
00000000
fffffffc
00000000
00000029
00000002
fffffff9
fffffffc
00000001
ffffffff
00000000
00000003
fffffffe
ffffffff
00000015
fffffffa
00000000
00000003
ffffffff
00000002
00000001
fffffffd
ffffffe2
00000000
00000007
fffffffe
00000003
fffffffd
00000001
fffffff9
fffffffc
00000001
00000002
fffffff8
00000001
00000003
fffffffb
fffffffd
00000003
00000001
00000004
00000002
ffffffe2
fffffffc
fffffffc
fffffffd
ffffffff
fffffffd
fffffffe
00000001
00000003
fffffffc
00000002
00000002
fffffff9
00000006
00000000
00000003
00000001
00000000
fffffff4
fffffff8
fffffffe
ffffffe4
00000001
ffffffff
fffffffc
fffffff8
fffffffd
ffffffff
fffffffd
fffffffe
00000000
00000001
fffffff4
00000000
00000002
fffffffb
00000004
00000001
fffffffd
fffffffa
ffffffff
0000000c
00000003
00000001
fffffffe
00000002
00000001
00000000
fffffff1
fffffffc
00000004
00000002
ffffffff
ffffffff
fffffff9
fffffff9
fffffffa
00000006
00000003
fffffffa
00000006
fffffff8
fffffffe
ffffffff
00000002
ffffffff
ffffffcf
00000002
00000000
fffffff8
fffffffe
00000000
ffffffee
00000001
00000000
00000000
00000001
00000001
fffffff9
fffffff9
fffffffb
fffffff2
fffffffc
00000001
00000001
ffffffff
00000000
fffffffd
fffffff1
fffffffe
fffffffa
00000000
00000000
fffffffd
00000004
00000000
00000001
00000005
00000000
fffffffd
00000002
00000000
00000002
00000003
00000000
fffffffa
00000002
fffffff9
ffffffff
ffffffff
fffffff6
fffffffc
fffffffd
fffffffd
ffffffe8
fffffffb
00000000
00000001
ffffffff
0000003a
fffffffc
fffffff4
fffffff9
00000001
00000000
00000003
00000000
00000004
00000001
fffffffc
fffffffc
ffffffff
fffffff3
fffffffb
00000000
ffffffbf
fffffffd
ffffffff
00000008
fffffffc
fffffffb
fffffff3
00000002
00000003
ffffffff
00000000
fffffff9
ffffffbc
fffffffd
fffffffd
fffffffe
ffffffff
00000002
00000005
00000000
ffffffff
fffffff3
fffffff6
ffffffff
0000000d
00000000
00000001
00000002
00000000
00000002
fffffffd
fffffffd
00000000
fffffffe
fffffffe
fffffffd
00000000
00000001
00000002
fffffffd
00000001
fffffffe
00000000
00000000
fffffffe
fffffffe
fffffffe
00000000
00000002
00000000
ffffffff
fffffffb
00000001
00000003
fffffffd
fffffffd
00000000
00000000
fffffffb
00000001
00000001
ffffffff
00000003
00000004
00000005
00000000
00000002
fffffffe
00000000
00000000
ffffffff
00000001
00000009
00000014
00000002
fffffffc
0000000c
fffffff9
00000007
fffffffe
ffffffff
fffffffc
fffffffe
ffffffb9
fffffffb
fffffffe
fffffffa
00000002
00000000
ffffffff
fffffffd
fffffffe
00000000
ffffffed
00000000
00000000
00000005
00000005
00000001
00000003
00000004
00000008
fffffffd
fffffffd
00000002
00000000
00000002
00000003
fffffffc
00000000
ffffffff
00000001
fffffffe
ffffffff
00000000
fffffffd
fffffffb
00000003
ffffffff
ffffffff
00000000
00000006
fffffffe
00000001
fffffff9
00000002
fffffffc
00000002
fffffff9
fffffffc
fffffffe
00000004
00000004
00000009
fffffffd
00000000
00000001
ffffffff
00000001
fffffff9
fffffff8
fffffffc
ffffffff
fffffffd
00000001
ffffffff
fffffffe
fffffffd
fffffffe
ffffffff
00000004
00000000
00000003
fffffffb
00000000
00000002
fffffffd
00000002
fffffffe
00000000
fffffffc
fffffffe
fffffffa
fffffffe
00000000
fffffffe
fffffffa
00000000
00000000
fffffff5
fffffffd
00000004
00000003
00000000
ffffffff
fffffffd
00000003
fffffffd
00000000
00000000
00000002
ffffffff
fffffffb
00000001
00000002
00000003
00000003
00000001
fffffffe
fffffffa
fffffffc
00000000
00000001
fffffffe
00000000
fffffffe
00000002
fffffff7
00000004
fffffff9
fffffff7
fffffffe
fffffffe
00000000
00000002
00000000
fffffffe
fffffffe
fffffffd
fffffff5
ffffffff
ffffffff
fffffffb
fffffffb
fffffffd
00000004
fffffffd
fffffffd
00000004
fffffffe
00000001
00000006
fffffffe
00000000
fffffffd
00000002
fffffff8
fffffffd
fffffff5
ffffffff
00000000
fffffffd
fffffff9
fffffff3
fffffffd
00000012
fffffff6
00000002
fffffffb
fffffff8
ffffffe1
00000000
fffffff6
0000000e
fffffffe
00000000
fffffff3
ffffffff
ffffffff
00000008
00000004
fffffffe
00000004
ffffffed
fffffffb
00000006
ffffffd7
fffffffc
fffffffd
fffffffe
fffffff4
fffffff8
fffffff9
fffffffe
fffffffe
ffffffff
00000002
fffffffc
fffffffa
fffffff8
00000001
fffffffd
fffffff9
00000002
fffffffb
fffffffd
fffffff4
fffffff2
fffffff0
fffffff9
ffffffea
00000001
ffffffff
00000001
00000003
00000001
00000004
ffffffff
00000003
00000004
00000001
fffffffd
00000001
ffffffe4
fffffffb
fffffffd
00000001
00000000
00000002
fffffff5
ffffffff
00000003
00000001
ffffffff
00000000
00000000
00000000
fffffff9
fffffffd
fffffff6
fffffffe
00000000
00000000
00000002
fffffff8
00000000
ffffffff
00000001
00000002
00000002
fffffff8
ffffffff
fffffffe
fffffffd
00000001
00000001
00000001
fffffffe
00000006
ffffffe0
ffffffff
00000000
ffffffed
00000002
fffffffd
00000002
00000001
fffffffa
00000003
00000009
00000001
fffffffc
fffffff9
00000001
00000001
00000000
fffffff7
ffffffff
ffffffff
ffffffef
fffffff6
ffffffff
ffffffff
ffffffff
00000001
00000000
fffffffa
0000000a
ffffffff
ffffffff
fffffffc
00000001
ffffffff
fffffffd
fffffff7
00000001
00000001
00000000
fffffffb
00000000
fffffffe
fffffffe
fffffff1
00000000
00000001
00000005
00000000
ffffffe3
fffffffb
fffffffe
fffffffc
fffffffd
fffffff5
fffffff9
fffffffe
fffffffe
fffffffa
ffffffff
fffffffe
00000001
00000003
00000000
fffffffd
00000000
fffffffc
ffffffdd
0000000a
00000000
ffffffec
00000004
00000003
00000000
fffffffc
fffffffe
00000000
fffffffe
ffffffff
00000002
00000001
00000005
fffffffc
ffffffff
fffffffc
00000001
fffffffe
fffffffe
ffffffff
fffffffc
fffffff9
ffffffff
00000000
00000001
00000001
00000003
00000000
ffffffe5
fffffffc
fffffffc
fffffff6
00000004
00000002
ffffffff
fffffffb
fffffffc
00000002
fffffff9
fffffffb
00000003
ffffffff
00000003
fffffffb
ffffffff
00000002
fffffff6
00000003
fffffffc
fffffff1
fffffff9
fffffffd
ffffffe4
00000000
fffffffd
fffffffe
fffffffc
ffffffff
fffffffa
fffffffb
fffffff5
ffffffff
00000000
00000001
00000002
ffffffff
00000000
fffffffe
fffffff9
fffffffe
fffffffd
00000006
fffffffa
00000002
00000003
fffffffe
fffffffe
00000002
fffffff9
00000004
fffffffe
fffffffa
00000000
ffffffff
fffffffe
fffffff3
fffffffd
fffffff6
00000001
00000007
00000001
fffffffd
fffffff1
00000001
ffffffda
fffffffa
fffffffe
fffffffd
00000008
ffffffc1
fffffffd
ffffffec
00000003
fffffffd
fffffffb
fffffffe
00000000
fffffffe
00000001
00000003
ffffffff
fffffffa
fffffffb
fffffffd
00000002
ffffffb3
fffffffa
00000004
00000000
fffffff5
fffffff8
fffffffa
00000000
ffffffff
00000002
00000006
00000000
00000023
fffffffc
00000001
00000001
00000002
00000002
ffffffff
ffffffff
fffffff5
ffffffe4
fffffff5
fffffff9
ffffffe4
ffffffff
00000004
00000003
ffffffff
00000000
00000005
00000001
00000002
00000006
00000002
fffffff8
00000001
00000015
00000001
00000000
fffffffc
00000000
00000001
ffffffff
00000001
00000003
00000003
00000000
00000000
ffffffff
00000000
fffffffa
00000001
00000006
00000007
00000007
00000006
00000007
00000003
00000005
00000004
00000004
00000004
00000003
ffffffff
00000003
00000005
00000004
00000003
00000005
00000003
00000004
0000000a
ffffffe7
ffffffff
fffffffc
ffffffe3
fffffff2
fffffffa
fffffffa
fffffffa
ffffffff
00000000
0000000b
ffffffff
fffffff8
fffffffe
00000001
00000000
fffffffd
fffffff8
fffffffc
fffffffe
ffffffc6
fffffff9
ffffffff
ffffffff
ffffffff
ffffffff
00000008
0000000b
00000023
00000007
00000003
00000001
00000006
00000007
00000007
fffffff3
fffffff9
fffffffc
fffffffe
ffffffff
fffffffd
fffffffe
ffffffef
fffffff4
fffffffd
fffffffe
fffffffe
fffffffc
00000013
fffffff9
fffffffc
fffffff9
fffffffa
00000001
00000007
00000002
00000005
00000002
00000004
00000004
00000010
00000003
fffffffe
00000000
fffffffe
ffffffff
ffffffe4
ffffffe9
fffffff9
00000017
ffffffff
00000000
00000000
00000000
00000000
ffffffff
ffffffff
ffffffff
ffffffff
ffffffff
fffffff0
00000001
00000002
fffffffd
00000000
00000002
00000002
00000001
00000000
fffffff9
00000003
00000003
00000002
ffffffff
00000001
00000000
ffffffed
fffffffe
00000001
fffffff2
fffffffd
ffffffff
fffffffd
fffffffb
fffffffc
00000001
00000001
fffffffa
ffffffff
fffffff3
fffffffd
fffffffa
fffffffc
fffffffb
ffffffee
fffffff9
00000001
fffffff6
fffffffb
fffffffd
fffffffa
fffffffd
fffffffe
00000000
fffffff5
fffffffb
fffffff7
fffffff6
fffffffc
fffffffa
fffffffd
00000001
00000002
00000002
fffffffc
fffffffc
fffffff4
fffffffc
fffffff9
fffffffb
fffffff9
fffffffa
fffffffd
00000003
00000004
00000006
ffffffff
00000001
00000004
fffffffe
00000003
00000004
00000009
fffffffa
00000007
fffffffa
00000006
00000006
ffffffff
fffffffc
fffffff9
fffffffe
fffffffc
fffffff8
00000003
00000001
fffffffb
fffffff3
ffffffff
fffffffe
00000000
ffffffff
00000000
00000004
00000004
00000000
00000004
00000003
ffffffff
fffffff9
fffffff3
fffffffa
fffffffa
fffffff4
fffffffb
fffffff9
fffffffc
fffffff4
fffffff7
fffffff5
00000001
00000004
00000003
00000002
fffffffe
ffffffd4
00000002
fffffff8
fffffffa
fffffff9
fffffffa
fffffffb
fffffffc
fffffff1
fffffffa
fffffff8
fffffffd
fffffffb
ffffffff
ffffffff
fffffffe
ffffffff
ffffffff
fffffffd
fffffffe
fffffffb
fffffffa
fffffffa
fffffffa
fffffffe
fffffff6
fffffffe
fffffffc
ffffffff
00000002
00000001
ffffffff
00000002
00000002
00000002
fffffffd
00000000
ffffffff
fffffffb
fffffff2
fffffffc
fffffff8
fffffffe
fffffffd
fffffffc
fffffffc
fffffff7
00000002
00000001
00000002
00000002
00000000
00000002
00000003
00000002
00000001
fffffffd
fffffffd
fffffffd
fffffffd
fffffff3
fffffff0
fffffffe
fffffffc
fffffff5
fffffff4
00000000
00000000
00000000
fffffffa
00000000
ffffffe8
ffffffff
fffffffc
fffffffa
ffffffff
00000000
fffffffe
fffffffe
fffffffe
fffffffe
fffffffa
fffffff7
00000001
00000001
00000000
00000000
00000000
fffffffd
fffffff5
ffffffff
fffffffd
fffffffe
00000000
ffffffff
00000001
fffffff7
ffffffff
00000003
00000003
ffffffff
00000000
00000001
fffffffe
fffffff7
00000000
00000001
00000001
00000000
ffffffed
fffffffb
fffffffe
fffffffd
fffffffe
fffffff5
fffffffe
fffffff9
ffffffff
fffffffb
00000000
00000000
fffffff9
00000000
00000002
00000002
00000003
00000003
ffffffe3
fffffff8
fffffffe
fffffffc
00000003
00000001
00000000
00000000
fffffffe
00000001
00000002
00000002
00000001
00000002
ffffffff
00000000
00000002
ffffffff
00000002
00000002
00000001
fffffffe
00000003
fffffffe
00000002
00000004
00000000
00000001
fffffff7
fffffffa
ffffffdf
fffffff3
fffffff9
fffffff8
fffffffa
fffffffc
fffffff8
fffffffd
00000001
00000001
00000000
fffffffe
00000001
fffffffd
ffffffff
fffffffe
ffffffff
fffffffe
ffffffea
fffffffc
fffffffa
fffffff1
fffffff7
fffffffc
ffffffec
00000002
00000003
00000001
fffffffd
00000001
fffffffe
fffffff2
fffffffe
fffffffd
fffffffc
ffffffff
ffffffff
ffffffff
00000000
fffffffe
fffffff5
00000001
fffffffd
00000000
00000001
ffffffff
00000005
00000004
00000003
00000005
00000000
00000006
00000003
00000002
00000003
00000001
00000003
fffffffd
fffffffe
fffffffc
00000000
fffffffd
fffffffc
fffffffd
fffffffa
fffffffe
fffffff5
fffffffb
ffffffff
ffffffff
00000030
ffffffc2
ffffffff
fffffff4
fffffff9
fffffffe
fffffffd
ffffffff
fffffffe
00000003
fffffffd
fffffffe
fffffffa
fffffff8
ffffffe8
fffffff7
fffffffd
00000009
fffffffe
fffffff8
00000002
fffffff9
fffffff2
00000009
ffffffff
fffffff9
fffffffe
00000000
00000002
ffffffd3
ffffffef
00000001
00000000
00000001
ffffffff
ffffffff
00000006
00000005
ffffffff
fffffff6
00000001
fffffff6
00000003
00000003
00000000
fffffffd
fffffffd
fffffff9
fffffffe
fffffffd
fffffff9
ffffffff
00000000
00000000
ffffffdf
00000005
fffffffe
fffffffe
fffffffe
fffffffe
fffffff8
fffffffd
fffffffb
00000003
ffffffff
00000001
00000003
00000001
ffffffff
00000005
fffffffc
00000003
fffffffe
ffffffff
fffffffe
fffffffd
00000003
00000000
ffffffff
00000001
ffffffff
fffffff5
fffffffd
00000003
ffffffff
fffffffe
fffffffd
00000000
00000000
00000019
ffffffc9
00000000
ffffffff
fffffff2
00000001
00000001
ffffffff
00000000
fffffffc
00000000
ffffffd7
ffffffff
fffffffe
00000001
ffffffff
fffffffe
00000000
fffffffa
0000000a
00000003
00000015
00000000
00000002
00000002
00000001
00000001
00000001
0000000a
ffffffee
00000001
00000005
00000000
00000003
00000002
00000004
00000000
fffffffe
00000002
00000000
fffffffc
00000002
fffffffd
00000004
fffffffe
ffffffff
00000000
00000002
00000001
0000000d
00000003
00000002
fffffffb
00000003
fffffff9
0000000c
00000007
00000003
00000000
00000002
00000000
00000006
00000003
ffffffff
fffffffd
00000001
00000000
fffffff4
fffffff3
fffffffa
fffffff8
00000001
fffffffe
ffffffff
fffffffb
fffffff8
00000001
00000001
00000001
00000003
00000004
0000000e
00000001
fffffffe
fffffffd
00000000
ffffffff
fffffffd
fffffff9
00000001
00000003
00000001
00000004
00000001
00000000
00000002
00000002
fffffff5
ffffffff
ffffffff
fffffff9
00000001
ffffffff
00000005
fffffffa
fffffff7
00000000
00000000
fffffffd
00000001
fffffff9
00000000
00000001
00000002
00000000
00000005
ffffffff
fffffffc
fffffffc
fffffffe
00000000
fffffff3
fffffffc
fffffffe
fffffffc
fffffff3
fffffffb
fffffffa
fffffffe
fffffffe
fffffff8
fffffffc
ffffffff
fffffffe
fffffffe
fffffffe
00000003
fffffffd
00000003
00000003
ffffffff
00000007
00000004
00000006
00000005
00000000
00000000
fffffffa
00000001
00000000
00000000
00000004
00000001
00000002
ffffffeb
ffffffff
fffffff4
fffffffd
fffffffd
fffffff6
fffffff4
fffffff3
fffffff6
0000000b
fffffffa
00000000
00000002
fffffffe
ffffffd9
fffffffe
00000002
00000000
fffffff9
fffffffc
ffffffff
00000000
fffffff5
00000000
fffffffe
fffffffb
00000000
ffffffe5
fffffffa
fffffffb
0000001a
ffffffff
fffffffb
00000000
fffffff5
fffffff1
fffffff2
00000006
00000001
00000002
00000002
fffffffb
00000002
fffffffa
ffffffff
fffffffd
fffffffd
fffffffd
fffffffe
ffffffff
fffffff6
fffffffe
00000006
ffffffff
fffffff8
00000001
00000001
fffffffe
00000000
00000001
00000000
fffffffb
ffffffff
fffffffd
fffffffd
fffffff8
fffffffb
fffffff4
fffffffa
fffffff9
ffffffff
fffffffe
fffffffc
fffffff7
fffffffc
ffffffff
ffffffff
fffffffd
00000001
00000001
00000002
fffffffb
00000003
fffffffd
00000001
00000001
00000002
fffffffc
fffffff4
00000000
00000005
00000005
00000005
00000004
fffffffe
00000004
00000002
00000004
00000001
00000003
00000004
00000003
fffffff0
ffffffca
00000002
00000006
fffffff8
ffffffec
ffffffff
00000003
00000001
fffffffb
00000002
ffffffd6
00000001
00000002
fffffff9
fffffffd
fffffffd
fffffffb
fffffffa
fffffffa
ffffffff
ffffffeb
fffffff5
fffffffd
00000006
00000005
00000005
00000002
fffffffe
ffffffee
00000002
00000002
00000002
00000006
00000004
00000005
fffffffe
00000005
00000005
00000004
00000002
00000005
00000004
00000011
fffffffa
00000001
00000002
00000001
00000001
ffffffdd
fffffffb
fffffffc
fffffffd
fffffffc
fffffff2
fffffff9
fffffff7
fffffffe
fffffffa
fffffffe
00000003
fffffff3
00000006
00000003
00000002
00000001
00000000
ffffffe6
0000000c
00000001
fffffffd
00000001
00000001
00000002
ffffffff
00000002
00000003
00000003
00000000
fffffffe
fffffffe
fffffff1
fffffffd
fffffffe
fffffffe
00000000
00000001
fffffffa
fffffffb
ffffffff
fffffff7
fffffffd
fffffffd
fffffffa
fffffffb
fffffffb
00000000
ffffffe6
fffffffd
00000001
00000004
00000001
00000001
ffffffff
fffffffd
00000000
00000001
00000000
ffffffff
00000003
fffffffd
00000000
00000000
00000001
fffffff7
ffffffcb
fffffff8
fffffff6
fffffff0
fffffff5
fffffffa
ffffffe9
fffffffd
00000001
00000001
fffffff9
ffffffff
fffffffb
fffffff6
fffffffc
fffffffa
fffffffa
00000000
00000000
ffffffff
00000000
00000000
fffffff4
00000000
fffffffe
ffffffff
fffffffe
fffffffe
00000000
fffffffe
fffffffe
00000000
fffffff9
fffffffd
fffffffe
fffffffa
fffffffe
ffffffff
ffffffff
fffffff9
00000000
fffffff6
00000001
00000000
00000004
fffffffb
fffffff8
00000000
fffffffd
fffffff9
00000000
fffffffd
00000005
ffffffec
ffffffff
fffffffd
fffffffe
00000000
00000000
00000003
00000003
00000003
ffffffff
ffffffff
fffffffc
ffffffff
fffffff9
fffffffc
00000002
fffffff3
00000003
fffffff9
fffffffe
fffffff4
fffffff6
fffffffb
ffffffff
fffffffc
00000000
ffffffff
fffffffa
ffffffd4
fffffffa
00000000
00000002
00000001
fffffffd
00000000
ffffffff
fffffff4
fffffff7
fffffff8
fffffffb
fffffff8
fffffffc
00000000
fffffffc
ffffffff
00000001
fffffffe
fffffffe
00000005
00000000
00000003
fffffffe
00000001
ffffffeb
00000002
fffffffe
00000003
00000001
00000001
fffffffd
00000000
ffffffff
00000000
00000001
00000002
00000002
00000002
fffffffb
00000002
ffffffff
00000006
00000004
00000001
00000000
fffffffd
ffffffff
00000000
fffffffd
00000000
00000000
00000000
00000002
00000007
00000005
00000004
00000005
00000004
00000004
0000000b
ffffffeb
00000003
00000001
fffffff9
00000001
00000002
00000002
00000001
fffffff9
00000002
ffffffec
00000002
fffffff9
fffffffd
00000003
ffffffff
00000001
00000002
00000000
00000001
fffffffc
fffffffc
00000001
00000000
00000001
00000000
fffffffe
00000002
fffffffd
ffffffff
fffffffd
ffffffff
00000001
00000002
ffffffff
fffffff6
fffffffc
00000001
00000000
ffffffff
ffffffff
fffffffe
fffffffa
fffffff5
fffffffd
fffffffe
00000001
00000001
fffffffd
00000000
00000002
ffffffff
00000001
fffffff9
00000006
fffffff9
fffffffc
fffffff9
fffffffd
ffffffff
fffffffa
fffffffb
ffffffff
fffffffd
fffffffd
fffffffd
ffffffe1
ffffffef
fffffffa
fffffffc
00000000
ffffffff
00000000
fffffffb
fffffff9
ffffffff
ffffffff
00000000
00000002
00000001
00000002
00000002
00000000
00000000
00000000
00000000
00000001
fffffffa
00000000
00000000
00000000
fffffffd
fffffffc
fffffffc
fffffffe
fffffffd
ffffffe7
fffffff8
fffffffd
fffffff8
ffffffff
00000000
00000001
fffffffe
fffffffd
fffffffe
00000000
fffffffe
00000001
00000000
00000001
00000001
00000003
00000000
fffffff1
00000001
fffffffb
fffffff3
fffffffa
00000001
ffffffed
ffffffff
fffffffe
00000000
fffffff3
fffffffe
fffffff9
fffffffb
fffffffd
fffffff9
fffffffd
fffffffe
ffffffff
ffffffff
00000000
00000001
fffffff8
ffffffff
fffffffd
fffffffb
00000005
00000002
fffffffe
00000000
00000000
00000000
fffffffc
fffffffd
00000001
fffffff7
ffffffff
00000002
00000000
fffffff5
00000001
fffffff8
00000002
00000000
00000003
fffffffc
fffffff7
fffffffd
fffffff4
fffffff9
ffffffff
fffffffd
fffffffa
ffffffea
00000000
fffffffd
fffffff8
fffffffa
fffffffe
00000001
00000001
fffffffd
00000000
00000001
ffffffff
ffffffff
fffffff0
fffffffe
00000000
00000011
00000001
fffffffe
00000002
fffffff5
fffffff2
fffffff1
00000000
fffffffe
00000000
00000003
fffffffa
ffffffd2
fffffffd
ffffffff
00000001
fffffffd
fffffff8
fffffffd
fffffffd
fffffff0
00000002
fffffffe
fffffffb
fffffff1
ffffffff
00000000
fffffffe
fffffffe
00000001
ffffffff
fffffffe
fffffffe
00000001
fffffffd
fffffffb
ffffffff
00000003
fffffffe
fffffffc
fffffffe
00000000
fffffffe
00000000
00000000
ffffffff
00000003
00000000
00000001
00000002
00000000
fffffff5
00000002
fffffffb
ffffffff
00000001
00000001
fffffffc
fffffff6
ffffffff
ffffffff
fffffffe
fffffffc
00000000
00000002
ffffffff
00000002
00000002
ffffffff
00000001
fffffffe
00000001
fffffff7
fffffffe
00000001
00000000
fffffffe
ffffffed
00000000
00000002
00000000
fffffff8
00000001
ffffffe5
fffffffe
fffffffa
fffffff4
fffffffd
ffffffff
fffffff9
fffffffe
fffffffe
fffffff8
fffffff3
fffffffa
00000000
00000000
fffffffe
ffffffff
fffffffe
fffffffc
fffffff2
fffffffe
fffffffe
fffffffe
00000000
00000001
00000001
fffffff7
00000001
00000000
00000000
ffffffff
00000001
00000002
ffffffff
fffffff9
fffffffe
fffffffd
ffffffff
fffffffe
ffffffe2
fffffffa
fffffffd
ffffffff
00000002
fffffff6
00000000
fffffffb
ffffffff
00000002
00000001
00000002
fffffff8
fffffff7
00000000
ffffffff
fffffffd
ffffffff
ffffffe5
fffffffe
fffffffc
fffffffc
00000003
ffffffff
00000003
00000003
ffffffff
00000003
00000003
ffffffff
fffffffe
ffffffff
fffffffc
fffffffe
fffffffd
fffffffc
00000000
00000001
00000002
ffffffff
00000000
00000001
ffffffff
00000003
00000002
fffffffc
00000004
fffffffe
ffffffe4
fffffffd
fffffffe
00000001
fffffffd
00000001
fffffffd
fffffffe
00000000
fffffffe
00000001
ffffffff
fffffffe
fffffffb
fffffffe
ffffffff
00000000
00000000
ffffffdf
00000001
fffffffc
fffffff3
fffffffb
00000001
ffffffec
00000002
00000000
00000000
fffffff5
fffffffd
fffffff9
fffffffa
fffffffe
fffffffd
fffffffd
00000002
00000000
ffffffff
00000000
ffffffff
fffffff1
ffffffff
fffffffb
fffffff5
fffffff8
ffffffff
00000002
fffffffd
ffffffff
00000001
fffffffb
fffffffe
00000002
fffffffc
ffffffff
00000000
00000000
ffffffec
fffffffe
fffffff0
00000000
fffffffd
fffffffa
fffffff9
fffffff5
fffffffd
ffffffff
fffffff7
00000000
fffffffe
00000002
ffffffe6
fffffffa
00000000
fffffffd
fffffff3
fffffffd
00000001
00000000
fffffffd
ffffffff
00000001
fffffffa
fffffffc
fffffff0
fffffffb
fffffffd
00000011
00000001
fffffffc
00000000
fffffff3
fffffff3
fffffff9
00000001
00000000
00000001
ffffffff
fffffff6
ffffffed
fffffff6
ffffffff
00000001
00000002
00000000
ffffffff
fffffffd
fffffff0
00000001
00000009
fffffffc
ffffffec
fffffff9
00000000
00000000
00000001
00000001
ffffffff
00000000
00000001
00000000
00000001
fffffffa
fffffffd
fffffff9
fffffffd
fffffff7
00000002
00000001
00000002
00000000
00000006
ffffffff
00000001
fffffffe
00000002
00000000
00000002
fffffff4
fffffffe
fffffff6
00000001
00000003
00000001
fffffffd
fffffff6
ffffffff
ffffffff
fffffffd
fffffffe
ffffffff
fffffffb
fffffffe
fffffffe
fffffffd
fffffffe
00000000
ffffffff
00000001
fffffffd
ffffffe3
ffffffff
00000001
fffffff8
ffffffe9
00000001
00000001
00000002
fffffff9
fffffffe
ffffffe7
00000000
fffffff9
fffffff9
00000001
00000001
fffffffe
00000000
fffffffc
fffffffb
ffffffec
fffffff5
ffffffff
00000000
00000001
00000000
00000001
fffffff8
fffffffa
00000002
fffffffb
fffffffd
00000001
00000003
fffffffb
fffffff6
00000001
00000000
ffffffff
ffffffff
00000000
00000002
00000008
fffffff5
00000000
00000003
ffffffff
00000000
ffffffe0
fffffffc
00000001
fffffffe
00000000
fffffff4
fffffffd
fffffff9
00000003
fffffffc
00000002
00000001
fffffff9
00000004
00000000
00000000
00000000
00000000
ffffffd6
00000004
fffffffa
fffffffa
ffffffff
00000000
00000003
00000000
fffffffc
00000001
00000000
00000002
00000003
00000001
00000000
ffffffff
00000002
fffffffc
ffffffff
ffffffff
00000000
fffffffd
ffffffff
fffffffa
ffffffff
00000001
00000000
ffffffff
ffffffff
00000002
ffffffe5
fffffffd
00000001
00000002
00000000
00000002
fffffffe
fffffffb
00000000
00000002
ffffffff
fffffffb
00000002
fffffffc
fffffffd
fffffffd
fffffffe
00000003
ffffffde
00000002
ffffffff
fffffff4
fffffffb
00000001
ffffffe9
00000005
00000000
fffffffb
fffffff1
00000000
fffffffa
fffffff9
fffffffc
fffffff8
fffffffd
fffffffe
00000000
ffffffff
fffffffd
00000000
fffffff2
fffffffe
fffffffd
fffffffa
fffffffb
ffffffff
00000001
ffffffff
fffffffe
ffffffff
fffffffb
fffffffc
fffffffe
fffffffb
fffffffc
fffffffc
00000001
fffffff1
00000000
fffffff3
00000001
00000001
fffffffe
fffffff8
fffffffb
fffffffb
ffffffed
fffffff9
00000004
00000002
fffffffb
ffffffee
ffffffff
fffffff9
fffffff8
fffffffb
fffffff9
00000003
00000000
00000003
00000002
00000002
fffffffd
ffffffff
ffffffed
fffffff9
00000001
ffffffe4
fffffffe
fffffffb
00000000
fffffff5
fffffff2
ffffffeb
00000000
fffffffe
ffffffff
00000001
fffffff5
ffffffda
fffffff7
fffffffe
fffffffe
00000000
00000001
ffffffff
00000000
fffffff4
ffffffff
00000007
fffffffd
ffffffee
ffffffff
fffffffe
fffffffd
00000000
ffffffff
fffffffc
fffffffa
00000001
fffffffe
00000002
fffffffb
ffffffff
00000022
fffffffa
fffffff5
fffffffe
fffffffd
fffffffa
