memory_initialization_radix = 16;
memory_initialization_vector=
000003f4000004b7000000b0ffffffed00000142000000d30000029600000115,
000002de0000025300000062fffffe77000000a200000168000000340000006a,
00000094000001370000030affffff71000002260000008e0000041b000000f1,
0000017f0000003700000118000000d5000000dd000003040000019500000161,
0e0fff0800eef811f60dfb14142e0002f5041708443f0afbfe19f9081d140106,
f703040ccbcdf6eb080dfd0a8098ece90407120f301cf60cfe071a0f4d25fd08,
03fe01fe0208ff03ff0004fffb0e00fe050004fefe0afb00f70d100ad5d7f1fc,
03fe0100fd08fe01feff0201ff0f0102f7ff0101f51701fd00fe0100fb0f00ff,
f011f3e9fe06e7ca081ef8000306e7e703fefe010007fd04fdfe0201f90dfe01,
1be30f1f05fb1041d4fe08f4fffefd12f216f9eef6fce3cae506030c1211f511,
1d0402e8f3f5f50f40dcf805f1ee19df17f20912fffb122ce7050df0fef9f600,
06e9fa0401fceb0a121402c4020215f6e7ff041d0803fbf5ecf5f71dfdfbfa03,
18eefb260504eb111eef0ce4fafe1cfaf3fbfddaff070fe9e7eafd3a0502f105,
0402ffda00f714ee12fd07eb0805fafd31f013d701f408fa42031db6f1e12a14,
ebfce526ff11e8fef002f30d050cf8f5dc04f5080002eafbdcf1f1130201eded,
00ff03fe0d050305f8fe04ff1b050403fcfefffd180a0004f0fefc26ff0fe90d,
02ff00ffedf8fe02fdfd08001c0c0306f6fc07fd1c010705fcfdfbfe0dfe0202,
fcf2fef705050101040302fffcfc04ff01fefefff904010400fffefceff80304,
0100fc0202030102fdfefcfeff0201030000fb07fafc05fffff3fbfe0a070100,
fa01fbfedefd02ff02fc04fc0604010400fb02f90201fffd03fdfc06fffd02fa,
fcfdfeffd2f1ff01fefcfcfadffb04ff03fffafbedfe0a02f900fafad7f30100,
05fe01fee4f9ff0703fbfdfddefbff0704fafcffec07030404fdfbfedff30107,
07f6fceee0f4e3f8fcecfcd9f8edfbff0ef200f206f90bfb08f6feebefeced01,
17f9ff2a06fa02001efcfe39edfeebfbfdeff7d405f909000ffcfcee09fd0af7,
f40201030000ff01e50101fb01010102f30200040002ff010af2f70efef50305,
f80000040002ff00ed0001fcfe010101d3fe00f4ff01ff00e8ff01fe00020001,
ee09fffdd4e0f3ff0605f303f8e40cfbff000003000000ffecff01fdff010001,
16d70907134ae8f3f219e3fed1e419e5f707ef00eed90102fde20d020006fffb,
fc18edfa07ef0afa040302eb031bfa110cdf00fe4114f2eb0206fc080200eaf7,
fbd0e7eee41c13120a690eff06e2cdfefeef0b14f9120afcf7caf6fcd50307e4,
fce00ff5050af7060f33e5092de8da0c0421e213fa00eff0f6bbf5f9c60201e5,
0b2ff906f801fcf5fe2901f9ee0100fd00370ae9f80924f908480be701fc1b1b,
f7e1f505e5ffdbf0fef3f506f2f6f9f6fde8e610fff3f700f6f4f002e913d4d5,
0b0200fb00ff00030b0103d201020003040201e40001000205d3f01609f5fe09,
02020118fffffefe030100ebfe01ffff0a0104cc000300040a0301f2ff03ff02,
0505fe05e603ebee06040606e603e7f20201ff0b00ff000009030211ff01ffff,
fdfbfcfee7fee6ee05020103f101f1f404fa0002e7fbeaf1fe0603fdde0de3ee,
f20203fa030203fdfa090efdec03f7f30000fb00ec03f4f2ff0300feed04f0fb,
fd0103fd02040105f50401f5ff03fe04fc0202fd01000107ff040200fe00ff00,
fc0100000001ff00fb0201fb000400fdf30304f4fc03fc02fd020100fd00fdff,
1204fefbf9fbfb02f7da030b09080c01f8d604f501071610fcd0050afd011513,
f323fd0703faf5f7f71ffcf706fdf3f711fefefafa00fafd0b02fff3f8fafa01,
fefe02ff0004fbfefafe0efef4f9fef703fe11fbf4fc03faf91602fd03fcf6f9,
0500faff08010207f9fdfafff7f7f8fef4fe0201f3eef8f700000c00f7f703fc,
09f1fc0c0501ff0ee9e6fe12fdfe0cfbfffcffff00fbfafefefc07ff09fcfd00,
f00ffcf8070703f510080ed700fe01e713e8fd02fafcf61c170b03e40a07f0fe,
f3fefafeff0000fafce8fc1d0406fd04e506eff702030508fc1105ddf8fa04f0,
f1ff00ff01fefdfaf1fc000604ff02f8f801fafcffff04fbf604fa02fcff00fb,
f503ff0200ff04fbf306040100fe02fcf202020202ff05fbf500030003ff01fb,
01fcff0000fefdfefe0100020000ff0002fefc040001fe0902fffb0300fefc01,
ff0201fb000000fd01fe00fffffffdfd030504fe0001fc02040003ff00ffff03,
040b050afaf3f9080c10fcd10405fb08f0e5032502020cfb0103fffe01010002,
14f5f6fcfafaf60e0cfd00ccfafbf004d2eff5f1fe0416dc12c70d20fcfc0115,
fdfafffc010407f213f701f70104fe1bf9f3fed304010801fbea0e1d0a070ef3,
dd00fef9090403ee0cfbfbfaf7fd09f417f600f7fb04f614ddfc02f9120c09e9,
00f003fe01fffde7e4fb02f703fa070305f900f9fafa05fc16f503f6fb01f30f,
e600fcfcfa01e9f4dc0de90e0d0ad7fa33e904f4edea361d32f316e8f1f122fc,
f20105f70d09fa07d60ce515fa02e3f8db1000110909e8fa22e50ef202fc1ffd,
fef801fa02f9fff507fbf6020437fbf603f90704f14bf0fd08faff06fb45fbf2,
fa00ea0100d1fe05f9fadeff06d404fefff1f7fcfafb0304fcfffef7faeafd04,
0003ff040002ff030b03010e000302030803010dff010102fdf5de0101d80502,
fc010100000101000802000dff0200020cff0210000401000b02020fff02ff01,
01da01fd1d16cef90500effd100ff4faff01010901020001fe0002ffff02fe03,
fd09f0fed40015f0ff35f5f9919e45e702ea2800e42af5ec0018160103f800f2,
0101fefdfe0001f803f0110b150afb07feed03090b13daef0529ef02e8e20df8,
fffdfdfe000200fb01ffff00010706fe0307fd02fe00fffb0007ffff02fdfefb,
fffeff0103fc04fffffdfe0003fc050000feff0001ff050002ff0003020602ff,
ff01fdfe05040300fdfefffeff0305fdfdff03fe070b0301fd02fffe090104ff,
0308030504ff00fa03ffff040002fffefe04fffd00020602ff0c03fe08ff0200,
05e704fbfbff0cf2f943f5fa0ccbc1ee06d0f108ea29120d0203ff03020001fe,
f606faf60cf0f6e8f8150bfae6edff180009d60227e812f005e0f306fc27f21d,
fdfe0103cc0408f3030804f8d10809f2fc3df70217dbde0c0fbff001c9332308,
ff090805f60700f8fdf902059300f4eb00070af4a20af3effb0a0905030a0a00,
000b0a04fa00e7fe07080907030507fc04050405d406feff050c04f6ed0a0509,
f5e9fb06d6f7efeaeeedf4fddce2e6e50d1615e41019050d1619fd05280d0229,
f5f902f901f4fff5efec0408d7e9d8dffce90405fceaf906172714020924060c,
061100ddfbf7fcf40feb011bfc02fd1513dfff1ffe00fb1b15ea0111fc04f809,
e2e2fe12080812ffe5f50315070612f3080804d0fcfaf7fb0ffd02d3fbf5f9f7,
0705010802070a030002070803fdfeeefd07050dfc00fe00e1fc020e080715fd,
fef4fd0c0200f1010402030806070203faff050501fcf6f7f7f8010ffd02fa00,
fcf8fa030605f8fbfdfff7050003f20908f906060702ff0800f707fe04f9f1fe,
fbf5fe0a000100f8fef706dc01f90efc050015d2f3f50b10fbfdfc020304fafb,
1f1003f6fa02f214f6fbfc070002ffff02ed06fe00fc07fd03f902f9f9f80c04,
09ea00fafbfe02f708fbff010000fdf9171103f4fa04f2091d08feedfc03ec10,
da1002f00e001000e11101ea07ff0cf0e10a02fc09000aeefe0503f8feff06fc,
09f50504eef9f71b0402ff020304fcfb06fe0401f7fdf810fafd0007fd04f90a,
0508fffc080007f308faffff00fe050107fefcfb0701fcf417fc03f7eff4f91e,
d9ff040e040107edd0ec0014040408e7dcf6041a09020bf6edfcfff9170d00ea,
1e0207fdf801020af607f90df8f9fffd0bf3f1f4fafb020e0ef7fa0402010818,
0201fd03df0cfb0a08f902ffda0bf90822fc060f0501f00724d30a0a0100f80f,
f6ff0305d807f900f706fd09d407fa01fd030605d507fa0003f9f9fde710f903,
1c020ef5fbfd0c08fc05f301e4060407fc07f4f8df0504ff000103fbe40801fb,
f9fcfcfc0200f1f023080cf2fcfa0909e800f6060308f9f7f9fbfb000303f9f4,
e907f7fb0001f5fefafafe0301fef4fd1ffd0ffffdf90811ea09f6050104f4f4,
fb24fafc09b5f8f604d80100041207ff0aebfa00ef25f60906e1fa0000150602,
feed0b05f012f90202dc050704040909f92c00f601c1fafef74103f5f3bbeaf7,
fe030aff0406090003e0defc0ee6090504ebdc0e0fee0e0001eafe04010e0103,
fee6c8010aed0c04ff010e00fc05ff0001dad2fbffdbfdfe02e8cc0bffe8fb00,
f8fa01f7f001eef3f5f807f5e9f2f7ee020612fa0b0c0503ffd9d4f408d40907,
01f7f8ff03f9f803042901fe140aff12083c130302010b0801f3fd01faf7fc01,
fd0efdf109f203fbfaf5f8fff7f7faf502010506151cfbfb07080b06060f0604,
fa02ec01f6a6f5fbfa04f20001ddfb00ff1804f3faef0506000fedf303d9ff03,
0b17050a02f502040415f20afbe60b060711fa0cfefb05030007fe03fad000f6,
02fbfefdfe07fbfcfefafd0400fd03fe01fdfd02fe00fefdfef9ff07fd03f9fb,
fc0f02fcfffc0ffbfd0a0301fd0005feff0b00fbfd000cfd040b05fa00030905,
fefc0006090cfd0afddbfe0afe10fa00fde7f905f8150103fa03fbfffb02fdf8,
0200f8f6080e0106fed7fa04fbf406f9ff97df01de07f30000e0f5fcfd08fb02,
e905fef50300fe03f1fffd000104060002fbfbfcfd0efd0307ef03f71012070a,
f9f9fc0c02fd00fff2f3fb03fef90101faf4ff0803f5fdfcecfffff401050002,
0606faff15ff11140c060318fe0407fa0a0c010efaf602fe0f07000b010300fa,
fdf6fdfeecf2f8f609f7f3fe14f41a15f9010903e905eaf3fcff06fff101f5f8,
fc060602ed02efeefe0205fbf0fdf0f609fc00fc15021306fcf90407f3fafaf2,
ede4f61dfe0404f61c210bd809010cf9f2d1fa2cfef80819f805fdfb0003fbef,
0c0f03d2fd00fae70cf4092f05080211f81802c9ff030afc0fcd0de7fff8ff19,
1eff05f9f9f901101804f7df0a030311edfaf9f30c0908f0f5faf2f7ff04f8fd,
eafb0703fefd13fc24f3fde8fbffef0f09fbf1e2020505fdd6fa0000010708e9,
edf2fe1006060c01e20602050f0415f80aff00f0fdfff309e900fdeb000009f5,
0bfe05f80001ed0809e7f306f8fb030ce5f3f61504fe09fc03ef03f50805faff,
f9fc020606fd0af70d010df2f6fdf0fc0df90a07f7fbfa09f6ed000300faff07,
d3e9f10f060218f012e5fd11fefd021b110e02f7fcfeea0b030805e60505f3f7,
03ebfd080506090321e3060bfbfcff0e061a02f6f3f4fc07e500fcdc050601e3,
f1fdfdfdfffd08f9000d03f704fffc0101fcfefffffffb05ecfafcfc0201fffc,
0bf3fb04fe03ff06f7fbfbf7000301fa0a0b06f600fc05fd06f7fcfffcfc0604,
fc0302f7070dfbf9f7fc00f5010800f6fdfd01fcfe0700f6100606fa0305fbfe,
04f809f3fef905fcf9f6eff60701f2fffaf3ecf100fef505fdf2f2fb03fff505,
e2f506090301fde808fef2000306fef506f105ef02feff0905ef04effafb03ff,
1dd405e0fafa0a27d7ecfe090501f8e70a12f6040306f7fa1ee40beefbfa1125,
e8051fffc8e9f6f317cd05fefdf90c1dd5f6ffed0501fbe30b12f501fd03f9fd,
0ff7a7f30df70019f8fdea02dbe0fc0100fdeafdfaf70b12f506fd02cedd01fe,
070321fc202d28f11b061303221e1a0f0400f8ff0202110a1307050126191814,
fddfe1fae71204e30533fef7e5d52cf405b4f30019329909fd120009f8f61402,
f537e4f8b0c127fd0bc3fa04241ed9fd011dea0207e2f6e1feee1efb1df42710,
0f1107fef718fe03001afdfcf0f3d0f6fb0b080508f5fdea02f60a110206e21d,
0903090a0417100700120bfb02f9c9f4f618f30008c6a5dfff04050e0807f8fb,
00eef9010008cfeb020b110605050bf5fe0801fb03fee3fa01180204fdfdedfa,
ff1213f5f808effbfcc6f801f20681d9feeffe070109b2e101ff01f6090ff5ff,
020b05000cf7e7fb031708f906010f0002f701fffd06f80602f80808010ed7f7,
0df5ce04c93c140511d61107d0261e18fafdf8fffb00faf5ef0e15f911e3e3f7,
07d70406db241108021013fe0401fb06f502f0f80fe8f8e9f935f0010ad0d9f7,
ff04f505000704040102fcfeecf817f9fe0c03fefa03d1effe010204fc04fe02,
fe0103fe0008cef1ff080405fe0306fe03fde3fde8fa24fdfe07f4fd0307c5f5,
fb0e0a01fb0903f8fe07ff030200fd00010c0904fe0e010003f9fffff1fd18fc,
071408040313ff0afc130bfdcc1bd1dafb0f07fccb0cd1d2fd160efdd410d2e4,
f6fe02ffd90ff8f0ff050903ee09f70205170b070413030c02110104f909fa06,
09f905fb2ff4e608f7f8fc01e6f8fdef00fc0c03f3f903040707fefb110ce9fb,
f203002400fe00050b010a001c05f506fa07f900f2f6ffed02020c06ecfcf9fe,
0a03fef60304f9ff090104200105f9010402050303fd050509f6fe2b01f9ff09,
f50502e70100fc06f9f6fcdcf7fdfd0102030202fc0104fdf80001d3f8fdf5fe;
