memory_initialization_radix = 16;
memory_initialization_vector=
0000007d0000010f000000f700000163000001de000000700000029afffffe96,
0000007c0000004a000000c3ffffffa4ffffffdaffffff60ffffffa6fffffeff,
000000bdffffffe90000007000000016ffffff89ffffff8c0000009d000000ae,
ffffffab000000e1ffffff5200000006ffffff51000000c50000000500000022,
fffffaf600000058000002e1000001fd00000106fffffe40ffffff4b000002d0,
000005c100000071000001e2000005f2000003a0fffffeb9ffffff940000025a,
0000017fffffff73ffffffee000002e6ffffff7cffffff86000000f70000007b,
ffffffb7000001da0000010a00000e9affffffd600000159000008e900000068,
00000081ffffff95ffffffe0fffffde7ffffff90000003cd000002ed000002f6,
ffffffbaffffff25ffffffa600000032ffffff74ffffffd60000016b0000095e,
00000160ffffffa2ffffffd7000004f3000000a6000002320000056d000002f6,
00000218ffffff63ffffff1dffffffc40000014f00000078ffffff0dffffffba,
ffffffb8ffffffbcffffff80ffffff80000001840000003b0000055400000004,
000002a1ffffffa7ffffffefffffff63000000a0ffffff8a00000014ffffffa8,
ffffff5400000134ffffffa2ffffffd5ffffffb7fffffff400000397ffffff69,
fffffff400000039ffffffac0000004dffffff20ffffff330000006dffffffe1,
ffffffebffffffcafffff9cd00000667fffffecaffffffd1ffffff8effffffa6,
00000f74ffffffca000000e7ffffffb2ffffff36000000df0000034a0000033d,
0000004a0000007e00000026ffffffd0ffffff00000001370000000ffffffef4,
ffffffd3ffffffc5fffffff0ffffffb9ffffff7500000219fffff8aaffffffce,
0000001ffffffec9ffffff70000001440000018dffffffdc000003bc00000402,
000002e1ffffff75ffffff92000001d6ffffff9cffffff4900000060000002af,
ffffffea0000006f00000c09ffffffe1ffffff55ffffffcfffffffd50000030d,
ffffff2600000110ffffff800000010c0000038100000216fffffffefffffd75,
000008c4ffffff11ffffff43ffffff7dffffffcafffffedd0000028dffffffb5,
000000560000013cffffff9800000094ffffff720000041b0000006cfffff7dd,
ffffff4d0000012600000190ffffffadffffff71ffffffa7ffffffb5ffffff79,
ffffffb300000296ffffffdc00000486ffffffb5ffffffd6ffffffb00000000e,
0000015e0000015f000003baffffffe4ffffffde0000003100000036ffffffa6,
ffffffd3ffffff80ffffff5e0000014b00000058ffffff94ffffffc000000012,
00000535ffffff8affffff1e0000008fffffffcc00000051ffffff7900000111,
ffffff42ffffff52000003f5ffffff910000019b00000363000000c600000024,
0001000200010002010000000100000000010000000201000101000002000000,
0100000001020000000001000100000002000000ff0000000000000001000000,
fffe00000000ffff01ff01000002fefffc0000000100ff010000000000000001,
0001ff01fd03060100fc01fdfc0101fefe0101fe00fb00fcfb01fbf9000001ff,
00000000000000000000000000000000fd0101000103fb00fe0001fefd06fefd,
0000000000000000000000000000000000000000000000000000000000000000,
0000000000000000000000000000000000000000000000000000000000000000,
0000000000000000000000000000000000000000000000000000000000000000,
0000000000000000000000000000000000000000000000000000000000000000,
00020104010002040201030004020200fe040202010204fe040001000200ff05,
040201080603ff0200000600040101010600050502fe01ff0502010205fe0202,
0200000000fd0000fd00000100ff00000000000100ff0100020103ff00000006,
0001ff000100010001010601000500ff0000ff0002000001000101ff00000000,
fffc050201ff05fdfc00ff0101feff0400ff030000fe01000100ff00040001fe,
000601fe01fd03ff01fd01000301050300090101ffffff0508fffefff9030103,
01ff0000fd00fe02020001ff07ff0101000005fd01000403fe02010700030302,
ffff0000010000040100ff0000010001000100feff00020101000101ff010000,
fe0000ff0000010003000000fdff03000204010001000001ff00000002030000,
0000000000000000000001010000010000000001010000000000000100000000,
0000000001ff0001000001000000010101000100000001000100020100010000,
00fdfe00ff0001fbfcff00fe000000000004010000fe00fe00000000ff000100,
fefe00ff00fe00fc01fc0001000000fb0000fdfc010000000000fe0101ff0000,
00000000000000000000000000000000fe000001fcfd02010000ffff02fd00ff,
0000000000000000000000000000000000000000000000000000000000000000,
0000000000000000000000000000000000000000000000000000000000000000,
0000000000000000000000000000000000000000000000010000000000000000,
0000000000000000000000010000000000000000000000000000000000000000,
0001010001020106ff06050205030101ff010002050102000303ff07ffff0302,
0300ff000502ff020002010001000400040402ff00020304050406ff0103fe03,
02ff00030000010001ffff0000000001000100000101ff010201040102010201,
0100fe0100ff00ff0000000001ff0006fffffe0100000101fd01feff00000001,
050101ff0000ffff0200010301000603010001ff000100fe0000ff0100000000,
00ff0302fffeffff00ff01020202ff00010103040104fb0001ff0a0100ff0409,
02010300fe00010004fffe00fc000004ff01fd020001fcfffe08fe0003ff02ff,
00ff00000100ff0001000001000000fb000400000100010300ff010100fe0001,
0003020000000003ff03ff000100000002020100000000000003ff0200010101,
000100ff01010002000001000000010001010000000000000101010000000000,
0001020001000002010101010000000000010000ff010000ff01000000020000,
03fefefe030202ff01ff01ff000101ff03fb020101fcff000100000101010000,
0000fefe0000fe0001fe0200000300fdff0005020200fafefeff00fc01ff0002,
00000000000000000000000000000000ffff0001fe0101ff0003ff02ff000402,
0000000000000000000000000000000000000000000000000000000000000000,
0000000000000000000000000000000000000000000000000000000000000000,
0000000000000000000000000000000000000000000000000000000000000000,
0000000000000000000000000000000000000000000000000000000000000000,
090307ff0003010007ff0100010003ff030200010000000208fd060000020005,
030101010000030203010004fffe02000204020000fb0102060701000107ff04,
0100010000ff000000000000ff00ff000600ffff0101ff0104000504050200ff,
ff01000000ff010000020001ffff000000000002fc00010000ff030000ff0002,
030300fe0003fefd050001fffc0500fe000100000300000001030000000002fe,
0300fe01fbffffff0006fd02000001ff0200fcfeff09ff0002ff0100feff0200,
0000fdff030000030100ff03020303000003000500ff040104000000ff01fdfe,
010002ff00ff020101ff0003000000000104ff0000010201000100010100fe01,
02ff00010003ffff010000fdff00ff03010000ff000000000201010400020000,
0000000101ff0001010101010100000000010001000000000100010102000000,
000000ff000100010101000001ff000000000100000100000101000100000100,
02fefdfefffe0200000400020000fe01ff0002fffefefd000000010101000001,
0101fe01feff01fe0201ff000100fe00030100fb0001fbfffffe0000ff00fbff,
00000000000000000000000000000000ffff00fdfeff000001fefbff000000fe,
0000000000000000000000000000000000000000000000000000000000000000,
0000000000000000000000000000000000000000000000000000000000000000,
0000000000000000000000000000000000000000000000000000000000000000,
0000000000000000000000000000000000000000000000000000000000000000,
000101020400fdfe02090503070102fc000506040002010205ff01fd08020101,
010104fc00040006030600ff03040100010204fe0201ffff03050101ff060402,
ffff00010000000001fffe00050000ffff00ff01000204000201040104010006,
030001fe0001ff010000ff00000103ffffff0001000001ff000000feff000001,
010101ffff0601ff00ff0004ff00ff0100ffffff010100000001000100ff0002,
ff040200050001030502030202030100ff0101020200000104fe010900000004,
020001fe01000200030006fefffb00030302010200ffff020301000108090001,
ff02010002000000ff0100ff00000400ff0301ff010001010201ff01ff0001ff,
000000ff00000200000101000001ff0000000000000001010000020100020102,
0000000000000101000000000000000100010000000000000001000000000000,
0001010100ff0001000000010100000001000100000001000000010201000000,
000102000101fffffffcff01fefd00ff04fffefb00fe00fcff00000101010000,
fc0003fdff00fdfc00fcfefcfd00fcfe00fffe00fd0100ff01fe03fd00fd0100,
00000000000000000000000000000000fe00fd0000fd000100fffffe0101fe03,
0000000000000000000000000000000000000000000000000000000000000000,
0000000000000000000000000000000000000000000000000000000000000000,
000000ff00000000000000000000000000000000000000000000000000000000,
0000000000000000000000000000000000000000000000000000000000000000,
00000000ff0003050502ff00fe0304070007ff00080104010203ff01fe02ff00,
ff0507fd0105ff050101ff010600030204020501000603ff00fefe09050200ff,
00000102000100000101000201ff00feff00010400000001060101fb0104ff00,
000002010000020001000000010000ff00ff000000000400000002fe0000ff00,
000201ff01fe0004ffff0301000b03fd01000200000200000001000000000100,
03000200ffff050000ffff050700ffffff02ff02020000fe01fffb03fefeffff,
0001fe0001010202ffff05010bffff0006010003ff06ff05fefc0401fcff0600,
000201010200000000ffff010003000202ff020100000002010002ff0001fe02,
000002000000ffffff0101000200020100010003030100ff000100ffffff0001,
00010201000000000102ff000000000000000100000000010200000000010001,
0000000001000000000000000100010000010001000000ff0000010201010101,
0001faffff03fdff000101fdfbfd00fffe010100fd01fe000000000000000001,
0000fe0101fd0102fffa0200fffe0004fd00ffff00fffe00fd0000fcfdfc00fe,
00000000000000000000000000000000020001fbff00fcfe040100ff0201fd00,
0000000000000000000000000000000000000000000000000000000000000000,
0000000000000000000000000000000000000000000000000000000000000000,
0100000000000000000000000000000000000000000000ff0000000000000000,
0000000000000000000000000000000000000000000000000000000000000000,
000407060201ffff0205fc000100020102fd070104ff010508fe030602010104,
000100010504ff0201020000fe00fe0000020103ffff0005010302060405ff03,
00000200fffe0200000100010201000001000000ff0000000300ff00000000ff,
00000100ff03010001fe0000000001010100010202010000fe01010101030000,
ff0400000d0300fffe02030204020300fe0001020000ff010300010001000000,
fdff0001010000040001fe0a01010005ff030202ffff01fe0101050100ff08fe,
fd0100010000ffff0102ff06020204fe050303060002ff07fffffffd0403fdff,
040201ff000301020001010100000002030100ff000000000003000300000200,
0200010300ff02fe0200000102000000ff000200000101010000ff0103010001,
01000000010001000000000100000200000000010000000000000000000100fe,
0002000100000000010000000000ff0000ff0000000200000001ff02fd000000,
fffcfefcfffcfeff00fbff0202fffd00ff01fefc000103000000000000010101,
fffffffffffe00ff0101fe01000001000101010000fffffe00fe01fb0003fd01,
00000000000000000000000000000000fe0000000000fc00fffefd00fd0100ff,
0000000000000000000000000000000000000000000000000000000000000000,
0000000000000000000000000000000000000000000000000000000000000000,
0000000000000000000000000000000000000000000000010000000000000000,
0000010000000000000000000000000000000000000000000000000000000000,
04000001f902060301ff0004040101ff0202ff0401030100000000010107ff02,
0004010401000001030401f7ffff040001f7ffff020800060104030300000101,
010000010000020001010100ff01000001ffff030000020002000100fe090804,
000001000001010000ff01000001ff00010000ff0100ff010001000000000100,
02020104030105ff02000300fcff0101020100000102ff000000020000000002,
00000101ff0600fe060100ffff05040001010400ff06fefd0301fe020108fe07,
000000000100fe0005ff02ff02fd0000020102fd0301050008fe00fd010106ff,
0102ff0003ff01ff01000001020000ffff000402ff01fe02020001ff0102ff00,
000201010101ff010000020101000001000100000000fd010100020200000001,
000000000000ff0001000100ff00000000000001000000010100ff0000000001,
0000000000000201000000010100000100010002000000000001010000000001,
00fefa00feff0000fdff0000ff01fe00010102000001fe0001010000ff000000,
000003fdfdfefb02fd0200ff02feff00fe01fdfdfffffffc00000001fc01fb01,
00000000000000000000000000000000fe020000ffff010101fc00fe01fcff01,
0000000000000000000000000000000000000000000000000000000000000000,
0000000000000000000000000000000000000000000000000000000000000000,
00ff000000000000000000000000000000000000000000000000000000000000,
0000000000000000000000000000000000000000000000000001000000000000,
0401010701fc05fe07010502050105000103ff080303000506010101040400fc,
0003010300ff06020200040803010204ff02ff0601010102fd06f800ffff01fe,
00010100000000010101000000000000020000000000010003010000fe01ff04,
00000000000200ff00010101fe00000001ff0202ff00010100ff000000000000,
000200fdff0102fe00fc0302ff02000100000001010201ff0001000100000100,
06ff02010005010805fe0002070002fdfd010002fe05050308000300ff010400,
0001010102000000010101020303000600ff02ffff000001fe02040400070502,
0002000202010000fe000001010004020000000000000202fe01ff00020200fe,
ff0002000100000300ff000000010000020000ff000401030202020001fa0001,
0002010001000102000000000000010001020101000000010000010000000000,
000000ff000000010000000100000101ff010000000001000000000000010000,
01ff0001fe000003fafe00000101fc00fdfffffffd01ff000000000100000101,
00010102ff0000fd00fffd01feffff01ff010001ff02ff0002fcfe0001fd01fd,
00000000000000000000000000000000ff00fefe00fe0107ff0100ff030000f9,
0000000000000000000000000000000000000000000000000000000000000000,
0000000000000100000000000000000000000000000000000000000000000000,
0000000000000000000000000000000000000000000000000000000000000000,
0000000000000000000000000000ff0000000000000000000000000000000000,
050502000402030303ff0601020002fe0709060404faff0200010403ff010103,
000302fd0204020100ff030603000305030101010105f70105010101ff030405,
00fe000002000001010100010100020201010000000000010407000300000102,
00010000010201000000ff000100000100000000010102000002010000010000,
fe0900ff000206030000020600fcff000102fe01000000010100000200000003,
06ff00ff0004ff0300000203ff00ff00ff00020403fe0001020102fd02f801ff,
02000101ff000003040101010000000800020002010001010300020103fe0000,
03000100010003000002ff010001ff00010100010202000205ff01ff010302ff,
02010000000002000203000000ff01010200000101000004fe030100010100ff,
0200000001000001ff0000020100ff0000010001000000000100010000000000,
00010100010000000102000100000100000201000001000001000000010000ff,
0101fdff0000ffff01fd000201fc010001ffff010100fffc0102010000000000,
feffffff0200ff01fcfdfe00fffb00fefc00fd00010002ff00fe00fd01fefe01,
0000000000000000000000000000000002ffff00fdfdff01000100fe00fcff00,
0000000000000000000000000000000000000000000000000000000000000000,
0000000000000000000000000000000000000000000000000000000000000000,
0000000000000000000000000000000000000000000000000000000000000000,
0000000000000000000000000000000000000000000000000000000000000000,
02fd0003070006060100000803fff9ff02000101ff00feff02fe0000ff0200fe,
020000060400010101000104ff0509ff01ff00feff000000010100fff9020007,
000001000000ff0101ffff000001000101010100000001030100000001f90000,
010100010101000002030100ff02000102000300010102000100000301030200,
fb05fffe01010206030005ff04fef904010100000202010000ffff0001fe0000,
ffff000001fd04ff00000001010000fe08020500fc0100ff01fe020003ffff01,
00ff00010300010003f40100ff05fe01050202040203ff02010002fc03040100,
ff01040102000100000200feff010201000006ffffff0002020000000001ff00,
ff00fc00000100000000000005000003ffffff01fffe050103020000ff020001,
0100000000010001010001000000010300ff00010000ff000101000000000001,
ff010100000000010000ff000100ff000000ff01000000010001000001000000,
fe000000feff0100f8fefe01000100fd0500fdfe02fdfd00ff00010000000000,
fefefeff0200fefd00fdfc03fd01fd01000000ff0200ff010000fcfffefcfefe,
00000000000000000000000000000000fef900000101fd000100fe0301000101,
0000000000000000000000000000000000000000000000000000000000000000,
0000000000000000000000000000000000000000000000000000000000000000,
0000000000000000000000000000000000000000000000000000000000000000,
0000000000000000000000000000000000000000000000010000000000000000,
0000000003000101ffff0000000000000000ff0000000003000000fe01010100,
00030000ff020000000200ff02010001001501000000fe00000000fd00fe0000,
00000100ff010201020001ff01000000010000ffff00010000ff000000000001,
010102020000fe01020200020100ff01020000000101000000010200feff0001,
ff0208fa030004010101000002ff0001000100000100020001000200ff000001,
03ff01050900000101040104fffe0500ff03ff030000010102ff020203ff0001,
02fd0000000100000001ff010004fd02ff04ff01050001000502fd00ffff00fc,
00000100000000ff02fd0000ff00010101ffff000103000102020101000001ff,
0200000200ff0100ff010300000100ff01020100020000ff00ff000003030102,
000001000000000100000000000000000000ff01010000000100000000010000,
00000100010000000101010000000100000002000000000100010000ff010000,
fdfbfcfe04000100000201fffe00fffffdff02fffeffffff0002000001000000,
0001ff000301ff0103fbfefe0001ff010100faffff01fd0104fd01f802ff0001,
0000000000000000000000000000000000fffdff0100fffb00000004000000ff,
0000000000000000000000000000000000000000000000000000000000000000,
0000000000000000000000000000000000000000000000000000000000000000,
0000000000000000000000000000000000000100000000000000000000000000,
000000000000000000000000000000000000000000ff00000000000000000000,
00000000f50001ff01ff020000000000000000000000000000000000ff0000ff,
00010003000101ff00000000000002ff01f900000000ff00fb00ff0700000000,
00fe030001000000ff0000010000ff00fe000201030101010000ff0000000000,
0100000000ff0100000101000000010000ff00ff00010101ff00000200000000,
ff04fd03ff0006030004fefefd000201020002030102000000fe000003000001,
000500feff09ff00010201000403000000000704ff00fe02ff000103010004ff,
000200fffe0002000705fb030005fc01fd040509fe01000101ff02000600ff01,
0100010101000200fe0102ff000100000000040003000100020102ff000004ff,
fd010000fe02020200010101ff00ff0001010001ff0202ff01000104010000ff,
0000000001000100010200010100000001ff000001000001ff00010000000000,
0000000000000001000100010100ff0000000100000000000100010000000101,
00fefbfeff01fd000303ff00ff01ff01fffffefdfdfffd00020000ff00000101,
02fffffe03fcff0201fd0101fffe01f9fdfd0200ff000401ffff010100fd0000,
00000000000000000000000000000000fe0201000402fd00fe0000ff00fb02ff,
0000000000000000000000000000000000000000000000000000000000000000,
0000000000000000000000000000000000000000000000000000000000000000,
0000000100000000000000000000000000000000000000000000000000000000,
0000000000000000000000000000000000000000000000000000000001000000,
00000000000001010000000000feff03fe0000fd000014000000010019020000,
00ff00ff00000000000000000200ff0001010000ff00000701000000000000ff,
0101020202000000000301feff01000000000202010000000001ff000200ff00,
01000001ff000000000000000201000000000000fe0001010000010101010001,
01020300ff03000005030007030003000000ff0001000000ff010200fe000001,
fe02000103fd04feffff020201000003fdfffc0200fe00010302fd01fefe0004,
0400030000020001fe0301fcff01f60200ff07020203020204ff0600000000fe,
0000ff010100fe0002020001ff000000ff000101010000ff01ff000001000102,
020001000000ff0000050000ff01010100ff00fe01000000000400000101fe01,
01ff02000000000000000101000000ff00000100000100010000010001000000,
000000000101010000000100000000000000010001ff00000100000002010000,
fd02fffdfffe01010201fcfefbfdff01010106000100ff020000000000010002,
fcfdfe00ff01ffff00fffd00fe01ffff00fd02ff03020001010201fefcfd01fc,
00000000000000000000000000000000fcfffe000003000001000101fa0101fc,
0000000000000000000000000000000000000000000000000000000000000000,
0000000000000000000000000000000000000000000000000000000000000000,
0000000000000000000000000000000000000000000000000000000000000000,
0100000000000000000100000000000000000000000000000000000000000000,
000001000000ff0100fcff000000f900ff000000000001000101000201ffffff,
030101000000010000f700010000000000f60000000000000003000000010000,
00000000ff000002ff000100010300fffe01000000000000000001ff0000ff00,
000200000000010100000001ff000000000100ffff00ff010000ff0000000100,
00000002020106ff030004000006000001000101000002000100000004020000,
ff01ff030003fffc020000040200010001010102040201000000010005040402,
000100000202000103000300fe02010000ff000303000002030202fe0003ff05,
0102020001ff00000404000101ff0005ff000201000001000003020200ff0102,
00000000020000010202020001000105ff01010000020100feff00ff00030000,
ff000000000000000000000001ff00010000000000ff00000000010000000001,
0000000000000101010000000002010000010100000001010100020000000000,
01fd00fd02000201fef700fc010000fe010100fdfffd020001000000ff010000,
fffffefffbff00fefd0500ff01ff010002fc0100fdff00010001fcfe01fefc02,
000000000000000000000000000000000104ff0100fbfeff020100fe04fd02fe,
0000000000000000000000000000000000000000000000000000000000000000,
0000000000000100000000000000000000000000000000000000000000000000,
0000000000000000000000000000000000000000000000000000000000000000,
0000000000000000000000000000000000000000000000000000000001000000,
0000000002ff0001ff01000100000100000001000000ff0000fd010000000000,
00ff0100ff000000ff00000101000202000000000101000000020001ff01ff07,
000000fe000200ff02ff00000000ff0000ff00000000000000000100fffe0000,
000102ffff01ff0000ff0000ff01000101ff01fe00000000ffff01020001ff01,
0003ff000103ff020301fd0001fefcfd00ff020000ff00ff0000000101ffff01,
0606050205030305000201020102030002fffe0500040200000000ff05fe0400,
0001000002ff010105040101ff04ff010100010202ff00040101ffff0100fa04,
00ffff00020001020200020001000000000000010002000100ffffff00010001,
000301fffe00ff00ff01000000010101ff00000001ff02000000010003020300,
0100010101ff010000010002010002010002ff00000100ff0101010200000200,
010001000001ffffff01ff010000000000000101000101000100000000010000,
fcff0302ff00fb00000200ffff000101ff01010101faf8fd0000010200000000,
01fe01030000f604ff01fdfcff0000fd00fd00fd00fe010004ff000002ff0100,
00000000000000000000000000000000fd0100fdfc02fe00fdffff00ff0204ff,
0000000000000000000000000000000000000000000000000000000000000000,
0000000000000000000000000000000000000000000000000000000000000000,
0000000000000000000000000000010000000000000000000000000000000000,
0000000000000000000000000000000000000000000000000000000000000000,
00ff0000fe0000000000000000000000ffff00f40100ff0000ff000000010003,
000000ff0200000000ff0000000000ff010000000000000000ff01fd000000ff,
020200ff00000000010000020000020000000000000002010300000000ff0201,
00000200ff0002ff0100fe0101010000000100010002000200000000ff0000ff,
fd000203010000030501ff01040603ff0000ff00000001000300ff0000010001,
0402ff040401000100000400040000ff01030401030000fe0206f80200f80203,
0200000104010000030004060002ff0001030001010606ff0500000300ff0100,
010101020000fd02000100010002fe00000000000000010301fe0000ff000101,
02ff0100ff02010401010001fe010000030000000001ff000003000100000402,
00000001000000010000000100ff010000000100000000000100000001000000,
0000000100000000010100ff0000010001000100fe020000ffff0000010100ff,
fefefd00fdfefe0002fd00020200fe0002000201fd0300fbff00000000000000,
ff010100010000ffff0000fe03000200fffe0203fd01020100fe0102ffff00fe,
000000000000000000000000000000000202ff0103010003fb0001fdfe030201,
0000000000000000000000000000000000000000000000000000000000000000,
0000000000000000000000000000000000000000000000000000000000000000,
0000000000000000000000000000000000000000000000000000000000000000,
00000000000000000000000000000000000000000000000000000000000000ff,
1500010001000000fe0001010101ffff00ffff00000100ff0002ff00ff00ff00,
000001000100ffff00000000000000fe00ff0001010100ffff00fe0002000000,
00ff02000202ff00fe000000000301000200000002ff010000ff000000ff0005,
ff00000001000000feff010101ff0000020100ff010000000003010201ff0002,
0003ff050000030202ff0200ff03010001000000ff000000010000fe02000000,
010300fb0603000201feff000104000302000502ff0202fffd0403fb01000100,
000000010101000503ff000003fe010202000002000003030104000405040100,
0000ff000000020200040001000101040300fd0002030100000700ff00000101,
000000010200010000010001fe000502000000fe00ff020300ff0000fe040002,
ff0000010000010100fe0101ff000002000100ff000101000100020000000000,
0001010100000000010101000000020000000000000100010000010000000101,
fefffffdfdfefe0100030102ff020102fc0201ff0101fb010100010000000001,
01fd01010201fffffefcff0001fdfffffafbfdfd02fd00fdff03fefcfffe02fe,
0000000000000000000000000000000001fd010500fcfbfff502fe00fb00fef9,
0000000000000000000000000000000000000000000000000000000000000000,
0000000000000001000000000000000000000000000000000000000000000000,
0000000000000000000000000000000000000000000000000000000000000000,
0000000000000000000000000000000000000000000000000000000000000000,
0000feff01030100ff00ff0201ff01ff0000ff00000101ff0001ff000001f400,
0000000101fdf9fe0000ff03000100fdfbfeff000101f8fffffefe00fff801ff,
000100ff01010100fe00000001010000000100000000fe020101000001010100,
000400000000000100030001000101ff0100ffff01ff00010000000101000000,
010402fdff020000ff0703ffff00000402000000ffff00000100000201020002,
010200ffff00000500ff010400ff01000200ffff00050200ff04030401020103,
02010100000000000002ff000502ffff000004ff0203000404020102ff050106,
0000000002000103000100000101ffffff00fd00000000010000000103000000,
01000000000100000100fe00000000ff00ff0000ff0000000100ff00ff01ff00,
01000001010000010102000000000102000001000000000000ff010000ff0001,
000000ff01000000000100010000010000010000000000000001010001000103,
ff00ff00fffeff01fd00fffe0202fffdfd00fe00fffe01000000000000010000,
fd0201fdff00ff0301feff0001ff03fc0001ff00fdff0002fdf9fb0101fd0201,
00000000000000000000000000000000ff0003fd00ffff0000fffd0003010201,
0000000000000000000000000000000000000000000000000000000000000000,
0000000000000000000000000000000000000000000000000000000000000000,
0000000000000000000000000000000000000000000000000000000000000000,
0000000000000000000000000000000000000000000000000000000000000000,
00ffff0001000101ff0000030100000000ff000204000100ff00000000000000,
00ffffffff040100fe010200020001010000ffffff01fcff0100fffe00000000,
0100020001ff000000ff00000000000000ff01ffff01000400ffff0011010100,
010101ff0000000000ffff0000ff000000ff00000000ff020101010002010102,
000100ff0000ff03040001ff03fe03000000010001000000010004010200ff01,
00030001010403040101000005030702030000fe0400000303050504fefefdff,
01010000010400ff0202ff0002020500020204ff060602fefcfd020200010201,
0000040201ff00ff000100fe0003ff000201000001000102010301040001ff01,
00010000ffff030201ff00ff010202020000000000ff00000100010102020000,
000100000000000001ff0001000000000200ff01000000000000000200000100,
0000010000010100000000ff00010000000002010000ff010001000001000000,
00fdfcfffa01ff0600fdfbfa00fe0001fe00fefefc00ffff0001000100000000,
05fbff00010200ff01ff01fffffd0000fffc00fd01ff0201ff0001feff0200fd,
000000000000000000000000000000000101fdfbfd0000ff01000000010000fb,
0000000000000000000000000000000000000000000000000000000000000000,
0000000000000000000000000000000000000000000000000000000000000000,
0000000000000000000000000000000000000000000000000000000000000000,
0000000000000000000000000000000000000000000000000000000000000000,
ff0000ff03000001fe00ffff00fffffefd00fdfe00000001ff0000000201ff00,
fd00010100ffff0100ffff0100000000fe00fffefefffa00fa00fefdffffff04,
000202010100000001020102000000010300ffff02000000ffff000101ffff01,
ff010000ff0001010000000101ff000100ff00030100ff00000000010102ff01,
0003ff0103fffefefe00fe0006040301fd000202010000000000010000000001,
00060000000003000301040503020303ff0201030000050400060003010000fe,
00000001ff0001010300010804000201000005050501ff06ff0203030404ff04,
0000fe01000000000000010200fe000100000003000200040100000000010000,
0500040100010001000100010100000001ff0100010100010000ff00ff000001,
00000002000000010001ff0000000000000001000100ff02ff01000000000101,
00000000010000010000000200010000000100ffff0000000000ff00ff000100,
fd03feff0100fcfd00030100fd00fc0100fc00feffff01000000020000000000,
00000001fd00fcfffd00fd00fffefe00000003fcff000000feff00ff0301fffe,
00000000000000000000000000000000fd00ff00000200000104fdfe000400fe,
0000000000000000000000000000000000000000000000000000000000000000,
0000000000000000000000000000000000000000000000000000000000000000,
0000000000000000000000000000000000000000000001000000000000000000,
0000000000000000000000000000000000000000000000000000000000000000,
ffff040000000000000000ffffff00ff01ffff0000ff0000ff0000f600f2ffff,
0000f40000fe000000000000ff00ff0001ff01ff02ff010001ff0201000000fb,
01ff0100000202020001000101ffff01010000010200000000000003ff000000,
0000ff03030000000101010000ff0201000001010001000101000101000001fe,
05040003000402020002040400030003fe01000001ff010000000300ff030001,
03ff000204fe000401fe020002fef8ff010204f7ffff00ff0102020302ff0003,
04010301ff030100040105ff00070101ff03000001ff00010000fffbffff0205,
0000fd030200ffff01ff00000000000004000002000006020002020000010002,
00020001010100010400000300ff010102010000000104000101000001010100,
00020000000000010100000000ff0000000100ff000001000100000001000000,
00000000000001000000000000ff000000000000010100000201000000010201,
fefdfe0000fbff000101fc00fc0001fef900fffe0000fffc0000020100000200,
000000fd0102fd0000ff00fe00ff01fd00ffff03fb0000fffbfcff0001fc0000,
00000000000000000000000000000000ff010001ffff01fd00fd0100fdfe0200,
0000000000000000000000000000000000000000000000000000000000000000,
0000000000000000000000000000000000000000000000000000000000000000,
0000000000010000000000000000000000000000000000000000000000000000,
0000000000000000000000000000000000000000000000000000000000000000,
ffff01ff01fd01010000fefe0000ff0000fffd0000010001ff00ff030100ffff,
000100fffd00ffff020000ff0100fffe02ff01fd00fdff01fffe02fd09fefd01,
0102020001ffff000000ff00020000010000000000010000000100ff0101ff00,
ff010101ff000200010100fe01ff000000020001010000000002000000ff0000,
fffefe050201fffe04fffe02030000ff010000000000000100020000fe010002,
020300000101fe0204030306030300fffefffd030405ff01fffe000005030602,
01000001000101000300ff01020004020400000003020006ff030302000601ff,
0002ff0401010002ff00010000010200000102010001000400000100ff000100,
00000001020002020101ff01000000000101fe000200000200000000ff0000ff,
0000000001000000ff00000001000001010002000102ff00010000000100ff00,
0001010000000000000100000101000100000000000000000100000001010000,
020000fffd000201fdffffff010000010000ff0000fc000100010100ff00ff00,
fbfe00fe00fcfd000001ffff00fb0100ff0000fdfeff00000100ff000100fdff,
0000000000000000000000000000000000ffffff00fa07feffff00ff0000ff01,
0000000000000000000000000000000000000000000000000000000000000000,
0000000000000000000000000000000000000000000000000000000000000000,
0100000000000000000000000000000000000000000000000000000000000000,
0000000000000000000000000000000000000000000000000000000000000000,
000100ff000000feff00ff0100000000ff01010002ff000000000000010dff00,
00ff0000fefe0dffffff00ffff00ffffff000000fdff0000ff000001ffff0101,
00000000000002ff0300000000000000000002000000000200000000ff0000fe,
02010002ff020100000100000102000100010002010100000000010000010201,
020301000402020002020405000004000000ff01000103010100000100000102,
00fe010002fffd0002ff04ff00fe02060003fffe000004000301010100020500,
02000100000000ff04ffffff030602ff000507ff02ff00030403000203090200,
030101000004010000000201010303fd0200000000ff0102fe010001010000ff,
03000000040000000002fffe0300ff0000000000010001000000000001ffff00,
00000001000001ff000001000000020100010100000101000002000001000000,
000000000000000001000101000100000101000000000000ff02000102010000,
fd00fe0002fffd0100fe00fcfe0001fe05000000feff010101000000010000ff,
0000f9ff01fffefd02ff00fc00ff0000fffb01ff010000fbff0100ff00fb0201,
00000000000000000000000000000000fc000101ff0000fc000000ff01ff00ff,
0000000000000000000000000000000000000000000000000000000000000000,
000000000000ff00000000000000000000000000000000000000000000000000,
0000000000000000000000000000000000000000000000000000000001000000,
0000000000000000000000000000000000000000000000000000010000000000,
000101ff01ff00010002ff000400ff01ff01fc01010000010000ffff00ff0102,
0000fb0000020300ff00fe000000ffff000101fe000101010001fffe00020102,
fd00ff01020001000004000302000002ff00ff000100000200ffff00000100ff,
000002010000000400ff01000000000000000201000000010100ff01000000ff,
0403feff0000000101ff0400ff02010003000000020000010100000100010301,
01010106060400010301ff0404ff00fcff00fe010000fc00000203010102ff03,
0501000000020001050001ff00020301fffaff0200060202ffff000400f90502,
000100ff04000200000000000002030301ff0100000003000001010101000001,
0000000002010004000000040001ff02ff020202000403010100ff0000020003,
00000000000000020101010000000100000000000000000000ff010001010101,
00000000000001ff000001000000000001010000010200000000000000000100,
0000ff000000fc00fbfcfdfbfefe00fc0000fdfb00fe00ff01000200ffff0000,
0100fe000000fefffe01020000ff00fefc0101fffdfdfefc01fe0200fcff0300,
00000000000000000000000000000000fefb00fc0000020000fefe03fc0401fe,
0000000000000000000000000000000000000000000000000000000000000000,
0000010000000000000000000000000000000000000000000000000000000000,
0000000000000000000000000000000000000000000000000000000000000000,
0000000000000001000000000000000000000000000000000000000000000000,
fe00ffff0000010100000101ff000101ff00fd0100ffff06fe0000ff00000101,
01fffffeff000000ff00ff01ff0100000000ff010000010101fefe0100000101,
000000010000000002ff0001010101000000000301010001000001ff00010000,
00000201020102020001ff00ff000000ff0101010001ff01010302000102fd01,
0401040202fe05040501ffff02ff010200020001000000010000fefffe010000,
fffe0500030105010100ff0100030500fc03f80101fd0001ff03ff0102000104,
0000020400feff0001fe04040003fe0002fffe070100000800030002fd040204,
0000000202ff0000ff0000fd010003000100000001fc00000001000000010301,
0200010100000202000000ff010002010001ff0000000000030000000002ffff,
010100ff00fe030000000101000001ff02000100000102000000000000000000,
0100000001000001000000010000000001000000000000010000ff0001000000,
fbfc00fbfe01000101fe000600fd0001fd0001010001ff010000010001000001,
01fe010101fbfbfc00fefd0001ff00fffcffff01ff0201fdfafffffd0100fefd,
0000000000000000000000000000000004fcfd0000ffff0000fefdfbfc000001,
0000000000000000000000000000000000000000000000000000000000000000,
0000000000000000000000000000000000000000000000000000000000000000,
0000000001000000010100000000000000000000000000000001000000000000,
0000000000000000000000000000000100000000000000000000000000000000,
0000ff0000000000ffff000001ffff00ff00020001ff0000ff0100ff00000000,
ff01000000ff010000000000010000000001fffe000001ff00010000ff0001ff,
0102000101000200000100ffff00000202ff0000000000000000000001000100,
ff030102000000000000030000010100020100ff000100000000000100000201,
ff060000000200010000020002ff020400020000000000030002040302000102,
ff0601000005000303ff04000301010001fe0008010afd010000030500ff0204,
0100040101000201ff02000205ff07000200000101030101040401080300ffff,
00020002ff0000000003020000ff000000000000fe0000fe01010001ff0102ff,
010100000103ff000001feff0102000000ff01ff0201030000010000ffff0100,
01010001000000000200000001010001010101000100000100ff0000ff000000,
0000000000000001000000000101010200000000000000010001000000000101,
ff0000feff00fefdfd02000300fe0102fcfbfd00fefffffd0001000200000001,
00000100fdff00fffeff00fffeff01080106000001000100fc000201ff0100ff,
00000000000000000000000000000000ffff000000ff0001fffe01fe000004fc,
0000000000000000000000000000000000000000000000000000000000000000,
0000000000000000000000000000000000000000000000000000000000000000,
0000000000000000000000000000000000000000000000000000000000000000,
00000000000000000000000000000000000000000000000000000000ff000000,
00fefe00010001fe0000010100ff09ff0000010002ff000000fe000002fe0000,
ffffffff00ff0100feffff000200fdff00000000ff0001ff00000000000102ff,
0000000102fefe0203010100000000000102010000000000ff000300ff0600ff,
00000200010002000100000000010001ff01010002000001020002fe00ff00fe,
0602f70104fe0002f8fc0004ff0301ff040101ff00010000000202000000fe00,
0404000501fe050306fffeff030102ffff060801feff01040101000000040301,
0000000000000100fe0600010207fe000000070300fe01040102040301000503,
02000002000001000100fe0101010001000101020100000000000401fe000200,
00000001000201030003ff000300010001010100ff00ff0001000003010101ff,
ff00fe000000000000000200000000000200000000ff01010001000000000103,
000100000000ff00000000020001020000000201010000000100000001000001,
01ff00fefffffbfffdff01fffe01fafff90001fcfffc01000001ff0001000101,
000200010000fe01fffefcfb01feff00ff0000fffdfd0000fffefd01feff02ff,
00000000000000000000000000000000010101fffd010002ffff02ff03010001,
0000000000000000000000000000000000000000000000000000000000000000,
0000000000000000000000000000000000000000000000000000000000000000,
0000000000000000000000010000000000000000000000000000000000000000,
0000000000000000000000000000000000000000000000000000000000000001,
00ff0102010000fdfffdfe01ff01000000ff0000000100ff00ff000106000000,
fffefffe010101ff00ff0001000001fd00fffd03fdffff01fffd0101ff0100fd,
000100ff0001ffff000000fe02ff02ff0100ff0100ff000100fffe00fffefe02,
0202ff0002ff0100000102020000000000000000020200ff0101020001000001,
ffff04fe000100feffff040603010202ff000000020100000100000000000000,
00020301fd010300fd000305ff030301fe02010600f600fcfe02ff0001010000,
020200ff00010100fd0103050002ff02ff000201060001040300020201fe02fe,
00000001fc000000000103fd00000002010000000000010000fe0001ff040302,
fe00010200020201030004020000000000000300010100010101000000050001,
0101000000010100020000000000010000000000000001000100000000010000,
0001ff0000020000000000000001000000010000020000000000000201ff0000,
fe00fc01020000fefdfd00fffbff010101ff00fc0000fe00ff00010000000000,
fdff01fffe01ffff010000fe02020000ff0101000100fbfdfefcfbfc0000ff00,
00000000000000000000000000000000fb0000fdfffffdfe0200ffff02fffcfc,
0000000000000000000000000000000000000000000000000000000000000000,
0000000000000000000000000000000000000000000000000000000000000000,
0000000000000000000000000100000000000000000000000000000000000000,
0000000000000000000000000000000000000000000000000000000000000000,
fc0000feff0000feff0000ff00060003fc01fd0000010000fe0000fffe01ffff,
fe00000000010000fe0000ff0001ff00fe000100ff02fcfefb0100ff01ff0001,
000000000100000002020001020100000000000300ffff00ff0000000001ff00,
0100ff010100010100000001ff04000002fffd010100010202ff0100fe010000,
fffd00fc03040201000005030400000300000000000101020000000000ff0001,
00010300ff04000002ff01ff0303ff02030307010303000201ff050506ff0100,
0001000002fe00ff05ffff0204ff0200ff0004000002f9010000ff0301000500,
000000ff0000fffe03ff0301020004000101fe0001fe0102010201ff00010401,
000000010003000000ff0202000304ff010002000000010100fd01ff0300fc00,
000100010100000000000101ff00010000010100010000ff0002010100000000,
010200020101000000010001000101000100000101010000ff01010000000000,
01feff0000fbfffc0100fefd00fe0201ff01fefffe0100ff0100000000000000,
0100010000000000fe00ff01fdff0000fd000000fdfffc0003fffdfd0000ff01,
000000000000000000000000000000000000ffff000000ffffff0000fa03fdfe,
0000000000000000000000000000000000000000000000000000000000000000,
0000000000000000000000000000000000000000000000000000000000000000,
0000000000000000000000000000000000000000000000000000000000000000,
0000000000000000000000000000000000000000000000000000000000000000,
01000000fffe0100fff9000001ff00ff01fe01fffffe0001010000ffffff0001,
01fe01fefffe01ff01ffffffffff01ff0100ffff01ff010101feff00fffe0201,
000100ff0001020100000000000100010000ff000000ff00010004ff00ff01ff,
0100fe000001000001000300fc000000ff0000000300fd000001ff01020000ff,
040004fe01020100040202fd020300ff00000100000300020000000002ff0100,
00000204040001000001ff0101ff0103010501ff0004050503fffefe01010005,
01000100fe0400fffc000503fefffbff01fe01030501fe0204fd0000ff000503,
0000ff02fd00ff0001ffff000100010000010100030303010001000201000200,
01000100010000ff0001010301000000020002fe02030000ffff00010001ff02,
0200ff0200000000000001010002000000010001000201ff00ff00ff01ff0001,
00ff00ff0001010001000000000000ff01010100000001000000000001000000,
0100fc00ffff0000ff0200fd01ff0003fd00f9020000fefc0002000000000000,
00000102fffdff0100f8f900ff00fffd00fffd00000005fffdfe0101010101ff,
00000000000000000000000000000000fbfe0000fffe0101010302fe00fffcff,
0000000000000000000000000000000000000000000000000000000000000000,
0000000000000000000000000000000000000000000000000000000000000000,
0000000000000000000000000000000000000000000000000000000000000000,
0000000000000000000000000000000000000100000000000000000000000000,
00ff00fefe00000100ff00fe020100ffff0100fe02010000ff00fffffe000001,
02fe01fe00ff01ff00feff0000010000000000fe000000ff00ff01fcff030000,
000001000200000100fd0101ff0000000200fe02000001fe00ff0100000000ff,
000000ff010201000001030200000302ff00010000000000020201ff00000100,
fa01fe000000030404000000ff00000501000000010000020000000100010001,
ff0006010203ff000003050400000000fffd05ffff0106ff00000000ff0400fe,
0000010300fe010002ff04ff000204ff000000fe0302010507fe030000010300,
0003ff000302030000ff0000000201ff000001000202fe000001000000020001,
03ff01000001ff000001010202ff0302000101ff010001000202010104020101,
0001000100010100ff010000010002000000000001ff0000ff00000001ff00ff,
0001000000000001000000000001000100010000000001000100000000ff0201,
00fe0001fefdfcfc00020100000401fef8fdfbfffdfe00000000000000000301,
ff0202fc0102010001fdfbfe01fbfe01fe020000fefc03ff000000fdfffefdff,
00000000000000000000000000000000ff0102feffff0003fe01040000fdfafe,
0000000000000000000000000000000000000000000000000000000000000000,
0000000000000000000000000000000000000000000000000000000000000000,
0000000000000000000000000000000000000000000000000000000000000000,
0000000000000000000000000000000000000000000000000000000000000000,
0102ffff020100ff0000010801000001010000fe0100ff0000fefd0000000100,
01fffc00000300fe0000fe000001ffff0001ff020301000000010000020101ff,
01000001fcff0300000100000000000101ff0001fe00000001ff00ff00010000,
0101ff0102000000000301ff0002000101ff000001010000000000ff01010100,
0300fb010000040002030102000300040000ff00000000000200020000020102,
05ff040003040300ff03ff0300030203fffffffe0004000400030100ff000201,
03000000010003ff040203ff01ff01020004fcff01fe0403ffff0201feff0500,
000000000100000201020100010001010000030100010101ff00ff0103010002,
0000ff03ff010000fe0100000002040002000001ffff00ff01010001fe0000fe,
ff010000000000ff00ff02000001000000000000000100000000000000000001,
01000101ff000101ff00ff0000000000020000ff000200000000000000000101,
01fffbfd00fffdfbfb01fefdff0101fefd010200ff0100fc0000000101000000,
fffdf8000000fcffffffff00fcffff00fc000003ff0000fdfe00fe0000fefbfc,
00000000000000000000000000000000fd00ffff0000ff00fa01ffffff01fcff,
0000000000000000000000000000000000000000000000000000000000000000,
0000000000000000000000000000000000000000000000000000000000000000,
0000000000000000010000000000000000000000000000000000000000000000,
000000000000000000000000000000000000000000000000000000ff00000000,
0000ff00010001010004000000ff00ff0200fe00ffff00ff0001ff0000fe0100,
0001ff000101ff0001010100ffff0000ff0100000000ff010000fe0000000402,
0001ff00ff02010100000001010300000300000000000302fd0100000102ffff,
02010200000102000200020000020100ff04000002010003010001ff00010103,
000302ff000101fe0502feff0100010502ff000000ff01000102010001010100,
04010706010001ff0904fb01020004fd0206fc0500ff00020000040108fc0001,
02ff0100000202000101020001ff0102040100ffff050001020100ff03020001,
01000000ffff000301ff020100010100020101ff00000000000000fd00ffff01,
0100040002ff01010100ff000300ff02010101000101ff000000ff0202020001,
000000000000000100ff000000ff0001ff0000010100ff0000ffff0000000001,
0000020000000002000000000000030000ff00010000fe0001000001010100ff,
00040000ff0002fa00fefffd00fefdfafdfffd01ff01fd00ff00010000000000,
fc03fdfffefefa01fe0100feff0400ffff010300fe00fc02f900000200fe01fc,
00000000000000000000000000000000fefcfd01fe0202fc000202fe000000fe,
0000000000000000000000000000000000000000000000000000000000000000,
0000000000000000000000000000000000000000000000000000000000000000,
0000000000000000000000000000000000000000000000000000000000000000,
0000000000000000000000000000000000000000000000000000000000000000,
000200000300000000ffff00ff01ff010500ff00ff0000ff0100ff00000000ff,
00f600ffff000001000000ffff0000ff00ffff000004ff00010000ff01010000,
0002010000000001000100fe010102000100ff0000ff0100000000ff00fe0000,
01fe01000002000100ff00010001010000010000000000010201010300000000,
0002ff000302030001fa00060000010401ff0400000000ff0000ff01010000ff,
030204fe00000203060105050005f2ffff01ff010201ff060504020105030301,
010400010003000105ff0202fc0403fe01ffff04ff000003010503ffffff0303,
000003ff00ff00ff01000200000200ff010301010001000001020101000100ff,
00010000fe0000ff000002000101020103fd000200020001000200ff00ff0102,
00000100000100000001ff000000000000030002000000ff0000000000010001,
01020002ffff0100ff0000000000ff0100000000ff0300000000000000000001,
fffe0000ff01fefc00fffd01fffa00feff0000fd00fa01fd0001000000010100,
ff00ff00000200fffcff00ff01fe00ff00fafb01fc0001fdfe0000ffff010001,
0000000000000000000000000000000001ff0000fffc00000000fdfe010000fd,
0000000000000000000000000000000000000000000000000000000000000000,
0000000000000000000000000000000000000000000000000000000000000000,
0000000000000000000000000000000000000000000000000000000000000000,
00000000000000000000000000000000ff000000000000000000000000000000,
ff0102000002fffffd0001000000ffff07ff010100000100000002fe00010000,
fffe01000300fb0000ffff000001ff00ff0002000001feffff00010300010000,
000200000001ff00010000000103000000ff000100010100ffff0100feffff00,
00ff01000000000002ffff030002ff000102fe0000ff02000100000002010000,
0202000001000002fe0600000104ff0601ffffff00030101000000030000ffff,
000304010102fffe02050000ff02000405040601000400020300ff0100000101,
fe0001ff0302000003010507040401ff00020502020104030401010700000200,
010101000301020101ffffff010000ff0003fd00000003000001010100ff0000,
0102fe000000ff000101ffff020200ff00020200000002000002000200020102,
00000000000000010000000000000000000000ff00ff00000000ff010000ff00,
000000000000000101ff00ff01ff000000000000000000000100000200000000,
01fbfd01fffeff0003fcfe020101ff00ff00fffb010000fd0200000000000000,
01ff000001fafd01ff0003fe0002ff0200010000fd00000000ff000101fcfc01,
0000000000000000000000000000000000ff00fb01ff020000fe0200fffdfd00,
0000000000000000000000000000000000000000000000000000000000000000,
0000000000000000000000000000000000000000000000000000000000000000,
0000000000000000000000000000000000000000000000000000000000000000,
0000000000000000000000000000000000000000000000000000000000000000,
ff0100fe00ff00000002000001000001ff01ff01000000ff0000000002ff01ff,
0000ff000101fe01000002000100ff020001010000000000000200000105fe00,
0103020100010001010100ff00000000fd00ff00000000ff0000000001000000,
01000000000100000000010101ff0101000100000400000000ff000100000100,
03040604010401010500f70205020001000200030000ff000000ff00010102fe,
02ff0202020500030104ff030300ffffff01ff04020303fd03060301060002fd,
0201000001ff0000ff0005fe0300ff0201000102ff01fe00040101ff030302ff,
0200fffd01020200000101010000ff010004000000030000000100000100ff02,
0201000302000100ff00020001000003000102000302010200ff00ff0001ff00,
01020001000000000100000200000100000000010000000201000000ff0000ff,
01000002000000010101000000ff010001000100000000000000010000000000,
0102fd00030403feff000400fdfffcfd00fcfd00fe0100fd00000101010000ff,
000102fafbfeffff00fcffff000001fb00fe01fd00000000000001fa00fd00fd,
000000000000000000000000000000000000fc000001000200ff0000fb0000fa,
0000000000000000000000000000000000000000000000000000000000000000,
0000000000000000000000000000000000000000000000000000000000000000,
0000000000000000000000000000000000000000000000000000000000000000,
0000000000000000000000000000000000000000000000000000000001000000,
00ffffff00fe000100000100ff00010000ff01000000ff0000feff0000ff0100,
00000000fe00fd010000ffff0001000000ff02010200ff020000010000ffff01,
01000101000000010101000002000101ffff02010100010100000100ff00fffd,
0000ff020201010000000000ff01000200ff00ffff000001ff00000100010001,
00ff0000fcff06000102ff02030000ff01000000000000000000000000000100,
060004ff000404fe010206ff02ff000102ff0001ffff0103ffff00ff03040302,
01ff02ff0002000203010103010301ff01030601ff030103ff01030604ff0200,
00ff01000100010000000200ff01000000000002020100010101000301fe0101,
0000fe0001040000000100ff0000000000000300000001ffff02050202000201,
0000ff01010001ff0002000300000000000000000000fe000100010201000001,
00000001000100ff00000000000201ff0000000000ff00ff0001000200010000,
03ff0001ff0300ff00fc00fcfdfffe000100fdff04ff010000ff000001030000,
0100fdff01fbff00ff00010003ff00fff9f9030000ff020001fd0000ffff00ff,
00000000000000000000000000000000fe01ff02ff01fcfeffff0002fe01fe01,
0000000000000000000000000000000000000000000000000000000000000000,
0000000000000000000000000000000000000000000000000000000000000000,
0000000000000100000000000000000000000000000000000000000000000000,
0000000000000000000000000000000000000000000000000000000000000000,
010000ffff00010100000000ff01fffefffe00ff000201fd01ff04ff000000ff,
00fb01010103000100ff0000010000010102ffff02000001fffd01ff02000000,
01000000000000ff0102000100ff010001000100010000000000000102000001,
0000fe000000010000000001000001ff01000000000300000001010000000002,
ffff0200050100030100020101020203020000020000000300000002ff000200,
ff0400020301000301fd02fc06020102010506000105fffffc0505ff000500fe,
01010000020001000201000001000102ff0500fe010300000100010201010200,
02fe00040200000003000003030300ffffff0200020004010000000202ff0000,
ff00020301000000fe000000ff010000000002010003fe000102000000ff0102,
0000000200010001010001000100000000000002000200000000000001000000,
00010001000102000000000000ff020000010000000001010000000000000001,
02fffefe0302ff0003fe00ff0300fd00fd0200ff00fffe010000010001000000,
00000000fcfbfdfefd02fdfa00ff00fffefdfdfffffe000000ff0001fe0401fd,
00000000000000000000000000000000fbfd0200ff00fe000202fc00ff00fefc,
0000000000000000000000000000000000000000000000000000000000000000,
0000000000000000000000000000000000000000000000000000000000000000,
0000000000000000000000000000000000000001000000000000000000000000,
000000000000000000000000000000000000000000000000000000000000ff00,
0902ffff01000000030d0000fe000200fd0212fefcfb0000fe0a0600000fffff,
01ff00ffff02fe0000050103070200130c0402fd01000400ff001216fe02fefd,
0000fe000200ff030100020202040000fe00000000000200003401ff00011d02,
0000000000030200000000020001000102020200020000000100ff01000000ff,
0402ff030001000000000201ff05000200ffff010100000000000100000000ff,
0004feff0108fffe000302050204fffe05ff0202fcfe03feff00ff0403000700,
ff0001fe000003ff030201010103fb04020200010001ff020301ff03fc0403ff,
01010200ff000002000100000000020001fe00ff00010000fffd000001010100,
010000ff0103010000030200010000040101000002030000000001000100ff00,
000000000002000201000100000000000002000002000002ffff000000000000,
00000002000000000100ffff0000ff0000000000000001000000ff0002000000,
0001000000fbfc0002fbfdfffffdfcfe01fdff00ff01fffe0000000000010001,
fc00fffe00fbfffdfd01010000fd01fdff020003ffffff00fe0000000000feff,
00000000000000000000000000000000fd00ff00000100fcffff010000ff0000,
0000000000000000000000000000000000000000000000000000000000000000,
0000000000000000000000000000000000000000000000000000000000000000,
0000000000000000000000000000000000000100000000000000000000000000,
0000000000000000000000000000000000000000000000000000000000000000,
02ff02fffc0800fffc0301080e04ff0b01fffefe010802ff00fffe0204ff0416,
fc0a03001408fafffe01fcff0000fe010301010100ff00fd01010ffffff101ff,
000000010001000101ff00ff030101000000010102000000ff12ff00000010fd,
00000001000400ff0100fe010002000100020100010100ff04ff000201000401,
000500090200fe050504ff00020300020100ffffff000101000001000000ff01,
0001020301000000fe020502ffff01020400ff07000503ff05010502000001ff,
0100030000ff00000300ff0005000004fd00ff00ff00fe030001040301000106,
000002020200000100000000ff00030000010100000100000100000000000000,
0100010000020000010401010001010000000002ff010200010000ffff010001,
00000101000001010000000000000000ff000000ff0000010000010200020000,
0000000001000000000100000100010002000001ff0200000000000100020002,
fffffe01ff00fffefe00fe0000fdfc00fefefd00fffefcfc0200010000000000,
fefffdfffffffefefdfe0100fdfd00fcff00ff00fe00fefc000104fffffd0001,
00000000000000000000000000000000fefefe00ff00fe00fefd00ff0101fefe,
0000000000000000000000000000000000000000000000000000000000000000,
0000000000000000000000000000000000000000000000000000000000000000,
0000000000000100000000000000000000000000000000010000000000000000,
0000000000000000000000000000000000000000000000000000010000000000,
000100000006fe0504f6f51900ff000608fdfe041501fdff000fff002cff0907,
00010eff120eff07fc02eefbff01ff01ffed0300ff01fe020a0102ff0a01fc01,
000002000100fe010100000000010000000100ffff01010200ff05fffd100000,
00ff020000000000020300000200000200000100010000010100000100020101,
0402f903000201fe01fffe030201ff010001ff0000ff000001ff000000000103,
0802fdffff020400010300ff01020102020302fc020103060100030200ff0400,
010101000000000001fe010300ff0402ff0203fffe0300010002050303010301,
0100ff00000202000102fe00ffff00010001ff0001000000020001010100ff02,
0005010300020100000000ff00000003000200010200fd010000040001000100,
00000100010001000000ff000100000001000000000000ff03ff010001000100,
010000ffff01ff01010001ff010101000001000000ff01000001000003000100,
0000fefd000100fdfb00ffff0100fdff00ff01fffd00ff00000100ffff000001,
00ff03ff0001fd0004fffd00010001fdfeff0001fe0000fe01fe00fd00fefd00,
000000000000000000000000000000000001feff00fdfffb00000200fe0001fe,
0000000000000000000000000000000000000000000000000000000000000000,
0000000000000000000000000000000000000000000000000000000000000000,
0000000000000000000000000000000000000000000000000000000000ff0000,
0000000001000000000000000000000000000000000000000000000000010000,
00ff040005fdfb0000fe00fefeff06ffff0003fe0ef3ff00fe0100ff02100000,
ff00ffe9ff01ff00fc03fffcfe06fd0509010112fb01ff04fffffdfffe010501,
000000020100000101000100ff0101000000000102000000fffefd0afffe02ff,
0000030100ffff010101000000fd010100000200020000ff0303000000010000,
fffc01f5fdff000503fffa00ffff020000000001ff010002ff000100010100fd,
0204010100030000fdfcff00f8ff00fc030000020200040701feff0503030500,
0001010001ff0000ff0501ff01010105fe080804fd020203030900030002fd03,
0200020000000100010000030001ff00ff00010100ff00000300010000010000,
ff0001ff0401020001ffff0000ff000102ff000402010000fd02fe0000000003,
0000020000000000000100000000000000000000010000000000ff0000ff0000,
0001000001000100000000000000000000000002000000ff0001000000000000,
ff000000fe00fffd01fdfefe010000fcfe010200000000000000000100000000,
fefe0101fefdffffff000000fefbfe0001fefe0000ff05fd000201fd000000ff,
00000000000000000000000000000000ff00fffeff0002fffe00fc00ffff00fe,
0000000000000000000000000000000000000000000000000000000000000000,
0000000100000100000000000000000000000000000000000000000000000000,
0000000000000000000000000000000000000000000000000100000000000000,
0100000000000000000000000000000000010000000000000001000000000000,
ff00fe01f503ff00fcff0305001501011504ffff010200fbff020b27000105eb,
00fe01ffff030afdff02ffff0206faffff1a0000000802feffeb07000a02fe07,
01010100000100010301010100000000feffff00000100010afeff01fdff00ff,
00ff00000100ff00000000000001000000020001010101010001000000000000,
060302fc0000ff0106fc04ff020200ff00000000000000fe010003ff00000001,
0000ffff000200fcfe0101feffff02ff000005fffe0000feff0001fe05040103,
0200010000ff01000802fffe020101000204fe00ffff03fffeff04ff0200fd01,
0100000001000000ff01fe000102000101000000000001010300020004000001,
0201ff0000030000010001010201000100fe0102000005010101010504000301,
00010001000000020100000000000000ff000101000100000000ff0001000200,
020101010100000100ff01000100010001000000000100000000ff0001000000,
0000fd00ff01fe00fdfdff010000ffff00fd00fdfe00fd00010101000000ff00,
ff0000fc00fdfd0100fffdfdfeffff00fd000000ff01fdff0600fefe00ff0100,
0000000000000000000000000000000000fefe00fd0000fc00ff000100000000,
0000000000000000000000000000000000000000000000000000000000000000,
0000000000000000000000000000000000000000000000000000000000000000,
0000000000000000000000000000000000000000000000000000000000000000,
0000000000000000000000000000000000000000000000000000000000000000,
04ff00ff02100aff0013fd0205000005fbff02030201ffff00ff000313feff02,
fefe00000200ffff0408ff0401feffff0000020014fdfe000200ff0d02020e00,
00000000000000000001000000ff010000ff010102010101fe05feff0201ff00,
010000010001ffff00ff03ff0100000000000001ff00fcfffe00ff0100000001,
0201ff06ff0600ff0000010300f8010301ff03000100ff02ff01000000000000,
ff010400000500000002fc00010600fefd0406ff00fd0205ff02fef7fe0004ff,
000003010301000103ffff010302fd010101010104ff0100fb02020107fc0300,
0303020200010100ff000001000200ff000201000000000000ff0303000001ff,
00ff01000002000200040101030000010101ff000100ff0000040200000102ff,
01000200010001000000010001feff0102ff0300000102010000000000ff0000,
000000010201010001000100000000000000ffff0200000200ff00000000ff00,
fdff000000fffc00fe010101fdfffffefc00feff01fc00ff000001010100ff00,
0000fdfe0001010000fd00fffefeffffff0000fbfefe02fffaff0000fcfdfd00,
00000000000000000000000000000000ffff03fffd00010001fdfeff00fefcff,
0000000000000000000000000000000000000000000000000000000000000000,
0000000000000000000000000000000000000000000000000000000000000000,
0000000000000000000000000000000000000000000000000000000000000000,
0000000000000000000000000000000000000000000000000000000000000000,
0003ff04ffff01fffd00fffe04fb0300ff00ff0701fe01ff010000fe000102e9,
00fdfd0000ff010009ff00010efe00ffff01fffeff0102000f02fff207fe02ff,
fc00010000000300ff0000000000000100000100ff0100010002ff00000002ff,
000002000002000000020000000100000100010101010000000100000301ff00,
0400ff06050103fffffefd0400fe05000200fe00010000000103ff0001010400,
01030207ff03000003fe0403fefefc02020101040302000102ff00fd02ffff03,
ff0002ff01000001ff000001fd030103ff0102ffffff03040100fffe000001fc,
03ff00ff0001fe0002000403010200000002fd02020001010004ff0200fe0101,
0200000002000101000102010001000101000000fe0101000102ff00040200ff,
010000000201000000ff020002020000000100010100ff000000000001000000,
01000001000000000000000101ff00000000ff0000020001000000ff00ffff00,
ff00fffdfffffe00fffefd00fd00ffff00fd05fefcfe00000100000001010000,
fefd00ff00fffcfffe0000fefdfeff0000ff020000ffff01fefe00fffdff00fb,
0000000000000000000000000000000002ff0000fe000100fdfdffffffff00fd,
0000000000000000000000000000000000000000000000000000000000000000,
0000000000000000000000000000000000000000000000000000000000000000,
0000000000000000000000000000000000000000000000000000000000000000,
0000000000000000000000000000000000000000000000000000000000000000,
fff90104fd0103fffd01ff00030000fef90302fc0001fe00010005f806010005,
00fdfbfafe010300020c0703fc00ff00ff05fd09fd02fefcff01fe00fd01fe04,
ff0000ffff00fe000005010101000300ff0002000400000103faf902000b0300,
00ff000100ff0101ff00000103030000ff00020001000100030100ff00000001,
0002ff02ff04fdfb010002feff0000010000010001000100ffff01ff01000002,
010005000004ff000202fe010eff040003ff0202050000020002ff0601030602,
040100020100000001fc050000fe00ff06ff010003fe0202ffff04000103f600,
000100ff01fe010001020100000203020000010000010002020100ff01ff00ff,
ff0002fe0000020000000002020100ff01020001ff0004ff0000010203ff0000,
00000000ff00ff020000000001ff00000001000001ff00010101fd0000ff0100,
0000000101000101000101000000010001010100010100000002000000020100,
0000ff0000fefe0200080000fdfd0000fefd0000fcfdfdff0101000000000000,
fe000000ff0000010000fdfffcfffd00fdfd0000fefffdfefe000100fd0000fe,
0000000000000000000000000000000000fcfefffd00000000ff00fd00fefcfc,
0000000000000000000000000000000000000000000000000000000000000000,
0000000000000000000000000000000000000000000000000000000000000000,
0000000000000000000000000000000000000000000000000000000000000000,
0000000000000000000000000000000000000000000000000000000000000000,
0101f91003ff0006ff0305f20202f7fbfe03090302fcfffd0401ff04fffc04fe,
fb000001fe000005fc0101fdfaff00feff0502fe01f4ffff040300f9fbfefefe,
00ff01000004ff010001010001fe0101ff00ff0201010101fe06010000000101,
ff00000000000100ff0001000300000001020001020000010100000100000103,
000003020002fffe08020502fdfd020300ff01010300000000ff000000020200,
00fe0104ff010300fb02070001fe00feff0400fe00010500ffff02ff00030102,
01000100000000010003ff00ff060004fe01fe070201040402ff000001020202,
0102030301ff010000fe0202ff00fbff0000010000fe00000201ff0000000001,
010003ff00fd0100000100000202ff02ff00000000020000000102ff0002ff01,
00010000020002010000000101000000000000010100fe010000000000020100,
0201010000000301010000000000000001000002ff0100000000ff0000010002,
ff020000fefffffdffff010000ffffff02feff01fefb00010000020100000000,
0000ff0100feff00fdfcfefffffe0001fd000005feff02fd00ff000100fffa00,
00000000000000000000000000000000fefefe00fe02fbfcfffa00fd00ff0001,
0000000000000000000000000000000000000000000000000000000000000000,
0000000000000000000000000000000000000000000000000000000000000000,
0000000000000000000000000000000000000000000000000000000000000000,
0000000000000000000000000000000000000000000000000000000000000000,
0000020400000104fefffeff03040101fd0d0701fffc0610000100ff02f8f8fc,
ff0105f907fd030201fefffdfd0aff00fdfafd03fe01fe05ffff01fffeff01ff,
000101000100010400fe000000ff000000000000ff010000fe030003fdfe01ff,
0400000000020300ff01000000ffff00000000ffff0002010000000000ff03ff,
ff03f801fe04fe0100010202010001fdff00010201ffff0301010000ff010003,
fefd06fd0002030101fe000100fd00fc0101ff050202feff03ff0000000601fb,
010100010003fd0202fffe0201030000030000ff00fa0208fefefd030300fe01,
0002000201030001000000000003000100020100020001ff0200000000ff0300,
0101020001000100ff03020002fd02010000fa000000040002ff010004000100,
0000000000000000000000000000000000000000000000000000000000000000,
0000000000000000000000000000000000000000000000000000000000000000,
0000000000000000000000000000000000000000000000000000000000000000,
0000000000000000000000000000000000000000000000000000000000000000,
0000000000000000000000000000000000000000000000000000000000000000,
0000000000000000000000000000000000000000000000000000000000000000,
0100000000000000000000000000000000000000000000000000000000000000,
0000000000000001000000000000000000000000000000000000000000000000,
0100000000000000000000000000000000000000000000000000000000000000,
00ff000100010000000001000201000000000100000000000100000001000001,
0100000103010000000000000100ff0101000100ff00000001fe000001000101,
010301fdff010101ff03ff0300000503ff000100fd0504ff0001000000000001,
03050104050701fa0101010205ff000402000100000301040501000200010101,
00000000000000000000000000000000060103fd05010502fefffffe0102feff,
0000000000000000000000000000000000000000000000000000000000000000,
0200000001010302000000000000000000000000000000000000000000000000,
0104000002000003010000ff01ff010200000002000202000100010201020000,
01000000000001000201000100000301020302fd000102000300020000000200,
0000000000000000000000000000000000000000000000000000000000000000,
0000000000000000000000000000000000000000000000000000000000000000,
0000000000000000000000000000000000000000000000000000000000000000,
0000000000000000000000000000000000000000000000000000000000000000,
0000000000000000000000000000000000000000000000000000000000000000,
0000000000000000000000000000000000000000000000000000000000000000,
0000000000000000000000000000000000000000000000000000000000000000,
0000000000000000000000000000000000000000000000000000000000000000,
0000000000000000000000000000000000000000000000000000000000000000,
000000000100000102ff00010100000000010000000101000001000100000001,
00000001010100010002010101000101010101ff00ff01000100010100010001,
020103020102fa05030600030003fefd0003080401f9fc010000ff0001000000,
03ff0105ff0401050004ffff00fe0200ff020502feff05010300040101020200,
00000000000000000000000000000000020200ff060100ff0101fc00000005fb,
0000000000000000000000000000000000000000000000000000000000000000,
0101010002ff0100000000000000000000000000000000000000000000000000,
0000000001ff03ff01000001ff0100010002ff00010101020001010202010200,
0202020001000001000001020100000102000100000101000002ff0200000002,
0000000000000000000000000000000000000000000000000000000000000000,
0000000000000000000000000000000000000000000000000000000000000000,
0000000000000000000000000000000000000000000000000000000000000000,
0000000000000000000000000000000000000000000000000000000000000000,
0000000000000000000000000000000000000000000000000000000000000000,
0000000000000000000000000000000000000000000000000000000000000000,
0000000001000000000000000000000000000000000000000000000000000000,
0000000000000000000000000000000000000000000000000000000000000000,
0000000000010000000000000000000000000000000000000000000000000000,
020101000101010201010200010001000102000100000001ff01010000000001,
00010000ff000101020000010000010000010100ff0100000102ff0000020001,
0503ff02010002010305000202fe000106030001070202010100000100010001,
02010b0001010100030902fa0204ff020001fd000302080406010101040000ff,
00000000000000000000000000000000030400fcfeff07010606030104020000,
0000000000000000000000000000000000000000000000000000000000000000,
0100010102010000000000000000000000000000000000000000000000000000,
0203020001000002020000020200000001010000000001020100010001010000,
ff0000fe00020001020002030100000200010100ff000001010100010002ff00,
0000000000000000000000000000000000000000000000000000000000000000,
0000000000000000000000000000000000000000000000000000000000000000,
0000000000000000000000000000000000000000000000000000000000000000,
0000000000000000000000000000000000000000000000000000000000000000,
0000000000000000000000000000000000000000000000000000000000000000,
0000000000000000000000000000000000000000000000000000000000000000,
0000000000000100000000000000000000000000000000000000000000000000,
0000000001000000000000000000000000000000000000000000000000000000,
0000000000000000000000000000000000000000000000000000000000000000,
00000000000000010001010001000000ff010100000000000001010002000000,
00000001000100010101000001000000000000010001000101010001ff000100,
ff00020400050100010700fd0300fc01070100020602030000ff010100000001,
ff0704020405000104020001ff040401030007fefe050500ff030104fe000603,
000000000000000000000000000000000401010c000102ff0401fb0801fffffe,
0000000000000000000000000000000000000000000000000000000000000000,
fd00020201010100000000000000000000000000000000000000000000000000,
00feff00ffff0000ff020201000100ff0103010101010001000100ff00000100,
ff02000200000200000001ff0202020000000000000202010000000100ff00ff,
0000000000000000000000000000000000000000000000000000000000000000,
0000000000000000000000000000000000000000000000000000000000000000,
0000000000000000000000000000000000000000000000000000000000000000,
0000000000000000000000000000000000000000000000000000000000000000,
0000ff0000000000000000000000000000000000000000000000000000000000,
0000000000000000000000000000000000000000000000000000000000000000,
0000000000000000000000000000000000000000000000000000000000000000,
0000000000000000000000010000000000000000000000010000000000000000,
0000000000000000000000000000000000000000010000000000000000000000,
01000000010001010100000000000100000000000000010001000001ff000000,
0001010000000001000001020200000001000000000200000000000201000001,
00fffffa05ff020302010000020201ff02000602fa0401030100000101000000,
0201040201ff02000205fd040100040302fe05ff09ff050001ff0400000001ff,
000000000000000000000000000000000101050103ff00020103000002ff02fe,
0000000000000000000000000000000000000000000000000000000000000000,
ff0101010000fd03000000000000000000000000000000000000000000000000,
00020101000000010100000300000002010101fe0000ff030201010102020102,
0100020000000000000200000100000000000001ff01010000ff000000ff0002,
0000000000000000000000000000000000000000000000000000000000000000,
0000000000000000000000000000000000000000000000000000000000000000,
0000000000000000000000000000000000000000000000000000000000000000,
0000000000000000000000000000000000000000000000000000000000000000,
0000000000000000000000000000000000000000000000000000000000000000,
000000000000000000ff00000000000000000000000000000000000000000000,
0000000000000000000000000000000000000000000000000000000000000000,
0000000000010000000000000000000000000000000000000000000000000000,
000001ff00000000000000000000000000000000000000000000000000000000,
ff0101ff00000000010102000102010000000000010000010000000000010100,
00000000010100ff000000020100020000010001000100010001000101010000,
0002fd010101060100fd0104040101010501010408ff02020100000000000000,
0003030500020001020401000000ff03020103060202080005fe000802010001,
00000000000000000000000000000000f4fffb0b00ff000205000100fb020405,
0000000000000000000000000000000000000000000000000000000000000000,
0200fe000200000000000000000000000000000000000000ff00000000000000,
03ff02ff010301000001000001ff0001020000010001ffff0002ff0200000000,
010004ff00010202010000000100ff00ffff0200010201000000ff01ff020101,
0000000000000000000000000000000000000000000000000000000000000000,
0000000000000000000000000000000000000000000000000000000000000000,
0000000000000000000000000000000000000000000000000000000000000000,
0000000000000000000000000000000000000000000000000000000000000000,
0000000000000000000000000000000000000000000000000000000000000000,
0000000000000000000000000000000000000000000000000000000000000000,
0000000000000000000000000000000000000000000000000000000000000000,
0001010000000000000000000000000000000000000000000000000000000000,
0000010000000000000000000000000000000000000000000000000000000000,
01000100010001ff00000000ff000000ff010001000000000000000100010100,
00000001000000010000000100000100000100000002000000000002ff010000,
010602fd00ff0101030201020301ff00fb010703fd01010100000000ff020101,
000200030407ff0201fd04ff0402f902fe000701fe0004020001ff00ff000200,
000000ff00000000000000000000000008000000010205000105040101000109,
0000000000000000000000000000000000000000000000000000000000000000,
fc000000feff0100000000000000000000000000000000000000000000000000,
03020100010100000101000101000001000003010201ff0401ffff0001010200,
00020301020101000001020201ff0000000200000101020100ff0101ff00ff01,
0000000000000000000000000000000000000000000000000000000000000000,
0000000000000000000000000000000000000000000000000000000000000000,
0000000000000000000000000000000000000000000000000000000000000000,
0000000000000000000000000000000000000000000000000000000000000000,
0000000000000000000000000000000000000000000000000000000000000000,
0000000000000000000000000000000000000000000000000000000000000000,
0001000000000000000000000000000000000000000000000000000000000000,
000000000000000000000000000001000000ff00000000000000000000000001,
0100000000000100000000000000000000000000000000000001000000000000,
000001000001ff00fd0001000100010000000003010001000101000000000001,
010100000000020200000101010000ff00000002000000000002ff0000000001,
0004020002030104050200ff0002fe0003000100ff04020100ff000000000000,
00fefe06fd06020300fe010308fffcff000104050500ff050000fe00feff0100,
0000000000000000000000000000000005ff0001ff0406000004000301060100,
0000000000000000000000000000000000000000000000000000000000000000,
ff000201fe000000000000000000000000000000000000000000000000000000,
01ff00010100000003000002010003010000ff01010203020000010001020002,
0100010001000202000000000001ff00030100000002ff010203fe0101020001,
0000000000000000000000000000000000000000000000000000000000000000,
0000000000000000000000000000000000000000000000000000000000000000,
0000000000000000000000000000000000000000000000000000000000000000,
0000000000000000000000000000000000000000000000000000000000000000,
0000000000000000000000000000000000000000000000000000000000000000,
0000000000000000000000000000000000000000000000000000000000000000,
0000000000010000000000000000000000000000000000000000000000000000,
0000000000000000000000000000000000000000000000000100000000000000,
0000000000000000000000000000000000000000000000000000000000000000,
0002010001000103000001ff000002000001010100010101010000fe00000000,
00000100020000000000ff02ff000201010101000001010000ff0000010101ff,
000201fe010100040502ff0102fd070407ff02010300000200000002000001ff,
0004ff02fc08fd01fe01050003ff02ff00ff0001fe020101ff04000200050003,
0000000000000000000000000000000002ff0302fffbfdfc02ff0104ff01010a,
0000000000000000000000000000000000000000000000000000000000000000,
000001020102ff01000000000000000000000000000000000000000000000000,
01ff0100ff0002020001000100020002ff00020001010001ff00000000ff0300,
02010100feff010001ff00010000030201ff0001000000010201010001000001,
0000000000000000000000000000000000000000000000000000000000000000,
0000000000000000000000000000000000000000000000000000000000000000,
0000000000000000000000000000000000000000000000000000000000000000,
0000000000000000000000000000000000000000000000000000000000000000,
0000000000000000000000000000000000000000000000000000000000000000,
0000000000000000000000000000000000000000000000000000000000000000,
0000000000000000000000000000000000000000000000000000000000000000,
0000000000000000010000000000000000000100000000000000000000000000,
0000ff0001000000000000000000000000000000000001000000000000000000,
0100000001000101010100020101010000020001000000020100000000000000,
000100ff000001000101ff01000001010100020000010100ff0100ff00000000,
02020402010101010401fc00000401000102020001ff0106000101000001ffff,
01060306f9fd0000020400ff01060001ff01fd04fe00000002000107000aff02,
0000000000000000000000000000000004050100ffff0500010000ffff040103,
0000000000000000000000000000000000000000000000000000000000000000,
0001000001000000000000000000000000000000000000000000000000000000,
01ff04ff020000000303000100ff010000000002000000000200010001000100,
0000000202010103000000000100010300fc030100ff02000101010000010101,
0000000000000000000000000000000000000000000000000000000000000000,
0000000000000000000000000000000000000000000000000000000000000000,
0000000000000000000000000000000000000000000000000000000000000000,
0000000000000000000000000000000000000000000000000000000000000000,
0000000000000000000000000000000000000000000000000000000000000000,
0000000000000000000000000000000000000000000000000000000000000000,
0000000000000000000000000000000000000000000000000000000000000000,
0000000000000000000000000000000000000000000000000000000000000000,
0000000100000000000000000000000000000000000000000000000000000000,
01ff0001000000010000fe0000000000ff010101000000000100010000000001,
000101010000010000010100010001000000ff00000100010000000001000100,
01fd030001030003ff02010007ff00050701fb050203020001000100ff010000,
00fd0803fbff0604030400fd030207ff0001fe0003050000010905ff00040206,
0000000000000000000000000000000006ff00feff010201feff0b04fd010003,
0000000000000000000000000000000000000000000000000000000000000000,
01fe0001ff000001000000000000000000000000000000000000000000000000,
0002010002ffff0000ffffff0000000103010000000100000302010101000001,
000002030000020002ff01000002000201010002010101000000ff0001010000,
0000000000000000000000000000000000000000000000000000000000000000,
0000000000000000000000000000000000000000000000000000000000000000,
0000000000000000000000000000000000000000000000000000000000000000,
0000000000000000000000000000000000000000000000000000000000000000,
0000000000000000000000000000000000000000000000000000000000000000,
0000000000000000000000000000000000000000000000000000000000000000,
0000000000000000000000000000000000000000000000000000000000000000,
0000000000000000000000000000000000000000000000000000000000000000,
0000000000000000000000000000000000000000000000000000000000000000,
010103010000000200000101ff0101000000000100ff01010000000000010000,
0100ff01ff00000001010000ff00010000010001000100010000000001010000,
0003050002ff0000fffd02ff01020300fefe0304ffff000300000001fe000000,
03ff02fd0002ffff0007fdfd00fefb00fcff0302ff020306fdfd0104fffffffb,
000000000000000000000000000000000100050401060201ff06000501000101,
0000000000000000000000000000000000000000000000000000000000000000,
00030001000102fe000000000000000000000000000000000000000000000000,
01000001020000ff020000fe0000000100010400ff0102000201ff000000fe00,
0101010001000102000100000000000000ff00030000010000ff030002010100,
0000000000000000000000000000000000000000000000000000000000000000,
0000000000000000000000000000000000000000000000000000000000000000,
0000000000000000000000000000000000000000000000000000000000000000,
0000000000000000000000000000000000000000000000000000000000000000,
0000000000000000000000000000000000000000000000000000000000000000,
0000000000000000000000000000000000000000000000000000000000000000,
0000000000000000000000000000000000000000000000000000000000000000,
0000000100000000000000000000000000000000000000000000000000000000,
0000000000000000000100000000000000000000000000000000000000000000,
00ff01000001000002000100010000010101000101000001000100ff00000000,
ff00000000000101010000010100000000000101000200000100010000000202,
010406fd04000202fe0aff01ff0101fe03ff0402ff0000030000000100010101,
00000000fffd03ff0102000102fb00030701ff010003ff04fb0502020205ff00,
0000000000000000000000000000000002feff00000002fffe0204ff02f80103,
0000000000000000000000000000000000000000000000000000000000000000,
0000010000020001000000000000000000000000000000000000000000000000,
ff00000002000100fe020001030000000200ff00000002000100ff000100fa00,
01000101ff00000000050200000002010000ff0300ff00000003000102010200,
0000000000000000000000000000000000000000000000000000000000000000,
0000000000000000000000000000000000000000000000000000000000000000,
0000000000000000000000000000000000000000000000000000000000000000,
0000000000000000000000000000000000000000000000000000000000000000,
0000000000000000000000000000000000000000000000000000000000000000,
0000000000000000000000000000000000000000000000000000000000000000,
0000000001000000000000000000000000000000000000000000000000000000,
000000000000000001000000000000000000000000000000000000ff00000100,
0000000000000000000000000000000000000000000000000000000000000000,
01ff010001000000000100010001000000000000000000000000000001000000,
0001000002010101000001000000010001000000010100000200000001000100,
00ff04fffa0401fd000002fe0302fdff0601fffa02feff0000000100000100ff,
0108fdfaff0002ff0101fd0403feff00fefe00ffff03fe0100feff01ff030004,
0000000000000000000000000000000000fbfe02ffff09ff0100000306fefe02,
0000000000000000000000000000000000000000000000000000000000000000,
00fd000101000000000000000000000000000000000000000000000000000000,
ff000200000000ff0300000302000003ff000001000001000004010100000202,
ff0000000000fe000303010100000003000101010000fc010100000100030100,
0000000000000000000000000000000000000000000000000000000000000000,
0000000000000000000000000000000000000000000000000000000000000000,
0000000000000000000000000000000000000000000000000000000000000000,
0000000000000000000000000000000000000000000000000000000000000000,
0000000000000000000000000000000000000000000000000000000000000000,
0000000001000000000000000000000000000000000000000000000000000000,
0000000000000100000000000000000000000000000000000000000000000000,
0000000000000000000000010000000000000000000000000000000000000000,
0000000000000000000000000000000000000000000000000000000000000000,
01010000000000000000010000000001000100000001000001010200000000ff,
01000001000002010000000000010200000002010000ff000000010000000000,
fffdfd07ff030000ff03000201ff0103feffff02ff0001020001000000000001,
0aff0301fe0501fd000103fe04fefd01ff000602fb00060101f7050602050602,
0000000000000000000000000000000003ff06ffff0003020002feff00fffe00,
0000000000000000000000000000000000000000000000000000000000000000,
0002000001feff01000000000000000000000000000000000000000000000000,
02ff00010201ffff01fffe000200010200ff01000004000100000001fc0202ff,
000101010300000000ff00000102020200ff000001ff0000000001ff01010100,
0000000000000000000000000000000000000000000000000000000000000000,
0000000000000000000000000000000000000000000000000000000000000000,
0000000000000000000000000000000000000000000000000000000000000000,
0000000000000000000000000000000000000000000000000000000000000000,
0000000000000000000000000000000000000000000000000000000000000000,
0000000000000000000000000000000000000000000000000000000000000000,
0000000000000000000000000000000000000000000000000000000000000000,
0000000000000000000000000000000000000000000000010000000000000000,
0000000000010000000000000000000000000000000000000000000000000000,
010000ff0100020000010001000102ff00ff0100000100ff010100010000ff00,
ff00010000010102ff00010002000000000101010001010101010000010100ff,
010000fffe0001fffe01fe030201000000070002000201050100000100010000,
0100fdfffffc0b000200feff000005ff02feff00010601050000ff0203020205,
00000000000000000000000000000000040302ff01fe01020301ff00020403ff,
0000000000000000000000000000000000000000000000000000000000000000,
0100000001020000000000000000000000000000000000000000000000000000,
0100000101000102000100000001010001000100000000020002000100010100,
0101010101020102010100010001000102000100000102000001010000000201,
0000000000000000000000000000000000000000000000000000000000000000,
0000000000000000000000000000000000000000000000000000000000000000,
0000000000000000000000000000000000000000000000000000000000000000,
0000000000000000000000000000000000000000000000000000000000000000,
0000000000000000000000000000000000000000000000000000000000000000,
0000000000000000000000000000000000000000000000000000000000000000,
0000000000000000010000000000000000000000000000000000000000000000,
0000000000000000000000000000000100000100000000000001000000000000,
0000000000000000000000000000000000000000000000000000000000000000,
0000000100000102fe000001000101ff000001010102000002ff010001000100,
010000000000020001000101000100000100000000000000000000000100ff02,
00fd0b0106f90001fc020301fdfe04fe02ffffff05010107fd00ff0000000100,
fe0001ff0500000101fdfcfb03000200020101ff0800fe02ff010002000200fe,
00000000000000000000000000000000000001ff01ff0300050201fffdfd00ff,
0000000000000000000000000000000000000000000000000000000000000000,
0000000001010001000000000000000000000000000000000000000000000000,
01010000000002010001000200000101010000010101000000020100ffff0101,
0001000102000000000102010101020100010002000102010101000000020000,
0000000000000000000000000000000000000000000000000000000000000000,
0000000000000000000000000000000000000000000000000000000000000000,
0000000000000000000000000000000000000000000000000000000000000000,
0000000000000000000000000000000000000000000000000000000000000000,
0000000000000000000000000000000000000000000000000000000000000000,
0000000000000000000000000000000000000000000000000000000000000000,
0000000000000000000000000000000000000000000000000000000000000000,
0000000000000000000000000000000000000000000000000000000001000000,
0000ff0000000000000000000000000000000000000000000000000000000000,
ffffff0100010001ff02fe00ff00010100010000010101010101010001000000,
000100000100ff00020100000000010000010001000100010000010001000100,
fd02fffc0300040200ff01fe020402000003010100fdff000102ff0001000001,
ff08fffb030200050104ffff000801000404010301fe0304ff00fffd03000009,
0000000000000000000000000000000004fffe03000503ff00ffff0103030100,
0000000000000000000000000000000000000000000000000000000000000000,
0101010000010102000000000000000000000000000000000000000000000000,
00000001010100000201000000010100ff0002000000020201010002000001ff,
0100010000010001000102000001010000010000010000000000010201010100,
0000000000000000000000000000000000000000000000000000000000000000,
0000000000000000000000000000000000000000000000000000000000000000,
0000000000000000000000000000000000000000000000000000000000000000,
0000000000000000000000000000000000000000000000000000000000000000,
0000000000000000000000000000000000000000000000000000000000000000,
0000000000000000000000000000000000000000000000000000000000000000,
0000000000000000000000000000000000000000000000000000000000000000,
0000000000000000000000000000000000000000000000000001000000000000,
0000000000000000000000000000000000000000000000000000000000000000,
0100000102000000000201ff0000010101010100010100000000ff0101010002,
000001000000000000010101000000ff010000000001000001020100ff000101,
fffe04ff02fefe01fe05ff010100000100020002000300050000000100000001,
0703040101fe0400ff00fcfe0000000108fe01fe0101ff00fffd05feff03ff02,
00000000000000000000000000000000ffff05ff060101010003010101020703,
0000000000000000000000000000000000000000000000000000000000000000,
01ff000001010002000000000000000000000000000000000000000000000000,
0002000201000000000000010001000000000100010000010002000000010000,
00010101010101010101010100ff020001000000000000010000020001000001,
0000000000000000000000000000000000000000000000000000000000000000,
0000000000000000000000000000000000000000000000000000000000000000,
0000000000000000000000000000000000000000000000000000000000000000,
0000000000000000000000000000000000000000000000000000000000000000,
0000000000000000000000000001000000000000000000000000000000000000,
0000000000000000000000000000000000000000000000000000000000000000,
0000000000000000000000000000000000000000000000000000000000000000,
0000000000000000000000000000000000000000000000000000000000000000,
0100000000000000000000000000000001000000000000000000000000000000,
00010101ff0001fffe01ff00010000ff00010001000000000100010100000100,
000101000101000100000000000000010000010100ffff010001010001000000,
ff00fe02fffffdfe010a00ffff00ff000b0201fe030200fb0002000200000100,
0002000001ff0100fffefffe00ffff02ff00fe0200fe00fdffff010001030403,
0000000000000000000000000000000001ff080007ff0001fffd000300010002,
0000000000000000000000000000000000000000000000000000000000000000,
0000000200ff0101000000000000000000000000000000000000000000000000,
01ff000201010100000001020101000102000002010100010100000000020100,
020002000001000201000101000000000301000001010100000001ff0100ff01,
0000000000000000000000000000000000000000000000000000000000000000,
0000000000000000000000000000000000000000000000000000000000000000,
0000000000000000000000000000000000000000000000000000000000000000,
0000000000000000000000000000000000000000000000000000000000000000,
0000000000000000000000000000000000000000000000000000000000000000,
0000000000000000000000000000000000000000000000000000000000000000,
0000000000010000000000000000000000000000000000000000000000000000,
0000000000000000000000000000000000000000000001000000000000000000,
0000ff0000000000000000000000000000000000000000000000000000000000,
000000000000000101010101000001000100010100000001ff01010000000102,
0001000002000001000000010101010000010000000000010001000100000000,
06fc00fe00fefbfaff02000102fefc010201ff0204fffe000000000001000000,
00fc020306ff05ff07ff04fffffef80000000106ff02000003fe000004ff010a,
000000000000000000000000000000000501ff030400ff02fc010101ff07ff03,
0000000000000000000000000000000000000000000000000000000000000000,
01010002ff020100000000000000000000000000000000000000000000000000,
000001010201ffff010100000001000001000101010002010001010000010001,
0000000002010000000000000000000102010101000002000201020000020100,
0000000000000000000000000000000000000000000000000000000000000000,
0000000000000000000000000000000000000000000000000000000000000000,
0000000000000000000000000000000000000000000000000000000000000000,
0000000000000000000000000000000000000000000000000000000000000000,
0000000000000000000000000000000000000000000000000000000000000000,
0000000000000000000000010000000000000000000000000000000000000000,
0000000000000000000000000000000000000000000000000000000000000000,
0000000000000000000000000000000000000000000000000000000000000000,
0000000000000100000000000000000000000000000000000000000000000000,
000101000100000101ff00010000000000010000ff0001000101010101000000,
0000000100000000000000000001010100000001010200010100010000000101,
030508fe03020202fefe04fe08fffefc00000101fd010206ff00020100010000,
00ff030301fd0200010300050102fffffdfe000206fe020100060202fdffffff,
000000000000000000000000000000000100000300000100ff08fffffe02ff01,
0000000000000000000000000000000000000000000000000000000000000000,
ff01010102020000000000000000000000000000000000000000000000000000,
000100010101000201000101000100fe0000020100000201ff02010003010101,
00020001020102000102010100000000ff000100020201010000000100010001,
0000000000000000000000000000000000000000000000000000000000000000,
0000000000000000000000000000000000000000000000000000000000000000,
0000000000000000000000000000000000000000000000000000000000000000,
0000000000000000000000000000000000000000000000000000000000000000,
0000000000000000000000000000000000000000000000000000000000000000,
000000000000ff00000000000000000000000000000000000000000000000000,
0000000000000000000000000000000000000000000000000000000000000000,
0000000000000000000000000000000000000000000000000000000000000000,
0000000000000000000000000100000000000000000001000000000000000000,
0100000101000000010002010100ff0101010101000100000100000000000000,
000001010100ff0100010000010100000100ff00000001010101ff0002010000,
ffff020201ff02fd020100fcfefffffe00ff06fe000101000001000101010000,
0202ff02020101ff00020200000eff080000fd050209fffdff0005000002fe05,
000000000000000000000000000000000001fffeff00fa040000ff00ff020301,
0000000000000000000000000000000000000000000000000000000000000000,
0100010001ff0000000000000000000000000000000000000000000000000000,
ff0101000101fe00ff0100000001010201000200020101010001000100000100,
000001ff020200ff010100ff00010300030000fe010000000000000001010000,
0000000000000000000000000000000000000000000000000000000000000000,
0000000000000000000000000000000000000000000000000000000000000000,
0000000000000000000000000000000000000000000000000000000000000000,
0000000000000000000000000000000000000000000000000000000000000000,
0000000000000000000000000000000000000000000000000000000000000000,
0000000000000000000000000000000000000000000000000000000000000000,
0000000000000000000000000000000000000000000000000000000000000000,
0000000001000000000000000000000000000000000000000000000000000000,
0000000000000001000000000000000000000000000000000000000000000000,
010000020100020100000100000100fe00000100010101010001010002000000,
00ff000000010101010000fd0003010100000000000100ff0001000101010000,
0501030100ff0000fe0b00fe01fe01070401ff01ff03fe020200010001000100,
01020000ffff00fe00feff04ff0001fd02fffcfeff0100030500fe08fffffd01,
0000000000000000000000000000000005ff01ff0701fe050102fe01ff020205,
0000000000000000000000000000000000000000000000000000000000000000,
0202ff00ff010000000000000000000000000000000000000000000000000000,
0101ffff0300020001000001ff0203010000020000ff02ff00010001020000ff,
0100000002010003fd000000000100010103ff0201020101010002ff01020203,
0000000000000000000000000000000000000000000000000000000000000000,
0000000000000000000000000000000000000000000000000000000000000000,
0000000000000000000000000000000000000000000000000000000000000000,
0000000000000000000000000000000000000000000000000000000000000000,
0000000000000000000000000000000000000000000000000000000000000000,
0000000000000000000000000000000000000000000000000000000000000000,
0000000000000000000000000000000000000000000000000000000000000000,
0000000000000000000000000000000000000000000000000000000000000000,
0000000000000000000000000000000000010000000000000000000000000000,
0001010100010000000001000100000001000000000102ff0100000101000100,
0001000100000101010002000000010101000000010100010100010001000101,
00fffe0001fc03ff0000030902fe00ff0000fb02010200fd0101010000000100,
fefe010908fc00010200ff0000fe00ff04fdffff080303fe05020101050100fd,
000000000000000000000000000000000001ff07ff0004030003f6fc01000000,
0000000000000000000000000000000000000000000000000000000000000000,
020001ff0000ff00000000000000000000000000000000000000000000000000,
000101020000ffffff000101000002010200fffe020200ffff0200000001fe02,
02010100000001010003ff00010000000201010001000000020000fd00020000,
0000000000000000000000000000000000000000000000000000000000000000,
0000000000000000000000000000000000000000000000000000000000000000,
0000000000000000000000000000000000000000000000000000000000000000,
0000000000000000000000000000000000000000000000000000000000000000,
0000000000000000000000000000000000000000000000000000000000000000,
0000000000000000000000000000000000000000000000000000000000000000,
0000000000000000000000000000000000000000000000000000000000000000,
0000000000000000000000000000000000000000000000000000000000000000,
0000000000000000000000000000000000000000000000000000000000000000,
0001000100010100000000010000000002010000010101000101000100000000,
00000100000001010001010100000200000100000000000100ff010002000001,
fe01ff04050103ffff09ff060002fefbfffffe0000ff02fd00000101ff010001,
0500fffcfe04fe000101fe01fe03ff0000040200ff030000fffd000102fe0002,
00000000000000000000000000000000fc010401ff02fd060007070100030002,
0000000000000000000000000000000000000000000000000000000000000000,
0300ff0002000201000000000000000000000000000000000000000000000000,
0002ffff0100010202030101000000ff01010100020000ff00020001000001fc,
00fd000000ff01010001020101010002000001ff000202000000000000ff0300,
0000000000000000000000000000000000000000000000000000000000000000,
0000000000000000000000000000000000000000000000000000000000000000,
0000000000000000000000000000000000000000000000000000000000000000,
0000000000000000000000000000000000000000000000000000000000000000,
00000000000000ff000000000000000000000000000000000000000000000000,
0000000000000000000000000000000000000000000000000000000000000000,
0000000000000000000000000000000000000000000000000000000000000000,
000000ff00000000000000000000000000000000000000000000010000000000,
0000000000000000000000000000000000000000000000000000000000000000,
0101000100000000010101000102000101010001000000000100000000000001,
0100020000010002000000010100010000000000010101000002010000ff0101,
000105000001000205050203fffcfe0105060500010000ff0000010000000100,
fe0402ff02ffffffff00fffaff020001ffff010006fe0300fffd0604fe010005,
0000000000000000000000000000000002ff01f9070001fffe06fcff01fefd00,
0000000000000000000000000000000000000000000000000000000000000000,
0001ff0000000000000000000000000000000000000000000000000000000000,
fe01000100ff0200000102010101000000010201ff0001000000030100000001,
0000000300ff0102ff0102000100020002000100ffff000003ff0101010000ff,
0000000000000000000000000000000000000000000000000000000000000000,
0000000000000000000000000000000000000000000000000000000000000000,
0000000000000000000000000000000000000000000000000000000000000000,
0000000000000000000000000000000000000000000000000000000000000000,
0000000000000000000000000000000000000000000000000000000000000000,
0000000000000000000000000000000000000000000000000000000000000000,
0000000000000000000000000000000000000000000000000000000000000000,
0000000000000000000000000000000000000000000000000000000000010000,
0000000000000000000000010000000100000000000000000000000000000001,
0100000000000000000002000100010001ff01000001ff00000100ff01000201,
00000001000000000100000100ff010000ff0201010100000100000001000100,
00fe0202000204fe01fefffd0305ff00ffff0106010801fc000100000000ff01,
050300f709000300ff030704fe03fffafd01fffe0604020003010c0100ff0105,
000000000000000000000000000000000202000304fffe000300fe03ff0000fe,
0000000000000000000000000000000000000000000000000000000000000000,
00ff01000100ff00000000000000000000000000000000000000000000000000,
000100ff0201ff0000fffe03ffff000200000100010001ff0001010100030002,
0202010200020001010000020100000301000000020101010100010000030003,
0000000000000000000000000000000000000000000000000000000000000000,
0000000000000000000000000000000000000000000000000000000000000000,
0000000000000000000000000000000000000000000000000000000000000000,
0000000000000000000000000000000000000000000000000000000000000000,
0000000000000000000000000000000000000000000000000000000000000000,
0000000000000000000000000000000000000000000000000000000000000000,
0000000100000000000000000000000000000000000000000000000000000000,
0000000000000000000000000000000000000000000000000000000000000000,
0000000000000000000000000001000000000000000000000000000000000000,
01010000fe000000010000010000010000000000ff0000000100000000010001,
0002010001ff00000000010100ff000000010000000101010000010102000200,
04fcff0003ffff020404fd0103000005ff06fe0401ff01000200010001000000,
01fffe0202010103ff02030500010100fdfd0303ff00050703f80500030402ff,
000000000000000000000000000000000300ff0000040300ff01000000020001,
0000000000000000000000000000000000000000000000000000000000000000,
01010002fc010100000000000000000000000000000000000000000000000000,
ff0001ff0000000101ff020001000100000101000001ff02fe0001ff00010402,
feff01010202ff0002000102010100010200fd00ff00ff000001000103ff0202,
0000000000000000000000000000000000000000000000000000000000000000,
0000000000000000000000000000000000000000000000000000000000000000,
0000000000000000000000000000000000000000000000000000000000000000,
0000000000000000000000000000000000000000000000000000000000000000,
0000000000000000000000ff0000000000000000000000000000000000000000,
0000000000000000000000000000000000000000000000000000000000000000,
0000000000000000000000000000000000000000000000000000000000000000,
0000000001000000000000000000000000000000010000000000000000000000,
0100000000000000000000010101000000000000000000010000000000010000,
01fe0001010000000100000100ff000000000100010000000000000101ff0000,
0100000000000001000100010000010001000001000100000000020000010000,
ff03010602fd0202ff00000802030203ff01fe0000ff00000000000001000000,
02ff04ff01ff03ff02ff00020406ff010600fd0106fe0203fe0203030200ff03,
00000000000000000000000000000000ffff0100000601030501fefe06030402,
0000000000000000000000000000000000000000000000000000000000000000,
020003ffff030000000000000000000000000000000000000000000000000000,
010001000300000001010001000200000001ff0000020303ff010001ffff0000,
020001ff00010000ff00ff0003ff00ff02020102010200020001fe010002ff02,
0000000000000000000000000000000000000000000000000000000000000000,
0000000000000000000000000000000000000000000000000000000000000000,
0000000000000000000000000000000000000000000000000000000000000000,
0000000000000000000000000000000000000000000000000000000000000000,
0000000000000000000000000000000000000000000000000000000000000000,
0000000000000000000000000000000000000000000000000000000000000000,
0000000000000000000000000000000000000000000000000000000000000000,
000000000100000000000000000000000000ff00000000000000000000010000,
0000000000000001000000000000000000000000000000000001000000000001,
010000010000000100000101ff01010100010100010001000002000101000201,
000100010001010101000000010100000000ff00010100000101000000000001,
000104ff0001fe0101ff00020104000100010b06000105fe0001010102000000,
020001fe04030402fe020301ff01fa00000000ff000300fe00fff9ffff0003ff,
00000000000000000000000000000000040100fffe02ff0102ffff0001010302,
0000000000000000000000000000000000000000000000000000000000000000,
0201020400ff0000000000000000000000000000000000000000000000000000,
0003ff01030102ff00000103ff0000020000000002ff0100fe01ffff00010002,
020300000000ffffff0000000100ff00ff010200000001000001020002010202,
0000000000000000000000000000000000000000000000000000000000000000,
0000000000000000000000000000000000000000000000000000000000000000,
0000000000000000000000000000000000000000000000000000000000000000,
0000000000000000000000000000000000000000000000000000000000000000,
0000000000000000000000000000000000000000000000000000000000000000,
0000000000000000000000000000000000000000000000000000000000000000,
0100000000000100000000000000000000000000000000000000000000000000,
0000000000000000000000000000000000000000000000000000000000000000,
0000000000000000000000000000000000000000000000000000000000000000,
000000010001010001ff01000100000101010001000101000100010000010000,
0001000000010101010000000001010000010000000001010000000101000001,
0202ff0000ff040400000301ff02ff01fdfc05030101fe000001ff0101010101,
ff02ff02fcff000100020202fffb0300040602ff0200ff00ff01ff0500fc04ff,
000000000000000000000000000000000100020302030102040004fffffc0205,
0000000000000000000000000000000000000000000000000000000000000000,
0001ffff02020300000000000000000000000000000000000000000000000000,
000002ff00ff0000020102000000ff0300010200000001fe010101020000fe03,
01000103ffff0000010101000101ff0001ff0001000100ff00000001fe000001,
0000000000000000000000000000000000000000000000000000000000000000,
0000000000000000000000000000000000000000000000000000000000000000,
0000000000000000000000000000000000000000000000000000000000000000,
0000000000000000000000000000000000000000000000000000000000000000,
0000000000000000000000000000000000000000000000000000000000000000,
0000000000000000000000000000000000000000000000000000000000000000,
0000000000010000000000000000000000000000000000000000000000000000,
0000000000000000010000000000000000000000000000000000000000000000,
0100000000000100ff0000000000000000000000010000000000000000010000,
0001000100000101020000000101010000010101000000010101000001010001,
000101feff000101000000020100010100ff0000000101010100000000000101,
06010104ff02020206ff04030104ffff07ff00fffbfb04090100000100000000,
040202030102f8fe03010001050400ffff01ffff0200000800ffffffff030202,
0000000000000000000000000000000005ff0200ffff02ff0001fe0103fb0101,
0000000000000000000000000000000000000000000000000000000000000000,
0100000001ffff00000000000000000000000000000000000000000000000000,
01000000010200030100000000000100000201ff000000000001ffffff000102,
03ff02ff01010201fe000001010102fe0101010001fd02ff0002000003ffff00,
0000000000000000000000000000000000000000000000000000000000000000,
0000000000000000000000000000000000000000000000000000000000000000,
0000000000000000000000000000000000000000000000000000000000000000,
0000000000000000000000000000000000000000000000000000000000000000,
0000000000000000000000000000000000000000000000000000000000000000,
0000000000000000000000000000000000000000000000000000000000000000,
0001000000000000000000000000000000000000000000000000000000000000,
0000000000000000000000000000000000000000000000010001000000000000,
0000000000000000000000000000010000000000000000010000000000000000,
0101000000010101010002000000000100010000020001000100010100010102,
00000200000100ff000000000100010001000101010000000000000100010001,
000301fdfffdfb0701fffffc020502fd020102000000000201ff000000010001,
060607fefffefcffff070001fff700060002fcff02020501fe0002fbff000001,
000000000000000000000000000000000c0403feff0000fd03fffe03000003ff,
0000000000000000000000000000000000000000000000000000000000000000,
000201ff0001fefd000000000000000000000000000000000000000000000000,
000002fe0000ff0001000100ff0100ff010201020100ff0100010100ff000000,
000100ffff00000100000100fd01000001010001ff0101fd010100ff00000001,
0000000000000000000000000000000000000000000000000000000000000000,
0000000000000000000000000000000000000000000000000000000000000000,
0000000000000000000000000000000000000000000000000000000000000000,
0000000000000000000000000000000000000000000000000000000000000000,
0000000000000000000000000000000000000000000000000000000000000000,
0000000000000000000000000000000000000000000000000000000000000000,
