memory_initialization_radix = 16;
memory_initialization_vector=
0000023400000154000001100000004500000631000007bb000009d6000001ed,
0000049d000000e000000384fffffa3300000057000000fdfffffdadffffffa8,
00000006fffffc15fffffd9e000006590000014100000294000003e3000003b5,
00000222000003c5ffffff500000000dfffffd8b0000018bfffffe45ffffff7d,
000004eb000004500000033ffffffa04fffffc2000000147fffffdd6000000c6,
00000823000001240000006effffff48fffffd39000001300000018a00000157,
000004cffffffe60fffffffbffffff7dffffffb40000010a00000046000000be,
000001d4fffffe9f0000015cfffffb130000066ffffffced0000022600000044,
00000222fffff9b5ffffff5a000000affffffe03fffffe78fffffd9f00000105,
ffffff0afffffd530000015bffffff5dfffff7a5ffffffb70000035c000000f9,
fffffe19000001cf00000d12fffffe4300000215fffffc330000034ffffffe61,
000000d500000186000005e3000000020000016300000213000001240000031c,
000001a700000254fffff8b30000016b0000036e000006d9fffffd5000000287,
000001b3ffffff5afffffc0100000264000000ce000000e60000071b000005c6,
00000216000001bcfffff49c00000057000001a800000312fffffed700000304,
000005d500000193000004eb00000068000004e1000002f5000001afffffff6e,
fcf80017fdfffbf8f400f6ea01fcfafbfff80603feff08f703f9ff1dfe01fcfa,
02fd03f8f7fc07f400fefe10fefafbfcfc00fce6fbfcfb04fef90500fafe0af8,
fc01f90501050105f401f9fef90a0902ff00fb000105fe06fdfcfdf1ff01f9fd,
03fb0204fe040301fb01fd03fc090401fefaf702f00c080400fbf802ff06030b,
f9fff3fefe0205f90205f9fe00fe0201f9010001ff010200f9fbfffff8050afd,
f9fff30500030102ebfbf3fdf9040af2fcfb0007000404fbfffefaff01fd0007,
ff05fdfe000401000801fffbfeff0102f70100fefd0208fb00fd0105050002fb,
040515f815050a03010102f104000006fc0600f804040002f60614f808020901,
fe0cf601f5fe0309fd0900fbfe000302fb04f9fef3010309040104fd05ff02ff,
fffef0fef7ff08fa09020a05fb00ff070608070508fe00010103fc05fffe03fb,
f203ea09fb00fd01f800ef09f90106fd0afd0dfa08fefe04eff9f70302ff00f5,
fbfe0b0cfbfe01050707fe0505fd0cf211fefbfa06fa05f7fefdfb070401fdf7,
f0fa1bfffe00fc0002fafd04030dff01f305eaf50b010bf81b060bf3090afe13,
fdfc01ebfc010aff0a0405e1f6ecfefd0802edfdfbfcfd00ec0b10f500fb0a06,
0b04001e0a0efd0cf5ff020e1535fb00faf805e9fe09fef3fbfd020b06f7fc02,
fefefd02faf001f00806fb1200fcfc010102ff0cff1106faf7fbf6f1f20601ee,
04ff0203fee703e601fcfefafeea00f103fc040dfff005ed00fd0006ffed03e7,
feff0108ffee01f601fe030503ec03effffefe0604f004f7feff0008fdeb02e3,
0004fff903e30402000603fe072107f9feff0409f709f602ff04fdfb02e504ff,
fffb030bfcfc01ff010400ff07e8030102fd00fe021c06f4fc00ff05fdfffafe,
ed02ff0604020500dcfc06fc00fffef7eaff0000fc0104010202fd03020d03f6,
f50100fc030201fbe8030501fe0106fbdd0307f9010502f8e9ff02fd060309fb,
05fc0208fcfd01fffdfc0103fdfdfbfbf30001ff0001fefce6ff05fafffffaf6,
0404020f02fe000309f9050ff6ff06010900000bfc0404fdfc03030602fcfffc,
fd04fefc08f90005f904ff0400fdf8fefffb0105fdfa01ffff0cfd0300fbfbff,
04f0fc13f4fc0109fcf2ff0000fd0100f80000f80901080d04040111ff06fd0d,
f104fcff01f6fcfaf9fbfa1409fff0f7f5fdfc0204fdfdf5fafa00fffaf4060a,
0c03fef7fffd1402f0fdfd0dfe02f100f500ff03fe01e601fa01fe0107fbfb03,
0f06fa0304fe1bfd0afbf903f8051603f3fff8fefd00eaff0803fcf60bf903ff,
f9ffff0206fbf900fbfa1209fffbf30804f303fef60af8f6fbfdfd0d06fefefe,
f90d0c000af5fffffd090b0d07fd0703f905330d00e90e1001f81402fd0501f9,
020000fd02e1110407f601fbf5050af300f90403f90204fcfff71d06fcfaff01,
f80dfa0006e0080bf7fbf0040407f418f6f7f7fdfc3508e8070c05f908e30dfe,
fe03ffffff07fc03040f020304e508f9fef4ff07fe05ff0602f602030b1f0fe2,
fcf5020cfe030e0400fa0009fe010cfe0501fdfb0301fc05fffd0103fc08f900,
06fdfcfa02060200fff70501ff070102fe00fdfc0206f60205f9010702011202,
fc07f50400fbff04020603f9fff8f9fa010cecf9fcf30b010203f50306fd0001,
fe02f0fcfded0705fd02f80302030005ff06f7f809f0fb08060ae9fe01f00a08,
fe05020afefdf401070901fefcfefe070006fefffdfff9000201feff00f9fdff,
01fd00fdfffffcfcfc05fa03fffcef00030bfafcfafefd08fc02fefffcfef1fc,
0803fffc01fc07f8fdff020201fbfaf50203fcff04fefc010309f5fbfbffff06,
fe030101f9fa04ec06f6eef0faee1aedfef9ff02fdf901ed00090104f902fcf7,
0d0204000908fc070005fc0300fcfafc08fcf3fdfef30afefeff0304fe00f6fa,
f7e4e0faedfe08fcf9f7f5fcf7fff3f409fb0f0000fdfafe19eceefbf5ff06fd,
01030d0706fefbfcfa03eef9fbfd090103050a00fc00f3fdf4fa0002fdfefaf7,
00fe040800fafffc00f8e3f6fdfdfd080104f703fb00f600ff040300f904fafe,
fdf60b0cfcfe04fa05f4fe0205f909010003e801f6fbfe06fa010a09f901fcf9,
ff08fa0202fe07040f08f9fa01030eff0707eaf9fc0b0a04ff00fe08fe00f3fd,
0203f100fa06f704f804f803ff00edf508f8fef4fd02f6f1fefdecfefb08f308,
04040000fcf9030306fdfcfeff02fffb0405f902fbfef2f905fbf9f4fff5f504,
f904eb0c03f7fafe030400fafbf606050206f9fffa01f8f6fb01f61602fbfdfc,
07f8f7f601f60c08fc09eb0503f4fd03ff09f6fefcf40008ff04fc050008fb04,
06f7f0f104f2fd080bf4edf302f50f0404fffef604fb0a0507fef8f203f40707,
09fd00ff01fc050408f9fbfd03fd010207f900080301080508f4f1ef01ef0803,
03fd0101fd0000ff04f90203fffe08f702fdfc04fd09050b0501fc0201fd05f8,
fffefe000002fd0503fef8fe03fefafbfffb0500fd0302f8fffffe00fa05050d,
00fe010200f902f7fd02f706ff0712ff0005000003f8fef800fcfdff0400fbfe,
0503000002fefffafdff030100f90004f6fdff06fefe0601ff030000fefffb02,
fcfdfd03fefe08f30500f80401fd000103fd0000010202f8fe03fd01ff040801,
fbfd05fe00f802f8eefd12fa02fa08dffb0306f904ed07e90502f707fef2fc0b,
0c04f1ff04fbfdf304fdf7030100fa08f90302fffefffdfe0603f903fefdf901,
e4081a11f5fefdf6fc040901f3fcf4f70805f300070001f1fb0af60a050705f8,
0904f1fe0400faf6f90d0c0dffff04000507f9f103f9f9f8fa040501fef9f8f7,
f8fd06fe08f718f5f40104000111ed0cfa01fc04f808ec0cf807fb02fdfbfc0c,
f5fe02f3fdf112f5fc00010505f71500fc01ff09fd09e215f903fdfcf6f009f4,
08fc01fa00fdfe02030efcfefc060dfb0402fdf90907fcfbf50103fef8fcfc02,
0305f5fffbf9fbff0401fefef804f606e309e80bfb0814faf700ee0306f3f0fd,
08fb0006f8040f0909f9ff08090602ff0bfd00fc0206fa00ec02eafe052015fb,
06f7f7f603fff5faf0fbf4f6fd060115fa01fbfdfd03f6050c05f905f800f4f7,
04fe01060705feff12fbfdfa05ff0202fcfd0000ff030808050303fd00010003,
f5010603fb000601f60005fffdfd07ff0205010300fafefa0203030500fb02fe,
0003fe040307fbfbfe020205010601fc0701fd020001f800f60007fffdfc02fc,
0110f903f902f1fc0de80504f5021d0200fdf904fd00fb01ff19f603f9fce803,
0006020206fe01000309000401fff30101edfcfbf90013ff0003f9fe0100fff8,
ff00fbfcfbfd03eaf601f5f3f00c02dbf50003fbef0200f102f0030405010a02,
fafff4fefe02fef3f60003f8f80001f3eefffcebf306feedf4fdfdf6f705fef7,
ffffeffdf90203f8fffffefcf8fa00fdfb0202fcfb0002f6f4fff5f5f502feed,
03f9fc00fcfb02fd0207edf3ebf805f0fd00fefbf9f800f6fdf9feff010100fe,
f700fe01fd010404fe02fcff0100fe02fd06f5fcfd0105fc00fb050002040700,
f5fd02faf4f2faf3fafb00faf1fe06ff0904fa02effcfb08f8f6f803f7f5f104,
08fd03fcfdfcfcf80403fcfb00fffdeefff8fdfefb0601fdfe040bfcf7f2f803,
ff00f8f6f2fffef3fb02040105fd0407fb030a0408fe0108fffffefe01fd03fe,
07fdf4fdf0fb04ee0207f9f3f2f900f0fc0308090afe020c00fbfe04f305fdfb,
fcfe06f9f6fe060800fef9f6fc06fc06f801fb010600fd0201f9030301050101,
fcf906fb03f4070702040afdf7fb07fdfff2fcfaf1fbeff7f1fb12fff5fb00fd,
f506f8fd02ff02f6f3f0f1060afd01fbfb05fffefffcfd05f206eef7fffef7f5,
fe14fa0104f5dbfff712f5f508f700f5eed4fd060b021df5fef203010201fbff,
f50bf8fc05ff0600fa11fbfe0302f0fcf402fbf806fdf1fef2e5ff07020612f8,
f007ff0202000701ee05fdfe03fd0603f704fc02070401fff40af8ff03fe07fb,
f706fc0308000703f608fafaff0406fdf70500ff00020502f006ff040c000402,
ff01fefd000702f6fffcfef5fd05fefdfafefaf50d01fe00010301ffff0702fd,
0101fcf207fdff020004fffafe0201f70002fcf800fdfcfdfafbfff70e01fd01,
01fcfd02fa01fb0304e5fd040403f8030bf6040bfbfffc02010100000101fcff,
03050305040201030701050afdfeef0503ff0002fa00f00606020205fbfff404,
05f8faf601fef6f90a0404fd00fbf9fd06fdff030602f9000102fdff01fffc02,
ffff00fefc07f30204f0f4f0f801f1ff06fd05fdfdfffe00ff0401030007f8fd,
07030c0204070501000302020400fb00fffaf9f60500fbfdff01fffe05000101,
0402f306f6ece508030b0004f3fefc0905010705ff07fc0106f401ff0afff907,
00020606ff04f4fdfbfb0201f7fef4010204090b010700ff04070009eff7e807,
05faf6f9f8000a00f9040504fb02e7fefd0b040c0000f1fc0401f608f6fbfefe,
fb05fd01fb040304fbf6fdfbfe031e01f90301fb0bfaeeff0202fd03fc07fb02,
fe09fbf50404fdfffdf7f2f0fd02fbf0050800fd03faf1fffa09000102fefdfe,
f708f3070609f107ff11ff0cfb05050608f00005f301020508080701f7f5f515,
f604f7f10501fdfe00f911fd0cf8fbfcfc0f050506020a02fcea02ff03ff0f04,
f8fbfbfcf507f806ec08feebf50003fef7fa1002fbfdf70502f9f9ff0804faf8,
0201fdea0cff00ea05040800f905f8fc020b00ebfafbfd00010b09fbf908f702,
f303f1eaf8fff8e7fa00f2e2fa07fbe1fa03fcf4040603eb0000fceff701feea,
0400f3f604fe05f2ff03f2ee02fd03eefffdfbfc060705eff201f1effb03fbe2,
fd0001fb03fefefdfe02fefe0302fdfcfbfbfa0406040207fe0105fc03f901fc,
fc00f60203060004fd0500fd0301fc01f601f7fd06f9fefefafbf4020503ff0a,
020d040502ffff040b00010000f5000b0503080403fb0204fb0003fd0103fffd,
0007ff0104010006080301ff01f7ffff0e06fffa03fcff04070a02fe03fbfeff,
fef7ff01fb01090305000afefbfb0502010203ff01fb02030600fbfd04f90305,
000204fffcfdfa01fbfaf701fbe8f90601fd04fffeecf803010203fbfcfdfe02,
fd050005fef4fb09fc0504fafdfafd00faf9fd0401f7050d010003fb0201fc01,
f20bf4eef7faf606f60b0004fdfef80ef8090202010cf7fbf403f305fff8f4fb,
fb020dfc02f6f903fafffdeefdf5fb03f701080afcfef807f70500f906f7f602,
fdfd0402f9f2040508fb0105fc07fa070105ff03011306060005ff0805080bff,
f50000fdf8f7fb03f7f9fffbfbf4030e0801fb07fc0d0a0afb0bf60400020907,
fbf7fcfff800fbfcfbf8f0fbf717fb07faf9fb00fbf8ff0afe14fc05fd070d07,
07f6fefa0403f701f808fefffd17f6fcf811fffd0414f701030407fd0ce3f204,
fef6f8f707ff0c11f4fdf4f90ffefa06010afefdf9fbf5ff000bfdfb05ecff01,
f1f411fef7ffeff114ecf3020ffc1500f4faebff15fef405f1fd09fbfa0af6fd,
0101f602feff0707f6f90dfbfb0401fc0ff3010201040b07f405f8fb09fe0004,
07f3ea04fffa0402fbf0f101fefd080405fdf903fdf90bff06fcf50703020809,
04fcfbfefe0008fc05fdf40004000203fe03fdfe04050d0609f9eefffdfb08fd,
fc0003fffef9fd020603ff0101f90401faf70608fff7f7020201020104040103,
f8fd0606fbf6fd01fb06080101fd04ff02fef9ff02f30403f5f7060500ebf807,
00fff0effef0fffd0afaf2f0fcf0fa0605feffef05fa010002feff0004030101,
00fb00f9fff800fffff6f6ee02ef04fa01f5f3ee00e6ff03fffafcec04f703fc,
0efef8f8fbfbfc0c02feff0305010808fff801fe00f90201fef4fcfaf8efff03,
fa0201fe05fa00fe03ffebf2f3f6f6060006fffd07040101fd01f9ff04f700fd,
0e07f600ff0b05fefc00060108fffefd00fe00fafdf6fe0800fefa0201f80500,
d9f9fb13e7fff7d0ed04f9fffbfc03ea0bfefdf605070102fef6fc0ef3fef8eb,
fdfef9f902fa0704f7f80110fafdfbf80004f9080cfd08feeefdfbf5f2fe02f6,
0202f5f6fa010109f8fa0c0f02f7f7fef5fa090d01fbfff9fff9ff03fffb0204,
fe03fef8ff0504fe0400f8f9f803fd01fe00040f03fb01f9fafff4fd00fd0806,
01fe0608fefbfffff9f2fe0df600f40c0001fa0dfffffe0cfe00000501010703,
f4f5f704f6f6fe010201f80200f904f0f6f4f4f1050e0202f606fcee0b0a08fb,
02f00b01faf7f90606ffff050a020200fbfef90b080e0500f7f9fb0efdfdfa0d,
00ee010403fefffa00040308f3f1ef0203fc070e09fe06fd01ea13fefbfdfffe,
0df20904fcf8fa0304f4f2ff06050ff9f6f904fdfbf505fafff206fc05f703fa,
00f302fee9f1ec0504ef0a03eeecf70708f4fffcfcfa020903f70205f9f5fc05,
02f704fcf1f60305fff40401f0f2000306f70206faf6040205ee0400ebf1f00b,
fffaf201f6fc0cfc0800ff0607fbf8fffdf70a00030001f308f2fafbef00090e,
0302fbf20303fcfcfb01f501fcfd08090cfdfe100b01f0f7dff904fd07fffdfb,
f3fe01f7f60306f50214fcfef6fa01ed08fc060208f3fce40d02fdf80200f600,
f8ef0c01f605fb0e0804fb0508fc04f22804fb0917f801f404e30f020400f71b,
f9fdfef5f7fdfefa04fb01f90cfcfa0104030402fc0102fe0ff905fa0705f5ff,
fbfcf8f8050100f5fcf9f901f00006f2020403030eff00ff0401fbf80afef9f6,
01fbfb080c02fd0506fcfffe0004000efff80301fc09070500fdff000afefe02,
d0f11d1c01f9fbe9e9f50708f7f307ed1705f7eafc0200101b02ecf10304fb15,
eaff081102f9f8f4fa070201fdfafbf00804fdfcfefdfd000e00ff050cfff7ff,
0001fc0304f8f80109fffa0001fcf902fdf80c04fff9f800f501090401f7f5f9,
f7fafa09fff8fcf5ff03fffe00fefbfbfa050d0507fdf6fa0aff010604f8f1f4,
f6f8f9fbeffffffafbff0405fb05fc01f8fbfefdf205ff00f3fd070400fcfc02,
fcf8fbfdf6fe00fbfe02fe03fffd01000a08000f1a00fa0600ffff08f5fcfe03,
fa00ff04fb050200fb000701ff0506ff02fafff2fcfafdfa02fcff010903f8fb,
08f5f7f70dfafa00f512f5f9fd06fe08f10803fff70509f902f302fe07000003,
f90403fe060701ff03fe02f4fffcf60607ff04ea01fd04fef905fff4fd0004f2,
ff0905f3ff04fef4f70305ef030903f300070bed02090408f90610fc0007faf6,
02080203fc04ffff02050301fb080205f50afdec010706f50208fdf9fa080602,
e6f50501fdf6e0f90bfd04fdff0103fff9fc0002fafd00f9e6fd000902ff03f2,
05fe04fdf9050305f8fc00000702f1031d1004090a091407040705010803ff0b,
e105f8ff05f9f5fc11f3fe05f203eeff18f202f9effafafd0c00fe01fc010b03,
ed0af90410f90bf0040400040309eb0d30e80003e41dee0a14f4ee0b010912f6,
ff04010c07fbfd0a05000306f9faf8fdf70300090502ff05030004fefe050cf9,
07fe020307fe040308f50209f6ff0b0107ebfffeeffa030102ff040bf8f7f90a,
fafb0002030304fbf5ff0101fc02fb01f4fafe0bfd06f6faf9040200ff00fbfe,
050d06fe13000400f40f0b0308f5fe06f9fd0002f20100f403f40004f2fffaf2,
0f1004f410fd000f0204080ffaf7f70b07ee0710f3010203fcf806f90b04fded,
1101fb0fff0002041400faf4f606010917f7fefdfc01f4081104faf502000507,
0706fb10ff07030510fafa02fa05fe020afdf714fb06000b1c02f41901040809,
f20103fd01f9ea000000fe09020af5fff6fe06fd0100ecfe0c00f70805fdfb06,
f8fe030400f4edf80501fe120102fe040d07f737040c11030400ff0cff03fc01,
060efb17090006050d02fcf60501030eeffa0205fcf6eef60400000c04fdf2f7,
05f5f0fae40afaff03f9f7fef10a0402fd04faec050104010007f61c00000200,
01fd0301fd000f03f7f3f90bee060cf5fac6f10ed507fef9fef6fc06fcf5f502,
ffde0304e9fefb05ffeefd07fafaff0103f0fcfdf309150004fb04fefbfc0301,
f90004fd070600fc01ec03f8f004fbfb01e204feeffefbfbfde9f909ee0503fc,
0b12fdf4fdfc090b01f4fb02fcf6040c0c08f4f8f2ebfefc000dedeff300fefa,
02f9fbff05fe0106080d03f9f905fc06eff2fb1206fcece90cf8fffaf9f50705,
fd12f3fe0c0d04030e17e8f8212112f8fbf4f100fd07070ffdf5f6ff06fef2f0,
fefdf100ec0be50d080006f8040518f80af2f6f10e0216fff2f6f0f6e1fcf0fa,
fe01faf702fd05f5fd0301fb0408fafa05fefc00fe0205fdfef2edf5f502eeff,
fef70c0009f703fbfcf403e2030009f605ff03fe0201fc010d02020701fafef7,
0406020ef3f7faf3f204070507fbfd02ec0b090601fffdff0109fd03fe04fdfe,
11fc0509e9fcfde10602fdfbf8f70405fa04f2f600fdfa0cf502f503faf202ff,
07f01701ff0c0ae3f8f7f2f602090502f502ebfafb04f603f90ee5030001fc00,
faf7f4ff0606fff4fff0fc04f8fdf8f0fde9f507fbf606f1fef5f7050303fdf9,
09f2fb00f809fef2fff7f901060600f200f7fc0405f805ea03dbf8fe01f511dc,
fd00ebfefa02fcff0aec0cfe03fb0508fffef00202000003fdf7ff01ff0405fa,
fd01e1fefdf8fb00faedfcff0406fd0907d61a030c02030d00e9f50305fefe02,
fbfd110af805f2f306f71b00fa040200fa06e6fa01fdf70005f103f902fffa07,
da01da00ed0401e500f9f90bfffedde50cfe16fffb000313f5eff211f6fcf5fa,
010106fffff7fefff707e7e4ff040df11006d4ff01f210f612fcfefffefc090f,
0bfbeae5fceeff030cfeefe800f7080505f8f6ec01f0fe02010401fb03fcfc03,
08fe07f708fcfe030dfcf2f301f9fd020dfff1f0fcfa070314ffece1fff7080a,
fd01f40402121c2106070801f9e8f8f2f61505fefaf5fffbf602fbfe06130815,
010300fe0202f8fe0601f70403050dff06080bfffe00ead800180307f4f202f4,
fff9f601fe0f060901f4fd00031e12e8faf3ff01fcec00f2fefe07f7fe08f201,
0a0406fd00f6fc1102f7f3fd00fd0b0cfaf0fb0506f6ffecff0601f9ffe6f5ec,
f2fcfcad30fa09edfa0101f40afb0502fefe03fdfeff0304fd0405f802f3f501,
f8fdf7ccc50003f9e5fafca7f9fdfdf2fafefef307fafdfdf70202ce00fc05fe,
0604faf5fef800f208fffc1ee8ff020602fef70ccf060006ff01ff0de3fef806,
f90eeefefbe316df0007f50af60a0d06f9fa07f702140212fbfd04f50308fe15,
0300f106fbff0af1f7fd0611fa09fefb04f7f7080006f1000103f7f102f00405,
fbfd01feff070803fffcfcfe0502ff09fcf8fd04fb0205f9ff0201fefcf3fb0d,
01fb020200fcf5fbfbfcfe0102080308fc0302fbfdfcf802fdf8020004f90bec,
f4feeef5fef6ef060b00f706fe000af6f9fdf8f7fffef304fafffefcf8fffe11,
f0fbf4f2f9fcf60502fdf30401fff3011c03f3170a0615eb0301fe04fcfef7f9,
0506f40608fcfe06030bf10c010007fcf2f9eaf4fcf9f90b0b01ee0104fb1004,
e1e927f4fbfbfcfa05fefafd0a1cf7ee0116e40401f60405f70209f900000205,
0303f9010a000609f7f50c010dfe0904ecfe1cfd0e0efcfafefe04fcfb11ff02,
edfe0400050406fef0020000020a0306f7fdfbfd0a0801fafb00fcfdfefc0602,
0f07f90706fc0001010202010b0403f7f704fc02fc090702f60205000d0dfdf8,
fc05e8fcf9fb01eefcfef708f8fff90bf2fbf306ef1300fcf1fefafaf50103fc,
0405fffb0300ff010602f5fefffefbfa08fe010bf606ff0d0801f708f10a01f5,
030301f7f709f9fb0408fc01fff7f60500fcfb0809f203fe03060bfeff040709,
000105f4ff0c04f00501f402fef5ff04ef07e710fbea0e12f1f9fe0afe100af8,
09080001fffc02fe0602030309fdfb0201fe03f908ff000bf901080003090808,
0bfefe05feff0bfe0a0bfbf9f6040b020804fb06f802f90403040204f90303fd,
fefbfa05fb1df7fd030100fffefdfe00000104fcf807020006ff0a00fc04fe05,
fdfdfd19d52705e6f6f9f20bdf0e0cfafa0205f415eef901fa04f9fb06ffeb07,
0efb0910ed050cf90800150504f71510f9fb0cf60ff90b0df101eb0aea0cf402,
0a04010801fdfc060209f20afef1fa0c06040406fef400150bf9030304f9060c,
0b02fa0c00f7020a0607fd0400ffff0506f9ff09fafb08120c06fc09ffee0413,
fdfbfbfb04fe00fd0205040408030702fb04fbfe02fbfefa0afa0203fdfe0903,
fdfcfbfc01fefff6ff0201ff040403fc05091704010a0e09fe0304010506fefa,
03000efcfffc010401030701fd020005f801f7fcfcf8fcfb0604050301070702,
f8000806fce2f8030102fcfcdf050107fdf90000fe01040cf70404fe05f9faf4,
040302030306f905ef0801fdfaf5f60aee0ef201f5f9fbf90307fc010001f500,
ff03eff9f8fcfafb0108f9fefc04fc01f40af4fcfa00f8ff05fe00fd0901fd01,
0300f8010205030a0309ecfdfbfe00020809f4faff04fbfcf511eefef3ff0004,
ffe002fc0d0106f5fd02fc03fb03f703fc04f9ff03020100fa0807050c02feff,
fa0600fb0200fb0102ed0503070604fcf61701f8f801fa04faf1eedaff06fd02,
fcfdfefa170a01f9f5ef00e90002f2e80807fef603fbf4f6001405080001fa00,
fc1800f10403f908fff3fbf60405f6fa01f209f9eceff209041113f2eefbf513,
02f7f9f2edf814010500f6fefe0a04fa0001000006fdfd05030ffffdf800fd0f,
fdfbe7fffe0bf8fffaf807f2fd30fc0202fa04fd0006fa010101f904f6e00dfb,
020103060709020a02010306fa09f406fcf7060704fff30704010705fa07f503,
00f1f3edfe110404ffdff4f31206fb0000050d01faf2f107010f0b08fff7f808,
09fff9f8f80cfefa00f4f1f5fbfdf2f8040d0005f9fafd04fe11fbfbf50dff01,
fb02feeffefbf5fcfc0504faf6fcf602fa0bfff3fd03f2fbf90100f6fd01fbfc,
fb0402fefc010001ff0501f801fd0103f90702fdfd01f703f90c05def8fdf7fe,
fefe00fbfc01f000ff0004f9ffff0806fbfe03fe0102fb01fb06fcf6fc00fafc,
fd01fefefefbf6fbfff8020afc01f9f9fe060606fffe1103fcfd0305fa0204fc,
f2fd010ef20a0e0bfbf8fa01f1021e08f80100fbfefdf0f8fa0c03f903fb06fe,
fef807fcf9ecdffcf3fd120d12ee0803f7f9f8fd050812fffb0c07030cfef708,
0400ff0303fd0b07fdf807f8e202e6fe00f8fff00de6edfd00f6fcfd1102f6fd,
fdfdfbf003f4fd0202fbf9f505f5fd0401ff02f300f8fd0008ff02fefffc0207,
0a08050403050008070204f7fffcfd05fff9f9f70200fb02070102f2fbfbf700,
f7faf3fc0001fe030602f702fd17fa0508f3ebfefb0607fb02fc04fb03f10202,
f904ff02fc01fffb0102fffc0002fe0a060e0703fa230108f604f903fb2801fb,
05fcf9fe02020df8f6f6f5f8fcfc170005fc09030100f50802fefe00fb07feff,
ff03f9f6fd02fe08fff8fe02060f04fe01f80e0602e80304080417fa00f3f406,
07fbfae003fd0313fd0203fb040404fd04fdff08fefe00fef401fefefffcfffa,
fafe02effffef51d01fa05f008fdf045ff0304ff06fffe0c01ffffe2fdfd0507,
08020403fe0806fff606070ffd01fe02f700010c04fc0009fc04050dfffd0002,
03fb0afe020d01fcfffcfbfefe1500050dfc01fffdebf1fe0604ff0801e9f30d,
f20108f9fe0d0208ebf8f8fdff06fafef4fefb04fefd04fd0bf8fffefdee0000,
04f901fd00fb0302f9fb08fe02f8fe01fafb04fe04fc000601fffb0103fffd03,
f6fe030301fcfb01f7fa070004fc01ff04fcfe0100020402fbfa030000fefb06,
fffafdf2fbfcfdeef9000105fff801ff0001fcf1f8fbfff2f7fa0000fe0004fd,
03fef6effc06fbfe03f801fd050502fefa08051705fd061d020503fb01020303,
00fdfcfcfe080e0105fff80000030bf801fbfff4fbfff6fefa02fc0a02040310,
03140908f702ea10f51c0c05f802f8fafafdf401ff040dfa070c0401fb04e50c,
0204fb0006fb0101fef50601fafd0911fdf8ef02f7fcfc040802f404fd01fb01,
06f2ea0004f6ff0202faeb0008ff0005fbf7f800fff500fc0400f7ff050003fb,
f80302fe00ff08fffcfe03fd01fe000400faf5ff0201040af6fdfc01fff203ff,
03fa0009f402f702fa0402fdf6fdfbf9010808fdf407f308070401fb00010504,
f7fe0004fdfc05fcfc00ff06ffff0705f40702070e0707f6fb010309ebf2f300,
01eff6fcf8ebfc0100f3f20cfa0afc09ff07fd10fa09fc03010201fa07fefffd,
fc03f1f4fef604fb00f90b10fbfbfaff0613f70c0d2d0206f920f2f3141609f6,
0e06f702fefc0efb0704fe02fdfdf9fefffeff050104fe06000904fa0202ff01,
ed09f8fade050b0ccf08fff9fb01fe07fc07fc060201eaff02090503f9060e04,
0404f8f7ff030304fc05fdfd0700f8fefa00fefbfefb08fbfcff05fb08000ffc,
0c03fa02f50afa0908f8ff0bf2fbf000f7fc00f808fafff8ef01fef6060208f5,
0301fc0ef9fb050c07f1070af2f8f7fff6f80d000206fdfbef01fffdfa0afffb,
0304fe15ff0a0400f309010d0609ff01010e0218ff050302fe06000e0407fffe,
020dfe0a0712fd05fc06fb080004fd00ff00fd09070c01ff010dfc2307020607,
edfd0afdfafbf9f8000703fffe01fa02edfa0900fe03fefafe0a0006fb0b0003,
ecf600fe00fefdfbf9fe040705fb06fd0c0cfa0004040c04f5fc0707060a0af4,
fdfef000ff010cfa0a03fc06fe01ff09eafa09ff02fafafcfd0200fc01000006,
e8fd10fd140c03f0f704ee0a100601f30afeee06f2fffc06f401f9030efb09f7,
000600fe04feff02fdff08fa0805fe04f3fa0f020104ef0b02faf9fdf8f7fc0a,
f8fef7fcedf4ed060003fdf9eef6e7060102f8f604ef0004fc04fafa0100f3ff,
0205f8030a0a07fdfa04f702ff000b04f503fafef1fbfc090001f9ff06fe0107,
f1fd0ffd030300fefcfe070001020000ebfc0aff0304fffef0fa0cfd010200fd,
f10106fb000701fffcfe0802fe0202feebfd0bfb0003fef8dafe0ef90005fcfd,
fffffdf706fffcfe010204fbf501fc01fc0100fb0600fc00f70005fbf804fdfd,
fd02fcfb04fefffe010603fcf5fefc0408ff11fcdefefe00fe01fffaf1fbfd02,
fcfdfffc00fcfa01ff0204f4fe0205ff0204fcfb0300fd000003fdfcf20100fe,
fffd01f00cf90afcfe04fef701fef6ff060206e8f402fcf802fbfffffeffff06,
06fff7ff09fd0015fdfc04f802fdfd01fc0301fd07fcffff0103fefafd0006ff,
0305fbf5f80502fc0c02f7fc0e00fc02fc0104fafe0505f80902fffc0504010b,
f5fe0303f90205fdfdff02fbff0202000cff020209ffff0ff0f606fcfa0405fc,
01fe0200ef00fe03faff0502f80100fffc01feffea0402fe0102ff01f502ff04,
020201fff0040304fcfffd01fdffff01fe020005eafffe0000010402e60302fe,
ecfd08f90102fffc05fafeecfef707f710f3e80100f8fff5010200fff7ffff03,
00f40c080000f9fe0cf2ec02020df40109fcfffffb03030612f20a14040af002,
09fc15f0f7f7fef10ffe10e903f8f9020bfbf602ff03fd05f7fc18fe01fe0605,
0603fa020501edfd01040eeee9fef1fa0a0a05f8fdfbf5050efd06fd0b03fcff,
fb020510020c0206080303f409fcf4fef80426eeedfcf1fdfd0728fb04fef8fb,
f404150afd0103ee0201fe0702f704eaff0307030709fdfcfa020615040efc18,
06fcfef4f5f1fb04060002f2fbf100ed0e02edf304f6ffdaf10101fcfef802f9,
fb000109fd000301f900fd0003fff705f903fe0804020704fdff0400ffff0903,
f9fb000602000002fa01fffd00fcf6010002fb0501030201fe03fd1203041303,
05f9f901fbfb02fafb06fd03fdfdfefd0102fd0001f506fdfc0002ffff010005,
01010104f2fb070004f5fe0d07f9fa02f501fd0e02fbe700fd05ff0ef5f8fbfe,
01ffff0105010307fc0302fefffe020a01fefd0302f803fdfa0d0406f7f9fbfd,
ff01010507fdf603fdfc010408060306fbff02fc01fc020802fe01fd03fdfffd,
eaf1000ef802ebf4fb0404fe04fffa02f80100fd0907fc01fcff000006fa0003,
10fa00f8fafb0300fbf2fa02ef07e5f501f70605f9ff07fcfff70001f802ee03,
0c0203fc040615090e0501fb030011040005fe020104f7fb04fe02f802f910ff,
01f80003fa04fe040106fffe03020002fa07fffc000004020002fe02fe010004,
fbff0200fd01fc02ff030203ff00020102060004ff000003fefe0604f704fe02,
f6010bff09fff20204f60d0001eee5fa04f101fbedf8f0ff02fc0002fd00fe00,
fd0f01050a04040906050b0a020d0afb0207030efef8fdfa0b01020afd010a03,
03091ce30ce9f6f6faf91302fbf3f8e9fdfefe04fa0b0705ff00fe03fc040108,
000b24ff01fc02f015f822e000df12ee05001afefaf30eecf606110403effdf7,
010801fc0803f400fbed1109effbfd0102f215e700e606f5fd0d12041df1fbfa,
0105ff020504eefdf709000106f9f6030504fffe040df4030b0400ff0b18fd02,
fcf8fd12f7f30dfb07e1fe09e6f514f9fbff001205eb0cfff9f90001fa02fafe,
0202f902fe06f90a0202f803ff0202fc01fcfd010202fcfd020000fe0000fc03,
0000fa020201fc0404fdfd000002ff0401fdfc010207fffc00faf9000402fc04,
fb00f90303fffbfff5fef9010501fa05f602fe0203fefcfd00fa01000403fdfe,
03fe03fd0106fafe02fbf502ff01fcfefff8edfd00fc00ff00fef5020005fcfc,
fa010405fefd02fd02f9e9fe0101fb030400fcff01fefcff0cfbfcfe0001fb05,
06f70e1506fcff0401fc05ff00f9fefdfffcdefcfefa090203010e1001fa00fd,
0207dcfdfcfefb01fbfaf900fd07030103000405fffe02fd03fefafef8fb0002,
0bfcf8f603010407f907e4fc0306fd0505fefaf1fefd07030a03e8ec0102ff05,
02f40ff6f9f90502f5fafef8fc0301faf106f5fbfb09f1f80cf909fcfdf907ff,
fffe050000fb00ff0101ff05fd0001fe04fd02fcfefefd0002fe01fd04010100,
fffc0101fc00000002fc0301fcff00feff01050002fefffcfefe01fdfbfe04ff,
fffbf9f5fbf217fd0bf8faef03f717f600fcf5ef04f3160603fe00ff00fdfefe,
f7f90402fef0fe02ebfdf801fdf9f6f9030602f907f7fa00f0f7fefefdf1ee08,
07f7fef903fe13fe00f8f6fffb020d0ff7f9f8fc00f8fdfc0bfc0ffb09f907fb,
f403fb04faf9f606f5ffffe706ff16fcf70bf8fbfefffe0efbf4060cfafcfc06,
01f102fb01140107fffee9f80308f3f60bf2eff204f90d0e02fbf4fafe030211,
0702f6f400f8f904f908f1ff090a0b0005ee1305fefef607fdee170cff0bd4ff,
0313e9ee02f6090a0f0edbfa07ef14f9f90eeb01060201020106fef2feef070a,
0206fc03fcfaff0601050300fefdf7030105fe01fef605fb0406fdfffdf70803,
fe03f7fefefd0001fe03fafefd00fffeff06ff01fef606fffd060003fbf50800,
0002010800ff05fd0102fefeff090302feff0205fd0004fc0001fcfffeff04fc,
fe0104050bff010201ff00fd03fffffafd02f6ecf70af50b0105fafefb01fc02,
0101fafc010100fb00fcfeffff0c05080000000507fe0402ff03fa0011fe0203,
f702f4f7fa020afffefcfa02fefe02f7fffa08050007f903fb02fb00020607f5,
fefd0af60405eb12ff01fe02ffff0ffefdfdfd01fb0102fffcfc01f9fe02f904,
f905f800070307fe06f8fefd0b05e9fdfefdfef902090902010503fb0e05f3fd,
f9030109fdf210fdf1070001feed0005fefffefd03f5f608f906000200fc1808,
fb02000700fbfcfefc000402fef9fffe00ff0104010005fe020103050205fdfc,
fc0101060202ff020003ff0401fefdfff7fd0306ff00fcfaf8fe0508fc0501ff,
02f5fd05f8eef9f909fbfd0300070a0903f4fa010a0a05f1feff010304fffbfe,
f3fd01f9faf8020406f00bff0301f3f426faff0d07fbfc0afaeb0bfc02e6f7f9,
fefeea09fd0efdf9f30aee070606f9fdeff604f90606fd01050002fdfe120afe,
070cf0090908f6f8fd06f609fc0d0300fb00f406f5040103fb03f004000cf9fd,
fb0101fb0204fc00f30801050f20f7efff08e60d0115f4f9fb03f309ff13fbf9,
05030104ff0413f2f5fe0bfff8fb05f80304f0090409fc010500ec0804f9fbeb,
01fb0d0001f2020af3fb11fbf2010802fcf70bff00f70307010304ff040300f8,
000404f8fb03fbfa03fc04000701ff01000210faf704fd05fe0206fdf801fc00,
020309f8f9fffef9030001fc030400fe020109fcfb0400feff050ef1f2fefdfb,
01fefd05ff03faff02faff06fd06fa0103f70309fc02fffd060205fcfbfe02f6,
fffd0302fb03feff03fbff02fe03fb010101040505010110fefb0006ff030001,
05fe00f8fafbfe03fa05fffefcfc010202fcff0004ff01fbff010000020502fe,
fffafa03f602f9f4040106fbfefa0303fa0b04ff00fe020d06f9fcfbf9fff8fa,
f004f5fa00f5fdfcfe00fc01f6fe03f603fcfffeff05ff04fe04fffe0002fd08,
fd01fcfe04050700f9060201f4e7ff02fb01f7f703010302f202ecffff080407,
02f602fcfe0101f406f70afe02fb03fa01ff010001f5fc0103fcf8fc030608f5,
fe010000010102fd01010005fb02fd0002fd01fefdfffcfc0000000100f90204,
fc0100fe02fefefefdff01ff00ff01fc050101fffeff02000302fbfe02fcfd02,
08fc04fcf20114f90a1de5fbfc001cfcff1ef6fbefef02f7fc0000ff01fd02fe,
05f201fe02fcfdfa08ed180509fdfa070c010f010507fe0d09fa1201fffced06,
0aee05fd0104ed1a01f607fe03fff20efefcfe00f7f7f100fdfaf706020bfbfa,
03f207f9f307ef06fde707f9fd01f01afae412eef5faf40904f601fe0401fa0d,
04ffff04f8fe00f7fc0d00f9f80cef14fefb01f7ff02f51105ec02fb0102fa0f,
f702eafefd0000f300fef10a05f901f7fe08ff0afc0105f70b020503f8fdff03,
fbfd00ff0200fc0cf700f9010704fffcfff60eff09ff00060207e902e7fffffc,
05050100ff00fbfc01050001ff00fafd02fe0004fc0600fb08ff00fefe0309f9,
0706fe020001f8fc0403fe030100fdfa05020004fc05fdfe0a000000f904f9fb,
02fe0001fe04fb0101fe030005fff8fc01fcff01ff07faff0607fe020100fbfd,
0000060103f801fe04fcf206fd02f4030205fdf9fd02effb04000704fffdf7ff,
fcfbfcf9f6050000faf7f3fef70004fafd01f3ff0401f8010003f70003f4fa00,
09fcef03070408fe00fff804f404f7fdfd00effdfffbf5fbfe03fdfc0700ff01,
0d0a0a0007f5d7fc02faf2fdfe0707fd03fff9020102faff0102f80102fcf7fe,
08fe0705fdfbfcff130a15060df4d502fff8fcf5ffff07fa0a0303f503f4ee01,
00faf1fb000515fa03fdfe00fdff0cfc0b060b06fe04ea02fffaf6f3ff0b0dfa,
0100fd01ff03040301fefc040405040200fcfeff0200080300ff04ff00020301,
0302fc00ff0304030001fb060006020403fafb01ff02ff0204fbfafc03000502,
fefcf404fe09f5ff06ebf9f9fd0406f60f000500f8f6fbff03fdfdff03020103,
ff07fa02fc05fcfcfc0f0101fbfdea01060c04061201f4ff07150207f7fdf901,
04f902f707040bfa09f20cf8fd0004ff05090502fd01f0fd06f5f5f70802f6f0,
0c15050ef002150b0106f8faf4fc1ffb030e02fef8fb11010406f806fb09fefe,
010003050001fe0903f7130009f60df502f40a0106f819f7fdf3f802010209f9,
fd0708fe0ffcf3f3f6f3f5fcfffff1f00001040e02000f0b0a0a1214f50a0c11,
fe09fbe7fa00f600fb0adbde03faefecfb08f002f505fafa02f602f006fffafa,
fdfdfdfdfd0002fd07fefefefd05ff02ff01fafa030d0403fd01fcff00120301,
fdfefbfc00fc01fe04fdfdfffefd02fdfc00fdfd010b0406f2fff8f6010a0101,
fc03050103fe0004fe00020700ff0101fb04010300fe0300f60201fc02020101,
fc0001050301fb05fbf9050c06fffefa01ff01220303fbf60008000e01fe0004,
fe03120005fdfcfffcfd0cfd0604fd06fefd020605fffe01feff041400020101,
04fd17f5f6fe00dcfef91d030305fc02faf805050804fe2202030dfdfe0101f8,
0dfe030202fffb0a01f70efdfe03fef302f90d010102f6fd06fb08010102030f,
fbe90bfd03000b0707fc130a08fa0807fdedfe0704040b0c02fb070107060f0b,
fdf7fef9fbfe0501f7f805f8fd04fbfe04fc0a00fffffcf6fbe9f8fdffff0707,
010100f90300fff900ff01fdff0001fe03fdfefe04f8fffcfffffffa04fc0100,
ff0301fc010102fb0002fe01ff0200fc000000fbfffffffafffefbf5030004f7,
f803fb06f811fa0406edfb08020f010d00fe050101f3f202010200fe00fbfefc,
fcfaf7f9fe01fff8f50b0605fb0afc0007fe0805f6fcff1cfbff0301faf7f900,
0a02f8fafb0afcfe07fe00fdff0200fef707fffb00f300fafaf8fcfdfef50a08,
0f0c0cff0018ff00fc04fefb1508f1f70510fffe01fcf9f90f0e02fefd1802fd,
00030a0305fdfffb122606010702fcf51110f7fc030bfef8050af60205f4fafe,
fb010105ffe50002fffef2fffff80b0f010c070005f600fbf517170906fd00f8,
0cfcfff8f90a030a07e4e4fdf7fc031309f8fbf8fb080e1202f90104fe010706,
fffb0906fffcfdfffcfc0e03fffeff02fff405fffdfb020101f90402fefbfdfe,
03fa0400fd02fe00fefe0c02fefefe02fcfb0900fdfffe01fdf300fefefd00fc,
ff04fdfc0202030101fff9fe0402010aff00fcf902010106fdfc08ff000000ff,
ff0001fc03fd03f9fcfffcfb0804f80402fe030605f9f807fc03fc06fcff0908,
f9fd0401fe03fffffcf701fdf9fafa02fbfefcfb0303fdfafcfe00fc0602fdf1,
28f8f7fafd080201f500fbfbfc0107fcccf5fd00f9fdfc03f8fdfefc01fffffa,
05ff08fe0702fbf611f8fdfdf804020301fef7fbff05fefae8fc00fb0102fd00,
fafff1fd0206020aff0202fe12061000fcfc0100f900ff0bfe030401ff05ff0e,
02fefafbf2fbfa05f503f904fdfdfef7f702f9fd0b0507f806faf7fdf1f7f80e,
0304fe000004fe0104040100000103010601fefc02fcfefd0201fbff04010202,
03fc0000fe01ff0200fffffbfcfc040104ff00fefafe030206fe0403f700fbff,
0d06f0fbf6edf9fd1c02fd08f3f4f5080e0efa0afaf6ff07fdfffefc04ff0401,
0602fb02fef900fcfb0afafd09f407e9ff05fefe07fd0600f70e00f20bfa0bf1,
edf90104fb06fa05e9fefe000f080606ff04ff0304f108ff05fefd06fcf3fa10,
e9fdf4000dfd11f2ec040410fb00f1f7e6fdf70003fa08f2e5fbfcf0fb0003f3,
02fcf805020308f7f3fcfcfc0e06fef803fffd07f2fff80700fbf7fcf4fdf9f9,
07f3f30a07f9f50403efe803f7f0f6040604fc07071407fefb0cfd00111514f6,
000306f2fa030408feee0200d3eae61100f0f7fdf3f6fe050cfcfdff0111f504,
f903040112fa0904fafe0800f2feff00f90602080100fd05fb0101050afa0108,
faff010901fffbfc0402fe090afe06f904fc0007e506fa01fa00fc0e04fffe04,
00060806080bf902ecf810fd09090003f6fb09060006fe03faf6fd05ef0205ff,
0201f6ff03f6fb01180bfbf5f6fbfdf2fb08e906f202fc01ef0303fe0e08ffeb,
fb0308fef9f6fff6fd01fcf5fcf406f703fc12fdfef903fc21fb0000fcf9f402,
ff07f20501060105060103f7f7f505f2040000f4fef604f5e607fd12050504fb,
f9030d050703fb000005f9080206030bfe0203fcfffc02fd04fefff606f703ff,
1bd6ecfd04fff50f040405fe03faf60bed040500f60609f801f8ff01f50e02f5,
0cef020706f8fa020ff8f50b07f8f709f8140301fdfc03fd01e20903ff000afe,
0304020201ff0102ff0101fd02fb00000200fffa02fe0200050102ff03fc0105,
fb010700fc0305f804030204fd0001fff700fb03040302fbfb01f8f9ff0502f9,
09fa0a03f0ff03fd02fe01f7020600fafe04fb0b200bfbfd05020200fb010101,
050006071501fffd05fd08feea00fdfd03f903f4f904faf9f906fe0822060100,
01ff0205fbff0600fc0204010205fbfbff0003fdf20000fe01ff03fb0000faf9,
fdfa07ff05fd0500fffefff9fc0203fffa11ffea04050006000100fc03fffe02,
050003fffdfef801fd01040301f904fefdfc00fbfcff03010501fffafb0105fd,
f313f60d0a041403f8fcf801fd010b0505fb03f6f801fafdfffc07f503fffffe,
01ff05fbf8f8fe0307fc000600f20d0505fbf9fef7fbf901fd09ff0cfd020b01,
06ff040d000605fdf8fbfefbfa01f600fff7fffdfd0102fb05fd0207fefe0af9,
fbf800fefb0102fef9f9030200030300f3fdf9fdfdfbf4fa00fa0104fd0506f9,
fdfffc09020504f8e904060c06e504ffec0908010ef40dff00fc0200fefefff7,
12f5fb00fd0dfcfe07f5ff0bf118fe0606fd0005f705f9f9eeff010200e70cfd,
040d02fc08ff02fefef80207f60004f801ff0214faff040907eeff09f315fd04,
fc0700fd0e08040703e901f9f40105fff7ec0204f4fc06fbfd0b00fe1704f910,
f702fd09fdfc0207f70000f8020bfd0507ea01f9f2fc060002ee0203f3fa00fe,
f604fe01fc05170315f5ff08f604f602e502ff040afbfcfadb08fe0406f70600,
0803fdfffc0505fe1fe9ef02e81102fd0af0f007f708eefcf109f8000df801fc,
fdfff903fe01fe02fc01ff0900fc0202f9000005fc00ff04fe01fd0201ffff02,
fdfcfb0705000102fd02fe0300020000fe01fb0b03fe0306fdfbfd0405020505,
fefd010bfbfdfefd010100f6f00305ff04fcfffcf1110507fdfdfc0dfc05ff01,
020801fb03050100fc00030af7fff1ff030907faeffb01fc060ffdffff0a1002,
ff0300f70bfafb02f90102020afe0105fc040305fafafbfdfe0b00f4fdfb00ff,
0002fe0d03020004ff0500fe010204fffa0100fdfd070402fffe000a01f9ffff,
090302fd02f803f9fbfefd0503010409fefdfaf5fe020000fe00fffb01ff01ff,
f0fdfd07fe11fd1300fe0102011609060601fffe03f902f4fc02fc06fff4faea,
fa01ff0cff08010af801fb11010b0115fc00fe0c01f80509fffffbfdfe02070e,
03fafbfa02030502fffeeef00008fd00fc0305fa020200fefffe0100ff01fffd,
fb06fdfb0609fbfe00fbedfb0102fd020100f2ee030b01fffcfe10f9020cf3fa,
070800fd180ffb01f40ffc0bee09f7fffa04f707f402f60304fd06f803020007,
06f60ff517f70cef0bf9f7f81cfe090c13fbfcfb180300fef30ced020c08fdfe,
05fc04ff01070bfc0608f8f2fffd1605f6faecf7f10903ff05edfee9f8ec0a01,
f804100aff0bd9ef0400ecf200f414ff0806f2f4fffd0f02fb000f12fc13e3f7,
030201fe03fb05ef0001070203f9eff907fbeff3fcf80ffe0702f6eefb031001,
f3f0f5f8d8e8e6db06edf4fc0df60de50505f7fffc040e05ff0d0009fbf9f6f6,
f40000f9e9f8f8ec03eaeee7f0e302ba09f4f90311f607fdfcfaf605d8f7fc0f,
fefefafffe0005fdfdff0507fcff010200010502fffe0202fffffdff02010100,
00010bfefefefcfffffffdfefd00ff01fb000405fefdfcfd03f915fbf8fbf9fa,
fb01f30301f90406f9fd01fd06feff0601ee0905020500fe010202fd01fefd00,
f4f6070502fcff010604f003fb010504fc02fb030003fb00f2eb0b050201fc04,
fc03e40706f6fe0208fcea0603fa05080604f803ff0303010102fc03fffcfd02,
fdfcf4fefdfd10fefcfdef08fdfaf10103f6fb15ff00f305fc01f80900fc0500,
fdfd02fa0608f3fbfb01f1f7010308fbfc03f0f50305f9020dfe0c0b0700f70b,
0701f5f7ee010001fb02fcfaf801f8f5ffff03f90201f90103f7f9f400050101,
f903f60400070002fa0cf208f7fd02fdfa04f804fafaf8f5fc01f7fefd0001fc,
d9fb10e9fc0700fd0bfd01080705030601fdfefd03fb05f9eefb03f9fb0603fe,
fdfb04fcfc01ffffe80306f90204fcfe1a08fd1706fff90602fe03ff00f600f9,
0bfcfef4080dfef6f7080ff2ffe4f726f70809f7f1f7fa1610020206ff000105,
1001ed0106110df5fe00f607080f14e20ffeeef90d2513d8fa0109f402fcfa1b,
03ff0702fd090202faf9fbfc00040d0af7050005faf4f5070104ff0c05fe01ec,
05fe04fb02ffecf2f5f90a00fd0f0605f6fbf8fcfd080d0a0b05fa03fdf2edea,
050709ff0002ff060800ff000603f7f2fffb06feff0aff03faff01fd02060207,
f8050803020cf0f502f6fdff012106fe04f90103fcf20308fe06060400e8f90c,
f70107f8fb0500fcfa00fefa081706dffcf9f9f906121efc01070601f9e2f90a,
ff0002000104fdfe02fffb0200ff02fefffffc04010206ff010101000101feff,
f6010100ff050000ff00010001fefd02fc04fb00fdff04fbf100f20201f80bf2,
f6fdfcf1fc09f1080002f7fb0508fd000004021005f51cf8fb0202fe0001f9ff,
00fdfe0900ff07f9fc00fdf2fa06f4070003fdf8fefefa01fefeff100cf915fd,
defc00ed00fe05fb0f06fd0bfe0307fefeff02f6fd04fb04010500f70002ff00,
bbfb07ea00010102e2fc0bf6fefcfff97f0dc824fe0101ffe7fefffb01fd0504,
05fa020700fb05fad7fc03f500fd05ffebff08f8ff03fe032901f1080003ff04,
0a13ecfb0305f2fffd08fffcff05fbfa09fcff06020003fd0803fe080002010b,
f9fbfffcfdfa09fcf4faffeefefc07f9fafefcf9fe0209fafa02f8f90300fdfd,
fff4fb0400f8f4fef506fd0c01ff0700fe00fd07f905000202f80201fd02fe02,
fcf8fe02fd0202fdfdf7fe0107faf5fafb0f020efe060a04fafc0106f6000003,
fefa0300f1f2ff07fae41dfa03fd0afbf8eb08fafe0a07fd01000103f8080dfa,
fe050213f9ff0205f915d30500eef601fb04f20df4f004fc06e71bf7fe020104,
0b01f306f704fe01fffef60304fdfcf5fd0eff0311fbf60ced1bdb12f9f8fafd,
100202fff200fc04f811edf603fbfcfcf804fbfc03fbfdfd11ff0806ee04070c,
030005ffff06fe06060500fcfdfbff08f609edfe01fafe02f900f5fe05fdfe03,
f7fff010fffb00080200fc020c060005010213f5020105f8f90120f5fb03ff04,
f9f6f50806fdfc06f900d31801fd051306050a00fffd03fff3fafdfbfe06fee8,
0003fd0501fc0002fe00050202010102fc02000200fb0103fd02020201fcff04,
fb06fd0200fe04ff01fd01020000fc02ff0a0302fbf800fff903f901fbfb01fb,
f9fffdfd03080202fe02fb00fd020101f90502fef4f700f6ff04fffef9fd0101,
00fefc01000103fefcfd03020bff010d00fd0000feff02050301fdfdf00404f1,
04fffcfcfb0304fd0e03fdfffa020504fdff02ff0304fb03fdfdfdfe0000ff01,
fffeffff05ff02f603fd0300f1fe02fb07fe020009ff090700fefb010a0102f6,
fe0d0a00fbfe0c04fd0001000302fcfafe04fbfef6fef8f20308fbfff60002fd,
0007ef00f7fa02f907f302fef9f601fe030f040506030d010125fdfcfe002d04,
fdf4050800f6eefcfedffd0703f9d2f104f2fd0109fdeefd010cf8fffcf6f9f5,
050104fd01fef9fffcfa0604f501150302ff0b02f700fdff090206060400f700,
020004050001fd0003010306eefeff00ff080906f7fe0b0005020c00f401fb07,
07fe0a03f404f7fffc07fc010701f3fc0502fa08f703f802030704060aff01f8,
06f509fb020306fd04f505fc01f6fff9fcf115fbf600f0f8ff0bf8fc0001f2fc,
fc03f6ee0a06fcfb04fdf6ec02f900f9ff11edf1f7fbf207ff0501f7f3f70204,
0210050ef90cf507fbfcfae802f9fdf602f5fde902f907f703090513eb10f908,
0003fe05fcfbfd04020e0706fe09f803fff8faeefffcfbfdfcedfdf604faffff,
f7110a05eafbf410fa0108fefcf5fc050100f4ff0606f8fc010afd0af707f901,
fa0702f3ef01fe07f3070aebf7ed0d0dfef609000d0005fcfe06fa0b0f07fa09,
0300ff0104fefd000102fe01000001010103fefffffeff0004040001ffff01fe,
fffbfcff0201f9010105fd03fe00fafffefe040000ff0aff01f603f8fafefe06,
f90b04fd0703f5fff7fb070001fc0301fcf510fcef0004fc030400fe0200fd01,
fefe01fffe0100fdfc0afffe0101f4fff90800fa000101fffbf413fbff060703,
f1f8f8000304fcff0502fcf8f20512fefd0702ffff08f801fc0401fdfe040200,
f7ff05fdf9fef503effcff04f6ff04fc0dfffaf90bfd0700f60402fdfafdf302,
f8090308fe000601fff80402ef00fc00faf8fffaf6ffff01fe14fcfb12fcfe05,
fcfa000514ffeef7f8030604fb04fffff90a0307f9fffc04f70dfcfff2fdf509,
0405fbfff4fff5f901e9ff041202eef7fafefdfff504fb01fc0cfd07fcf9f4fd,
f8ffe000010004dcff02eefb09fc0417fe01f10205f9ff0100f8ef03fe00fbf2,
01fded000001fb0102fff801020903f20406dfff090200360101d50402fbf9fe,
04060801fcfc10090bfefbfffa06e6090600f601f903f8070300f1fc0400fb1e,
fd020df9fb0706faeefefdf5faebfeff03000ff5fffc0bfc0bf3f405fd0ffa0a,
fef2f7fe00fd01fe00f6f8fcfffe0303e9f7f408fb0ff9f3ec0b11fdfb0200f4,
fe0406fffe0803fb06eff5fefefdfb0901f8f5fd0406000afe0a0406010902ff,
0703fbfe060202ff010303fdfb0700fe00f3f900fc04fe09fff9fbff0204fd09,
030a1504060eedf703060d0504fc0c0404f9f1fdfd08010806f7eff40008fc02,
ff0f0804fe00fefff804130b06f70203f3fafbf905e8010503f2fffcfc0aec05,
ff0200011102fbfd0000fe01080306ff0200fdfe11000701010300ff110100fe,
0805fafb0bff06030105fdff0e0401fefc0c0000fa0007050204f9fe49f60e03,
0202fa05f804fefe0200f8f9f6fefb0102070ff500f4fe0a030501ff08030503,
040503f9fdfcfb040601ff0bf90807f6f805fcfaf902fdfd010cfff5fdf7f70e,
00fef5fa08fffd00fffefbf800060dfd05030300fe0402fdff0100f8fb0201fe,
04030c0001fefff8fc0208fa05fbf8fcfefc0903fd03fefc03fb03000301f101,
f60204010003fbfb03fe0c020000ff01fff80ffd000400fa04f701030400fafe,
0cfefa0d00fa0007fefff403fe020205f40306fe0104fcfbfc02070afffff5f8,
00f8f7f7fefb000b05fdf5f8fdfffc12000105f4fb08fa0cffff0503fff801f8,
14fa03fffff8f7fe0001f6050406fffd0204fc0304fd01fefe00050102f3f8fa,
ff01ff00020400fd06fdfdffff01fbfae104ff0b050103020907fff505fa03fb,
fd04fffb07130c09f5fb0ffdf3faf8f3f1ed08f7faf3f0eff70304fe0601fc04,
070aec0b0f1b0b0c0af9de020bfe0507f50edb0a14111410eee70406f6f703f9,
05f201fcf7eb0108fdfa0508f4eeed04fefa0702f2f1eff8041be9060a120102,
0200fced0dfe0cf8f7f50407f8eef300fffc0404f7f8ec0408fcf9f5fdfa09f5,
fa0200f602fbfbffff05f6f30e0408fcf6000400fdf8f40402fd0103fafdf508,
fb18f1d60e1807ef0009050d090801ff08f1fb0af3e5f7fc04f5f4f5f5f60501,
ff0c0805031601f1fc1bfb1c0d26fcff00fff923030a060aff07f2f9fbf4fdf6,
ff02fe0101fefdfdfffe030201fd0300fdff0103ff00fd03fffeff02ff01fd00,
04fcf9fff9fcfd0400fffc0100fcfe0100ff0200fafefffe00fefcf5f9fbfafb,
06fe0606f4fffd0aff02f3ffed06fa0ef0fef6fcff0a08f4fffe0102fefeff01,
f70100fefb00fffe09fe0b0cf601f80502fffe04e4fdf9fbea02f3f7ed0307fe,
f502fc01f9f9fefaff00fa05f6ffff0303fd01fff80300ff02fe02feeffefcfc,
fe000700fefd02fef702fcff020404faf3010702fc000103f60109fffefafefb,
020704ff00ff04f9fafb0afa00020201fffd03ff000503050002fd04ff030101,
f005fb00fff90000fa00060203fafcf5ff04fdfbff02ff000bfe04fdfefdfbfe,
fb0507f500fdfe04f8fc03f9fffe0404fcfd03fffc06fe02f907f8f8ff0205fe,
1dedf90201fffc0ce10d09ff04fffdef0302fc00f702fff717f4ff0202fbff17,
ff0003fd06ff04fe07f7fcfbfbfdfe04df0b00fcfd0800f20600f7f907fd02ef,
f9f804010a0306ec07fe01ff0b03ffed08fdf501f7fb0410f906fe00fb010101,
0601fd06fa0003f9fbfb0205060206f4fdf9ff020c0008f108fffe08f6fefd03,
1405e2ebfef90905e6030012fb0501f0fd000402ff0402f8fdfffbff010504f1,
14fdefe705ff0400ef07fb0702fc09f4e605180d0400f7f903ff06fc01ff0206,
01010605ff08ff0109f5fcfc07f8fff9dd09060efa07feeb0309030bff06fbf6,
f809fef4ff0306fd04030101fd0101fb050003f8f903fc02ff020afbfb010506,
05fe00fffa0201fe07ff00ff010701ff01fcfbf7ff0100020000fefdf50101fd,
fd02fc0b110b0af3080000f7e802fd03f8f907f9f70601f9fdf90a00e9040301,
01fafb130f0315fcf8f8fe0c0e0b19edfaf806f3f80402fce9f2fefe1b0b0eeb,
fd0103f9fffffe010105fe07db0302010003fc0311ff000404ffff00f1060800,
fdfe00fd1bfe02fe010100fcfa02fffffa030304db030101fd0102ff0e040003,
f10befecf7fafa0bfd0301f7fff2040f000200ff1dff02fefe01ffff13fe03fd,
fa0a04e9fce9030500ff07e200eefd12ff000b0309f40404fa05fceafcf30304,
f7fdff040105f902ff000304f6f607ff03fc0a06fffa02f5fffdfd1301fc02f9,
fdf4f803fa03f0f8fffd02ffff02fbfb07f9f8fc0103f502f8f7fe06fe04f0fe,
03fff1010203fc0001f6f2020105f5f8fcfeff03fffefe0405fbf700fc05f7ff,
01fafd00fa0409f902fffe0bfffff606040afc0b0704160ffbfbfd05f702fdfe,
edfd0502fbfef2fff4fd04fffd0005f70204fb070bfe0506f3fdff06fcf6ff01,
feff0106f805ef0501fdfef5f9fdf903fe030103f80711f7f709fd0203fb03fe,
0008f9fefc0809ff02fc010afe02f80307fe04fa00fbf50905fffd03fd011200,
ece60aedf0f5f1e80908030a11fb0205ff0000050100fa070102fef60104f902,
eefb0008eff801f406ff03f60dfef9f20118fd1511000c0dfafefffff70004f3,
0101010500f80102fdfd020cfffd01f40918f9fb11f70e0c0403fb21fffefe07,
0a05050cfbf2f5f50bff0305fefbfd01030003070003fdfd0000fc0801fafffd,
fd01000200f8030302000104fefc0204fe01fd000202070304fd0203ff01fcfc,
08f8f612f3fff515f4fb01f3fef70406f201f80603fd0104f003fd0103f406fd,
06f9fd1ef71809110702fe18fc150b10fb01f6080a0a02080903f31bfb17f20f,
02fa040bf504fc0604fc0407fbfff60300f1010701f800fbf906f50c05f90a0a,
fdfcfcff03fb02fa070c0107f20102020101fe0312ff01fd04f4fd0300fd05fd,
fdf8fdfdf9f14002f308ff0208f4f4fffbfdfd02fcf807fdfe00fd03fafa03fb,
f8f90309faf40107eeec0703f3e632fcf505fb020bfae00b06fe000d06f00f04,
fd04ffff04fafa04fa02000a0008f504fbfd0001f901fd05f70f00050b0edb05,
fdfe030ffb0009020301050801ffff01fa000102fd0602fdfc02030602040301,
010002fe00fd0108fefb0203ff030b0003fe03ff0105ff010301030bfa010703,
03f3f7fbedddf8f3fdfff80b0810050300f009f9f40cf305fff7f5f8f3ec05fd,
051403fcff050b000407fefcf8f6fbfbfd00fa0d0c1ffcf6fd08faf3f50a0106,
0affe9fdf7f7150f06fcf5fa01f70004fdff1f0d0b00f6fdff080402040b00fe,
000208050107f1fc07faeefff6fd0808fcfef3fbf2fe04fb03031908ff04e9fe,
ff12e1f9f703120c08fe1418fa15f6edfbf9ef05f9ff0600fbfaf401f90300fa,
0209f1effd011116fc00f116001403f8fcfe1103f9faf4ee0405f4f2f9f80907,
05fb0bfe09010001fd00fa0902040e05f8f61c07070cebe4f8fbf3ee01fa00f5,
09002df91404f309020114fb0605ff0101fb040107030404fffb08fd0901fcfd,
fefd03fc0001000002f80df803010a0100fc05fc0203ff04ff000ff907050005,
05f6f2f00af50b00fa0d0c080603ff02ff0803fd0b04fa06fe0b05030ffcfa08,
00f9d5effffa02ea07f6e5fafafcfde900f311020104fff8fcf5ede803ff11f9,
00fc0001ff0106010b000206fe0104fff90306040102fefefefc05fa0001f7f1,
fa09fdfc01fcfc00fef9fd020202fb01f9f6fbfb0003f801fc0501fffefefefe,
02fb050bf912e410fe0509fcf907fcf0f702030104fefc03f20102fe06fbf904,
06f2f916f90cf403fefaf112f30dde0c00fef301f71111f407f61415fb0ce8fa,
01fc00fdfc0300fe0cfdf20004fb08ff0602eb03fe02000005faf802040411fd,
f0fcf0fef302f1f204080200000002fffdf5fa02fe03f5faf1f7f602fb01f3f7,
fcf508030801f8f9ecebf6fefbfaf9ef01fa0603040203f2fdfefffffefff4fe,
fb0900fe050300fafdf701fffafef9030c02f707040100f3fc0702fe0407ffff,
f90104f9fdff0c03020801fe05fefffbfaf201fff90102fcf30106f8fcfdfe07,
ec000109f9fdfb12fb020405000c02030dfdf0f80b020de606fffafd01fc06fe,
010104ff00faf9faf0040305fbfcf608fa020a00f601f8fe0cff00f70201f8f9,
f3f308f8fb14ff1f06faf60109fd03fef3010902f9fffb02f90206fef801fdfd,
fafc01fb010b0312f9f0f8f200050107fa000c10f8e2fbdff904fcf603fffefa,
fc000300fdfc01ff0400fbf600ff080d05faf40400eefde201fcfd0df104f2ee,
0a02e7fe050205f8f101020100ff00f5fbfc0400000101000302f20100fdf3fa,
05fa03ff02ffff03f7000bf501fbff02fdfe01fffbff0100f800010101fa04fa,
00f305f8f10606fa07fef3fe08040c07fb030901030114f301fffbff030a17fb,
fffa0ef5f7fbfdf200f80afaedf7ffee070000fc07f902fdf1f517fdf0fb08f2,
fb050305fd00ff01e80606110900fdff0001fc030301020105f905f908fdfefa,
fd04fefdfe02ff00f403030b010200fee802041803000301fd020305fdff01fd,
0503f118fcf7fdeef60304f2fe03ff050302fd08080102000003010a000202fe,
fbfefafafd0f09fcf603eef8ec0a00fdf40401effc0304f60005f503110204fb,
fefd0000fcfaff0502fd050406040006f8fe0afc010403f0fbfd060808fc0000,
fcf504ff00fafef00300f9fdfffbfbfbfcf805040207ff04f7f5080701fe05fa,
06f8fa0103fcfef501f305fe02f406ee0200f7fffdfa04f501f904000507fef8,
ee01e710040e040209fd16f3effb0d0804fffefefaecff0ef207e60c0706020b,
fffff3fc0302fcf4f7fcfc01fc0102f7120523f3ecf303fd0c01f60000f4f700,
f9fef7ff070503f6f709f403ff0402fd00080009f8fcfffa040205f6f7f9fbfa,
020104fefffcfffd0103fafd06000203fbff05fe09fd07fe0305050100fa01f5,
f503dd0208f3f0f21bfa12fcedfcfb13ff04feff03000402ff0207fd06030303,
f706f70308f5fafb0800f501ecfce90710ee100aedfd0f18f3fffdfd0b00fcf3,
fd0c05fef509f603fe03ed0e090af3fe16f42101ebff0bfd06f5fe00fdf31b06,
000ff1fdf81f14f602fc0203fc080afffefdff00000a0903ff0f04fdf80c160c,
030701fdfb06fa00010b02fcfb080d0000f501ff020a0afd0205f902fa0afff5,
0608effaf0f80ff507fd0306000bf90708fe0108fe12000308fefd05020c0302,
0509f3eeedf806f40609fef5fefa18ee06070201fa0efffd090ef3f6e5fa17fb,
0003fbfefefd00fe00fcfdff01fc0601fff9010001feffff040701fffefb04ff,
fd02fe03040001030000faff00fc030301020300f7ff00020201010401020002,
f4f90308f9eff8fff8fd0010fafd08fc00ffff04fe03030000000102fd050003,
f10ff40d00ee02fbed03fb0df5fdfdfcf6060108fffb09faf410fa0301f3fc01,
08f9030702fefafdf606f400fafe0602fd05f905fefd00f8090404fffefd0802,
0501fa02fdf500fa07fdff02fffe0000fe00fc02fef901fc03fc0301fbf9fdfb,
08020504fbee00010800fdfff9f004fa05fe0304020104ff0601fd0801f2fefc,
fe0a08fcfffc020fff07fd0d0004faf4f60a0300fafa0301ff0102f5fbfbf008,
fff2f8fc06fff4f7ff04040902fdfd05ff0bfc070305f8f7fa00fcf70302f9f7,
fdfffbf5fffff901f602fbf701010efe03fd110d070120fc000501070405fa03,
f908fd0cfd010bfefafcfbfafffbf203f400f1f6fa02fd03f408ff0904021703,
fafdfcef12f8eefff9f10116f112fdfffafdf90103fbf501fcfdfb0101fffcfe,
fdeffcf005eaf80001f2fa16091002fd020dfa02e10beef9ffff02fafcf8fa00,
0407fc020202ef0300f9fa0004fc06fd0a0b0210f514f6f9022df5f6f6f8f004,
fff9fb010503e8fc0201fa01fd02f500010601050401f8040410fe06fa00ee0b,
fe030006ff00f504fef9fe000001f6ff00fe0102000301030004fbfbff02f200,
000403edfbfdf80e040103080400fd0004f50c00f803fd02fdf804fb02070402,
0303fdf2f4edf00e0700fefaf7f7fd0a05fc050efafff907fd00fbefec00ed0f,
01010202fe07ff01040101ffff05000100fdf3fd00fdfd0201fd0709f700ef0d,
0400fe00fffbf7fcfd0304fe01ff04ffffff020004f8020301fcf4fe00fdfcfe,
090be407ebf9091407fef8000608fef40003ff0200f9fdfdff03faff01fafdfc,
0601f7030202f0f90c12d2000bf8f60d0dfbf8fe040df2f5fa02fb0a06070b03,
0005fa01ff010201fbf4fbf80105f3fffefeebf60806f60401fa08fffa0afaf6,
0003fefbeffff6010503fe00ff060402ff080201fdfaf605030c0001f400f802,
090d0206f300f8060a0e03fcec01f905090606fafd020602050600fef5f9f202,
ff020e000b03fbfdf3fcf106f9010404fb01fff905fef3fbf6fe050306ff01fe,
0afefbffff0400060901020100040004f502fa00fff6060302fbf6ff0700ff01,
04f7f30e0200fbfbfc01eb0000f8fa00f90808f7ffef06fe020404fdfdfd0200,
fa07faff01fefcfe1201f8060101fd0306faee06fdff0109f50cf5fa01f7fffb,
07f9f90000f4f30ef40c0700feff010610fcfc03fd02f4040afcf606fb01fa09,
0ef9fd0200f6f6010002fd0103ef0512ef00fef9040afefe0e04030503ffff02,
fe03fff90109fcfd080201030005010ef9050afdfc050005ef02f8fafcfef7f0,
f9fc0a0dfffdfbf9fbff0c0203fe0200fc0502ff0401fcfdf709020a0303f405,
fefe0104ff01fb09fefffe0afc07f7020004fffd00fdfd05f60106040106fcfe,
02fef90afbf4fb0cfbf6fcf601fd0afefcfffefd0302fefffeff00f307060704,
0cfcff15faf8fb1706fe020ff9feff1ffdfdfc040306fe020cf2f91dfe01f909,
fe0104e7fc0202f9020104dff70106f7fb0003f7f8fefd0a00ff0701fd060406,
020003f9fe02fe06050506deff0003eb05fb03d7fb0102ea03fe06fb00010005,
f4f1d1fcf7030807f7f7eefffbff02fe000203f8fffffc08ff0300f401010001,
f803e202fbfa0401f1e6ca01f9fb0707f8fbf003fb05000efcfaed0100fa0601,
fc01fdfd000501fe02fcf20301fd02fcfef7e502fe00000608fefa04ff020108,
fb0001020001f2040400ffff06030a00f9ff06ff00f8fb01f70203fdfffff207,
f602020103000304f30704fe020af808fe030702010600fff803ff0100fdfc02,
fe1ae0fd07150203faeb1613fdfafffdf708fdfc04110305fc14e9fe030e0203,
03f60405f700f8010709efff030afe01fbed0dfdfef00101fd04fe02fa0bfbfd,
03f9f704fafbf40a0bfcf1ff0804fc010a17f8f8111f110604fb06f500f50100,
030603fe060100fdfbff0500f6f6f806fefbfd02f8f2f5040506f0000a0409f7,
f7fc0cfff903f2fffc02010700fc0704fdfb0505f7fdf50202fc0204fcf9f504,
0107fef6fb03fafff0f5090ff8f80dfb08f80308ff04fefef606fcfa0200fd00,
02fd0106fb06fc00f7000303f903fdfb04f8faf706ee0c0307f40811fb0af804,
f501f3fd0307fe09fb00f8fe0008ff0601fef901fd03ff01fcfef901ff0101fd,
f30105ff01040004f60606fffffe0002f802fd0002030002f800fd01ff04ffff,
0008fafefc08ef0402fe0d10ff0307fe07080204040302ff060a0602fb04f7fe,
f10deffc06f6f809f80cedf9fc01f103000a030dfefd0803fd08eb01fcf0ea02,
fc01fefdfa0000f900fffa08040302fcf500020008000503fe0f08fc0a030c00,
fb00fcfeffff0205fafff9fef700f703fbfffb011302f728f7fdfefe0501ff03,
f7f7fddfe21ef00605f60af8fd040205fafffd00fffffe04f902fd01fc000009,
fbf50606f410fc07f1f0fde4d01de1fcffea0200fc07fc06fbfafbf8f416fc08,
03fefcfdfbfaf9f5f8fe0506fd130805f7fbfc03eafffd03fef8f31007fc0804,
fd07f8ee0000ffe20d03fafdff0500020306faf5010602f8fa02f8f2fdfdfee7,
0207fafb050507fff508f6f5040405e80408fa01070505fd0705f9f303030100,
f508fdfc01f9fd010301fafb0afefb020109fcfb0802f103fd0704fa06fffc06,
03fb02f6f6f7f5f7fe03fbf802fdfbfff900fffb06f9fbfff40a03f600f6f5fe,
00fc05fa0601ff04fefb02fe0dff0104fb0000fe09fdfe02fafe06f6fbfefbfa,
05fbfb05fa02fe0002fffcfefa03000202fefefffe060000fffa02060403fffd,
0211e8fa0003f7fb0203fcfffd0005edfcfaff0ef9ff02fe00fdfa0ef602fefd,
faf615070404f8fc120df20bfc0af0fc0814f502f90606f7faf70f08fffdf70c,
fa000309f00303fff60108fc0502fdfa09fcf50b0301f3030403040bfb04fafd,
fe0100f80802fbfe01060105e800040201ffff041301fd0200fffffd0202fbff,
fdfeff0005fffe00fe00010009fefffe01010604fcfe020201fffd0014fffdfe,
fc00040303fd03fbfa02fd060002020000030003fe0605fdfd00060202020404,
fefffdff0002fffdfd01fd05050000fefe05040500fc06fffb04fefffa0203f6,
f9f6050202fffbfb00f301fd0a02020108f8fcff0100fc04fe0305fe070704f9,
fefa04fefffdff0104f300f7f9fe030502f30bef02f80e06fff1fffbf9fb0702,
fe09060a03070202fcfa06070105faf9fdfe02f301fb000702fb00f203fd0406,
080404040303fd04f70deff70c0403eef9fffb080803fc02fe00fb04ff04fb02,
ff00f309f7fef70202fc06fafffb02fd01fefbeff7fefdeb03ff03fafafdfc07,
07f5fafe0bfef00602fbfc04f901f2fff6000404f602f606fdfaf80202faf707,
fd04f903fafff00402f7fef9fff6ef04fbfc02feeefef4fefcfa04050103ef04,
f30002f601fdfd0af6fd000800040304f4ff000d080306fff502030409fe0508,
fe010103f7f3f904ff01fd0bf5fdfe02f9fb03fa0201ff0cebfcfff505fdf90c,
0001fe0bfefcfe000301fe08fdfa01ff06040009fdfa01ff0105000903fbff08,
06f801faff0702feffffff040102fffc03fcfd0102fffbfd0400fc01fcfefcfe,
01fd0205f50806fffb000009feffedf3ffff06feff0904fe04fd07fffd0b0300,
fd08fc0c04fe00fcfffc020bfa05100604f30005f603edf70309fd0906f71300,
fefc01040e09f908fb06fc020400fcfaf1040004060208fe08fc030bf903f8fe,
02e101fe01fb070102f700090d05fe0400ef010a030306fd02eb00fa090003ff,
fff501030000fdfdffeffef600fe020101f5020307020103fce8010a000202fe,
03fc04fd03fdfe01fc0e010d0705fa070005020803060003fffbff0704fb0404,
fffc03ff02fb09fdfb0304ffff02fffc030900020000010208fa03fef2fd07ff,
00ff01ff05fcfef9f6000d0e01f9fefb03fa040100fef9f901f9020101f80201,
fc02030104f405f801030400fdfb00fdf800ff07fdf4f9f7fdff040202fbfffc,
ff02fe0dff0edb0cf900fc030105f30101fb04fefaf803f8f9f902fa01f1fef0,
fd04fcfffafff2fdfdfdfc06f7fcf307fb08fb000301f4fff605fdfe0106fb05,
0700f805fe0a01fffc0201fffcfcfcf8f2fe0305f8e92cf6f50700fe02f906f9,
fdfdff1a05fd06000202fb020000fafe06fcfaff0506030601fbf80204050203,
08fdfefd0402000000fdfd0802fc06fd09fb02000100ff0004fafe0507030100,
ff03ea02fefe02faff07f303fe02fc05fd02ee0ffc01f808fe02ef07f9fbf801,
fbfdddef04fe07f8fdfdf1f601fefbfdff02e509fe05fcfb02fdd2040102fa02,
ff00f10401fefcfffcfee802fc00fefdfc01ee01f900fcfffdfcf004030301ff,
080323ff0dff020005fe00fb0000fc0002fdf3fa02020200fffef1fcf9fffcff,
05eefbff15f404fe0a01fd000afd040806042efb01ff010111fd39000dfe0105,
fa08fbfff3efede6fcfaed070beeee0009fbf2061cfb0e16ec01010bf8f2e4f6,
fef9040102fe00ff000200ff00ff05fef5fff6fdfdf7f0f003f9f7fc070008ff,
fffe00ff0401fd0321f6fefd03fcfb03feff03fe0201000303fc00000200ff01,
f9ffff01000300000203fa00ff0300020b02ff0001fe0002ec02ffff02030302,
fb01ff0402fafc030ef3f9fe00fa070411f8f8fe01fefeff05fcfefd06fafe00,
0201000201fdfb030600fd0005fffefcfff8fafcfc01fe01f5fd02fe03fff803,
fefdff03050404ff0aef02fa0401ff0203f700f707fe040204fcfb09fe040100,
0304fe020200f6fef30502ff0302f9f9f2fafc01f902fbf7f6ff0205fffaf6f7,
ff04e7f909fc0a0a01fdfcfe070104050203faff0302f4fd03fffa000209fbfa,
ff0301fffafe04ff05f3fcf4fbfa030b02ff09fe010afafffbf6f5fc03fa0701,
00edf6fe01fc0201fd040603fcfefaff03ec15fbf7fde010fbfd1106fbfff6ff,
fb0df004fd03fe0702fcf503fc02fb0301f1f50107fe0103fbfaeafc02fe0205,
01fef8fb05fc00fffc03f3050000fd0101f50002ff03ff0c02fef5fdfdfcfa08,
08fcf700030305faf60302f804040201fc0a08f004050102ff0200f9f9fe0600,
fff40511ff0402fc01fe00fe0205ff030709f7fa02fe06fa1605eb05050d08f8,
fdfe08f9f900fbfffbfd09fbfbfeff00fcfe08fafe03000307fdfc00fcff0207,
0200f6fc06ff03f9fffcfefcfb00fc00fa00fdfcfffffcfdfd0003fdff00fc04,
fcf1f00402140dee03fcef05051a1508fefef60202fc0404f9ffee0204ff0301,
050e05fdfaf9fb03fdf201fc01f5ebe9f8edf60104180c000a0010fef8dcf8f6,
0304fcf602fefdfc0109fd01fdf906fcfcfa0400fefbf9fff8f702fe0309fbfb,
01ff02000dfffe0200fefff114fbfefdfaff02010b0202040600000014ff0100,
fcfe00ff060003020301fffe0600020309fe00fe0f010200fa01010502000103,
0704fff82500fe01fe02fb130202fe05fc01fc0dfdfffffa0505f80b0bfd01ff,
000102e20f05fcfdfc0103dd120600040203fc051c020206fd0500fa1dfb00f7,
fafafd00fef404fbf9f7fa10fc010e04f9f4fd00000106f70300fff3150102ff,
14fc07f80202fd03fff703fc03f8fdfcf6f600fefd010204fbf800fbfcfaf8fd,
f4051307fe08fff3fd01fff5fdfc02fd0ef607f90306fd0210fd00fd05000208,
01fdfbfc08fc00fb0a0ce910fff4f3f30806f9fff9fefbf300f804faff01fd02,
fafb0000030001f907fd08fe03030afe0afef1f9040000f9070300fdfc0306f8,
ecf8fef706fe0007f0fffffbfc0004ff030500ff01f40000f4fcfffbfbf9fa02,
03f5ff02010702fff4f5fefbfdfffa06ff03fa05fff804f9fbfd02fb00fcff09,
0201040a0400030503fc040504fcfbff03f90805fcfbf7fd09000505fcfef603,
010e030402010dffff010306040306fe06050106fafdf8fd0a07f911fcf9fcfc,
fa00fdff03fdfefdf9feff0003fcfffffbfcfe0202fcfffd00050603f90604fc,
00fb01fefc04fffefe02feff00090000fc0003fdfa060102fcfb01fffdfe0202,
1206eafaf5f6fbfd0505f8fc0604fcfb04f9ff03f90afbfb04f8fbfcfd09fdfc,
f3f50904ff0c09fafe05f7fa08ebf90e010af6fa03f2faf800fc010305f8010a,
030aff00fe0304fffafd0a05ff0807f1fdfc010003000504ff00fc0807fd0207,
02fd0006fd0301fffffffd02ff0204fefffc030302ff000502fd0003fc02ff03,
ff020301ff01010300fd00040001ff030200fe03fefefdfdff00010100030002,
05ff0305fdfdfdfa020302000100030802030600fa040504010004fffb060200,
00020202000102f901030302020203f80003fe04fdff010003ff0204f1fdfcf9,
0c0800faf6080cff0917f9fbf60819fb0110f90101050ffffffefa05ffff01fa,
fefd00fefa020906030601fbf9fa0e01fd12ffff00fd1003fb0ffeffffff0c00,
010df003fc030efd0304ff05060200fcf605fffd00060404fa0c00fe01010d09,
fff9fc0301ff0200fb04f9fff8f508f5050005fffbfefcfb06feff0406010009,
fcff01060504fbfffdfc0304fffcfdf503f607fff8f9f8fc02f6fffdfb02f9f9,
fa06fcf8f7fd02f8fd010100ff0000f9050100000009fc04fa01ff02fd03fe01,
fb0dfa0202fd0005f905fbfafe0202f6ff020303030606f5fe07ff00ff010204,
fef402ff00ff0700ff070e05fe01070408000c02f8000f0607040600ff060704,
fa08f2f6fffef3fffcff04f703f9fc03ff0005fe00f90ffafcec0dfbf6011803,
0103fe02fef9ee010102fe01fff9ed01ff01020201fbf4fefefceffe04faff01,
0301fc01fe00fafdfe02fd000205ec00fb03f9000000e303f8fffcfefffdecfe,
fc0cf9f9f9fff402faf8f9f90fff04010409fd010307fefdff04fa030106fcfc,
0608fe0bf803ff040019070cf0fdf10c01e9030208fcfc00020a00f9ed05fd05,
ff00fa00fa0d050105f1ff020706000400170009f200f70a01ff060a02fcfe00,
ff02f3ff04090201fc00f302fd0208ff0002f9000601fafeff00f702fe130103,
00fdfd04010bfaffff00f802ff0600feff04f80101ff05ff01fefb000502fbfe,
0402f9fd08c20102feff0300faf7f701fcff0505fae0fe02000202fbfccd0102,
01f9f7fe03eb010307faf3fb04f9f9fdfafdfdfe03c000020001f70104980604,
fef80003fc0809feffeb0200fd040dfd02f104fdfb0409fd03f5f7fe00d505fe,
0204fb0c070001040bfd0301fa00fdfa07fafd04fcf8fdfc02fdfa05f8fa0201,
0709fef8f500e50302070403f609f9030303ff0608fb04040102000600fe0304,
02010904fb04f5000610f8ffec01ef0b0305fdfef504fa0204fc02fffe01f803,
f6fd0102ff01f2fbfc0000040400fe01fd10f3fdfbfb0efd0007fbf204fd0706,
fafc0305ff09dff8faff03ff02fbecfcf9fd0101fcfef8fbf7f9fffffa04e4f5,
fcfe00fffc03fbfe00ffff03fffff0f2f90803000305fffaf9fd03ff0101ecfd,
06fdf2020403070c1002eefafdf001f20600f7f8faf810d706fd0200fb0102ea,
010300040704f21a0604f0040404fc0ffffa030105f807030efbfa0207fe050c,
ffff01fdfefdfe04fc00f901fdfaf80900fffbfbf900ff0205f907000003fa05,
ffff0f0001010bfa01fc0403fffe0209fcfc0008fa010216fd00fa03fa02fd0f,
f004f40201040cfc00f9f6feff010afd040200fcff0409f801ff0afbff0306f9,
0df1ff03fd010302ec0d060302eef7fcfffcfafefc001209f919fe05fe08f40a,
fe0304230200fcf20bfdfbfefc03020101050800fd00fffc040401ff02060503,
fbff00f9000100fffe06011602fdfcf6010103f30001fe0bfd01000100010001,
020002f70105020301ff00ff00000002fe04050900fdfc00050103f60003030c,
010101ff02040308ff02ff1c03fffdecfc00fa1a03fcfef5fe00fd0c040202f9,
00ff02fbfe03010f0503fff900020313ff01fd13000000f9fc01fd0a010a01ff,
0001fdf7010602fd0bfefaf00100fef702fc00fa000000f80102fa0500040408,
f8fffc0602fefb00040307fb05f5f4f90800fefb05faf7fc0506fb010506f1fb,
f5fe0305fe08040dfe0305fffdf80005ff05080504fcfafffe0003080302040e,
02fe0907fffcfdfbf3fbfe1902060403fe06fd0804f80108fb010502fdfbff03,
00fafd05f5fa020209fb00f0fffdfd0205f7f1f0020206fcfffefbf403000005,
0701f7fff3fdfe04fdfaf9fef1fc0101fefd01fefafb02fd08fdfa01f8fffffe,
fcf90301f9f70306fe07fbfdf9fffe06f4fefcfdf904fd0afdf9fdfdf1fefeff,
0805f2fffd02fafd0706fefb05fc02ff1b0800f8fef903f4090002f9f8fb03f3,
ecfb00fdfffbff010207f8000700fc04060600fdfefffd031407f5fd000102ff,
f3ff040104000104eefc020103fcfb03f9ff030301fbf904f9fc06faf9fcfb03,
0000f6fdfc070902f500fefafd000301eafbfdfff7fc00f9f2fa0303fbfffafc,
02000003faf6fd050df40412f9f4f70b14040004feff03050906f9fcfc030400,
f802f50204080302e9fefeeb050705eefbf6f215fcf2020bf4ffebed010304ec,
01fcfe020d03e00c03010101f8fdfd06f106fef00a0604f2f800080b05fd0000,
00ffff0009ffe3f6f401fbfd1101e5f1f6ff01030200e2eafc01fa000500ddf0,
fefd040206fff7fe02fe030208ffeafef9feff0003fbedeffcfd030305ffeffd,
fefffa01feff04f3fd0200040303ea02f801fdfe0001f901fb02ff00f9fd1dfa,
0104fffef6fffdf7fdfefdfdfe01eafbf906f8000002ffeff9fff9fbf3041cdf,
fe030601fcfd04010502fef602fd0100fe0df6fc020406fffd01fc02f70106f8,
02f901fdf7fff80003fe01fb01fe050003fc07fdfcf5fbff0100f7fc00fd01ff,
13fffc08fffdf70b0607030a070901fefcfdf6030300ff03fcf8ff03fefeff01,
fc05f8080afffefe0602ebeef9f7f50cff0501fe06f80403fd04fa0e05ff08fd,
ff000d05fe0400fbfd03fe020501fa02eb06f5e0fc08fb05f208fef301fc0204,
fff4f7f6f9f301fcfefa02fbfbfd02fffcff01fffcf703f9f9f4fffffefb00f9,
f2ff0903fc050200f2f2fd00f7f906f8f6fa04fffbf904fcfcff00fafdf9fa01,
08f6f4fb0502000cf4fcff05f8fe0004fffbf909fefe04fe04fbfd0200fbfbfc,
05fdfcf9fd0bfef60afef8fefb08fe040502020201ff01fe05f9fafe0c04fb02,
0201fb02f4fcfc0900fdf805fcfb0201fef90105fcfdf9fc0606fcfdfa09fefc,
02fafd04fefff8fbfafdff0307fefefffafefe030dfc02fdfbf803fe09fff9ff,
c5f9240afdf8fefff4f7070cf9fdfcfb00fd050afbfffdfb00fd010701fefff9,
e5f80f0c00fcff06f8fceb0a05fef80e1f00e4f8fe01f70bf2f713fefdfd0001,
06fbf6fbfc06fb020d02f5fc03ffff061603f0f003fbfb050a03f70003fdfb02,
effa19e8130602f60d0302f40b05fd01f104050b0404fcfaf30107ed0404fef7,
fb04f8fdf9fe02faf30702020503fef4030bfd02010303f9ecfc0bfe100600f9,
0400060402fe01ff0100f80407fffe04f9020a000304fd01020008fffd01fffe,
0bfe0106fffe01fb06fe0705f9fe0202fa02f30103fffc020c0204fa01020002,
07fb01fefafc0301fffbfd0106ff01fefffe01f8ffff00fcfdfffb0305040000,
f70306fe01ff03fc00fbfd0b07fa0601f3fef9041ffc0bfffd0001f703ff0403,
00fdfefe010400fdfe03fffe0202fffc0102fdf6fefc0400fa05fffb13fd09fd,
f804ff020104fd00fb0009ff020c00fefa0000060304fdfb00fe06000300fefc,
05f907fe00f7fb01fa0704fc020401fffb05fdff0006fffefe04fe0401050002,
eaf6f5f5fc0112e506fd040306f9f203fdf0f9fefaf3fbfcecf3d7ed010901eb,
fffdf9f6fb0300f703f809f5f40f07ed0bf800050100f70aebff000cfffcfdf7,
0a01fef301fefd03fe0502010803e3fa010006010104d6fa09fdfef6f8ffe6fc,
f8ffff0f06032b09fa00020a03fd18020c0400020201f9000b0206fc00020b06,
01fbfb07fe03fefff901fb070600fef9fe01fe10fbfdfffcff00021905fe1604,
f3f8fc13fa0403eefdfafbfcfdff06f7f204fc02ff0301f2f9fdfc0bf40205f0,
0e03fe0710f9f507070bff000f000501f900fcfb04ff05f9ee04fa06050401f2,
0609fd020efef906070cff050700fb02f6fd01fcf604fdf7f7fe010d02faf9ff,
fbf7fc09fd08f3060cfefe0803feff05fff7fd05f7fefffdfdfa00fff20006fd,
17ddf210dd00160407f9f715f907fc09f805f7010810fbf7fbf3f905f20ffa03,
f7f5f1f40113fd03f9fbeffafc0f0a06040dfb020a02fa0508f3f10af60f12fc,
f4fefa0d0003e0ff0a06f9fc08061402fd04fdf4ff00fe05f503ff080203f000,
fefc03ebfc00f603fb02fcfb0204e6fd0ffcfeff00033700fef901f8f9fdf505,
fdfe04ff01f502faff000102fbfe06fc000004fffffd01fd040000fd01fa1504,
000305fc00f9f6000004000afcfa00020603050d0507030902f902060505ff01,
f8ff040101fc04f9fcfa02fdfafc0100fe0402fc02fdfa000401020205fefefd,
fd04010e01040502f0ff010ffa01f501fafb000afd000302fdfc00fafe01fbfd,
f4f80101fef404f302ff03fefc01000401fe0202feffff03010302fe00000000,
14ffedf602f9fff80af2f8ef04fefbfcf6fc090503fdfffa02f81bf808f2f703,
f9f6020301f809fbf6f30102f8f3fef8fc0200fa0bf808f30cfef6f10d01fbfd,
fd03fafcf6fc03f2fe0a0f07f90808fd0a0a0a02010a0b04ff090103fcfd0801,
f9fed6f907f8f1090005e60002fef80bfe000a04fefc05f6fcf701f8faf7fefb,
0618f6fd03fafa040918f4fffcfff502041cf702fa05ff010004e8fa05f8f808,
0225e6f7fefd0101011ef503fffafc01041ef100fb00f501ff20f1fefa000200,
06f9f304fcf70bf709fe0903f7fc000d0323ee02fdf8fd01071fe7f8fafbf306,
00f90b04fffb0d0804fd04f5f9f9fc06f70cf1f602f7faf5f803f1fc00fe02fe,
06fdeffbfef5f9050001fe0101fe0000f908f0ff05fafafbfa02effb0802fbfe,
00dad7f5f4060703fcf3dbfdfafffd0106eff9ebfa00f9fb04f2eaf401fdfb08,
12f90406fe04f90409e7ebfefd0afe07fffae903fa05fe0604e3f6f2f501fcf5,
0802e1f8fc070b0cfcf914f70002fcf70000f9f90002fb0303fdecf70102070d,
fe02f6fa030201fe03fdecfa0008060302f316f801fdf9f50205f3f80200fc04,
0001fcff0105fe0108f902030208fcfe01fffaffff03fbf901060cfc01fffffe,
020300fefc01fefa000005050201fcf505f60dfb07fef9f700fcfdf90101fef1,
07ff01010306fdfe0502fb0005030703020202fcfdfffbf9ffff06f9fcfdfefb,
fff90bfdfe00fdff04f706fe0102010101f809fe0602fffd0703fe05fffe0502,
fe0efb0b0607fd0105f9fe00fe03f9fd01f9fffbfd02fd0202fb01fe0002fa00,
3e01f2ef1203f3f9e9f80aff1601fc040109ee11f1fff80003ff120504ffedf7,
f90400000dfdeb02f80af0f2fb010003f00600fcfaf9f107fb03100dfc02f3f9,
07fdfcff01f8f2fe05fcff05f6fe14ef04ff000cfcfa37e703fb000505000de4,
f5fbfbfdfef9da08fe0304fe05fdea11fff9fcfdfaebfe00fdf7f906fbecfff5,
04fbfd070405fb0afd02fa070303ff0804fdff0b0500fd07f9f802fd00fee70a,
fffbfcff06050309fdfdfff9fa010500fafefbf7ff040a01fcfbfdfb00030606,
fe11f204f8e00df80613fafe02f109f6fefffefdfdfe0007f9fff9fd00050506,
071af401fff40bf9fe0302fefb02feeef7f208f80210fd08fe0ff601fafdfc0c,
04020202010af506fefd01010104f9fff6f507fc0105fc0bf5f905000208ff02,
f40411fbf6d301fefd060a01f5fbfdfffc070bfa00e6ff05f5060e00fceef3fe,
1afff0f90b0f060711fefdfb07fa02050e09ff00fe0303070d0905f302f10bf6,
ea000504fe0de9130b01f60004f118f60003fcfffffcf9fef20309020109f30c,
ff03fffd030301fef4fe0505fb0702051000f3f803f522ebfb03f801fefffdfc,
fb02fff80003fc03f400fafdf70004f2fd0100fdf700fefd0801f8f9fffb01fc,
0703fd010301fe00f600fa01020202fb0303f114f9f810ebfdfefb03f3fc02f5,
0000fb0000051006020101ff010307040301feffff03fd011306f60b050505f7,
ff00f403fd0012f1fa01f104ff0a18070102ef0001fd14f90203fc01fbfe09fe,
effb08f20504061900fffd030003fcfe0006fbff03ff02ff0305fcfe0203fe00,
f8faef0303f503caf9fafd040f07feea00f7fdf3fdfe02133ef6e1dff1eb13e2,
f6fe030204050205e300021afe080102f9fef9f900010e06fcf6fd0efbf5fbea,
fdfc010002f901ff0603f505f9f8f9ec0405eb06effbfde8fafaf505f8f701f4,
02030ff60201011aff0508fb0204ff0cfe020afdfdf4fafff9fd06ff03f4fc01,
f104f7f302fe01fdff01efee06fe07fb09fefae605fb06f501fd0ffcfd02030c,
02f9fbeefff6fa02f903f4f202030102fafff1f30102060404fbf7e9ff0003ff,
00fc080cf00a0dfe02f9fc0dfb0b0001f8fe00f605fffe09fcfdf9f604fdff06,
00fdfe0cf60c08f000ff030ffd03fe08f8fd02010005f504f9f60300f30a0aff,
effffcfcf3f5fff8010103010ffe0001fb03fffc0c03fa04000005f70500f901,
f92008e9e7f6f9f9fa01fefcfaedfcf8f9080301f802fafef00901f4e8f8f8f9,
020d01fdf8030bfdfd0d03f8f1fe02f6000203fd01fe01fbf51502fceefb0501,
0106ffff0b020605fe0302faf8fdfefe000301fdff00000102030002050105fc,
00fcf7fff4050403ff01fe0206000405fe00fdfaf5fcfef800020002f8000205,
00fbfe02fd01fb0207f9ff02fb09f80201fb04fdfb00fe07fffe05fff6fe0600,
fef9020300ff05020600fcfffc02f5fd0c06f9fdf7ff06fb02fa00fbfbff04ff,
05fa0300ff04ffff02fefefe05fffe030002fbfffeffffffff0bfbfdfbfd0c02,
0702f602f8fd06fc0009effbfb000aef0003f902fbfe04f6fffeff04f9020200,
fdf00bfdf401f8fd0104ffff020200fffefffffffdfe000001fdfc02fc0208ff,
0610ec14edf41003010cfa110101ff0000fef404ed02f2fefff8e904c7f5fee5,
070010f4f005fe0affff02ffff000307fcfb00fef90d06fe1200f209e8080501,
fa0204fff8fff80006eefdfa01060cfc01e2fe0103060ef408f00b0604fb06fb,
001901f7f9fdf905fb1602fc0101fa0603f80109fc0400fe01f7fe01f1ff0502,
010402fa0a030603fd01fcfd02070afdfc03fc020603fe010106030c0405f804,
fa02020004fffcfffc0801fdfeff02fffa0101ff000104fffe03feff01fdf7ff,
f9fcf0f6060f02f700f4f3fd05020101fa09fdff030608fff6ff00fd03040afa,
00f6f8f5040dfe03fbf0fdf1fe02f304fc1001fafaf8f008fb08f7f2fd07fdfa,
0c0e12fa0201ef00fcff05fc0000f9fff90b0602fffbfd02fd050a0302fb0002,
110b00f703e4f812080509f8fe01f2070ffb04fdfffbf203101505f706f6e704,
04fa160411001905070809f904ff0c090608fffb0204fe0708f212fdf6f80a06,
0402fffe0afee40203f0fefef10220020602fffd0702f903040204050700eb01,
010bfcf5fbfcf9020002fb01fbfee80607f5fdf6f0072000030ef9f7fffbee05,
02fd0000fefefaff02ff0303fb0aff0104fe03040003fcfe06fd01ff040410fe,
040500ff06fefffefb0107fffc08040000f60600f30004ff07fe0007fefa0100,
0003ff000002050202fffafb02ff03fd040504fe05ff0201010303ff0bf90601,
04f9fcfdfb070604fdf3f9fcfd0208fe02f90201f9000ffe00fff9ff03010101,
030e02fb0cf2f2f90100fe0301fc0203fffefd05fdff0404fe01ff0000000203,
f0fbfdeef4fde4fdfefc06f701fdf4f5030103090306f4030ff20de5e10ce609,
03fe0e0e0c060102fc08f6f9fafc04fe020a06fc0901f904fe000604f314f0fc,
f704030703fefdf9f1070a03fd07fffdfb010002ff0b0d15fefe09000200010a,
0606f3faff0601020603fb00fd04f900f204f505fe0400fcef01f5fd0207fffd,
09f90102ff03020503f301060307060b0aef06f900070a020efef6fafc0efc00,
08f801fa00fcfa0504fefc070403f20503fb010a0303f40905f402fdff02f7ff,
f7f9f8fffe02060501ff0100ff01f9ff09fffd060002f40703fc040500fff60e,
f608010000f90a0005fcff02fdf8f50008fb0005fcf3f9fbf9fafe0003040803,
f800fff2ed03f6fb09fd02fefefafc0304fc03fdfcf7fa020102fefffd00fc03,
eafce90de61403f7f9ff04ffe308fffcf4f6fc02f110f9fdedfaf402e717f7fa,
0102f8f900fc020afef7f6fef60401f9f9fffafaef02fdf5f702fa0eef0ef807,
0bf80107fc0803fefffd04fc06f90703fff70101010400f805fc04fefd0701fa,
fffc000201ff05fb08fc0901020200fff0f8faf501fcfd0cfdf20002ff0403f5,
0100fefefefbff02fd0104f9ff020c010400020401090100f6fffaf705fbf904,
03fffbfd060102fafb04fff801f901ff00fb01ec01fdfff8fefe07fc040000f9,
00f804feffff010001fcff02ff030703fe04040301fa01fbfdfefc0503fe01fd,
f5fd05ff02fe02fef9f3fdfc00faff00fafdfffb02ff020002fcfe0301010502,
08fffce0fffd0108fbfd03040302fcfbfefffe06020304ffff00fd020100fefb,
eefff6140bf9fa0106010ce509fd070e0702020502f3f1051dfff86b02e9ecf8,
ea0301f0050607fff003f6db0c0b0bf2fb0901f4090301fff5f900f70614070a,
f504ff0707fd04f40dff000afbff02ff0dfbf715fa09fd0a0505fa1004080200,
f9fe01e2fffbfff5f7fefde703fa05f7fcfc050c030403fcf7fe0504fe01fcf5,
0bf90afbfffd02ff09f906fffef901030afa04f600f00600fdff05f1040405ff,
faf506eb04fe0102fdf504f5010103fdfdf403fc06000102f9f604f205fa0203,
04ff0817f20800030102f90c00070108fdf205eeff0101fefef005f502fefb01,
0106f9fffb0503060102fe12fb09fd07f20103fe0301faf8fd0107fbf70bfbfc,
fcf9080a0e0906fcfffefa0603090401f703fafd070200fcf4fffef00702fef9,
fcfe00f5fe0df1eff4fc0d05060303f505fd0808fefd010100fa080afc0cf407,
0903fa06120708fe03f5f6fc0bfc04fc00f602fe07fe0000ff06f1f80b0407fd,
04fc0f1101fefb10fb00f5f401fffffffdfffafe03fd02fd04fe0a0ffffefb01,
ffffff01fc01fd02fdfc080801fe0109f0fdf5edfbf9fef900fefa0101000003,
f903ff00ff0102fdf60bfeff030300f8f801fefd0200fcfefc00f8f9fefd04f7,
02fffb0301fcfc01f3020105fcfffdfdfd07f90505030004f805fa0205000502,
05ff02fa01ff0103fefbfbfffdfbfd06fbfffe00070302ff0100fc0202fdfb02,
fd02ff04fa01fe0102fefe01f8fdfa04ff00f2fe0208010201020600fa01fe05,
fef3f501fff903f1ff00fefeff01ff01fc0000fafc02fc03ff0304fbfdfefefe,
f30edd06eb0cf606fa16ebf80814030ef303f7fcf9f4fbede7fdd301020b0c17,
ef01fdf004fd04ff0902ff00ecfef6f6f30bf2f1fffe0802fb030806fb0fff04,
f6fef8fefa0affff01fffa020806f9050100fb040405fd060202fd07ff09fd0d,
fff60bfa04f9030205fefafe07f807f2fdf7fffffd0600fdfefcf8fbfb0cfef7,
07fffa01fdff0a0300fff904f9020bfb00f90109fa01080302fa0efe02f908ff,
ff0102050005feff01f307fdfd00ff01fff9000006030a02fffefb00ff000600,
bdf8f0160dfcfdd307f2fef402fd07e6fafa08000402feff01fd0102070506ff,
fa01f1faf40c0700fa03f808fe0df30010f9ff0d0a03fffc0001eefdf803fefe,
00f108fb010305080ef8f90004fd09041709f301f904f60400fff508ff01fc01,
faf3f3eb000d06040cf0f8f90205fd0902f4f903fa020702f6edf7f6fd0c0d00,
fbf304fe04090307fef1faf2fc0e080702f2feff01000109f4f506fcfe01fc00,
07ed0d000602f80805fb0afc0206fc0706f704fffe01f4070cf60e030200f507,
06000f0209fb0200fef9040105fdfcf501000afaf7fffc0009f80f0202fffc06,
030a02fcff140901f90b04030c112101ff060407fb110b0901fd090203fc0102,
080711fffefbed0004080305fa07fe08e606190710101806f30a07f4fd04f9fd,
2100edf8fc01fc1413f6eef3f30204080e0aed04f9fdf50df20d0a07ee0101ff,
08fb15fd0901f602fa0312050800f5fd0c08dcf2ee040c16040203fd0302fd05,
0002030110fe010102071303fcfefb08ad0237191206fbf1f606130a080009eb,
fafffaf6e1fe01fc000200fedafe03010202ff0204ff0401010500040f000203,
020002fd1afe0001fbfe01fef3fefe01000204fbf7fd020100ff02ff0eff0001,
ff03010205ff04fb0e05f904020308051002fc01fe0108080c03fb0401000904,
f8f60606f7fef300f9f8050af9fdf705fd01feffff0500f9ff00040100fc08f7,
feff000104040604f7fe03f700070403f90303ff040605faf7fb0602fbfdf606,
00fe000300fb00fdfdfafef3fe07fcfb02fffef5ff05fb01fe0100f403fefefc,
1d0a0a0a1001f31905ff05070002fd0ffe000101010102fd0103ff0f00030204,
f1fe000204fdfcfb020e090403fb060c07fc0307fb0604060cfe00000406fc08,
0007010609f6fb00f1fdff000006f9f4f9ff07fefefd0dfbf5020809ff03feff,
f8fb0bf5fefa1800ee0509fdfff4f801fd090006fffcf4fbffff00fbf9f70dfc,
04090009030cf901fe000a0201000e0006070708fefbfb00f10709fe0204f8fc,
fd10f4010afbff0304fdfffdfb070ef7fd01f80502020a000203fc0105fa14fe,
fa00f8fd08fdf2fff4fef7fafffcf603fafef8fdfffc01fafe0efb060bfafa02,
f802101200011106fb0c1d2de904fb03ef050e15f6070300fdfbf8f701fef3ff,
fd00fef90f051401fdee0407fcf00707fa0e1324f500e601f8090010f6030cfa,
f4fdfc0afa040afbe1f903fdfb05fff400effbf408ff0a0f0cfd000a060ef105,
0c000207fc03fd040904fc100900070addf4f802fafefdfc0302fd08fa04fd02,
feed04050100f9ff07fff7030702fd07260ff70b15fefb111105f9000000fd05,
04f502050600060400f3010501f90202fcfa030101fdfbfefbfb0205ff00faff,
fef70301fffd02020501000409fc0502030cfefffffe01fe01020105ffff0302,
08f9f80003f8f107f9f3fb080204faf8fce903080200f8fefcec0106fefefafd,
060bf904fff410020707fb060afd080404feff0909fbf50602f7fb0803f9ef0e,
00fb09050505f4fc07fe10ff0003f7fcff010cfcfe04f6f9050bf5fcfcf80e05,
fffbf5fa0003fefc0103fbfd04fd06f705fe080005fd07ff0003fe0204fd04f6,
09fb1312fd150ed80e0201f70af70efb00fdf8f903fffffb01f5f8fd01fffcfa,
fa06ee080a02e4f6eefafc090900f1ce09f7fefefc040ef4f3feee100a1303ee,
00fcf9f706fe0afaff10fdff00fbfa07fa04f9f704f0f3f80004f500fffe0601,
f6ffdeed1cfaf4110203eefd18000004feffeff916fe04fffbf0efed12f40202,
fc03f9f60dfa03fdfc0bedf605f7f50903fdfbfd09f207fb000ae8f70f00fc06,
fe00f7fff6fef902fa00fff5ff00fa01f204f806fafef1f6f7fcf908fdfeeafc,
04fefcf601051104fafbf6fcf4010bff06fffdf801fefe0706fffd02fb0401ff,
ebf40cf6f300f6f3e5def6e5ddfcfdf8ebfa02feef0af1f00fffff00fefb1308,
f9ff05080bffff02fff2fffe03ecf5f4eed8cb05ebeff2e1fd01fe070803f7fa,
0206fff8fcf8f603040afaf9f4ee0c0405f60f0502fcfe0006e6f902fef7f8f9,
01f3fc05fc040ef7f3f0f509081cea06fb01f2ff010af916fdfc03fefefd00f9,
ff01fb02fe04ff0003fa0707f9f810fc02e7041009180de1e604fd06071df705,
f6f8ff07fefc01fdf5fa01fdfc0102ff02fcf4ff0102fe000103f9030002fe03,
f6fef9000105ff0119f7010201fffdfd03fc0201fefffe01fc02fd01ff050203,
07f8ef03050c0cfe06010bfc00f9f9fe06fe0e0cfeedf7f406fe0b01fcf3fff5,
f7fefcf8fd0c0304fbfafcfbfb0d010403fdf103030b09f901f9eb020a0c0c05,
1efaf7070102fefd5401da1806fffb022202fc0502fafe00f501fd01f8ff0005,
d9fb00fdff0401fcf7fb04fafefcff0200f202f700fc04fdeef402f8fe0405ff,
0000fe0bf6eb08d8fe07f400fefd13f8e00202fffefc00ffc5fd0ff2fffefbfa,
04ea05fe0b120303f7f20f0504feeffcfbfb01fdfafbfc04fde101fefd1aff01,
02f5f90208fb04fd0b0606ff060d000203f303f906060203ff0005fafb040705,
e5edf5fef7f20207faf9f803fdfd07fffbf5fa080802fb06f1f0f702fcfc10f6,
f4efff00fd01f2ffe8f5f7fffbf9f809f7f900ff04fbfcfdf6f2f908fdf1fa0b,
0b020d030009f5fafcfb07020206060905f701ff0706f00a08f805010703ea05,
03fe07fcf5080cfb050206fcfb030c0003fd0207050bff060e040502040cfdfc,
1a10f10214fd07ee0814d607ebe8f5e70b0df0fbf3eb05f2020107fbfd080c06,
0105ff1808f30b00000bfdee0a020bf3d40dffc7fcf2e5def805f8f9f7f906f8,
fefaf9fe0101f70403ff05fd0201030901f80018ff0414f7f112ecfa04fc11f2,
0001fd00fdfcfd0afaebfe03fde6faf3f6e503010809fd040002fe030002fc02,
fc03ffff0502fffc020bfbfffaf80909050500fdf2f010d9f1e209fdfaf903eb,
fe01f701f5fd0cfbf902f8ff01fd08f9f801ff01050202020003fe01e30004fd,
fe010104f9040204f7000306110403fcf60000041100fefd0000f90a0d020007,
0300f4f0f716fef4fefd11fcfe00050a01fd1003fcfd010900020efe0302ff05,
fd02ed04040500f40203fb000603fef60200faf8fa0903f00300f5f6fa0b01e7,
010705fb0501ffff02fa05fe0509fb0b06fe0501fb010708fc01f4070004fdfd,
fe02fd04fe02fa00fd01f601fcff01fcfffef603f703faf70700fe00010202fe,
1f02090cda130402fbfef00cf70a0bfc01fdff02000101fd00fcfe04fb02f6f8,
f7000feaedff0206050223f0eafd0e0ffd01fd06110509020e0402f3f6e6fd0e,
1a07fe02030bf805e702f7fcfb0efaf8f30000fafe00020600fdfffc06fff908,
26f5040ef916f6f01c07fd0bf911f4ec0cf80408ff0efe0810f9fa00fa16f8f9,
11ef0200fe03f2f81ff30500ff09f2f809fefe030313f5fb15f2ff05fb19f8f8,
01fe070101080507fe030bfc060200fe00fe18ff0309000101fc11f70504fe02,
ff0007010802fc0101feff020303fefbf70206fd0008fd0cfb040900080b0309,
fd06f4f7f8e5f6fffdf5f1f2fadef4fb00f70af9f3ff0008f4fc00fe0c05ff03,
030c0503fefdf20d02fcf10507fa03fdf31803effee4140c030503fafa03fa06,
0005f600f8f7030cf004e903f90003fb0cf2fe100bfb041303fa0603f8f5f90d,
08fffd0403fefd051306180af6e10402040803ede2e3fff0fd06fdfd00010104,
02fd02fffd02010209fbf40dfb0101041b04150ffee60506180311fc09ddef01,
0301f9fef9fcf8f9fefdfd01f7ff01fffefffe000202010502ff00feff00ff03,
0200ff0302000204fe05fcfffaff04fffb000301000303ff0102fc01ff000104,
030405f40905080307090309f301fd0d020a0007eafbfa1002080205f200fc10,
0bf0f8ef02fcf3f708f1fbfe0601f0f402ff06fe0805ffff030704f50c04ff05,
fe0900050dff00fe020efefd13fe00fe00050408060406fe07f8fbf2fffcf1fa,
fafe0000fbfdf501ff0405fef2fcf3fff9f701ff0c00eafdf6fa0103f504f8fc,
03faf3f9f811fce8f1ed01ef0c0103fefafd0101fcfcf000f6fa0102f9ffeafd,
fffe0a2004faf305fe0cff16e501e505ff05fcfafdf8f806fcfd03fefc00f7f7,
03fcfc0af8030bf503fa04040cfe0604fd14000af4ff000c0309fd03fb03fc03,
fde7f80fedf709f2fde6fc06f8020cf5fe03ff0df904ffeff5f9f60feff801f7,
fd03fd05fe03f6f5fd0bfb0cfe01fcef00fc0107ff030af3fef6010dfb0305f4,
ea09fb080c04fb04fe0b010603fb0704ff0d0c0cff04fe0bf110040b0604fc09,
ee02f2030402f9f6f405f80602fafffef20700060aff07fbeb0afc0f1007fb00,
f600ef06f001e90b05efdf0debfdee050804f70ff9f8fb08f502fd0307fffffa,
060c05fa0903f4040701f506faf9ea03fef7ea0ae3f8de0f0201f4040b02f608,
f40c00f3f6fff912f9fffff506f9f80afffe0cfe06fffd0709fc04f6ed02f602,
00fefe00f6fdecfdf5100304eb05ebfaf90c0dfa08f9fa00ff00fd01fdfbf408,
08fb0a000111f4fdfdfdfef5fb09fdfdf10af10cfd0afaecfd050304f6faf6ee,
03fa0602f755fcfd02fa02f8f9eb00ff01fe02ff020cf40003fc030000f8fafe,
fd030600010df701fd040100fcf00002000107fafd0103fdfe02000102ebf801,
fdfdfcfbff020107fe03ff00ff06f403fd0903020002ef00fe03050100fef502,
fcf9fa03020cff02fefdfafe030bfc0afef5fafd00eefbfc00f1f6fe03fbf2fb,
ff0104f802fbfa00fd0100fe0001fc0efb01fcfe0003000502fd0001ff08fa00,
000102020200fcf9fdfcfd0100fefefe00fef9020300fa04ff02fefb05000001,
fafbfefefc41010404f40601fe1ffffc0001fd0201fffdfafe02fd0400fff8f5,
fafbfffe02f2f10ff100fb07000fff01fd0200fffe0604feeefb06fe0605f103,
01fa0b0501ff05050c01fffdfffafb0cf60bfcfefb02fcf8fd08f8fafcfffef6,
02ecedf4fb02fdff00f60201f8000202fe07f90100fd050c01f6f70afff90305,
05f7fff901fa030a0aedf3f9fafcff02fdf7fdfefefafb0006fdf8fcfe0f080d,
fc02fc02f6fffefd00f9fefafdf7fffe0406050002f3fd0000ff0203f5f4fbfa,
fee7f700f9f9fe00fdfbfcfbfcfffd0302f3fefefcfd06f9fef9fe0200ff08fe,
f122001104f1e7f3e81be842f3e3d6faf411f503f9eded1303ebf802fafe05fa,
010007d2030907fcf606000103e4f5fadc27f83ffcdbeffef810fdf0fbf9010a,
ff0300fa04fafdf209fcfdfa02fafc04010200e7fffb04fdf506010706f61204,
07ff000703fa0604ff04fc04fff1fbff0708fe0501f1ed0405fcfffe07f600ff,
0300060aff03fe00f70201ff03fe0a01dcf4f801ffe20504f80301fd05ecfd0c,
0200faf501fdffeffffcf6fc02fdfef90101fa070002feff0001ff07fe00fb00,
0002ff0aff000006fdfffef800fefdf9fefc01000303fe03ff00fd02ff0100fd,
01fef70200f80204f803fffe05ff04fafa01fafbfe0502fcfb03fcfd020303fc,
07000c04f8eff70102fa0906faf4f70307fcfefd05f4fc0502f9fdfa04faff05,
fa03fdfd02080301f20100fefd04fc05020101010001000107010800f6fcf9ff,
f6fb0001fefdfe01f70602fe01010202fa01fa0300000202f802f901feff0000,
13fa0718f80afb0aff04f013010efe09fdff0102fcff0202f6fe02fc00000104,
f5fb02ee03fa07fc05ef0beb00fb03f4fb04060dfc09f5fcfdf6080a0106fcf3,
f60a02fc09040a0103fefe0303ff02fdfefffbf807fd03fefffc0202fbfcfefd,
f224f7e9f6fffdf3f014fbf8fd0303faf50a030705040003ef1cfaf5f7f7f501,
fc0c0405fbf102080416fdeefa02ff09ff12fefc03fc0408f406f80a08000600,
fd050c0004fbfffcfe0207fafcf9fcfafd0409fc0dfb0ef6f1040b0009f409f2,
05f0040ef2ecfa06fbfa0f06f5f9f5fd09fe0e06fdf7fc0105fe000800f70202,
f904fbfbfc03ef00f1f5fc16fa08f20ef7fefa0701ff09fd05f6060ff4f5fc06,
0c03060e010cf9f2fefff50b110804ffcf05051413f00df5f5010510f1ff02f3,
fd10f6f5040306fe03fefffa01ff00070ffafa0b060607f3e801f308ff04ffe4,
fd07060b0201fc04fffd07f903fa04f4fb00fde60af406f6f90504ff03fefdff,
fb010102ffffe5ff0008ff03020fff0203fa0518f1f6f908fbf0fa0903fffbf1,
f601fafef90008f9fdfffdfef7035607f9010203fe01f6fbfc03fd00fb00fefe,
fc0102ff0400fefbf7fffffcf9fffafcfa02fbfefe02e6fef6020105fd01f9f3,
0302ff00ea05fe02fefefffc0f01fe02fe0101fd0c000002000100fe0b01ff02,
040100fdf601fffd01020201fa00fffe00fefefc0700fd01ff00fe00ec0300ff,
0d07fdfffc00fafffa00f8f408070005fd0306050400f6fc03fefdfc1001fefe,
0210f809fe0101ffff1402fdf804fdf7f21af3f90a01fc01010dfe04fe02fbfe,
e8f7f7f7fe0300f000ff07f60302fffcfe0106f9fc0002fe0507f4fc06ff05fb,
04fc0b0701fefc0601fd0b0005ffff01fefc040003ffff00f3fefff6040000f2,
0e0bf0f909fefffe07fb0406fe06fb040dfc08080206fb0704fc01060001fbff,
f50a1807f5081008f70713010306fe07f0f9f107050401f50707f5fa000b0af4,
030bf8fa04ff06fce7060ffff9ff08f8f60701040cfb02fa0f0ee60800040218,
08fa0800050209030305fb0e02fefd0102ff0208fefffbfc06fb07fd020102fd,
fcfeffe8fef700f4010400f2fbf3f1f605fafc0604f9f600ff0903ff0209fefd,
fb02050d0501060304fc010afe04fefd05fefe04fafbf902fdf90800fffe0603,
fefc000df9f700f70507020908ff030206030c220506fff802ffff10fb02fc04,
02fd08010e090afe000004fa000200020801fdf6fafd000009030104fc0202fe,
020c020802070804fe0302030eff06f60307fcf50007ff0203fa020a040402fe,
0500fd0c0b06f403fe0ff9fc04080201f40efcfb03070405fb0807f4020d0202,
09faf9060108f20000f6fb01fd05f301fefd02fe0a07f6fe04fd01080a0af003,
fe06fff8f7fd02fdf50705f8f501fffdf60102fbf902fef90200fc02fe04f400,
00ff030406010100fefd00fc02fb00fdfefc00fc00fd03fffdf603ff09fc03ff,
0501010106fffdff03050301f90103ff01fc030600fd02ff02fa04041200fd05,
0c03fafe0607fe03fefcf6f4fdfc0a0105fbfef7ffffff0a01f9ff0101fd01fe,
fe0000fefefef905fe05f9090005fcf50807f30801f60103fdfbfb0400f8fe05,
15fdfd0003fa3efb11fffffbfef7120103020004fd06f6fefd05f6fb0103f511,
fdfffdf6fffff2fff5fefafefe01f7fdfdfbfff6ff03fe01150200fd04fc1cff,
01f5fafbf1fe06fef404fd070407edfff003f9100207d903f305fd060001f2fd,
fb08f70afd14df080a0cfa0405042305f804000108fa0613eaf7fc01fc0cf807,
faf7f1f5f0fe09fbf900f7f30200fcfa0106f6f506f50afefd06fc090202100f,
06fcf9ff00f2fbdffb0000ff01050103fb0100fcfeebfa0403fe02f7fff2f8fa,
00fd0005000605f901fefe0006fa0df3fafe02040111081dfafe0002fffd0704,
ff00000504f8070c0408011005ed05040303010702e7ff0102fd010ffe03000e,
020703fa05f4fe0500fcfa0605f2050c0403fd1100e6fd0f0404040700ec02ff,
04080c0a04fcfff9060203fe010402fdfd0000fd02f0fa01fd00020500e7f908,
0303050603f6fff70df80816fafff3f30c00080700020703070508fe04ff04f1,
ff03ff0400ff03fe07fa02fe01f203fd000007fc03fd04fa010906fc07fd0207,
fdfffbfffd03faf906fd00030103fcf60200ff00020a07fefa03f703fe0a0600,
fcff02fa02fefcf603fefef905fdf7f6fe00fbfd05f8f7fc09fffefc00fffcfd,
fdff0701fe0008020003fbff0001fe00fc050202ff03ff01fa0406030000ffff,
0900fdfb01fc0103030100fd00010102ff03fc00ff01fffd02fc0501ffff0801,
fafcf8fcfb0400fdf9f6fe04f907f500fef1fe03fe0304f7fd04fbfe05fffc02,
05f800fcf7fd08fffafef601fe04070a04010410f80fe409fbfcf8fef8050a01,
0aea0dee02fd07ff02ff0cf603fe040000fbfe04fd070906ff0305fffe0bf405,
f80f00ff02040200fd0e04ff03020200fe0a00fffcfd03f607fb160302fcfe00,
f7fff5030d110809fb0de30100010002fb12e60bfb01f901fe0ce900ff05fefd,
08f302fefffcf80cedf4f2060313e003fdfef708fd05fdfd0b02fcfa0b05050b,
01fbf6f8faf900010b00fff6fefb0615f6fff9fe07070304f5f3eff802fee8f8,
01f504f4080700fc010cfffffe02fffffe0cfa02080301010101f8fe0603fdfe,
0209fffd0007f9fd01ff0afa0204f8010312f304f8fefffd0103fd03050400fd,
05f8f3070000070600fbf6fd07010001fd0a07fa02fd0003060df1ff00fd04fd,
ff0502fe080bfe0501f7f50a0100ff08fefcee0305000504f70107fd0b02fa06,
090a10f50501fcfd02fd0001010404fefdf9fe06fd04040304fcfffffffa0509,
ff0106fcf5fd03f6fcfe1a00f6f903f702f708070007fc0104040503f805fdf3,
f7fdf40200fefffd03fff301f8fbff0005fbfe06fbffff0504fff804f7000103,
f201e8f8ff02f501fafff801f9fcfafdf801f1fd04ff02fcf3fbed0102fffbfb,
061009fe00fe01040409fffe01ff06090a0a0a070304ff06f803f1fb080600fd,
fa00fff12afdfdfef9fdfefafe0001020001fffb0bfe0300000002f80afc0103,
f80002f1e3030000fc0301f300fffd01feff00fbf50001fff80000f10efefffc,
fcfb0dfefc02fefd000307fafcedfbfff50a09fbfffb01fcfdfffef8f8000000,
f6020402010406fb00110a0603fffbfd1415f40404fefcf5f40f0b01010104fe,
fffcf9fd090321ed0104f8ff05fd0bf3fc0a0104fcf702fd0901fa06fe0209f4,
00fd00fcfb01f8ff05fdfcfbf60bf40e03fdfefbf801f90101fbf90000060bf3,
f6fe02f808f901f5fffd0800ff02f807ffff0401fc06f60901fe0500fc04f509,
ec11e3fbfe02fa09f70bfdfe02e4f2f5f60903fdf7ea00f6eb00fefa04061503,
0402fdfc070c0ff7ff12f8fffe0428fd070401fbf40008f9f100f7ff000bf6f4,
f604fb04fe0101fd0707fbfd0002010501fefb00fc01fe02f5f60302fd0306f9,
fefc02ff010301030d03fffe04fe040502fcfdfbffff090101f7f80100ff03ff,
0105fcf401fbfc02ff090104fc0604fb00ff00fe070204fbf6f9fefffcfe0a00,
fb01fa03010009f6000700f9fe05fc04f50b05fffe040202fb05fc02fbfe04fb,
01fee9fc040cfaf40204f704fe01fcfb0904fafe0000ff01fb05fc05030104fb,
fa05f5f702fdfdf9f70ce0e4fb01fafd020ceff901fafdf8f905fe02ff01fef5,
edfb05f6fc00f90707050503070504f60b0cfd00010311fc1008fe07fef907fa,
ed00110202fafe03f703090002f900fdf2fb08f8fefdf802e6fe0bf8faf5f203,
1507f1fdff0309fc170cf60c070820ff180cf00201050ef9faf80aff05fffffd,
01fb00fc0102fc00fcfdff030102ff05fcfc01020206ff01fef8fc00fe01fc02,
0104fffbfe000105020101fefc030004fffd0002ff04ff04fdfc01fdff03faff,
fefc000a08f20b01f1000ffdfaf10300f607040400f8eefa01fdfd000104fe05,
f204fc040302f3f9fafa010a05fd0ffbf60b0809f70305f7f70fff02ffffeefd,
0608f4fce80007fa0304fdfdf606fb06f5f60302f9fc04f8edff0409f404f8f4,
01fe0503fefbfd0301050202ff030204fffe0002fc00fdff05fefb01f4fe0501,
fcfd0b0ef4f6fff700fd03040901fc0d00ff08070a04ff1104ff030103010107,
010a0a080d03130e000511fefaff0dfb0aff0502ed08fafe03fdf408f50405f7,
0104ee04fd01fe04f702f9fff403100105fbfc01f9fcffff0313fc03ff00080f,
fe39fffbf704370bfcf600fffc01f5030018f600fdffed08010ff70102010703,
feda090101021dfbfc0502fcff091109ffcaff01fffad0f6fdfc02050201fefc,
01fe01fdf8fcf2060118f6fef9fdf001040ffefdf8030102ffed020401ffeef8,
0e0506fdf602eaf6020ffafcfdfff50a052cf7f7f801df080916fcfbf902f1f9,
fffa0406f802f912f6fefcff06fb01fd010ffafd02fffd030510fbfafffff3fb,
fffc0bfffc01f700f60c02fd05f61401f8fef9f8fcf70efafff90706f2fdf60b,
02fc00010405f80002f5000003f6f6fefafff8fcfef7fbecff01ff05f7f7f4f6,
03fb0cfe0001fc0701fe0205ff06fe01fcf707fc08fbfa0503fd08fd07fcff04,
0109f201f4ff02f50306ee03f2ff05eb0004fefdff010af204ff05fc02f6ff05,
02fb0400fa030a0100ff0701fefff5fd040002ff03f4f9010300feff00ebfe02,
01fe00ffff0a0b0003fa0afe010e0c0203feff05fdf9fa0103fe0502fde70400,
fb0204fdf900ff07fb0bff02f101ff1d010203fcfefdfd0603fe00010200fe02,
0301fbf805fffb06fafefefb0a05fa030604050306020024fffcfdf307fff403,
f6e1fef703071a03fff200f9050613fdfd03fbfd04fff901ff0700ff0dfcfc19,
fd01ff01fcfcf9fdf9fefb04080000fefb010404fdfcfffefdf5fcfd08050ffd,
08fe0300fefbff05000808ff01feed02ff11070107faeafffe0d070404fbe902,
f00902feef05fe17f719000efc02fe0afb04f5fb0508f407f7f5fff60a00f30d,
fdf807f909fbfdfbefecf405090203faf8fafb010a01fdfeeb150706f503f215,
f90afa02dcfaf009010001fe03fdfe02fe01fefcfe00f900fffc0101fbfef6f4,
fd02fffd05fe00f50206000206fdfd0803f9fefe140006f9fc010102fcfefe09,
02fcfbfbfcfdfafbfbf9f8fefc0201f8fffdfdf9030101f601fefdfffa00fef8,
00fffefc010006f404fe00ff03fdf40501fcf2f8fafbf602020000fbfb01fff1,
060f0403f9fdf602060604f90002ea00000109ff050202f901fefff8fd0002ff,
0a02fe05fafefc02091ffbfbedfcf701061001020004ef0107f9f80aff04f604,
f80c0400f5fdf504090b060204fefe03070b0103030409060709ff060cfff904,
fd07ff08f202f8ffff07fcfdf8030602fd070301f8fcf005fd0e0607f3f9e807,
04f200fd04070cfffee502f8ff0313ff03e902fc04040efd0102ff04f404fa01,
03fe03f3fdfe00ffffffff040101ff0afffeff01fe02ff06fffd0103ff030308,
04ff03f5feffff0103fe00fb0101fb030100ff020101fe0a04fdfff3fe03f9f9,
0000fb0202f9fc00f5ff020500fbfaff000404000106fafb01fd0001ff03fe04,
f5fe0300fe06fffef806fc00fdf6fffef2fd0801fffefdfcf7fa0201fe0ffffa,
fbf2f6fdfeeffe10fefb01fafffe0200f5ff04040001fbfefaf80400fe02f6fc,
00020401fd00fcfefa04fe01fe01f70100080302fefdfb03fefff6fd02fa0402,
f8fe07f603f1fd0511ff0904ff04f4f90a07fe090002f8f70d070004fefbf900,
13effd000df70f00fc0404f906eee802f4f9fff8ff26fffcf9e5f1f70a060209,
ee0002fcfef3ff01f6eaf6f906f40b0ff3fef9f406f7f4ff02fb09030508f6f1,
fd0102060002e9f702fffe03fd000102fbfffffffcfd00fb0102fbfa0301fcff,
ff01f8fc0005fe03fd010000fe01fb0102fffdfafdfe0a03fa0001fefd00faff,
ee0007fefb01fafefd030ff5f4fdfafcfd030af9fffd06fa000102fd000503ff,
000708f9fefb0204f3fe09020001fa02f5000a0af907f9f8000a0bfdfbf90600,
fc07fffef201faf9fb1105fbeefcfcfd00030afbfcfbfc06ef010c00ff0003fe,
f704fc04fb03fcfcf209fb11f6fff8dbff0f0801f5faf7f1f6ff02f8fafef700,
05070406f8fe0500f70af8fdfcfd00f8f803fb0301fd02f0fdfd00fd00fef7f5,
080307fefcfa06fe040706fdfb04030307fe0307fdfc010008080807fbf9f3fa,
f60301f8fffd10fef3fbfdfa03fb1207f5f8f7f904020e06070002fdfffb04ff,
02fefc02f903f805fbfdfe00fcfefb01fbfefefffc000901fdfbfffcff020f04,
03fcfdfe04ff04fd0001ffff0001fafdf6ff000103000afaffff020001fd0d04,
03f70005030601fd01f5fafafd0605f703f80103ff0700fdfbfd00010203ff00,
fbf2fd0d0408fb03f8f3f80c0009fefefaf1f3f40a0b0702f8f4fe00050400ff,
0507ebe6fcfd01020903f8f6ff040003fef605060000010204f0f701050afb0b,
fcfe050401fefdfbfcfd000502fefffdfb03fb04020304fc0605fcf5fb010303,
f7feeefa080f04fcf9ff02090801fdfa00fa0f0c0500fef9fefc090802ff04f4,
080205110104fc06ea01fb0305070af3f3fffdfefbf8fefa0701f3fcfd09fa0b,
f700f807050df802fc00f902f3fcf907fcfcff0400fbf8fdf102fc040c0c03f1,
0c06f604ff03fc02fb020301010103ff0600fc00fcfb01ff0707fe0402000401,
fffdfc02000000fe0205f900fffe01fced01fdfffe050000f9f3f3f802fbfbfe,
f7fc01fffa00fe02010bf202fa050401060af9f9010205fdfc000603fc03ff02,
f906f9fcfdfd03fcedfef800fc06fd01f5ff0005f4fcf200fc11f4f9010506fe,
0f03f70705010000020dfbff01080403f500f800040705fffbfbfb03fa05fffc,
0cfafe0808fe07fc1ffa020bfcf5fdf40506fa02fffb07f808ff0503fefe0202,
f6fe04fe03fd00f40703f9080801fffa14ff02fd010002f801fe0100fefd06f7,
000100f704ff00fc000001f9040604fff90005ff03ff02fafa0106f7070103ed,
0003fa03ff030003f7f8f006fbfcf80102f9ef0afd02ff04fb0201fc020302fb,
1606ee0000ff00050f02f7fa00fe01fe1705f3fefffe02050e03fcfe02fd0007,
0702fbfdfcfd05030d01f800fc0000000802fc0203fe08071005f40003fe0306,
f800fe03fd00fefcf200fafff60204fd070101feff00fe08ff000102f9fb0404,
02fe00000100ff04fd03fd02030102fefb0af709fc0702ff0000ff05fa010401,
fafeff0202fe0403fbfd00fdfd0000fd0201fefc05fe00fc0107f7fdff0302fd,
0003000103fb020301fefcfd06fd03fe0600fbfd0afefe0200020208fb000302,
0301040203030002fd00030006020005000101060f02000206fefb0309ffff02,
03050704030102040302050104fe00030203030001000002010301010202ff02,
03060101ffff000104040201010100010302010002ff01030303030001feff05,
0007fc07ff00fa05fc080304fdffff00010afc0705fefd040103fbfffc01ff04,
0206fe0404ff04ff04030605fffff9fd0105fe0601fefeff0202fa0f090501fd,
06ff0102f9000003f500fa02ff0103f70b08fc02010105010208fefffffefa00,
fcfe0400fcfe01fb05fc02fbf6fefc01f0fef200050105fcf905fd040a040601,
05fe0203fffe050305fa000403010002fffdfe02fdfffcfaff03fbfdfafc07fe,
fdfb020102010a06f9faff050c021503fafffc04040102040300ff0800ff04fe,
020502ff0f01fd0104020502f2fc0804fe0205fbf8f912fffefc05fbfcfa04f8,
fa0603fd0c010302fd010103110503020504ff090cfdff01fd0200fc110304fe,
020409fe05ff020100fffefd0c0303000401fd06070001fefe0202010b010601,
08fc0108fc0501ff02fd0503fc00fefe02fcff08fb0204fefffdfb02fc00fdfd,
fafc01fffffd00fd00fe08fefa0305fefcfc0507fcfcfafd01fa030ffb0205fe,
0004fbff0702fe010a02f91002010a02ff01f8fffbfdfdfbfbfffefcfd04fcfc,
f703fa0801fa0202fd01fa04fe01030003fdfa0cfd06ff04fc05f90402ff0600,
010bfc08e70606000201ff04ed010100fd00fc05fffffefefd02f80dfdfc1301,
fdfffc01e401fcfe010bfe03e100fffd0002fcfded01fd000204ff04ea010100,
fafcfb01fe00fd02ff0803ffee030200fe010301f200fb03fff8fffef8010001,
f702000b0204ef05f903fc040201fd02fb00fc000103fe01f70200070402f305,
fdfdff01fe000001fb00ff07fe02f801fc00fd0103010100fd00fd040201fd03,
fc000009fd08020c01fc00fe0507000cfefe0309010b0a0ffcfc0107fc060201,
ff020209ff04060a0202020404fe010301040105020b0415fd00010cf814071c,
fa010104fd0205fff704060dfd000010fbfd03fdf806ff02020300fdfe060208,
0004fdfe01ff00ff02fa001000ff000200fc041105090c080305030ffb050002,
ff050009fe070a09ff0002ffff010a08ff08ff000401fffffef90005fb00fe02,
0000fc09fe09ff090205f611ff0bf511fc010103fe0308070201020101060a02,
fbeffe0df3050403fff5fdfefef1f1ed05fbfb0204faece7fe0002fa030001f4,
05ebfffcea020406fff2fd06f500000000fafe0afbff040205e80206ea000701,
fdf6fe09f5010103ffecfeffee000006fcf8ff0a0004fe03fdf1fd04f2070105,
03fcfff905f702ff040101fe03faff0902fdfaf602fc020600fff5fb04ff03fb,
0000f9fc02f8fc01fefbfffafff7f8fb0503fafafef8fb0900fef7f601f4fd06,
f4000409ff02f8f519f1190207fffafbf604fd0300fefbfd0301fbfe00fc0000,
f802ff00ff03f9fffd02ff0102fdf5f8fdfbfffbff03f1fefd040103fe03f901,
0afaf7010406fbfe0d01f9000600ff03f901fa050304f6ff02eefeff0205f107,
07fefc010101fe000cfffdfd0105fa020606fffd020003fe09f9fcff0100fe04,
02fd05030103fe010cfc0003feff030211f9fd03fb0501ff05fefafdfffc02fc,
010307030003f904ff0107060205ff0201fdff010205fd01040307040504f907,
fc00fe0302020203050304030103fe030000030500040102fd03ff0203030100,
00fffe01f8fcfefe01fdfd0cfb04040303fbfb05fe0202050300fd02fefd0001,
fdfd0703fd00000000020a02fa03faff01fffdfffc0000010701f7fbf5fd03fe,
fb05fe0102020003f902fe01fd0406f8f902fbf701000701ff0008ff01fffbfe,
01fcfcfe0501fb03fc02ff0301ff010608f9f402fbf7f8f5fffaf3fc0808f8fd,
fe04fe02f8fcfb03fe0c0001fefafd01f8ff06020303ff030cfafefd00fafefc,
0302fefff7ff03fb040002fef5fcf8f90403ff01f9fcfcfe0004fe05fcfdfe00,
f4fe0301fffffdfe0303fefffeff08fa0501fafff2fd09f40306ff02f10900fb,
e9fd03020503ff04eaff060305fe01fbf0fe050100000303f0fd05fd0301fffb,
f804030203fe01fff60000fd0600fa00f30205020400fefee80206fa07020001,
fffffbff01090df6fffff7ff02070308fdfcf901000308f7fafcff010302faf9,
fd01fdffff04ff0100fcfb000107fffffafefd060109fc05faffff0504060000,
030002fc000204ff14fbf40704f605e5fdff01f906fd07f8fbfffd00fe0201ff,
f90005f8fdff020100fe02fd030102000307031502fafaf8fefe01ff04fb04fb,
0004fdecf4fffbfd010002edfc00fb02fdfc02fa000502050803fd1c01fcfbfb,
010302fff4fc0001ffff0404f5ff0a0501000200f5010400ff00fbecfa02fa00,
010403010102fbff0100fe11fafe0101fd010619fa020400feff010cfb02fb00,
0204f6050403f2050106fe010202fc020302ff010304fefe0306fc020203f301,
0302ff00ffff03010303f9030101fd040004ff0101ffff030201fd000303fd01,
fc01fffefefd0200fa09fefffcfb0600fb01fbfcff020afcfc07fbffff010302,
f10502f6fcfcfd06f40601fffbfeff06fb0400fcfbfa0400fcfffef9fefa0102,
fb0003fe020307070608f800f9fa07fa0001fbfff5ff04f7f40202fa00050103,
ff03fa08fffcf9fc040301fefe0205081202f5e102f602f40c01fbeff3fa00f2,
fe000203feff0afc07fe0304fcfc0cfe01fffd0301040103fafefd040405fcfd,
fefbfdff05fef8fef9fff9f60201f6fd01fdfa0300fdfc0101fb0806ffff08fb,
0301030101040001ff0305ff01040cf5f20004f903030af1fb0304fdfffe0bfc,
fb04fffaf2fe06f90103fdfbff0100ff0101fefefa0005020100fdfef8fb05fc,
fcff000007fffd00fd01fd00fcfcfefffd0500fc0302fd04fe01fe00fbfd0400,
f903f609fe03fffdfc00f301fe0203fafa03ef05000202fafe02fb0509fffd01,
fb00f0000204fefef600f004fd0300fbfb01f505020403fbf602e907fd0404fa,
04fd0300f4040005070afa0bf0fd0904faff020700ff00fb0000f7030602fdfc,
01f701fe0105fbfcfffdfe00fb04f9fdfbfd00fefa05010202f90000fd01fafb,
ff0101fefd010804ff04fffefdfd0502fcfbfd01ff04fdfcfcfc0200fb02fefd,
00feff03fdfc010000fc01feff00fffffc00fd0202fc0001ff02fc0100ff0701,
02ffff05fc0508ff04fefffffefe01fe04fc00fd0600fefdfdff050101000204,
04070402fb01070805010005ff02060401040302fc04fd0507030205fd010403,
01fe06030200ff0402000503fe020304020103050402ff0404020204fc000008,
fcf4fd02fffaf60201fefe02fffdfa0001f5fb0404f8f400fcfafa0304f90005,
fcf4010203fbf20003ff04050601f5fefdf102fe00f2f200f8e1fdfdfef1e5fe,
fefb02fa0002fcfd0705fcfcf60000fefdff01fdff0002fdfaf8030301fdfafd,
0103000002030804fdfefd03ff04fd010000f4fcfafdf9ed00fe00fbfafd00f7,
ffe9050204f5e607feebff0204f7eb0605fe0101fd0806010905fa0304ff0006,
fa0301fefffb090bf60ffcfbfdf31015f7fefbfc03f8020201e9040301f7eb04,
030400ff00000101f516f4fdfefc1405f424f6fefefb250a01100001000114fd,
08000004f704ff010603fffefa01020201fe030102ff05fe010006fefd030401,
07fe04020003ff0007fd0602fcffff0505fd0300fc01040504fe0104f902ff04,
020502fcfcfe030402fcfefe01fd020303000200fdfdfe070107060002fcfa04,
010306fe01fffd080005fefffffe0506020100fefffdf808040200fdfbfcff09,
fc01fe080304fe01faeefdf7f600fb05fefe04fa03f9f9030100020002fdfa01,
04fd02fbfffff30201fa04030202f505fe040300e5fff00000000100fc02f201,
00faf206fe08050202fbf401fe040600fffc0704fefef603fc05fff9ec010005,
ff03f1fffe0a02020206f504ff0906ff0202f80301020200fffded02fb0204fc,
0501020507fffc03020502fdfd0bfc020402fa010409fd000000fb030205fcff,
0201000303fffd030203040405fffe0201fd0203050200020700050501060003,
03fd040301fefe040402020101fe00040402fe010200fe0205fe010504feff01,
04fe07000001030706fa02ff0500020103ee03fe0c00060300f9040002ff0304,
02fffefb0501ff02fd03fd000500ffff06feff030205fe0407f8fefc0900fe05,
0102fe0404fb04ff06f901fef5020a0107f9fffcfcfe0303010404010302fe02,
00fb01fefffb05010306fcfe02030604ff070303ec01f406030108fff3ff0005,
0200ff0003040000040102fe0101fbfdfe030201050401ffffff01fbfefcf902,
0004fb07fefcf300fa03fffbfdfbeffefd06ff05ff01f2ff01000002000202fe,
00faf9fd02fd00020306feff04f8f4fc010bfcf7f801eff9fc0e02020c05f4fb,
fff5ee04fde40a0500f7fb0005f402fdfffaf00102fc040702f7f100fee90507,
ff00fbfe01fd03010201effefbf0070001fdf90002ff000105f9f10200f009fc,
fb06ff0001f80506ff01fcfe02f700fe0003fefa02f302030601000001fc0304,
0101010001000100fb05ff0301fdfc01fe020201fefefffbf303fcfc00f1fe01,
f70003fffe00fc05f9fdfe08fff1f3f9010209ff00f6fd0005010201ff0002ff,
ff0202020000fb01fa0407fd0103fa01f7070af501fcf9fdfd0506fd00fafa00,
0105011a0101090a01fe020c03020507fe0102000001f804fdfcff0002000301,
f90502060503fd04f7ff00000101fd03fe0007ff0203020401fe001805f80106,
000401ff03040400fe0301ee00fefffa01fefeed01fc02ff020002f1fd01fff9,
0404020d090507fa0104040207020500fd010301010204ff00010306070507fe,
ffff03ff000303ff00020104030108fcfe020300030006feff000403020505fc,
0101fffffaff0104fefffdfcfdfffe0200fcfc03fc03fd09fffd01fbfe010206,
0403000303fe04f9020001fe01fe00f902fcff02fefefdfe05fefd07fafcff09,
0200fff70002ff00fbff0308fd0f02ff01fe0100fdfbff040100fefe02fe07f6,
fbfffefbffff000006ff01f8ff0605fcf5ff0451fef2eefdf8fffb18fdf8ff05,
fa01fdfcfdfa0005ffff04fcfffefd0501fd02fbfd0904fff6ff0000fffffefc,
03ff040503fcfcfc0809ff0907fcfcfb010400020303fc08ff03fff9fffaffff,
fe020604fe010104f3fa0502040102f7f208000c0309fb01f20601ff03070102,
fd06ff090304fc04000005050404ff060102ff0bfbfb00050101000f00ffff04,
04ff06040003f90600ff00060101fe07ff02ff00ff03fb08fefe020800fcfe06,
fc01ef02070507ff02fefcfcfffb03010302f5fc04ff0403fe01ff02030a0303,
0207f50100fffe01ff03f6fe000103ffff03f7ff01ff0002fe02f0fc00fc00ff,
fb02000501fb05f80206f1fafa0d0502ff09f6fa070406fefd04feff03feff02,
fcfcfdfb06fcfffaf704f7fa060005f60803f9f3010002fcf9fffdfa04fe04f8,
fc04fefe02ff00ec00fffdfe00fefbeef501fd00050300fafd02faf703010101,
0003fe000700f9ddfe00fd0101fbfeda0203ff0009fbffdfff0401fb00fdfbf2,
ff04fe0204070402ff03fffffb0205ecfe010302fafcfee3fe02fd01080107e6,
0501fc04060402010204fa06020705030001fe020205fffd0404fa0105070406,
00010002030601010102ff050004000201000105ff04fe010202ff04050500ff,
f8fd01fd05fd05fff4fdfffeff03fcffeffcfffd01030002f5fcfe01ff060000,
02fb00fbfdfd00fefffc0001fefd00fdf50001f901fe0100eefefefa03fbff00,
feff040200fafffdfe010003fe00fd00fe05f9060805f70301fd04fc0202fdfe,
f80700fdff09fffd02000104fe00fbfded03f9f505f9ff00f1fef9fdf9fb0900,
04fe04fe030403ff05fffefffe0203fc01fd0502fc0100fffb0100030002fd00,
03fc02fa03fe020007fbff010701fcfdfd00020101fcfdfe02fd07fc01010100,
fd03fc00fefefdf207fe0104020605000cf80404fefd030402fbfc06f9fdfbff,
f208f5fef402e8eefd04fa0301ffffe8fd030000f6fff8f1f809f900f4fde4f1,
00000200ff0100f7fc0afc00ef02eff60205ff02f9fefff4fb05fd04fa03f8ec,
f7060af702ff06effb02040101fb0100fe0306ff01fd06fdfb030300fefa02f9,
050207fbf80009f2fc030c03f9fb06f601010106ffff07fbfc0a06f5030209f6,
06f7fdfb03fcf20a03f8fdf9fff9ea0403fcfafcfefff30b03040608f7fb02f7,
10f3faf9f8feee09fffa020002fdeb05ffeffef802fbe80201f801fcfdfef20b,
02fd03fcfcfb0606ff000001fdfe000205fd040202fbf60406f5fff9fffaec03,
fa01feff03000700fe05f8fcfcfc05fe0101fd0300fd0502fe00fdfd03fe0305,
07f703fd1502f7f4f9010201010103fdfefffd04ffff05000300fffe00fe0102,
040601fafe0100fbfbfc1e060403050305fd0204fc0101fdebf9f1fd0902fbee,
02ffff01f8fffa0003fefefdf900fe010501fffff8fffefb06050104fa00fcff,
fb0700f7060000fdfbfd02f0f9f8fbf7f70901f4f7fcfbff000502fbfefdfdfc,
f30affeafcfafff9f60000eefefbfe00f6fe00f5fbfcfa00fe0f0af1020201fd,
080701f0000204fff60602defffffdf6fe0905e1010104fafb0101f8fcfafffc,
000d03e80901fdfd0206ffe107fcf90a000bfdd60102f6f1050dfae40b00fa02,
050305fc06f80802e9fd1dfc02f60100fd0700e2000103fb0303f3e3fe06fdf3,
0719d20105fff90a0b1afe05eefe0f0fd8de2e0d05fe01f80e07f202fffcff05,
0afffdf5edfc07fffd0cf6030301fd01fd19f9f7ef091601f5e51400fc0201ff,
f40b05f60f0405fef50608110c000318f4fdfe05e90509f41005ecfbf200fff8,
0305ff00fe050901fff71a101805130404f30a0bfefc04faf30ee5e4f9030e09,
fffaff03f602240502fefd02fd01f502fa01fb01fe010301fafffe01ff000004,
fbf80107fafd1404f6f7fe06fd060a0006010304ff020805fdf30002f4fb2b02,
09f3f9f6f21a01f60cf0f501f41b0af400fdf9010013fcf4000501090500f202,
fdeffd04ef1800f400f9fcfaf50701fb03effa07e710fff901f3fb03f01404f7,
0001fd06ff01fa04010301fc03fffd07fefffef7fc0cfcf606f7fd0bf21103f3,
05feff02ff0303030003fd0602ff03060102000003fc010404ff01fdfc02fd08,
12ff1b1ff5fe03f3000102fbff0201030205ff020607060603fffff9ff05fe02,
fb021005f50b0300f80d0c03fdfcfe020109fd0205fc00ff0105150904f80000,
fdfffc0400ff0201fcfdf602000002fff8fef7fd07fd0401fc02fc02f9fefe02,
00fafd0cfe15030000ff03fc01fe03f4fefb0008fb0d07eefdfd0106fc1606fa,
00fa0205fe13f7f2fb01020403fffbfc03020306fe0a01f402f6fc11fc25faee,
fb08ff1609e7010511fd0304ece6ff0204fe010ef9f4ff0304fd02feff0efff9,
060e01040ae7f70710060415eceaf4020df1f500e6e6f80a0a000308f3e8f0fd,
04fc040ef900fb03fb01001102f7fd0200f8020ef9f3040a05f8fefef7e8ff02,
0cfef7fdf5040d07eaef03fff20bf2f0e813fe0611fd06fe0405fc07ff010903,
01fcf409fc10020110f2fe01f4ff0b10e1e50002fafe0402ea0b03080d000108,
0ef9220300ee3c0905ffec0501f7fd06f3ff1309fefcfa0ffbfc1004ff05f709,
00f8ff07f20cf2fa06e6ff080407f4090004fb0b0500f302fc0a11fefcfd1f03,
0df002fd04fc0202fd01f90404fe010007fff9ff09fe010604fb000506000106,
09f8f1ff0605fe0507f4fcfc0106fe0201fd030107fd00fe0ff2f9f606fe0307,
fffcf9f6fff302fbfdefedfafbedfef409f502fffbf703fd01fffb0305fffffc,
fdfeedf8f3f601f1f807fef9fffcfdf6eefde9fbf4f404e905f8f5fafced00f7,
fffb0103fe01fffafcfffd07fd00fe0007070afb01fe02fff6f9eff8f7f904f4,
00fc04fdfd00fefe03fa0200fb0304fdff0101fffcfe040000fcfffffbff0000,
fafa0c0602f4f1f901fd01fffdfe030103fe05fefdfd06ff020300fafefb0502,
fdfefefffcfdf6fefcffff06fcfbf7fefdfc00fbffff0000fb02f818fcf6f7f4,
0201f8ff010502ff0501f3fe00fe0a0606fbf805fc020805fafcfcf8fe0505fc,
04f9fa01f909f604fd0510f7ff01fd0302fe02e7fd01ff0202fdf7fafc030001,
0501fcf8fe02f908fefc0601fd06fcfffcfc10f5fdfdfa02fdf9f9effdfa0007,
05f40bfaf60a050406ee0bfdf609fc0505f00dfcf7120506010208f8fffbfd00,
07fb0d02fa01fd04f4f303fef406f9f9f8ef00fafd0df9fefaf00a08f008f9fe,
ff00f4fd02f30b030100fcfdf8f802f6100004fcff0700fd06fa03fdfd09fd02,
0003fe0522fbf7f70b05e7ff1ce70114040bfe00daf1050600f9fb0509f7f5f0,
fffefc07fafdfbf702fcf5031200fcee1106effc13f30418fe090101e1f10503,
f1e0fce8fcfbedf8fef30801fb1de400fbfcf305fc07fff401fdeefffc040efe,
fe05f1fa04fc0a07fd02fd07feff0912fefef507f40907f5fbeb02fff9fee5e7,
fd07f5fe0203f7fa0202fe05fe0304fffd04f9070008faff0106fe040205fdfd,
f90503fe000bfafffa080002010cfbfffc02fdff010900fafc06f3fcfd08f1ff,
fce506fc01fa02ff03e20d030bfe0bfc0ef1fcfe0605fb06fa000701000502fd,
fbe60e07fe010101fee7fefcfdfbfdfdf3dd070502f7060109e800040602fff9,
